const unsigned char sr2by1_1_tflite[] = {
  0x20, 0x00, 0x00, 0x00, 0x54, 0x46, 0x4c, 0x33, 0x00, 0x00, 0x00, 0x00,
  0x00, 0x00, 0x12, 0x00, 0x1c, 0x00, 0x18, 0x00, 0x14, 0x00, 0x10, 0x00,
  0x0c, 0x00, 0x08, 0x00, 0x00, 0x00, 0x04, 0x00, 0x12, 0x00, 0x00, 0x00,
  0x18, 0x00, 0x00, 0x00, 0x48, 0x00, 0x00, 0x00, 0x34, 0x1d, 0x00, 0x00,
  0x44, 0x1d, 0x00, 0x00, 0xb4, 0xa4, 0x00, 0x00, 0x03, 0x00, 0x00, 0x00,
  0x01, 0x00, 0x00, 0x00, 0x0c, 0x00, 0x00, 0x00, 0x08, 0x00, 0x0c, 0x00,
  0x08, 0x00, 0x04, 0x00, 0x08, 0x00, 0x00, 0x00, 0x91, 0x00, 0x00, 0x00,
  0x04, 0x00, 0x00, 0x00, 0x13, 0x00, 0x00, 0x00, 0x6d, 0x69, 0x6e, 0x5f,
  0x72, 0x75, 0x6e, 0x74, 0x69, 0x6d, 0x65, 0x5f, 0x76, 0x65, 0x72, 0x73,
  0x69, 0x6f, 0x6e, 0x00, 0x92, 0x00, 0x00, 0x00, 0xe8, 0x1c, 0x00, 0x00,
  0xe0, 0x1c, 0x00, 0x00, 0xa8, 0x1c, 0x00, 0x00, 0x68, 0x1c, 0x00, 0x00,
  0x20, 0x1c, 0x00, 0x00, 0xc8, 0x1b, 0x00, 0x00, 0x58, 0x1b, 0x00, 0x00,
  0xd0, 0x1a, 0x00, 0x00, 0xa0, 0x1a, 0x00, 0x00, 0x88, 0x1a, 0x00, 0x00,
  0x70, 0x1a, 0x00, 0x00, 0x4c, 0x1a, 0x00, 0x00, 0xd8, 0x19, 0x00, 0x00,
  0x64, 0x19, 0x00, 0x00, 0x28, 0x18, 0x00, 0x00, 0xcc, 0x17, 0x00, 0x00,
  0x70, 0x17, 0x00, 0x00, 0x7c, 0x16, 0x00, 0x00, 0x08, 0x16, 0x00, 0x00,
  0x58, 0x15, 0x00, 0x00, 0xe4, 0x14, 0x00, 0x00, 0xa8, 0x13, 0x00, 0x00,
  0x4c, 0x13, 0x00, 0x00, 0xf0, 0x12, 0x00, 0x00, 0x2c, 0x12, 0x00, 0x00,
  0xe0, 0x11, 0x00, 0x00, 0x94, 0x11, 0x00, 0x00, 0xf4, 0x10, 0x00, 0x00,
  0x98, 0x10, 0x00, 0x00, 0x10, 0x10, 0x00, 0x00, 0xb4, 0x0f, 0x00, 0x00,
  0xf0, 0x0e, 0x00, 0x00, 0xa4, 0x0e, 0x00, 0x00, 0x58, 0x0e, 0x00, 0x00,
  0xdc, 0x0d, 0x00, 0x00, 0x9c, 0x0d, 0x00, 0x00, 0x5c, 0x0d, 0x00, 0x00,
  0xf8, 0x0c, 0x00, 0x00, 0xac, 0x0c, 0x00, 0x00, 0x3c, 0x0c, 0x00, 0x00,
  0xf0, 0x0b, 0x00, 0x00, 0x74, 0x0b, 0x00, 0x00, 0x34, 0x0b, 0x00, 0x00,
  0xf4, 0x0a, 0x00, 0x00, 0xa4, 0x0a, 0x00, 0x00, 0x70, 0x0a, 0x00, 0x00,
  0x3c, 0x0a, 0x00, 0x00, 0xf8, 0x09, 0x00, 0x00, 0xb8, 0x09, 0x00, 0x00,
  0x60, 0x09, 0x00, 0x00, 0x20, 0x09, 0x00, 0x00, 0xd0, 0x08, 0x00, 0x00,
  0x9c, 0x08, 0x00, 0x00, 0x68, 0x08, 0x00, 0x00, 0x34, 0x08, 0x00, 0x00,
  0x08, 0x08, 0x00, 0x00, 0xdc, 0x07, 0x00, 0x00, 0xb0, 0x07, 0x00, 0x00,
  0x7c, 0x07, 0x00, 0x00, 0x34, 0x07, 0x00, 0x00, 0x00, 0x07, 0x00, 0x00,
  0xcc, 0x06, 0x00, 0x00, 0xa0, 0x06, 0x00, 0x00, 0x74, 0x06, 0x00, 0x00,
  0x48, 0x06, 0x00, 0x00, 0x1c, 0x06, 0x00, 0x00, 0xf0, 0x05, 0x00, 0x00,
  0xc4, 0x05, 0x00, 0x00, 0x90, 0x05, 0x00, 0x00, 0x58, 0x05, 0x00, 0x00,
  0x24, 0x05, 0x00, 0x00, 0x0c, 0x05, 0x00, 0x00, 0xf4, 0x04, 0x00, 0x00,
  0x44, 0x04, 0x00, 0x00, 0xbc, 0x03, 0x00, 0x00, 0x4c, 0x03, 0x00, 0x00,
  0xf4, 0x02, 0x00, 0x00, 0xac, 0x02, 0x00, 0x00, 0x74, 0x02, 0x00, 0x00,
  0x3c, 0x02, 0x00, 0x00, 0x24, 0x02, 0x00, 0x00, 0x1c, 0x02, 0x00, 0x00,
  0x14, 0x02, 0x00, 0x00, 0x0c, 0x02, 0x00, 0x00, 0x04, 0x02, 0x00, 0x00,
  0xfc, 0x01, 0x00, 0x00, 0xf4, 0x01, 0x00, 0x00, 0xec, 0x01, 0x00, 0x00,
  0xe4, 0x01, 0x00, 0x00, 0xdc, 0x01, 0x00, 0x00, 0xd4, 0x01, 0x00, 0x00,
  0xcc, 0x01, 0x00, 0x00, 0xc4, 0x01, 0x00, 0x00, 0xbc, 0x01, 0x00, 0x00,
  0xb4, 0x01, 0x00, 0x00, 0xac, 0x01, 0x00, 0x00, 0xa4, 0x01, 0x00, 0x00,
  0x9c, 0x01, 0x00, 0x00, 0x94, 0x01, 0x00, 0x00, 0x8c, 0x01, 0x00, 0x00,
  0x84, 0x01, 0x00, 0x00, 0x7c, 0x01, 0x00, 0x00, 0x74, 0x01, 0x00, 0x00,
  0x6c, 0x01, 0x00, 0x00, 0x64, 0x01, 0x00, 0x00, 0x5c, 0x01, 0x00, 0x00,
  0x54, 0x01, 0x00, 0x00, 0x4c, 0x01, 0x00, 0x00, 0x44, 0x01, 0x00, 0x00,
  0x3c, 0x01, 0x00, 0x00, 0x34, 0x01, 0x00, 0x00, 0x2c, 0x01, 0x00, 0x00,
  0x24, 0x01, 0x00, 0x00, 0x1c, 0x01, 0x00, 0x00, 0x14, 0x01, 0x00, 0x00,
  0x0c, 0x01, 0x00, 0x00, 0x04, 0x01, 0x00, 0x00, 0xfc, 0x00, 0x00, 0x00,
  0xf4, 0x00, 0x00, 0x00, 0xec, 0x00, 0x00, 0x00, 0xe4, 0x00, 0x00, 0x00,
  0xdc, 0x00, 0x00, 0x00, 0xd4, 0x00, 0x00, 0x00, 0xcc, 0x00, 0x00, 0x00,
  0xc4, 0x00, 0x00, 0x00, 0xbc, 0x00, 0x00, 0x00, 0xb4, 0x00, 0x00, 0x00,
  0xac, 0x00, 0x00, 0x00, 0xa4, 0x00, 0x00, 0x00, 0x9c, 0x00, 0x00, 0x00,
  0x94, 0x00, 0x00, 0x00, 0x8c, 0x00, 0x00, 0x00, 0x84, 0x00, 0x00, 0x00,
  0x7c, 0x00, 0x00, 0x00, 0x74, 0x00, 0x00, 0x00, 0x6c, 0x00, 0x00, 0x00,
  0x64, 0x00, 0x00, 0x00, 0x5c, 0x00, 0x00, 0x00, 0x54, 0x00, 0x00, 0x00,
  0x4c, 0x00, 0x00, 0x00, 0x44, 0x00, 0x00, 0x00, 0x3c, 0x00, 0x00, 0x00,
  0x34, 0x00, 0x00, 0x00, 0x2c, 0x00, 0x00, 0x00, 0x24, 0x00, 0x00, 0x00,
  0x04, 0x00, 0x00, 0x00, 0x9e, 0xe5, 0xff, 0xff, 0x04, 0x00, 0x00, 0x00,
  0x10, 0x00, 0x00, 0x00, 0x31, 0x2e, 0x35, 0x2e, 0x30, 0x00, 0x00, 0x00,
  0x00, 0x00, 0x00, 0x00, 0x00, 0x00, 0x00, 0x00, 0xd8, 0x62, 0xff, 0xff,
  0xdc, 0x62, 0xff, 0xff, 0xe0, 0x62, 0xff, 0xff, 0xe4, 0x62, 0xff, 0xff,
  0xe8, 0x62, 0xff, 0xff, 0xec, 0x62, 0xff, 0xff, 0xf0, 0x62, 0xff, 0xff,
  0xf4, 0x62, 0xff, 0xff, 0xf8, 0x62, 0xff, 0xff, 0xfc, 0x62, 0xff, 0xff,
  0x00, 0x63, 0xff, 0xff, 0x04, 0x63, 0xff, 0xff, 0x08, 0x63, 0xff, 0xff,
  0x0c, 0x63, 0xff, 0xff, 0x10, 0x63, 0xff, 0xff, 0x14, 0x63, 0xff, 0xff,
  0x18, 0x63, 0xff, 0xff, 0x1c, 0x63, 0xff, 0xff, 0x20, 0x63, 0xff, 0xff,
  0x24, 0x63, 0xff, 0xff, 0x28, 0x63, 0xff, 0xff, 0x2c, 0x63, 0xff, 0xff,
  0x30, 0x63, 0xff, 0xff, 0x34, 0x63, 0xff, 0xff, 0x38, 0x63, 0xff, 0xff,
  0x3c, 0x63, 0xff, 0xff, 0x40, 0x63, 0xff, 0xff, 0x44, 0x63, 0xff, 0xff,
  0x48, 0x63, 0xff, 0xff, 0x4c, 0x63, 0xff, 0xff, 0x50, 0x63, 0xff, 0xff,
  0x54, 0x63, 0xff, 0xff, 0x58, 0x63, 0xff, 0xff, 0x5c, 0x63, 0xff, 0xff,
  0x60, 0x63, 0xff, 0xff, 0x64, 0x63, 0xff, 0xff, 0x68, 0x63, 0xff, 0xff,
  0x6c, 0x63, 0xff, 0xff, 0x70, 0x63, 0xff, 0xff, 0x74, 0x63, 0xff, 0xff,
  0x78, 0x63, 0xff, 0xff, 0x7c, 0x63, 0xff, 0xff, 0x80, 0x63, 0xff, 0xff,
  0x84, 0x63, 0xff, 0xff, 0x88, 0x63, 0xff, 0xff, 0x8c, 0x63, 0xff, 0xff,
  0x90, 0x63, 0xff, 0xff, 0x94, 0x63, 0xff, 0xff, 0x98, 0x63, 0xff, 0xff,
  0x9c, 0x63, 0xff, 0xff, 0xa0, 0x63, 0xff, 0xff, 0xa4, 0x63, 0xff, 0xff,
  0xa8, 0x63, 0xff, 0xff, 0xac, 0x63, 0xff, 0xff, 0xb0, 0x63, 0xff, 0xff,
  0xb4, 0x63, 0xff, 0xff, 0xb8, 0x63, 0xff, 0xff, 0xbc, 0x63, 0xff, 0xff,
  0xc0, 0x63, 0xff, 0xff, 0xc4, 0x63, 0xff, 0xff, 0xc8, 0x63, 0xff, 0xff,
  0xcc, 0x63, 0xff, 0xff, 0xd0, 0x63, 0xff, 0xff, 0xd4, 0x63, 0xff, 0xff,
  0xba, 0xe6, 0xff, 0xff, 0x04, 0x00, 0x00, 0x00, 0x08, 0x00, 0x00, 0x00,
  0xe2, 0xe2, 0xff, 0xff, 0xff, 0xff, 0xff, 0xff, 0xce, 0xe6, 0xff, 0xff,
  0x04, 0x00, 0x00, 0x00, 0x28, 0x00, 0x00, 0x00, 0x33, 0x43, 0x02, 0x00,
  0x00, 0x00, 0x00, 0x00, 0x50, 0x2e, 0x00, 0x00, 0x00, 0x00, 0x00, 0x00,
  0xb0, 0x5d, 0x01, 0x00, 0x00, 0x00, 0x00, 0x00, 0xbf, 0x65, 0x00, 0x00,
  0x00, 0x00, 0x00, 0x00, 0xaf, 0x58, 0xff, 0xff, 0xff, 0xff, 0xff, 0xff,
  0x02, 0xe7, 0xff, 0xff, 0x04, 0x00, 0x00, 0x00, 0x28, 0x00, 0x00, 0x00,
  0x57, 0x0f, 0x00, 0x00, 0x00, 0x00, 0x00, 0x00, 0xd1, 0x69, 0x00, 0x00,
  0x00, 0x00, 0x00, 0x00, 0x8f, 0xb7, 0x00, 0x00, 0x00, 0x00, 0x00, 0x00,
  0x9c, 0x7f, 0xff, 0xff, 0xff, 0xff, 0xff, 0xff, 0xfc, 0xdf, 0x00, 0x00,
  0x00, 0x00, 0x00, 0x00, 0x36, 0xe7, 0xff, 0xff, 0x04, 0x00, 0x00, 0x00,
  0x38, 0x00, 0x00, 0x00, 0x78, 0x5d, 0x01, 0x00, 0x00, 0x00, 0x00, 0x00,
  0x1d, 0x1d, 0x00, 0x00, 0x00, 0x00, 0x00, 0x00, 0x02, 0x6b, 0x01, 0x00,
  0x00, 0x00, 0x00, 0x00, 0x05, 0x05, 0x00, 0x00, 0x00, 0x00, 0x00, 0x00,
  0x26, 0xdb, 0xff, 0xff, 0xff, 0xff, 0xff, 0xff, 0xbf, 0x1c, 0x00, 0x00,
  0x00, 0x00, 0x00, 0x00, 0x4e, 0x96, 0x00, 0x00, 0x00, 0x00, 0x00, 0x00,
  0x7a, 0xe7, 0xff, 0xff, 0x04, 0x00, 0x00, 0x00, 0x48, 0x00, 0x00, 0x00,
  0x46, 0xf9, 0x00, 0x00, 0x00, 0x00, 0x00, 0x00, 0xbf, 0xcf, 0xff, 0xff,
  0xff, 0xff, 0xff, 0xff, 0x78, 0x94, 0xff, 0xff, 0xff, 0xff, 0xff, 0xff,
  0x92, 0x56, 0xfe, 0xff, 0xff, 0xff, 0xff, 0xff, 0x5d, 0x59, 0xff, 0xff,
  0xff, 0xff, 0xff, 0xff, 0x7b, 0xe5, 0x00, 0x00, 0x00, 0x00, 0x00, 0x00,
  0xe7, 0xa7, 0xff, 0xff, 0xff, 0xff, 0xff, 0xff, 0x88, 0x20, 0x02, 0x00,
  0x00, 0x00, 0x00, 0x00, 0xf8, 0x7f, 0xff, 0xff, 0xff, 0xff, 0xff, 0xff,
  0xce, 0xe7, 0xff, 0xff, 0x04, 0x00, 0x00, 0x00, 0x60, 0x00, 0x00, 0x00,
  0xe2, 0x8c, 0xff, 0xff, 0xff, 0xff, 0xff, 0xff, 0x76, 0xc3, 0xff, 0xff,
  0xff, 0xff, 0xff, 0xff, 0x28, 0xc9, 0xff, 0xff, 0xff, 0xff, 0xff, 0xff,
  0x77, 0x13, 0xff, 0xff, 0xff, 0xff, 0xff, 0xff, 0x41, 0x18, 0x00, 0x00,
  0x00, 0x00, 0x00, 0x00, 0x34, 0x72, 0xff, 0xff, 0xff, 0xff, 0xff, 0xff,
  0x60, 0x33, 0xfe, 0xff, 0xff, 0xff, 0xff, 0xff, 0x9e, 0x43, 0xfe, 0xff,
  0xff, 0xff, 0xff, 0xff, 0xec, 0x1e, 0x00, 0x00, 0x00, 0x00, 0x00, 0x00,
  0x3c, 0x26, 0x01, 0x00, 0x00, 0x00, 0x00, 0x00, 0x36, 0xca, 0xff, 0xff,
  0xff, 0xff, 0xff, 0xff, 0xfb, 0x99, 0xff, 0xff, 0xff, 0xff, 0xff, 0xff,
  0x3a, 0xe8, 0xff, 0xff, 0x04, 0x00, 0x00, 0x00, 0x78, 0x00, 0x00, 0x00,
  0xab, 0x67, 0xff, 0xff, 0xff, 0xff, 0xff, 0xff, 0x70, 0xa6, 0xff, 0xff,
  0xff, 0xff, 0xff, 0xff, 0x8f, 0x1c, 0x00, 0x00, 0x00, 0x00, 0x00, 0x00,
  0xb5, 0x2f, 0x00, 0x00, 0x00, 0x00, 0x00, 0x00, 0xbe, 0x8d, 0xff, 0xff,
  0xff, 0xff, 0xff, 0xff, 0x28, 0x37, 0x00, 0x00, 0x00, 0x00, 0x00, 0x00,
  0x0d, 0xa0, 0xff, 0xff, 0xff, 0xff, 0xff, 0xff, 0x6f, 0x07, 0x00, 0x00,
  0x00, 0x00, 0x00, 0x00, 0x8e, 0x0c, 0x00, 0x00, 0x00, 0x00, 0x00, 0x00,
  0x37, 0x56, 0xff, 0xff, 0xff, 0xff, 0xff, 0xff, 0x70, 0x12, 0x00, 0x00,
  0x00, 0x00, 0x00, 0x00, 0x28, 0x4c, 0x01, 0x00, 0x00, 0x00, 0x00, 0x00,
  0x34, 0xaf, 0xff, 0xff, 0xff, 0xff, 0xff, 0xff, 0xb6, 0x18, 0x00, 0x00,
  0x00, 0x00, 0x00, 0x00, 0x67, 0x13, 0x00, 0x00, 0x00, 0x00, 0x00, 0x00,
  0xbe, 0xe8, 0xff, 0xff, 0x04, 0x00, 0x00, 0x00, 0xa0, 0x00, 0x00, 0x00,
  0x5a, 0xc8, 0x06, 0x00, 0x00, 0x00, 0x00, 0x00, 0x6e, 0x12, 0xfb, 0xff,
  0xff, 0xff, 0xff, 0xff, 0xda, 0x94, 0x02, 0x00, 0x00, 0x00, 0x00, 0x00,
  0xb6, 0x5b, 0x06, 0x00, 0x00, 0x00, 0x00, 0x00, 0xd6, 0x3e, 0xfb, 0xff,
  0xff, 0xff, 0xff, 0xff, 0xaf, 0x50, 0x01, 0x00, 0x00, 0x00, 0x00, 0x00,
  0x68, 0x27, 0xfe, 0xff, 0xff, 0xff, 0xff, 0xff, 0x51, 0x95, 0xf6, 0xff,
  0xff, 0xff, 0xff, 0xff, 0x80, 0x38, 0x0d, 0x00, 0x00, 0x00, 0x00, 0x00,
  0x2f, 0x1c, 0xfd, 0xff, 0xff, 0xff, 0xff, 0xff, 0x4a, 0xfa, 0x00, 0x00,
  0x00, 0x00, 0x00, 0x00, 0xd6, 0x5a, 0xf9, 0xff, 0xff, 0xff, 0xff, 0xff,
  0x68, 0x68, 0xe6, 0x02, 0x00, 0x00, 0x00, 0x00, 0x5b, 0xd4, 0x20, 0x00,
  0x00, 0x00, 0x00, 0x00, 0xa3, 0x99, 0xf7, 0xff, 0xff, 0xff, 0xff, 0xff,
  0x71, 0x2f, 0x02, 0x00, 0x00, 0x00, 0x00, 0x00, 0x03, 0xe0, 0xfe, 0xff,
  0xff, 0xff, 0xff, 0xff, 0xa2, 0xf6, 0x01, 0x00, 0x00, 0x00, 0x00, 0x00,
  0x38, 0x5d, 0xfe, 0xff, 0xff, 0xff, 0xff, 0xff, 0x0b, 0x1e, 0xf8, 0xff,
  0xff, 0xff, 0xff, 0xff, 0x6a, 0xe9, 0xff, 0xff, 0x04, 0x00, 0x00, 0x00,
  0x05, 0x00, 0x00, 0x00, 0x66, 0x7f, 0x66, 0x17, 0x1e, 0x00, 0x00, 0x00,
  0x7e, 0xe9, 0xff, 0xff, 0x04, 0x00, 0x00, 0x00, 0x08, 0x00, 0x00, 0x00,
  0x00, 0x00, 0x00, 0x00, 0x00, 0x00, 0x00, 0x00, 0x92, 0xe9, 0xff, 0xff,
  0x04, 0x00, 0x00, 0x00, 0x23, 0x00, 0x00, 0x00, 0xdd, 0x05, 0x0c, 0xfb,
  0x0d, 0x11, 0x18, 0xfa, 0x4d, 0xe3, 0xec, 0x24, 0x9c, 0x23, 0x3c, 0x69,
  0x7f, 0x81, 0x7f, 0x81, 0x81, 0x20, 0xcf, 0xa3, 0x73, 0x0b, 0x17, 0x03,
  0xc8, 0xee, 0x22, 0xec, 0xef, 0xea, 0x3a, 0x00, 0xc2, 0xe9, 0xff, 0xff,
  0x04, 0x00, 0x00, 0x00, 0x28, 0x00, 0x00, 0x00, 0x00, 0x00, 0x00, 0x00,
  0x00, 0x00, 0x00, 0x00, 0x00, 0x00, 0x00, 0x00, 0x00, 0x00, 0x00, 0x00,
  0x00, 0x00, 0x00, 0x00, 0x00, 0x00, 0x00, 0x00, 0x00, 0x00, 0x00, 0x00,
  0x00, 0x00, 0x00, 0x00, 0x00, 0x00, 0x00, 0x00, 0x00, 0x00, 0x00, 0x00,
  0xf6, 0xe9, 0xff, 0xff, 0x04, 0x00, 0x00, 0x00, 0x23, 0x00, 0x00, 0x00,
  0x02, 0x14, 0x1a, 0xf2, 0x00, 0x02, 0x19, 0xf9, 0x18, 0xfb, 0x01, 0xf1,
  0xd5, 0x15, 0xf8, 0x02, 0xe4, 0x32, 0xf1, 0x06, 0xfa, 0x07, 0x30, 0xbe,
  0xf7, 0x01, 0x38, 0x81, 0x7f, 0xee, 0x7f, 0x81, 0xe7, 0x48, 0x7f, 0x00,
  0x26, 0xea, 0xff, 0xff, 0x04, 0x00, 0x00, 0x00, 0x19, 0x00, 0x00, 0x00,
  0x24, 0xe1, 0x46, 0xec, 0x81, 0x81, 0x57, 0xdc, 0xf1, 0xfb, 0xbc, 0x24,
  0x81, 0xd6, 0x0e, 0xb8, 0xbf, 0x41, 0x31, 0x7f, 0x26, 0xfd, 0x15, 0x7f,
  0xce, 0x00, 0x00, 0x00, 0x4e, 0xea, 0xff, 0xff, 0x04, 0x00, 0x00, 0x00,
  0x19, 0x00, 0x00, 0x00, 0x0f, 0x07, 0x49, 0x38, 0xbf, 0xc6, 0x19, 0xe1,
  0x7f, 0xe0, 0x52, 0x81, 0x7f, 0x04, 0x7f, 0x7f, 0x88, 0x44, 0xde, 0xd9,
  0xd9, 0xd8, 0x45, 0x04, 0xc8, 0x00, 0x00, 0x00, 0x76, 0xea, 0xff, 0xff,
  0x04, 0x00, 0x00, 0x00, 0x19, 0x00, 0x00, 0x00, 0x2d, 0xb3, 0xff, 0xed,
  0x03, 0x81, 0xe7, 0xe5, 0x4b, 0xbe, 0x7a, 0x7f, 0x81, 0x81, 0x81, 0xc0,
  0xf0, 0xfd, 0x55, 0xec, 0xcc, 0xb0, 0xfa, 0x12, 0x03, 0x00, 0x00, 0x00,
  0x9e, 0xea, 0xff, 0xff, 0x04, 0x00, 0x00, 0x00, 0x19, 0x00, 0x00, 0x00,
  0xc2, 0x7f, 0x03, 0xd5, 0xff, 0x81, 0x69, 0x1f, 0xab, 0xee, 0x54, 0x07,
  0x81, 0x90, 0x13, 0x67, 0xf6, 0x34, 0x81, 0xfd, 0xfd, 0x0d, 0x04, 0x23,
  0x7f, 0x00, 0x00, 0x00, 0xc6, 0xea, 0xff, 0xff, 0x04, 0x00, 0x00, 0x00,
  0x19, 0x00, 0x00, 0x00, 0x27, 0x16, 0xdf, 0xb1, 0x28, 0x3c, 0x7f, 0xc9,
  0xc3, 0xdc, 0x6c, 0x69, 0xf1, 0xa7, 0x81, 0x81, 0x66, 0x7f, 0x81, 0xf7,
  0x32, 0x34, 0x53, 0xe1, 0x39, 0x00, 0x00, 0x00, 0xee, 0xea, 0xff, 0xff,
  0x04, 0x00, 0x00, 0x00, 0x19, 0x00, 0x00, 0x00, 0xf1, 0x1f, 0x81, 0x28,
  0x10, 0x50, 0xf2, 0xba, 0x02, 0x1b, 0x81, 0xc7, 0x98, 0x7f, 0x7f, 0x38,
  0x7f, 0xaf, 0xe8, 0x26, 0xfb, 0x57, 0xe5, 0x33, 0x19, 0x00, 0x00, 0x00,
  0x16, 0xeb, 0xff, 0xff, 0x04, 0x00, 0x00, 0x00, 0x23, 0x00, 0x00, 0x00,
  0xf7, 0x7e, 0x99, 0x7f, 0x35, 0x0c, 0x0d, 0xc5, 0x13, 0x26, 0x1c, 0x81,
  0x9b, 0xa3, 0xd6, 0x0d, 0xea, 0xf3, 0x96, 0x81, 0x45, 0x20, 0xfd, 0x85,
  0xa6, 0xe0, 0xd9, 0x7f, 0x7f, 0xea, 0x62, 0x18, 0xdd, 0x01, 0x22, 0x00,
  0x46, 0xeb, 0xff, 0xff, 0x04, 0x00, 0x00, 0x00, 0x23, 0x00, 0x00, 0x00,
  0x2a, 0x23, 0x3d, 0xbd, 0x07, 0xd8, 0xa2, 0xbe, 0xd0, 0x36, 0x0c, 0xfb,
  0x7f, 0x7f, 0x01, 0x51, 0x01, 0x81, 0x27, 0x83, 0x1e, 0x81, 0x7f, 0x7f,
  0xa9, 0x7f, 0xa8, 0x2f, 0x31, 0x66, 0x61, 0x96, 0xc6, 0x4b, 0x44, 0x00,
  0x76, 0xeb, 0xff, 0xff, 0x04, 0x00, 0x00, 0x00, 0x38, 0x00, 0x00, 0x00,
  0x00, 0x00, 0x00, 0x00, 0x00, 0x00, 0x00, 0x00, 0x00, 0x00, 0x00, 0x00,
  0x00, 0x00, 0x00, 0x00, 0x00, 0x00, 0x00, 0x00, 0x00, 0x00, 0x00, 0x00,
  0x00, 0x00, 0x00, 0x00, 0x00, 0x00, 0x00, 0x00, 0x00, 0x00, 0x00, 0x00,
  0x00, 0x00, 0x00, 0x00, 0x00, 0x00, 0x00, 0x00, 0x00, 0x00, 0x00, 0x00,
  0x00, 0x00, 0x00, 0x00, 0x00, 0x00, 0x00, 0x00, 0xba, 0xeb, 0xff, 0xff,
  0x04, 0x00, 0x00, 0x00, 0x23, 0x00, 0x00, 0x00, 0x96, 0xe2, 0xda, 0x1a,
  0xd0, 0x2d, 0xf4, 0x81, 0x95, 0x7f, 0xd5, 0x81, 0x29, 0x7f, 0xd7, 0x81,
  0x65, 0x81, 0x0c, 0x7f, 0xc9, 0x3f, 0xed, 0x27, 0x06, 0xfd, 0x03, 0x77,
  0xd7, 0x31, 0xb8, 0x3e, 0x04, 0xe8, 0x8e, 0x00, 0xea, 0xeb, 0xff, 0xff,
  0x04, 0x00, 0x00, 0x00, 0x19, 0x00, 0x00, 0x00, 0x0d, 0x7f, 0x97, 0xc5,
  0xe6, 0x81, 0xfa, 0xe8, 0x3e, 0x73, 0xf7, 0x1f, 0x9d, 0xac, 0x7f, 0x84,
  0xf6, 0x81, 0x04, 0x50, 0x42, 0xc5, 0xb2, 0x28, 0x81, 0x00, 0x00, 0x00,
  0x12, 0xec, 0xff, 0xff, 0x04, 0x00, 0x00, 0x00, 0x19, 0x00, 0x00, 0x00,
  0x2c, 0x42, 0x1d, 0xec, 0x2c, 0xc0, 0x4f, 0x18, 0xd9, 0xc3, 0x81, 0x0c,
  0xbb, 0x81, 0x81, 0x14, 0x7f, 0xb3, 0xb4, 0x4a, 0x12, 0x68, 0x7f, 0x8a,
  0x8a, 0x00, 0x00, 0x00, 0x3a, 0xec, 0xff, 0xff, 0x04, 0x00, 0x00, 0x00,
  0x19, 0x00, 0x00, 0x00, 0x5f, 0x38, 0xd2, 0x7f, 0x7f, 0xf5, 0x7f, 0x81,
  0xd3, 0x28, 0x81, 0x2c, 0xc4, 0x84, 0xe6, 0x0e, 0x10, 0xd0, 0xd2, 0x64,
  0x39, 0x08, 0x09, 0x5e, 0xe3, 0x00, 0x00, 0x00, 0x62, 0xec, 0xff, 0xff,
  0x04, 0x00, 0x00, 0x00, 0x23, 0x00, 0x00, 0x00, 0xf8, 0xea, 0x7f, 0xfe,
  0xb5, 0x15, 0xa2, 0x79, 0x70, 0xe9, 0x81, 0x05, 0x15, 0xfa, 0xe1, 0x81,
  0x20, 0xf7, 0x0f, 0xe3, 0xfa, 0xed, 0x0c, 0x07, 0x32, 0x4d, 0x7d, 0x7f,
  0x09, 0xb1, 0xcf, 0x79, 0x0c, 0x7f, 0x35, 0x00, 0x92, 0xec, 0xff, 0xff,
  0x04, 0x00, 0x00, 0x00, 0x23, 0x00, 0x00, 0x00, 0x86, 0x7f, 0xd1, 0x07,
  0x03, 0x7f, 0x0c, 0x47, 0x7c, 0xc2, 0x3a, 0xc6, 0x07, 0x4f, 0x7f, 0x2b,
  0x4b, 0x7f, 0xa6, 0x2b, 0x7f, 0x57, 0xb1, 0x7f, 0xa3, 0x81, 0x02, 0x19,
  0x89, 0x40, 0x34, 0x00, 0x36, 0x47, 0xf6, 0x00, 0xc2, 0xec, 0xff, 0xff,
  0x04, 0x00, 0x00, 0x00, 0x23, 0x00, 0x00, 0x00, 0x33, 0xae, 0x3a, 0xbe,
  0x35, 0xda, 0xa1, 0x7f, 0x9d, 0x11, 0x81, 0x67, 0xae, 0xdc, 0x75, 0x81,
  0x9b, 0xc2, 0x74, 0x81, 0xa4, 0x42, 0xc4, 0xb5, 0xc7, 0xfb, 0xf4, 0x38,
  0xfc, 0xfb, 0x7f, 0x07, 0x81, 0xb7, 0x7f, 0x00, 0xf2, 0xec, 0xff, 0xff,
  0x04, 0x00, 0x00, 0x00, 0x3f, 0x00, 0x00, 0x00, 0xfb, 0xf1, 0xc6, 0x09,
  0x92, 0xd0, 0x81, 0xe6, 0x32, 0x7f, 0xa4, 0x5d, 0x13, 0xeb, 0xea, 0xea,
  0x58, 0xfd, 0xd1, 0x81, 0xd5, 0xb3, 0x4f, 0x01, 0x0b, 0xf2, 0x1f, 0x32,
  0xde, 0x13, 0x06, 0x81, 0x69, 0xe8, 0x29, 0x8b, 0xe1, 0x08, 0xe9, 0x9a,
  0xc6, 0x79, 0xe1, 0x7f, 0xea, 0xfc, 0xd8, 0xdb, 0x13, 0xba, 0x4b, 0x10,
  0xa4, 0x7f, 0xbf, 0x81, 0x0d, 0xe3, 0x2c, 0xb4, 0x05, 0x98, 0xda, 0x00,
  0x3e, 0xed, 0xff, 0xff, 0x04, 0x00, 0x00, 0x00, 0x2d, 0x00, 0x00, 0x00,
  0x0d, 0xdb, 0x4d, 0xcd, 0x81, 0x13, 0x4b, 0x20, 0x29, 0xb9, 0x3a, 0x1b,
  0x16, 0x71, 0x17, 0x7f, 0x90, 0x81, 0x7f, 0x7f, 0x7f, 0x30, 0x4d, 0x81,
  0xef, 0x7f, 0xef, 0x12, 0xec, 0xe7, 0x7f, 0xf6, 0xc4, 0x30, 0x12, 0x1c,
  0x35, 0xe3, 0x0d, 0x61, 0xdb, 0x14, 0x13, 0xf4, 0xd6, 0x00, 0x00, 0x00,
  0x7a, 0xed, 0xff, 0xff, 0x04, 0x00, 0x00, 0x00, 0x48, 0x00, 0x00, 0x00,
  0x00, 0x00, 0x00, 0x00, 0x00, 0x00, 0x00, 0x00, 0x00, 0x00, 0x00, 0x00,
  0x00, 0x00, 0x00, 0x00, 0x00, 0x00, 0x00, 0x00, 0x00, 0x00, 0x00, 0x00,
  0x00, 0x00, 0x00, 0x00, 0x00, 0x00, 0x00, 0x00, 0x00, 0x00, 0x00, 0x00,
  0x00, 0x00, 0x00, 0x00, 0x00, 0x00, 0x00, 0x00, 0x00, 0x00, 0x00, 0x00,
  0x00, 0x00, 0x00, 0x00, 0x00, 0x00, 0x00, 0x00, 0x00, 0x00, 0x00, 0x00,
  0x00, 0x00, 0x00, 0x00, 0x00, 0x00, 0x00, 0x00, 0x00, 0x00, 0x00, 0x00,
  0xce, 0xed, 0xff, 0xff, 0x04, 0x00, 0x00, 0x00, 0x2d, 0x00, 0x00, 0x00,
  0x7f, 0x81, 0xf8, 0x1c, 0xe1, 0xeb, 0xf3, 0x04, 0xdc, 0xb4, 0x81, 0x51,
  0x0b, 0x5c, 0x11, 0xe4, 0xbc, 0x1c, 0x73, 0x5d, 0x7f, 0x3e, 0x7f, 0xaf,
  0x81, 0x81, 0x37, 0x10, 0xdd, 0xdf, 0x81, 0x06, 0x18, 0xbc, 0x21, 0xed,
  0x05, 0xeb, 0x3a, 0x42, 0x06, 0x81, 0x1c, 0x04, 0x81, 0x00, 0x00, 0x00,
  0x0a, 0xee, 0xff, 0xff, 0x04, 0x00, 0x00, 0x00, 0x31, 0x00, 0x00, 0x00,
  0x81, 0x19, 0x22, 0xe6, 0x3b, 0x3e, 0x77, 0xda, 0x0b, 0x3e, 0x42, 0x55,
  0x81, 0x1d, 0x81, 0x17, 0xe2, 0x5a, 0xa8, 0x25, 0x55, 0xe3, 0x0f, 0x8e,
  0x16, 0x7f, 0xc0, 0x30, 0x02, 0x7f, 0x69, 0x4b, 0xf5, 0x00, 0x07, 0xf0,
  0xdf, 0x7f, 0xc1, 0xdb, 0xf4, 0x43, 0xd1, 0x03, 0x83, 0x00, 0xe8, 0x7f,
  0x1d, 0x00, 0x00, 0x00, 0x4a, 0xee, 0xff, 0xff, 0x04, 0x00, 0x00, 0x00,
  0x23, 0x00, 0x00, 0x00, 0x7f, 0x06, 0x6b, 0x66, 0xe5, 0xf8, 0x62, 0x37,
  0xd1, 0x6d, 0x45, 0xb4, 0x0d, 0x14, 0x4f, 0x6c, 0xe9, 0x67, 0xe9, 0xaf,
  0x6e, 0x53, 0x7f, 0x81, 0x2a, 0x81, 0x81, 0x2f, 0x25, 0x1e, 0x7e, 0x7f,
  0xf1, 0x36, 0x7f, 0x00, 0x7a, 0xee, 0xff, 0xff, 0x04, 0x00, 0x00, 0x00,
  0x23, 0x00, 0x00, 0x00, 0x81, 0xe9, 0xd6, 0xbf, 0x7f, 0x15, 0xaf, 0xcd,
  0xc6, 0x0b, 0x9b, 0xc2, 0x43, 0xe8, 0xa0, 0x7f, 0x7f, 0x9a, 0x19, 0x05,
  0x81, 0x01, 0xc0, 0xf1, 0x81, 0x55, 0xd3, 0xd9, 0x06, 0xa1, 0x74, 0x15,
  0x25, 0x7f, 0xe7, 0x00, 0xaa, 0xee, 0xff, 0xff, 0x04, 0x00, 0x00, 0x00,
  0x3f, 0x00, 0x00, 0x00, 0x50, 0xcb, 0x93, 0x1a, 0x24, 0x81, 0x9e, 0xc4,
  0x35, 0xf3, 0xd8, 0x20, 0x7f, 0x1b, 0x28, 0x08, 0x15, 0x70, 0xc9, 0x1f,
  0xec, 0xda, 0x1f, 0xe9, 0xce, 0x7f, 0x16, 0xeb, 0x73, 0x81, 0xba, 0xd1,
  0x02, 0xe7, 0xca, 0xa0, 0x50, 0xe5, 0xcc, 0x4a, 0x81, 0x94, 0xf5, 0xea,
  0xb9, 0x9f, 0xd3, 0xd3, 0xef, 0xdc, 0xd5, 0x81, 0x05, 0x19, 0x13, 0xcf,
  0x24, 0xf3, 0x7f, 0x1a, 0x07, 0xcc, 0xc7, 0x00, 0xf6, 0xee, 0xff, 0xff,
  0x04, 0x00, 0x00, 0x00, 0x2d, 0x00, 0x00, 0x00, 0xba, 0xc6, 0xf9, 0xff,
  0x81, 0x32, 0x13, 0xfe, 0xcc, 0x5c, 0x7f, 0x2b, 0xd4, 0x5a, 0xc3, 0xf9,
  0xdc, 0x7f, 0x36, 0x76, 0x81, 0x81, 0x7a, 0x81, 0x7f, 0x7f, 0x3f, 0x7f,
  0xbe, 0xc7, 0xb0, 0xb7, 0x95, 0x10, 0x29, 0x0d, 0xd5, 0x5d, 0xdf, 0x02,
  0xfa, 0x22, 0x1d, 0x44, 0xfb, 0x00, 0x00, 0x00, 0x32, 0xef, 0xff, 0xff,
  0x04, 0x00, 0x00, 0x00, 0x2d, 0x00, 0x00, 0x00, 0x7f, 0x37, 0xeb, 0xd4,
  0xb9, 0xd1, 0xcc, 0x5f, 0x1a, 0x46, 0x81, 0xdd, 0xb1, 0x81, 0xe9, 0x29,
  0x7f, 0xe4, 0x53, 0x15, 0xef, 0xe6, 0xb9, 0x16, 0x81, 0x87, 0xaf, 0x2b,
  0xde, 0x7f, 0x7f, 0x9d, 0x81, 0xfe, 0xc3, 0x6b, 0xbb, 0xfb, 0xc7, 0xf5,
  0xde, 0xf9, 0x5c, 0x52, 0x7f, 0x00, 0x00, 0x00, 0x6e, 0xef, 0xff, 0xff,
  0x04, 0x00, 0x00, 0x00, 0x6c, 0x00, 0x00, 0x00, 0x99, 0xfb, 0xe4, 0xc5,
  0x30, 0xfe, 0x81, 0x25, 0xd6, 0x55, 0xe6, 0xe3, 0xc0, 0x21, 0x74, 0x7f,
  0x6f, 0x8b, 0x79, 0xce, 0x88, 0xc4, 0x6a, 0xd0, 0xf8, 0x08, 0x2c, 0x16,
  0x1b, 0x4f, 0xc3, 0xd6, 0xf0, 0xf3, 0x7f, 0x1f, 0x04, 0xfc, 0xd3, 0xea,
  0x9c, 0xcf, 0x8d, 0xce, 0x1f, 0x81, 0xd3, 0x06, 0xf7, 0xbc, 0x3d, 0xe6,
  0x61, 0x81, 0x99, 0x1e, 0x03, 0x46, 0x53, 0x91, 0xc2, 0x08, 0xf0, 0x2c,
  0xee, 0x81, 0x1b, 0x33, 0xbb, 0xd5, 0x68, 0xd6, 0x00, 0x7f, 0x0c, 0xdf,
  0x28, 0xb9, 0x25, 0xd8, 0xe6, 0xfe, 0x15, 0xda, 0x81, 0xfc, 0xd1, 0xf0,
  0x01, 0x4f, 0xf1, 0x54, 0xf4, 0xea, 0xe0, 0xf1, 0x07, 0x10, 0x66, 0x7f,
  0xe5, 0xde, 0x07, 0xa1, 0xb8, 0x04, 0x20, 0x03, 0xe6, 0xef, 0xff, 0xff,
  0x04, 0x00, 0x00, 0x00, 0x3c, 0x00, 0x00, 0x00, 0x06, 0xe6, 0xd3, 0xf9,
  0x26, 0xd6, 0xfe, 0x01, 0x07, 0xd0, 0xdd, 0x81, 0x0e, 0x17, 0x65, 0x16,
  0x1a, 0x7f, 0x08, 0xe3, 0xea, 0x44, 0x2c, 0xb3, 0x8b, 0x47, 0xf8, 0xc3,
  0x81, 0xc4, 0xb6, 0x7f, 0x9a, 0x7f, 0x91, 0x9b, 0x81, 0x00, 0x08, 0x81,
  0xd3, 0xff, 0x7f, 0x30, 0xc9, 0xe2, 0x81, 0xc2, 0xf7, 0x7f, 0x7f, 0xcc,
  0x58, 0x2a, 0x08, 0x37, 0x81, 0x62, 0xfb, 0x08, 0x2e, 0xf0, 0xff, 0xff,
  0x04, 0x00, 0x00, 0x00, 0x60, 0x00, 0x00, 0x00, 0x00, 0x00, 0x00, 0x00,
  0x00, 0x00, 0x00, 0x00, 0x00, 0x00, 0x00, 0x00, 0x00, 0x00, 0x00, 0x00,
  0x00, 0x00, 0x00, 0x00, 0x00, 0x00, 0x00, 0x00, 0x00, 0x00, 0x00, 0x00,
  0x00, 0x00, 0x00, 0x00, 0x00, 0x00, 0x00, 0x00, 0x00, 0x00, 0x00, 0x00,
  0x00, 0x00, 0x00, 0x00, 0x00, 0x00, 0x00, 0x00, 0x00, 0x00, 0x00, 0x00,
  0x00, 0x00, 0x00, 0x00, 0x00, 0x00, 0x00, 0x00, 0x00, 0x00, 0x00, 0x00,
  0x00, 0x00, 0x00, 0x00, 0x00, 0x00, 0x00, 0x00, 0x00, 0x00, 0x00, 0x00,
  0x00, 0x00, 0x00, 0x00, 0x00, 0x00, 0x00, 0x00, 0x00, 0x00, 0x00, 0x00,
  0x00, 0x00, 0x00, 0x00, 0x00, 0x00, 0x00, 0x00, 0x9a, 0xf0, 0xff, 0xff,
  0x04, 0x00, 0x00, 0x00, 0x3c, 0x00, 0x00, 0x00, 0x04, 0xdd, 0xee, 0xf9,
  0x22, 0xf0, 0x17, 0xd0, 0x7e, 0xf5, 0xdb, 0x08, 0xf4, 0x03, 0x3d, 0xbb,
  0xc5, 0x1a, 0xfc, 0x2e, 0x1e, 0xff, 0x6d, 0x4b, 0x2f, 0x48, 0x81, 0x7f,
  0xf9, 0x19, 0x66, 0x7f, 0x81, 0xa2, 0xbf, 0x3d, 0x06, 0x7f, 0xf1, 0x27,
  0x7f, 0x7f, 0x66, 0x90, 0x87, 0xb8, 0x1d, 0x64, 0x7f, 0xf2, 0x1d, 0xee,
  0x35, 0xfc, 0x7f, 0xc0, 0x43, 0x81, 0x81, 0x7f, 0xe2, 0xf0, 0xff, 0xff,
  0x04, 0x00, 0x00, 0x00, 0x51, 0x00, 0x00, 0x00, 0x81, 0x8a, 0x64, 0x43,
  0xd4, 0x4c, 0x32, 0xc3, 0x9b, 0x65, 0x18, 0xf7, 0x9d, 0x30, 0x81, 0x07,
  0x09, 0x33, 0x6d, 0x1b, 0x94, 0xc2, 0xe0, 0x0e, 0xf9, 0x7f, 0x70, 0x86,
  0x4c, 0xbf, 0xe1, 0x61, 0x84, 0x36, 0xe0, 0x81, 0x45, 0x81, 0xfa, 0x0b,
  0x0d, 0xdd, 0x02, 0x3b, 0xdf, 0x49, 0xfa, 0xd4, 0xe3, 0xbe, 0x24, 0x7f,
  0x29, 0x3c, 0xd3, 0x24, 0x94, 0x42, 0x7f, 0xb1, 0xc5, 0x15, 0x52, 0xb5,
  0x6b, 0x5d, 0x71, 0x81, 0x7d, 0x75, 0x03, 0xc1, 0x17, 0x18, 0x12, 0xab,
  0x20, 0xef, 0x81, 0x19, 0x45, 0x00, 0x00, 0x00, 0x42, 0xf1, 0xff, 0xff,
  0x04, 0x00, 0x00, 0x00, 0x2d, 0x00, 0x00, 0x00, 0xd9, 0xec, 0xf4, 0x0e,
  0xc1, 0x1a, 0x14, 0x90, 0xfd, 0x3d, 0x4b, 0xe0, 0x24, 0x7f, 0xd0, 0x02,
  0x72, 0x07, 0x81, 0x4b, 0x7f, 0x7b, 0x4b, 0xb4, 0xe4, 0x71, 0xd9, 0xc4,
  0x1a, 0x7b, 0x7f, 0x4d, 0x8c, 0x81, 0x7f, 0x81, 0x09, 0x7f, 0x16, 0x61,
  0x72, 0x81, 0x1b, 0x40, 0x36, 0x00, 0x00, 0x00, 0x7e, 0xf1, 0xff, 0xff,
  0x04, 0x00, 0x00, 0x00, 0x2d, 0x00, 0x00, 0x00, 0x48, 0xdc, 0x15, 0x5f,
  0x63, 0x11, 0x7f, 0x00, 0x92, 0x81, 0x49, 0x81, 0x81, 0x81, 0xdb, 0x22,
  0xd5, 0x7f, 0x22, 0x34, 0x76, 0x12, 0xcf, 0x6b, 0xb4, 0x45, 0xe4, 0x01,
  0x7f, 0x61, 0x05, 0x4e, 0x7f, 0x0a, 0x72, 0x98, 0x07, 0x76, 0x16, 0x63,
  0x23, 0x78, 0x0c, 0x7f, 0x0f, 0x00, 0x00, 0x00, 0xba, 0xf1, 0xff, 0xff,
  0x04, 0x00, 0x00, 0x00, 0x6c, 0x00, 0x00, 0x00, 0x1a, 0xbe, 0x13, 0xe1,
  0x44, 0xd6, 0x7f, 0xec, 0xea, 0xec, 0x56, 0xdf, 0xfb, 0x2c, 0x81, 0xeb,
  0x1f, 0xf8, 0xf6, 0x72, 0x68, 0x4b, 0xfa, 0xec, 0xd4, 0xd0, 0xfc, 0x81,
  0x0d, 0xc1, 0xde, 0x2d, 0xe8, 0x47, 0xe7, 0xfe, 0x99, 0xf2, 0x0e, 0x3c,
  0xe3, 0x81, 0xdb, 0x00, 0x1b, 0x00, 0x2e, 0xab, 0x4e, 0x81, 0xf1, 0xe9,
  0x04, 0xeb, 0x0a, 0xf8, 0xd7, 0xfe, 0xfc, 0x12, 0xac, 0x45, 0xea, 0x48,
  0x87, 0x48, 0x0e, 0x81, 0x3c, 0xd1, 0x13, 0xf5, 0x04, 0x7f, 0x02, 0x23,
  0xc9, 0x19, 0xbd, 0x04, 0x42, 0x2e, 0xe6, 0x1f, 0x34, 0xe7, 0x43, 0x2f,
  0xbf, 0xee, 0x2d, 0x81, 0xf6, 0xd7, 0xf9, 0xf2, 0x1c, 0xae, 0x38, 0x55,
  0xf3, 0x4b, 0xf5, 0xdc, 0x17, 0x8b, 0x7f, 0x37, 0x32, 0xf2, 0xff, 0xff,
  0x04, 0x00, 0x00, 0x00, 0x3c, 0x00, 0x00, 0x00, 0x0d, 0x19, 0x81, 0x08,
  0xdb, 0x00, 0x0d, 0xd9, 0xff, 0xbc, 0x4e, 0x11, 0xd9, 0xfe, 0x60, 0xf6,
  0x6d, 0xf6, 0xee, 0x7f, 0x00, 0xbb, 0xc4, 0xf1, 0x81, 0x7f, 0x2d, 0x81,
  0xe0, 0x7f, 0x1f, 0xb1, 0x7f, 0xf0, 0x0f, 0x81, 0xb7, 0x4d, 0x55, 0xb6,
  0x7f, 0x6a, 0x7f, 0x37, 0x38, 0xec, 0x15, 0xca, 0x1d, 0x1d, 0xf1, 0x11,
  0xba, 0xf4, 0xc9, 0x14, 0x41, 0x81, 0x7f, 0x3b, 0x7a, 0xf2, 0xff, 0xff,
  0x04, 0x00, 0x00, 0x00, 0x3c, 0x00, 0x00, 0x00, 0x29, 0xfb, 0x38, 0xb7,
  0xbb, 0x7f, 0xdf, 0x29, 0xae, 0xd5, 0xec, 0xe8, 0xd4, 0xe8, 0x39, 0x63,
  0x81, 0xc3, 0xf8, 0x44, 0xca, 0xf3, 0x3b, 0xb6, 0x2d, 0xc1, 0x30, 0x7f,
  0xaa, 0xdc, 0x10, 0x7f, 0xc5, 0x42, 0xdd, 0x7f, 0x81, 0x81, 0x7f, 0xa7,
  0xe0, 0x46, 0x81, 0x3d, 0x81, 0x7f, 0x81, 0xb7, 0x3e, 0x8b, 0x57, 0xb6,
  0x8c, 0xd6, 0xb8, 0x05, 0xed, 0x59, 0x97, 0x09, 0xc2, 0xf2, 0xff, 0xff,
  0x04, 0x00, 0x00, 0x00, 0xb4, 0x00, 0x00, 0x00, 0x0c, 0x88, 0x0c, 0x47,
  0x7f, 0x17, 0x53, 0x00, 0x2c, 0xef, 0x73, 0xe9, 0x22, 0xeb, 0x76, 0x0c,
  0x1d, 0xfa, 0x11, 0x4c, 0xb7, 0x25, 0xfd, 0xe4, 0x03, 0x28, 0x3e, 0x18,
  0x7f, 0xe4, 0x17, 0xac, 0x0a, 0x23, 0xf1, 0xdf, 0x7f, 0x1d, 0x54, 0x17,
  0x20, 0xcf, 0xb5, 0xf6, 0xcf, 0x8f, 0x51, 0xb8, 0x54, 0xeb, 0x54, 0xe0,
  0xcf, 0xf7, 0xe3, 0x7f, 0xcc, 0xfa, 0xfc, 0x45, 0xf6, 0x5d, 0x53, 0x7f,
  0x7d, 0xbe, 0x37, 0xf2, 0x05, 0x2d, 0x17, 0x34, 0x23, 0xbc, 0x38, 0x19,
  0x81, 0x5d, 0xd1, 0xa0, 0x4b, 0xbb, 0x7a, 0x12, 0x71, 0xbf, 0xa4, 0x72,
  0xd9, 0xac, 0xbe, 0x04, 0x0b, 0x4a, 0x37, 0x5f, 0xb3, 0x13, 0x13, 0xbd,
  0x65, 0xce, 0x7f, 0xe7, 0x2c, 0x7f, 0xc8, 0x29, 0xd7, 0x7f, 0xbc, 0x64,
  0xce, 0xb1, 0x4d, 0xe1, 0x24, 0x4b, 0x2b, 0xc4, 0x7f, 0xe5, 0xf4, 0xc2,
  0xda, 0xe4, 0xb7, 0x3d, 0x48, 0x13, 0x02, 0x5c, 0x0c, 0xc8, 0xee, 0x32,
  0xd1, 0x7f, 0xe5, 0x93, 0x42, 0xe4, 0xd6, 0x1b, 0x3f, 0xf3, 0x05, 0x5d,
  0x05, 0xf1, 0xe0, 0x47, 0xcf, 0x29, 0x1b, 0xf8, 0xe3, 0x81, 0xae, 0xc2,
  0x07, 0x3c, 0x04, 0xda, 0xe9, 0x7f, 0xbd, 0xe3, 0xaa, 0x32, 0xbd, 0x52,
  0xe0, 0xc3, 0xfe, 0xb6, 0x26, 0x4e, 0x0f, 0xcb, 0x82, 0xf3, 0xff, 0xff,
  0x04, 0x00, 0x00, 0x00, 0x4b, 0x00, 0x00, 0x00, 0xaf, 0x18, 0xe8, 0x20,
  0x07, 0xfd, 0xc9, 0x07, 0x2f, 0xf2, 0x12, 0xfe, 0xf9, 0xd1, 0x16, 0xfa,
  0xb6, 0x46, 0xd6, 0xe2, 0xf7, 0x38, 0xea, 0x3b, 0x69, 0xa3, 0xf8, 0xfd,
  0x0a, 0x40, 0x7f, 0x0e, 0xc6, 0xef, 0x81, 0xaf, 0x81, 0x17, 0xe8, 0x35,
  0xa7, 0x7f, 0x7f, 0x7f, 0x7f, 0xf8, 0x31, 0x7f, 0x81, 0xd0, 0x81, 0x96,
  0x1b, 0x81, 0xf8, 0xed, 0x6f, 0x4f, 0xeb, 0x3b, 0xdb, 0x81, 0xfd, 0xed,
  0xbf, 0xe4, 0xf4, 0x81, 0xc6, 0x7f, 0x81, 0xe1, 0x41, 0xfa, 0x4f, 0x00,
  0xda, 0xf3, 0xff, 0xff, 0x04, 0x00, 0x00, 0x00, 0x78, 0x00, 0x00, 0x00,
  0x00, 0x00, 0x00, 0x00, 0x00, 0x00, 0x00, 0x00, 0x00, 0x00, 0x00, 0x00,
  0x00, 0x00, 0x00, 0x00, 0x00, 0x00, 0x00, 0x00, 0x00, 0x00, 0x00, 0x00,
  0x00, 0x00, 0x00, 0x00, 0x00, 0x00, 0x00, 0x00, 0x00, 0x00, 0x00, 0x00,
  0x00, 0x00, 0x00, 0x00, 0x00, 0x00, 0x00, 0x00, 0x00, 0x00, 0x00, 0x00,
  0x00, 0x00, 0x00, 0x00, 0x00, 0x00, 0x00, 0x00, 0x00, 0x00, 0x00, 0x00,
  0x00, 0x00, 0x00, 0x00, 0x00, 0x00, 0x00, 0x00, 0x00, 0x00, 0x00, 0x00,
  0x00, 0x00, 0x00, 0x00, 0x00, 0x00, 0x00, 0x00, 0x00, 0x00, 0x00, 0x00,
  0x00, 0x00, 0x00, 0x00, 0x00, 0x00, 0x00, 0x00, 0x00, 0x00, 0x00, 0x00,
  0x00, 0x00, 0x00, 0x00, 0x00, 0x00, 0x00, 0x00, 0x00, 0x00, 0x00, 0x00,
  0x00, 0x00, 0x00, 0x00, 0x00, 0x00, 0x00, 0x00, 0x00, 0x00, 0x00, 0x00,
  0x5e, 0xf4, 0xff, 0xff, 0x04, 0x00, 0x00, 0x00, 0x4b, 0x00, 0x00, 0x00,
  0x1e, 0xf1, 0x0d, 0xe5, 0xd8, 0x64, 0xc0, 0xcc, 0x0d, 0x08, 0x41, 0xc6,
  0x20, 0x81, 0xb0, 0x26, 0x81, 0x81, 0x3d, 0x5f, 0x7f, 0x48, 0xf9, 0x7f,
  0x39, 0xa0, 0x47, 0xd1, 0x5e, 0xa8, 0x4f, 0x2b, 0x41, 0x10, 0x81, 0x32,
  0x47, 0x81, 0x56, 0xd0, 0x7f, 0x9e, 0x81, 0x58, 0xc1, 0x7f, 0x3b, 0x4a,
  0xfa, 0x39, 0xf6, 0x7f, 0xc4, 0x2b, 0x81, 0x0c, 0x81, 0x52, 0xfc, 0x81,
  0xe8, 0x00, 0x07, 0x81, 0x02, 0x16, 0xea, 0xf6, 0x11, 0xd6, 0x0d, 0x77,
  0xbe, 0x05, 0xb4, 0x00, 0xb6, 0xf4, 0xff, 0xff, 0x04, 0x00, 0x00, 0x00,
  0x90, 0x00, 0x00, 0x00, 0xd9, 0xa9, 0xf6, 0x6a, 0x2b, 0x8d, 0x6c, 0x33,
  0x29, 0x3f, 0x7f, 0x03, 0xf3, 0xea, 0xf8, 0x36, 0x9c, 0xf6, 0xac, 0xfa,
  0x34, 0xa7, 0x07, 0x7f, 0xd9, 0x92, 0x68, 0xc9, 0x36, 0xa1, 0xc6, 0xf6,
  0xf2, 0xce, 0x58, 0x81, 0x20, 0x71, 0x16, 0xc8, 0xb5, 0x13, 0x50, 0x54,
  0x69, 0x05, 0x81, 0x0f, 0x9e, 0xb5, 0x95, 0x0c, 0xd5, 0x81, 0x75, 0xba,
  0x43, 0x23, 0x15, 0x17, 0xae, 0x37, 0x0b, 0xe2, 0xcd, 0x7f, 0x18, 0xae,
  0x99, 0xbe, 0xb2, 0xf9, 0xba, 0x07, 0x4f, 0xcf, 0xec, 0x81, 0x64, 0x43,
  0x17, 0xe1, 0x0a, 0xe0, 0x81, 0x9c, 0x2c, 0xac, 0x32, 0x8a, 0xbc, 0xcf,
  0x9a, 0xca, 0x39, 0xdd, 0xce, 0xf2, 0xbb, 0xee, 0xec, 0x21, 0xe5, 0x09,
  0xbc, 0xff, 0x01, 0x7f, 0x41, 0xab, 0x15, 0x86, 0x7f, 0xd6, 0x57, 0x19,
  0xb9, 0xeb, 0x12, 0xe7, 0x81, 0x17, 0xfc, 0xd5, 0x2d, 0xc1, 0x2b, 0xe4,
  0x6b, 0x98, 0x63, 0xfe, 0xe8, 0x04, 0x31, 0xda, 0x16, 0x6b, 0x02, 0xfe,
  0x81, 0xf5, 0xed, 0xf0, 0x52, 0xf5, 0xff, 0xff, 0x04, 0x00, 0x00, 0x00,
  0x3c, 0x00, 0x00, 0x00, 0x0a, 0x1f, 0x59, 0x02, 0xd1, 0xf3, 0x0c, 0xc0,
  0xef, 0xef, 0xe2, 0x27, 0x46, 0x20, 0x62, 0xd0, 0xd9, 0xa7, 0x95, 0xa9,
  0xfa, 0x98, 0xad, 0x5f, 0x7f, 0x57, 0x21, 0xd4, 0x81, 0x8a, 0xbf, 0x81,
  0x55, 0x81, 0x81, 0x7f, 0x6b, 0x7f, 0x7f, 0x81, 0xb4, 0xac, 0x81, 0xad,
  0x7f, 0xc8, 0x9a, 0x28, 0x36, 0x15, 0x27, 0x0d, 0xb7, 0x81, 0xad, 0xb1,
  0xce, 0xa6, 0xbc, 0x42, 0x9a, 0xf5, 0xff, 0xff, 0x04, 0x00, 0x00, 0x00,
  0x3c, 0x00, 0x00, 0x00, 0x0a, 0x7f, 0x7f, 0x81, 0x24, 0xd1, 0x02, 0x81,
  0xcd, 0xf1, 0x81, 0x0c, 0x07, 0x31, 0x31, 0x41, 0xfc, 0xfa, 0x60, 0x73,
  0x7f, 0xf6, 0xba, 0x27, 0x30, 0xc3, 0x79, 0xf8, 0x79, 0xa9, 0xf3, 0xcd,
  0x6b, 0xda, 0x27, 0x8f, 0x7f, 0xf3, 0x4b, 0xc0, 0x55, 0x81, 0x81, 0xb7,
  0x98, 0x81, 0xf7, 0x07, 0x19, 0xfa, 0x23, 0xf6, 0x7f, 0x9b, 0x04, 0xd0,
  0xc9, 0x20, 0xf0, 0x81, 0xe2, 0xf5, 0xff, 0xff, 0x04, 0x00, 0x00, 0x00,
  0xb4, 0x00, 0x00, 0x00, 0x15, 0xb9, 0xf4, 0x46, 0xa0, 0x27, 0x02, 0xdd,
  0xf2, 0x7f, 0x21, 0x2a, 0x3d, 0xeb, 0x3d, 0xe1, 0xf7, 0x6d, 0x4f, 0x7f,
  0x4c, 0x00, 0x08, 0xc8, 0x66, 0xa6, 0x73, 0x85, 0x95, 0x7e, 0x2c, 0x08,
  0xd1, 0x3a, 0xd3, 0xb0, 0xee, 0xcd, 0x81, 0x9a, 0x20, 0xf6, 0x13, 0xd8,
  0xf6, 0x29, 0xc4, 0x2b, 0x17, 0x35, 0xc8, 0xb4, 0xbf, 0xf0, 0x16, 0x36,
  0x81, 0x43, 0xd0, 0x01, 0xf6, 0x15, 0x0a, 0x08, 0x08, 0x0a, 0x56, 0x18,
  0xf4, 0x3e, 0x7f, 0xec, 0xd9, 0xfa, 0xf5, 0x2d, 0x2a, 0x12, 0x7f, 0x95,
  0x44, 0x42, 0xd9, 0x07, 0xc1, 0x27, 0x1e, 0x42, 0x01, 0x00, 0x81, 0xf1,
  0xf9, 0xf9, 0xe5, 0x17, 0xd8, 0x04, 0xc7, 0x47, 0xd1, 0x43, 0x22, 0x05,
  0x14, 0xfc, 0x03, 0xa6, 0x4c, 0xdf, 0xc1, 0xbd, 0x8c, 0x3d, 0x24, 0x2c,
  0xd8, 0xd0, 0x81, 0xed, 0x87, 0xe4, 0xc2, 0xac, 0xd6, 0xb9, 0xd0, 0x43,
  0xeb, 0x7f, 0x9d, 0x74, 0xf9, 0xe3, 0x90, 0x00, 0x63, 0xef, 0x01, 0xf7,
  0xb1, 0x42, 0xdc, 0x15, 0x1b, 0x10, 0xe7, 0xd4, 0xcd, 0x81, 0x1b, 0x17,
  0x7f, 0xc4, 0xf3, 0x38, 0x34, 0xfd, 0xc0, 0x2e, 0x36, 0x0d, 0xce, 0x84,
  0x49, 0x1f, 0x7f, 0xf8, 0x4e, 0x53, 0x39, 0x44, 0xab, 0x16, 0xf9, 0x01,
  0xe9, 0x2e, 0xfe, 0x2b, 0xa2, 0xf6, 0xff, 0xff, 0x04, 0x00, 0x00, 0x00,
  0x4b, 0x00, 0x00, 0x00, 0x7f, 0xf1, 0x25, 0xd2, 0xf0, 0x7f, 0xd0, 0xef,
  0xdd, 0xeb, 0xe3, 0x12, 0xaf, 0xa8, 0x20, 0x2a, 0x18, 0x30, 0x7f, 0xb2,
  0x91, 0x4c, 0x38, 0x45, 0x3a, 0x44, 0xb9, 0xe8, 0x20, 0xa0, 0xf4, 0x7f,
  0x09, 0x44, 0xd8, 0x15, 0x7f, 0x7f, 0x7f, 0x81, 0x7f, 0x81, 0xce, 0xaf,
  0xc6, 0x5d, 0xf0, 0x7f, 0x36, 0x81, 0xee, 0xfd, 0x0a, 0xd0, 0x9b, 0x30,
  0xb7, 0x81, 0x81, 0x81, 0x2f, 0xfa, 0x21, 0xf1, 0x05, 0x7d, 0x09, 0x17,
  0xce, 0x25, 0xe6, 0xef, 0xfd, 0x14, 0x24, 0x00, 0xfa, 0xf6, 0xff, 0xff,
  0x04, 0x00, 0x00, 0x00, 0x4b, 0x00, 0x00, 0x00, 0x52, 0x04, 0xfd, 0x09,
  0x0c, 0x28, 0x51, 0xd4, 0x15, 0xd0, 0x37, 0xa1, 0x31, 0xf5, 0x1b, 0x1d,
  0x04, 0xe2, 0xc4, 0x7f, 0x81, 0x0a, 0x81, 0x7f, 0x17, 0x81, 0x93, 0x7f,
  0x81, 0x29, 0xf8, 0x81, 0x00, 0x1b, 0xf7, 0x09, 0x81, 0x47, 0x4b, 0x92,
  0x2a, 0x47, 0x28, 0xa7, 0x61, 0x81, 0x04, 0x81, 0x2f, 0x96, 0x19, 0xf7,
  0x97, 0x5f, 0x13, 0x76, 0x0d, 0xe9, 0x3b, 0x7f, 0xa2, 0xf2, 0xa4, 0x81,
  0x0e, 0xca, 0x05, 0xe8, 0xe4, 0x7f, 0xca, 0x7f, 0xfc, 0x1e, 0x3c, 0x00,
  0x52, 0xf7, 0xff, 0xff, 0x04, 0x00, 0x00, 0x00, 0x2c, 0x01, 0x00, 0x00,
  0xe4, 0x37, 0x0c, 0xe9, 0x0c, 0x15, 0xe3, 0xef, 0xc9, 0xf6, 0x1a, 0x02,
  0xb1, 0x81, 0xcd, 0xed, 0x73, 0x15, 0x1d, 0xf4, 0x08, 0x3d, 0xac, 0xee,
  0x3d, 0xab, 0xb5, 0x6b, 0xfe, 0xef, 0x24, 0x1f, 0xd3, 0xec, 0x7f, 0x1a,
  0x00, 0x52, 0xed, 0x4f, 0x1c, 0xdc, 0xf5, 0xaf, 0x81, 0xe7, 0x4c, 0x2c,
  0x1d, 0xc2, 0x0d, 0xf7, 0x13, 0x0e, 0x3e, 0x05, 0xcb, 0xfa, 0x17, 0x10,
  0x4c, 0x34, 0xd6, 0x7f, 0x29, 0x1a, 0x01, 0xd1, 0x39, 0xae, 0x23, 0x33,
  0xf7, 0x46, 0xf3, 0x4c, 0xe0, 0x04, 0x57, 0x27, 0xd3, 0x25, 0x0e, 0x00,
  0xe2, 0xef, 0xcf, 0xc0, 0xd0, 0x8e, 0x7d, 0xd0, 0xac, 0xed, 0x32, 0x81,
  0x1b, 0xee, 0x2a, 0x15, 0x3e, 0x1e, 0xfa, 0x3b, 0x1f, 0x16, 0x36, 0xff,
  0x34, 0xac, 0x81, 0x30, 0xd9, 0xad, 0x3f, 0x3e, 0x28, 0x03, 0x06, 0x1e,
  0x08, 0xc8, 0xbc, 0xe9, 0xc0, 0xd6, 0x2a, 0x0e, 0x09, 0x57, 0x16, 0xd1,
  0x40, 0x06, 0xc0, 0x2c, 0x1a, 0x1a, 0x13, 0x7f, 0x1c, 0x62, 0xfe, 0xde,
  0x59, 0xdf, 0x81, 0xfe, 0x24, 0xd3, 0xee, 0xf5, 0x20, 0xe2, 0xda, 0x38,
  0xd9, 0x67, 0x21, 0x0f, 0x5f, 0xb5, 0x0b, 0x49, 0xfe, 0xb2, 0x53, 0x13,
  0x37, 0x1c, 0x28, 0x15, 0x94, 0x01, 0xc4, 0x35, 0x11, 0x85, 0x23, 0x7f,
  0x89, 0x7f, 0xc4, 0x0f, 0x18, 0x02, 0x08, 0x17, 0x67, 0xf4, 0xae, 0xca,
  0x05, 0x3d, 0x10, 0xc0, 0x3b, 0x66, 0xc4, 0xea, 0x14, 0x30, 0x61, 0xb9,
  0xfa, 0xde, 0x81, 0x10, 0x55, 0xe1, 0xea, 0xde, 0xea, 0xf4, 0x1b, 0x2f,
  0xbe, 0x68, 0x65, 0xdf, 0xed, 0x4f, 0xd9, 0x02, 0x47, 0xf6, 0xf3, 0xf2,
  0x81, 0xe8, 0xb5, 0x18, 0x04, 0x50, 0x59, 0x20, 0x2c, 0x05, 0x3b, 0xfa,
  0xec, 0x28, 0xfb, 0x95, 0xae, 0xbd, 0xce, 0x93, 0x17, 0x88, 0x05, 0xe5,
  0xcc, 0xeb, 0x08, 0x18, 0xf2, 0x7f, 0x3b, 0x02, 0xfa, 0x47, 0xe4, 0x10,
  0xdf, 0x45, 0x8c, 0xc4, 0xba, 0xb0, 0xb0, 0xd0, 0x21, 0x00, 0xcc, 0xb1,
  0x81, 0xa3, 0xe1, 0xde, 0xd2, 0x1d, 0x26, 0x41, 0x25, 0x30, 0xe7, 0xaa,
  0xef, 0x2d, 0xe5, 0xc8, 0x09, 0xeb, 0x7f, 0x05, 0xe3, 0xd5, 0xd7, 0xf4,
  0x8a, 0xf8, 0xff, 0xff, 0x04, 0x00, 0x00, 0x00, 0x64, 0x00, 0x00, 0x00,
  0x94, 0x46, 0xc7, 0x11, 0x56, 0x40, 0x50, 0x37, 0x58, 0x5b, 0x7f, 0x7f,
  0x6a, 0x81, 0x1e, 0x7f, 0x2d, 0x08, 0x45, 0x3a, 0xcf, 0x81, 0xbd, 0xba,
  0x81, 0x81, 0x81, 0x6d, 0x16, 0xb6, 0x8a, 0xfa, 0x53, 0xd3, 0x08, 0xb9,
  0x11, 0x54, 0xdf, 0x07, 0x81, 0xb6, 0x9a, 0x7f, 0x09, 0xb6, 0x8f, 0x47,
  0xf0, 0x40, 0xc1, 0x2a, 0x81, 0xd3, 0x03, 0x63, 0x7f, 0x7f, 0x81, 0x1f,
  0x1a, 0x32, 0x7f, 0x0a, 0xdf, 0xb7, 0xcd, 0x7f, 0x31, 0x81, 0x43, 0x89,
  0xdf, 0xd8, 0x15, 0xd5, 0xe8, 0xfc, 0xb9, 0x7f, 0x95, 0x1b, 0xf2, 0xaf,
  0x35, 0x15, 0x01, 0x35, 0x81, 0x24, 0x11, 0x17, 0x38, 0xc9, 0x81, 0x8b,
  0x1d, 0xf1, 0xf8, 0x02, 0xfa, 0xf8, 0xff, 0xff, 0x04, 0x00, 0x00, 0x00,
  0xa0, 0x00, 0x00, 0x00, 0x00, 0x00, 0x00, 0x00, 0x00, 0x00, 0x00, 0x00,
  0x00, 0x00, 0x00, 0x00, 0x00, 0x00, 0x00, 0x00, 0x00, 0x00, 0x00, 0x00,
  0x00, 0x00, 0x00, 0x00, 0x00, 0x00, 0x00, 0x00, 0x00, 0x00, 0x00, 0x00,
  0x00, 0x00, 0x00, 0x00, 0x00, 0x00, 0x00, 0x00, 0x00, 0x00, 0x00, 0x00,
  0x00, 0x00, 0x00, 0x00, 0x00, 0x00, 0x00, 0x00, 0x00, 0x00, 0x00, 0x00,
  0x00, 0x00, 0x00, 0x00, 0x00, 0x00, 0x00, 0x00, 0x00, 0x00, 0x00, 0x00,
  0x00, 0x00, 0x00, 0x00, 0x00, 0x00, 0x00, 0x00, 0x00, 0x00, 0x00, 0x00,
  0x00, 0x00, 0x00, 0x00, 0x00, 0x00, 0x00, 0x00, 0x00, 0x00, 0x00, 0x00,
  0x00, 0x00, 0x00, 0x00, 0x00, 0x00, 0x00, 0x00, 0x00, 0x00, 0x00, 0x00,
  0x00, 0x00, 0x00, 0x00, 0x00, 0x00, 0x00, 0x00, 0x00, 0x00, 0x00, 0x00,
  0x00, 0x00, 0x00, 0x00, 0x00, 0x00, 0x00, 0x00, 0x00, 0x00, 0x00, 0x00,
  0x00, 0x00, 0x00, 0x00, 0x00, 0x00, 0x00, 0x00, 0x00, 0x00, 0x00, 0x00,
  0x00, 0x00, 0x00, 0x00, 0x00, 0x00, 0x00, 0x00, 0x00, 0x00, 0x00, 0x00,
  0x00, 0x00, 0x00, 0x00, 0x00, 0x00, 0x00, 0x00, 0xa6, 0xf9, 0xff, 0xff,
  0x04, 0x00, 0x00, 0x00, 0x64, 0x00, 0x00, 0x00, 0x00, 0xce, 0x81, 0xe7,
  0x04, 0x81, 0x5c, 0x5f, 0x2a, 0xb0, 0xa7, 0x27, 0x81, 0x7f, 0x9c, 0xf9,
  0xdb, 0x7f, 0xa0, 0xfe, 0xf7, 0x7f, 0xd2, 0x81, 0x7f, 0xcf, 0x81, 0x66,
  0x45, 0x7f, 0x15, 0x0a, 0xf8, 0x04, 0x65, 0x0c, 0x7f, 0xd6, 0xee, 0x7f,
  0x7f, 0x67, 0x54, 0xce, 0x08, 0x31, 0x12, 0xeb, 0x57, 0x6f, 0x43, 0x1c,
  0xe9, 0xa7, 0x56, 0x7f, 0x99, 0xd6, 0x5a, 0xb5, 0x08, 0xf4, 0x79, 0x59,
  0xff, 0x08, 0x09, 0x93, 0x7f, 0xa7, 0x81, 0x7f, 0xf1, 0xd9, 0x04, 0x39,
  0x53, 0x12, 0x81, 0xe8, 0xeb, 0xf2, 0x83, 0xdb, 0xd5, 0x1c, 0x03, 0x81,
  0x25, 0xd1, 0xf1, 0x11, 0x16, 0x0d, 0x81, 0x10, 0xb7, 0xca, 0x04, 0x17,
  0x16, 0xfa, 0xff, 0xff, 0x04, 0x00, 0x00, 0x00, 0xe1, 0x00, 0x00, 0x00,
  0x7f, 0xdf, 0x38, 0xe5, 0xf3, 0x0c, 0x07, 0x00, 0xe5, 0xf9, 0x54, 0xd4,
  0xeb, 0x83, 0x3d, 0x05, 0xff, 0xea, 0xdf, 0x42, 0x13, 0xf8, 0x00, 0x3c,
  0x2a, 0x22, 0xec, 0x42, 0x81, 0xf5, 0xc9, 0xee, 0xa2, 0x16, 0x1e, 0x33,
  0x7f, 0x00, 0x18, 0xe6, 0x4e, 0x0d, 0x98, 0x57, 0xea, 0xc6, 0x85, 0xe8,
  0x81, 0x04, 0x0a, 0x97, 0x00, 0xce, 0xf5, 0xf0, 0xc9, 0xf4, 0xe7, 0x08,
  0xb1, 0xaa, 0x10, 0xf7, 0x7f, 0xe0, 0xa9, 0x00, 0xb2, 0x2a, 0x17, 0xb8,
  0x0f, 0xea, 0xe2, 0xeb, 0xeb, 0xea, 0x1b, 0x22, 0xdc, 0xef, 0x00, 0xe5,
  0x81, 0xec, 0xfd, 0xf2, 0x2f, 0xd3, 0x23, 0xeb, 0xfb, 0xf6, 0x0c, 0xdd,
  0xfd, 0x00, 0xba, 0xee, 0x22, 0xf8, 0xee, 0x0c, 0x7f, 0x29, 0xfd, 0x19,
  0xcb, 0x34, 0xd9, 0xf6, 0x00, 0xed, 0xf5, 0xcf, 0xdf, 0x1b, 0x81, 0xfe,
  0xf3, 0x42, 0xd5, 0xe6, 0x0c, 0xec, 0x21, 0x00, 0xe9, 0x42, 0x81, 0xdc,
  0xf8, 0x17, 0xf9, 0xc1, 0x81, 0x48, 0x3c, 0xd3, 0x19, 0xc9, 0x00, 0x1b,
  0xdc, 0x4e, 0x5c, 0xdd, 0xa0, 0x22, 0xea, 0x22, 0x1e, 0xa7, 0x09, 0x05,
  0xfa, 0x00, 0x1f, 0xd6, 0x4e, 0xdb, 0xcf, 0x81, 0xf1, 0x34, 0x37, 0x1f,
  0x43, 0x6b, 0xd1, 0x41, 0x00, 0x24, 0x50, 0x36, 0xe7, 0x7f, 0x03, 0xf2,
  0xd6, 0xf6, 0xfe, 0xfc, 0x28, 0xc1, 0xed, 0x00, 0xae, 0x7f, 0xe2, 0x0b,
  0xb5, 0x9f, 0xf2, 0x48, 0xdb, 0x15, 0xf9, 0xbf, 0x12, 0xf2, 0x00, 0xce,
  0x1a, 0xe9, 0x2d, 0x00, 0xe0, 0x81, 0xdb, 0x04, 0x9d, 0x21, 0x1d, 0x7f,
  0x06, 0x00, 0x17, 0x12, 0x9f, 0xc6, 0x03, 0x03, 0xdf, 0x00, 0x00, 0x00,
  0x06, 0xfb, 0xff, 0xff, 0x04, 0x00, 0x00, 0x00, 0x4b, 0x00, 0x00, 0x00,
  0x7f, 0x21, 0x5b, 0x7f, 0x13, 0xd9, 0x14, 0x81, 0xf9, 0x30, 0x17, 0xcd,
  0xff, 0xec, 0xf3, 0x60, 0x81, 0x7f, 0x0c, 0x25, 0xf4, 0x81, 0xd5, 0x12,
  0xd0, 0x6c, 0xce, 0x02, 0x7f, 0xa8, 0x6c, 0xac, 0x59, 0x68, 0x81, 0x81,
  0xca, 0xf6, 0x7f, 0x04, 0xd6, 0x81, 0x7f, 0x70, 0x81, 0xed, 0x1e, 0x79,
  0x1a, 0x19, 0xfb, 0xbd, 0x01, 0x03, 0x81, 0x7f, 0x9c, 0xe8, 0xf2, 0xc3,
  0x6e, 0xe9, 0x40, 0xdf, 0x36, 0xd8, 0xfa, 0x88, 0xea, 0x39, 0xc7, 0x83,
  0x00, 0xdf, 0xec, 0x00, 0x5e, 0xfb, 0xff, 0xff, 0x04, 0x00, 0x00, 0x00,
  0x4b, 0x00, 0x00, 0x00, 0xf6, 0x36, 0x5c, 0x81, 0x06, 0x0a, 0xe2, 0x40,
  0xeb, 0xf8, 0x98, 0xf0, 0xb2, 0x91, 0xd4, 0xb8, 0x78, 0xf0, 0x89, 0xed,
  0x9a, 0x81, 0xb7, 0x1c, 0x48, 0xcd, 0x1a, 0x7f, 0x68, 0x81, 0x81, 0x81,
  0xf9, 0x46, 0x11, 0x81, 0x97, 0xa7, 0xa5, 0xab, 0x81, 0x48, 0x2a, 0x7f,
  0x13, 0x5c, 0xfb, 0x21, 0x54, 0xe6, 0xc0, 0x53, 0x81, 0x81, 0x81, 0x54,
  0x81, 0xb9, 0x0c, 0x1a, 0x0a, 0x1d, 0x7f, 0x1d, 0x81, 0xb3, 0x27, 0xf7,
  0x07, 0xc9, 0x02, 0xcc, 0xd1, 0x0d, 0x0b, 0x00, 0xb6, 0xfb, 0xff, 0xff,
  0x04, 0x00, 0x00, 0x00, 0x2c, 0x01, 0x00, 0x00, 0xe3, 0xa5, 0x00, 0xf4,
  0x2d, 0xdb, 0xce, 0x30, 0x7f, 0x10, 0xf7, 0x0c, 0x0a, 0xca, 0x32, 0xf6,
  0xdc, 0x12, 0xf7, 0xd0, 0xe0, 0xee, 0x7f, 0x3c, 0xf5, 0xe7, 0x15, 0x2a,
  0xdd, 0x02, 0x04, 0x1b, 0x15, 0x13, 0x10, 0x02, 0xb1, 0x3a, 0x53, 0x31,
  0x0b, 0x39, 0x28, 0x07, 0x04, 0x19, 0xf1, 0x7f, 0xbf, 0x9c, 0xec, 0xf2,
  0xf8, 0x10, 0xd8, 0xd6, 0xc2, 0x4b, 0x02, 0x0c, 0x14, 0xd2, 0x02, 0xd4,
  0xff, 0x06, 0xf7, 0x5a, 0x18, 0x23, 0x1c, 0x7f, 0xf9, 0x05, 0x06, 0x2a,
  0xf5, 0x23, 0x2f, 0xd6, 0xe9, 0x16, 0xde, 0x49, 0x1e, 0xdb, 0xf1, 0x06,
  0xbb, 0x2f, 0x08, 0x0b, 0xe2, 0x07, 0x7f, 0xed, 0xf8, 0xfb, 0x05, 0xd8,
  0x51, 0x19, 0xfb, 0xd3, 0x04, 0x22, 0xee, 0x0d, 0x04, 0x81, 0xf8, 0x09,
  0xf9, 0xe9, 0xe3, 0xbd, 0x08, 0x14, 0xf8, 0xf9, 0x81, 0xe1, 0xb8, 0x4a,
  0xe2, 0xce, 0xfd, 0xd2, 0xfc, 0x5c, 0x12, 0x06, 0xdf, 0x1f, 0x42, 0x64,
  0xf0, 0xfb, 0x18, 0x08, 0x00, 0x00, 0x00, 0x00, 0x00, 0x00, 0x00, 0x00,
  0x00, 0x00, 0x00, 0x00, 0x00, 0x00, 0x00, 0x00, 0x00, 0x00, 0x00, 0x00,
  0x55, 0x44, 0xcd, 0xb5, 0xd4, 0x33, 0xcf, 0xf5, 0xfd, 0xce, 0x09, 0xf7,
  0x81, 0xf7, 0x0f, 0xa0, 0x22, 0x00, 0xd8, 0xc1, 0xe6, 0xf5, 0x1a, 0xf3,
  0xf4, 0x0a, 0xf0, 0x0a, 0xfc, 0x01, 0xfe, 0xea, 0xde, 0x7f, 0xf2, 0x05,
  0x13, 0xc7, 0x01, 0xfe, 0xf6, 0xf7, 0xf3, 0xfc, 0xe0, 0x19, 0xdb, 0xe4,
  0x25, 0x0d, 0xee, 0x2e, 0x81, 0xf3, 0xef, 0x04, 0x32, 0xde, 0xcc, 0x3f,
  0x50, 0xf5, 0xe5, 0xbd, 0x36, 0x10, 0x09, 0x03, 0xf6, 0xe5, 0xec, 0x02,
  0x1a, 0xdf, 0xcc, 0x81, 0xb3, 0xfd, 0xc3, 0xa6, 0xc7, 0xff, 0x1a, 0xd0,
  0xc0, 0x1e, 0xf9, 0x0e, 0x56, 0x39, 0x26, 0xdb, 0x5f, 0xdc, 0xe0, 0xe3,
  0xee, 0x18, 0x0b, 0x81, 0x26, 0x05, 0xff, 0x17, 0xc3, 0xb6, 0xda, 0x02,
  0xe3, 0x00, 0x81, 0xfc, 0x0a, 0x0c, 0x3b, 0xf1, 0xef, 0x04, 0xdf, 0x2a,
  0x1d, 0x05, 0xc2, 0x41, 0xc3, 0xf4, 0x6c, 0xfe, 0xee, 0xef, 0x9c, 0x1c,
  0x03, 0xf7, 0x24, 0xf3, 0x23, 0xf9, 0x81, 0x23, 0xee, 0xfc, 0xff, 0xff,
  0x04, 0x00, 0x00, 0x00, 0x64, 0x00, 0x00, 0x00, 0xd7, 0x20, 0xf9, 0x13,
  0x2e, 0x0b, 0x7f, 0x81, 0xca, 0x36, 0x1a, 0x17, 0x1c, 0x89, 0x0b, 0xe1,
  0x2b, 0x81, 0xec, 0xd5, 0xa0, 0x69, 0x75, 0x48, 0x81, 0x06, 0x5a, 0x60,
  0xff, 0xaa, 0xe2, 0xc9, 0xd4, 0x81, 0x50, 0xfa, 0x60, 0x97, 0xf0, 0x01,
  0x81, 0xe5, 0x7f, 0x7f, 0x36, 0x8f, 0x89, 0xfa, 0x7f, 0x81, 0x7f, 0x05,
  0x81, 0x90, 0xf1, 0x81, 0x81, 0x98, 0x7f, 0x7f, 0x1d, 0x81, 0xee, 0x07,
  0xe4, 0x7f, 0xff, 0x47, 0xf8, 0x08, 0x20, 0x81, 0x19, 0xd3, 0x7f, 0x6f,
  0xcb, 0x2c, 0x5f, 0xef, 0x98, 0xcf, 0xf4, 0x0d, 0x26, 0xa1, 0xa5, 0xcd,
  0xf3, 0x22, 0x16, 0x96, 0x75, 0x0f, 0xef, 0xe6, 0x85, 0x2d, 0x13, 0x0c,
  0x5e, 0xfd, 0xff, 0xff, 0x04, 0x00, 0x00, 0x00, 0x64, 0x00, 0x00, 0x00,
  0x7f, 0x91, 0xf6, 0x7f, 0xe9, 0x7f, 0x1f, 0x01, 0xe3, 0x7f, 0x0d, 0x28,
  0xcb, 0xdc, 0x81, 0x7f, 0xcd, 0x18, 0xd0, 0xeb, 0xda, 0xdf, 0x7f, 0xdb,
  0x7f, 0x32, 0xfc, 0xe1, 0x81, 0xf8, 0x2e, 0x12, 0x99, 0xe5, 0x1d, 0xc6,
  0xa4, 0x57, 0x81, 0x29, 0xa5, 0x7f, 0xaf, 0x34, 0x70, 0x42, 0x81, 0xe2,
  0xc4, 0x89, 0x7f, 0xff, 0x9f, 0x16, 0x1b, 0xc4, 0xf6, 0x15, 0x7b, 0x81,
  0xd3, 0xb7, 0xa6, 0xb8, 0x29, 0xda, 0xeb, 0xc5, 0xe2, 0x12, 0xe8, 0x70,
  0x06, 0x08, 0xe1, 0x17, 0x7f, 0xf5, 0x1e, 0x45, 0xfd, 0x06, 0x18, 0xf9,
  0xda, 0x03, 0xe2, 0x7f, 0xf0, 0xf0, 0x10, 0x81, 0x81, 0x7f, 0xd5, 0xe2,
  0x0f, 0x81, 0x40, 0x11, 0xce, 0xfd, 0xff, 0xff, 0x04, 0x00, 0x00, 0x00,
  0x14, 0x00, 0x00, 0x00, 0x81, 0x7f, 0x81, 0x81, 0x7f, 0x81, 0x7f, 0x7f,
  0x81, 0x7f, 0x7f, 0x7f, 0x7f, 0x81, 0x7f, 0x7f, 0x7f, 0x7f, 0x7f, 0x7f,
  0xee, 0xfd, 0xff, 0xff, 0x04, 0x00, 0x00, 0x00, 0x07, 0x00, 0x00, 0x00,
  0x14, 0x9e, 0x81, 0x62, 0xf7, 0xed, 0x09, 0x00, 0x02, 0xfe, 0xff, 0xff,
  0x04, 0x00, 0x00, 0x00, 0x07, 0x00, 0x00, 0x00, 0x00, 0x81, 0x22, 0xfa,
  0x03, 0xfe, 0x02, 0x00, 0x16, 0xfe, 0xff, 0xff, 0x04, 0x00, 0x00, 0x00,
  0x20, 0x00, 0x00, 0x00, 0x00, 0x00, 0x00, 0x00, 0x00, 0x00, 0x00, 0x00,
  0x03, 0x00, 0x00, 0x00, 0x03, 0x00, 0x00, 0x00, 0x03, 0x00, 0x00, 0x00,
  0x03, 0x00, 0x00, 0x00, 0x00, 0x00, 0x00, 0x00, 0x00, 0x00, 0x00, 0x00,
  0x42, 0xfe, 0xff, 0xff, 0x04, 0x00, 0x00, 0x00, 0x78, 0x00, 0x00, 0x00,
  0x8d, 0xd0, 0xfd, 0xff, 0xff, 0xff, 0xff, 0xff, 0x4d, 0xfa, 0x01, 0x00,
  0x00, 0x00, 0x00, 0x00, 0x68, 0x99, 0xff, 0xff, 0xff, 0xff, 0xff, 0xff,
  0xfb, 0x44, 0x01, 0x00, 0x00, 0x00, 0x00, 0x00, 0xaa, 0x41, 0x00, 0x00,
  0x00, 0x00, 0x00, 0x00, 0xbc, 0x66, 0xff, 0xff, 0xff, 0xff, 0xff, 0xff,
  0x61, 0x3b, 0xff, 0xff, 0xff, 0xff, 0xff, 0xff, 0x80, 0xff, 0xff, 0xbf,
  0xff, 0xff, 0xff, 0xff, 0x3b, 0x11, 0x00, 0x00, 0x00, 0x00, 0x00, 0x00,
  0x74, 0x03, 0xfe, 0xff, 0xff, 0xff, 0xff, 0xff, 0x96, 0xcf, 0xfe, 0xff,
  0xff, 0xff, 0xff, 0xff, 0x06, 0xea, 0xff, 0xff, 0xff, 0xff, 0xff, 0xff,
  0x79, 0xc4, 0xfd, 0xff, 0xff, 0xff, 0xff, 0xff, 0xf9, 0x6e, 0xfe, 0xff,
  0xff, 0xff, 0xff, 0xff, 0x57, 0x53, 0xfd, 0xff, 0xff, 0xff, 0xff, 0xff,
  0xc6, 0xfe, 0xff, 0xff, 0x04, 0x00, 0x00, 0x00, 0x60, 0x00, 0x00, 0x00,
  0xc6, 0xb8, 0xfe, 0xff, 0xff, 0xff, 0xff, 0xff, 0x05, 0x5d, 0xff, 0xff,
  0xff, 0xff, 0xff, 0xff, 0x99, 0x5b, 0xff, 0xff, 0xff, 0xff, 0xff, 0xff,
  0x80, 0xaa, 0x00, 0x00, 0x00, 0x00, 0x00, 0x00, 0x8c, 0xbe, 0xff, 0xff,
  0xff, 0xff, 0xff, 0xff, 0xb2, 0x55, 0xfe, 0xff, 0xff, 0xff, 0xff, 0xff,
  0x4e, 0x11, 0xfa, 0xff, 0xff, 0xff, 0xff, 0xff, 0x30, 0x3d, 0x01, 0x00,
  0x00, 0x00, 0x00, 0x00, 0x97, 0xad, 0xff, 0xff, 0xff, 0xff, 0xff, 0xff,
  0x46, 0x64, 0x00, 0x00, 0x00, 0x00, 0x00, 0x00, 0x6b, 0x6d, 0xff, 0xff,
  0xff, 0xff, 0xff, 0xff, 0xa4, 0xce, 0x00, 0x00, 0x00, 0x00, 0x00, 0x00,
  0x32, 0xff, 0xff, 0xff, 0x04, 0x00, 0x00, 0x00, 0x48, 0x00, 0x00, 0x00,
  0x11, 0x0e, 0x08, 0x00, 0x00, 0x00, 0x00, 0x00, 0x0e, 0xcc, 0x01, 0x00,
  0x00, 0x00, 0x00, 0x00, 0xa3, 0x12, 0xfe, 0xff, 0xff, 0xff, 0xff, 0xff,
  0xb9, 0x98, 0x00, 0x00, 0x00, 0x00, 0x00, 0x00, 0xeb, 0x3e, 0x01, 0x00,
  0x00, 0x00, 0x00, 0x00, 0xdd, 0xd1, 0x01, 0x00, 0x00, 0x00, 0x00, 0x00,
  0x13, 0x85, 0xfe, 0xff, 0xff, 0xff, 0xff, 0xff, 0x20, 0x7e, 0xff, 0xff,
  0xff, 0xff, 0xff, 0xff, 0xb1, 0x2a, 0xfe, 0xff, 0xff, 0xff, 0xff, 0xff,
  0x86, 0xff, 0xff, 0xff, 0x04, 0x00, 0x00, 0x00, 0x38, 0x00, 0x00, 0x00,
  0xd3, 0x1f, 0xfe, 0xff, 0xff, 0xff, 0xff, 0xff, 0xcc, 0x67, 0x01, 0x00,
  0x00, 0x00, 0x00, 0x00, 0x96, 0x06, 0xee, 0xff, 0xff, 0xff, 0xff, 0xff,
  0xa4, 0x7c, 0xff, 0xff, 0xff, 0xff, 0xff, 0xff, 0x78, 0xb8, 0x01, 0x00,
  0x00, 0x00, 0x00, 0x00, 0xc7, 0x09, 0x00, 0x00, 0x00, 0x00, 0x00, 0x00,
  0x27, 0xc8, 0xff, 0xff, 0xff, 0xff, 0xff, 0xff, 0xca, 0xff, 0xff, 0xff,
  0x04, 0x00, 0x00, 0x00, 0x28, 0x00, 0x00, 0x00, 0x76, 0x54, 0xfd, 0xff,
  0xff, 0xff, 0xff, 0xff, 0xc6, 0x5f, 0xfe, 0xff, 0xff, 0xff, 0xff, 0xff,
  0x71, 0x33, 0xf5, 0xff, 0xff, 0xff, 0xff, 0xff, 0x24, 0xcf, 0x03, 0x00,
  0x00, 0x00, 0x00, 0x00, 0xe7, 0xf2, 0xfc, 0xff, 0xff, 0xff, 0xff, 0xff,
  0x00, 0x00, 0x06, 0x00, 0x08, 0x00, 0x04, 0x00, 0x06, 0x00, 0x00, 0x00,
  0x04, 0x00, 0x00, 0x00, 0x28, 0x00, 0x00, 0x00, 0xd0, 0xbb, 0xfa, 0xff,
  0xff, 0xff, 0xff, 0xff, 0x36, 0x00, 0x02, 0x00, 0x00, 0x00, 0x00, 0x00,
  0xf3, 0xcb, 0xff, 0xff, 0xff, 0xff, 0xff, 0xff, 0xf6, 0xa3, 0xf7, 0xff,
  0xff, 0xff, 0xff, 0xff, 0xa8, 0x70, 0x00, 0x00, 0x00, 0x00, 0x00, 0x00,
  0x58, 0x7d, 0xff, 0xff, 0x5c, 0x7d, 0xff, 0xff, 0x0f, 0x00, 0x00, 0x00,
  0x4d, 0x4c, 0x49, 0x52, 0x20, 0x43, 0x6f, 0x6e, 0x76, 0x65, 0x72, 0x74,
  0x65, 0x64, 0x2e, 0x00, 0x01, 0x00, 0x00, 0x00, 0x14, 0x00, 0x00, 0x00,
  0x00, 0x00, 0x0e, 0x00, 0x18, 0x00, 0x14, 0x00, 0x10, 0x00, 0x0c, 0x00,
  0x08, 0x00, 0x04, 0x00, 0x0e, 0x00, 0x00, 0x00, 0x14, 0x00, 0x00, 0x00,
  0x1c, 0x00, 0x00, 0x00, 0x50, 0x11, 0x00, 0x00, 0x54, 0x11, 0x00, 0x00,
  0x58, 0x11, 0x00, 0x00, 0x04, 0x00, 0x00, 0x00, 0x6d, 0x61, 0x69, 0x6e,
  0x00, 0x00, 0x00, 0x00, 0x42, 0x00, 0x00, 0x00, 0x14, 0x11, 0x00, 0x00,
  0xd8, 0x10, 0x00, 0x00, 0x78, 0x10, 0x00, 0x00, 0x24, 0x10, 0x00, 0x00,
  0xd8, 0x0f, 0x00, 0x00, 0x94, 0x0f, 0x00, 0x00, 0x50, 0x0f, 0x00, 0x00,
  0x00, 0x0f, 0x00, 0x00, 0xbc, 0x0e, 0x00, 0x00, 0x78, 0x0e, 0x00, 0x00,
  0x38, 0x0e, 0x00, 0x00, 0xf4, 0x0d, 0x00, 0x00, 0xb0, 0x0d, 0x00, 0x00,
  0x70, 0x0d, 0x00, 0x00, 0x30, 0x0d, 0x00, 0x00, 0xec, 0x0c, 0x00, 0x00,
  0xa8, 0x0c, 0x00, 0x00, 0x64, 0x0c, 0x00, 0x00, 0x20, 0x0c, 0x00, 0x00,
  0xdc, 0x0b, 0x00, 0x00, 0x9c, 0x0b, 0x00, 0x00, 0x58, 0x0b, 0x00, 0x00,
  0x14, 0x0b, 0x00, 0x00, 0xd4, 0x0a, 0x00, 0x00, 0x9c, 0x0a, 0x00, 0x00,
  0x58, 0x0a, 0x00, 0x00, 0x14, 0x0a, 0x00, 0x00, 0xd0, 0x09, 0x00, 0x00,
  0x8c, 0x09, 0x00, 0x00, 0x48, 0x09, 0x00, 0x00, 0x08, 0x09, 0x00, 0x00,
  0xc4, 0x08, 0x00, 0x00, 0x80, 0x08, 0x00, 0x00, 0x40, 0x08, 0x00, 0x00,
  0x08, 0x08, 0x00, 0x00, 0xc4, 0x07, 0x00, 0x00, 0x80, 0x07, 0x00, 0x00,
  0x3c, 0x07, 0x00, 0x00, 0xf8, 0x06, 0x00, 0x00, 0xb4, 0x06, 0x00, 0x00,
  0x74, 0x06, 0x00, 0x00, 0x30, 0x06, 0x00, 0x00, 0xec, 0x05, 0x00, 0x00,
  0xac, 0x05, 0x00, 0x00, 0x74, 0x05, 0x00, 0x00, 0x30, 0x05, 0x00, 0x00,
  0xec, 0x04, 0x00, 0x00, 0xa8, 0x04, 0x00, 0x00, 0x64, 0x04, 0x00, 0x00,
  0x20, 0x04, 0x00, 0x00, 0xe0, 0x03, 0x00, 0x00, 0x9c, 0x03, 0x00, 0x00,
  0x58, 0x03, 0x00, 0x00, 0x18, 0x03, 0x00, 0x00, 0xe0, 0x02, 0x00, 0x00,
  0x9c, 0x02, 0x00, 0x00, 0x58, 0x02, 0x00, 0x00, 0x14, 0x02, 0x00, 0x00,
  0xd0, 0x01, 0x00, 0x00, 0x8c, 0x01, 0x00, 0x00, 0x4c, 0x01, 0x00, 0x00,
  0x14, 0x01, 0x00, 0x00, 0xc0, 0x00, 0x00, 0x00, 0x78, 0x00, 0x00, 0x00,
  0x28, 0x00, 0x00, 0x00, 0x04, 0x00, 0x00, 0x00, 0xfe, 0xef, 0xff, 0xff,
  0x0c, 0x00, 0x00, 0x00, 0x10, 0x00, 0x00, 0x00, 0x05, 0x00, 0x00, 0x00,
  0x01, 0x00, 0x00, 0x00, 0x91, 0x00, 0x00, 0x00, 0x01, 0x00, 0x00, 0x00,
  0x8f, 0x00, 0x00, 0x00, 0xb6, 0xf0, 0xff, 0xff, 0x20, 0x00, 0x00, 0x00,
  0x00, 0x00, 0x00, 0x01, 0x28, 0x00, 0x00, 0x00, 0x2c, 0x00, 0x00, 0x00,
  0x02, 0x00, 0x00, 0x00, 0x00, 0x00, 0x0a, 0x00, 0x10, 0x00, 0x0f, 0x00,
  0x08, 0x00, 0x04, 0x00, 0x0a, 0x00, 0x00, 0x00, 0x01, 0x00, 0x00, 0x00,
  0x01, 0x00, 0x00, 0x00, 0x00, 0x00, 0x00, 0x01, 0x01, 0x00, 0x00, 0x00,
  0x8f, 0x00, 0x00, 0x00, 0x03, 0x00, 0x00, 0x00, 0x8e, 0x00, 0x00, 0x00,
  0x47, 0x00, 0x00, 0x00, 0x4f, 0x00, 0x00, 0x00, 0x02, 0xf1, 0xff, 0xff,
  0x14, 0x00, 0x00, 0x00, 0x00, 0x00, 0x00, 0x02, 0x20, 0x00, 0x00, 0x00,
  0x24, 0x00, 0x00, 0x00, 0x01, 0x00, 0x00, 0x00, 0xbc, 0xff, 0xff, 0xff,
  0x01, 0x00, 0x00, 0x00, 0x01, 0x00, 0x00, 0x00, 0x01, 0x00, 0x00, 0x00,
  0x00, 0x00, 0x00, 0x01, 0x01, 0x00, 0x00, 0x00, 0x8e, 0x00, 0x00, 0x00,
  0x03, 0x00, 0x00, 0x00, 0x8d, 0x00, 0x00, 0x00, 0x45, 0x00, 0x00, 0x00,
  0x44, 0x00, 0x00, 0x00, 0x46, 0xf1, 0xff, 0xff, 0x20, 0x00, 0x00, 0x00,
  0x00, 0x00, 0x00, 0x02, 0x2c, 0x00, 0x00, 0x00, 0x30, 0x00, 0x00, 0x00,
  0x01, 0x00, 0x00, 0x00, 0x0c, 0x00, 0x14, 0x00, 0x13, 0x00, 0x0c, 0x00,
  0x08, 0x00, 0x04, 0x00, 0x0c, 0x00, 0x00, 0x00, 0x01, 0x00, 0x00, 0x00,
  0x01, 0x00, 0x00, 0x00, 0x01, 0x00, 0x00, 0x00, 0x00, 0x00, 0x00, 0x01,
  0x01, 0x00, 0x00, 0x00, 0x8d, 0x00, 0x00, 0x00, 0x03, 0x00, 0x00, 0x00,
  0x8c, 0x00, 0x00, 0x00, 0x43, 0x00, 0x00, 0x00, 0x44, 0x00, 0x00, 0x00,
  0x96, 0xf1, 0xff, 0xff, 0x14, 0x00, 0x00, 0x00, 0x00, 0x00, 0x00, 0x0b,
  0x14, 0x00, 0x00, 0x00, 0x18, 0x00, 0x00, 0x00, 0x03, 0x00, 0x00, 0x00,
  0xa0, 0xf4, 0xff, 0xff, 0x00, 0x00, 0x00, 0x00, 0x01, 0x00, 0x00, 0x00,
  0x8c, 0x00, 0x00, 0x00, 0x02, 0x00, 0x00, 0x00, 0x85, 0x00, 0x00, 0x00,
  0x8b, 0x00, 0x00, 0x00, 0xca, 0xf1, 0xff, 0xff, 0x14, 0x00, 0x00, 0x00,
  0x00, 0x00, 0x00, 0x01, 0x18, 0x00, 0x00, 0x00, 0x1c, 0x00, 0x00, 0x00,
  0x02, 0x00, 0x00, 0x00, 0x52, 0xf2, 0xff, 0xff, 0x01, 0x00, 0x00, 0x00,
  0x01, 0x00, 0x00, 0x00, 0x01, 0x00, 0x00, 0x00, 0x8b, 0x00, 0x00, 0x00,
  0x03, 0x00, 0x00, 0x00, 0x8a, 0x00, 0x00, 0x00, 0x42, 0x00, 0x00, 0x00,
  0x4e, 0x00, 0x00, 0x00, 0x06, 0xf2, 0xff, 0xff, 0x14, 0x00, 0x00, 0x00,
  0x00, 0x00, 0x00, 0x02, 0x1c, 0x00, 0x00, 0x00, 0x20, 0x00, 0x00, 0x00,
  0x01, 0x00, 0x00, 0x00, 0xf8, 0xf1, 0xff, 0xff, 0x01, 0x00, 0x00, 0x00,
  0x01, 0x00, 0x00, 0x00, 0x01, 0x00, 0x00, 0x00, 0x01, 0x00, 0x00, 0x00,
  0x8a, 0x00, 0x00, 0x00, 0x03, 0x00, 0x00, 0x00, 0x89, 0x00, 0x00, 0x00,
  0x41, 0x00, 0x00, 0x00, 0x44, 0x00, 0x00, 0x00, 0x46, 0xf2, 0xff, 0xff,
  0x14, 0x00, 0x00, 0x00, 0x00, 0x00, 0x00, 0x02, 0x1c, 0x00, 0x00, 0x00,
  0x20, 0x00, 0x00, 0x00, 0x01, 0x00, 0x00, 0x00, 0x38, 0xf2, 0xff, 0xff,
  0x01, 0x00, 0x00, 0x00, 0x01, 0x00, 0x00, 0x00, 0x01, 0x00, 0x00, 0x00,
  0x01, 0x00, 0x00, 0x00, 0x89, 0x00, 0x00, 0x00, 0x03, 0x00, 0x00, 0x00,
  0x88, 0x00, 0x00, 0x00, 0x40, 0x00, 0x00, 0x00, 0x44, 0x00, 0x00, 0x00,
  0x86, 0xf2, 0xff, 0xff, 0x14, 0x00, 0x00, 0x00, 0x00, 0x00, 0x00, 0x01,
  0x1c, 0x00, 0x00, 0x00, 0x20, 0x00, 0x00, 0x00, 0x02, 0x00, 0x00, 0x00,
  0xdc, 0xf3, 0xff, 0xff, 0x00, 0x00, 0x00, 0x01, 0x01, 0x00, 0x00, 0x00,
  0x01, 0x00, 0x00, 0x00, 0x01, 0x00, 0x00, 0x00, 0x88, 0x00, 0x00, 0x00,
  0x03, 0x00, 0x00, 0x00, 0x87, 0x00, 0x00, 0x00, 0x3f, 0x00, 0x00, 0x00,
  0x01, 0x00, 0x00, 0x00, 0xc6, 0xf2, 0xff, 0xff, 0x14, 0x00, 0x00, 0x00,
  0x00, 0x00, 0x00, 0x02, 0x1c, 0x00, 0x00, 0x00, 0x20, 0x00, 0x00, 0x00,
  0x01, 0x00, 0x00, 0x00, 0xb8, 0xf2, 0xff, 0xff, 0x01, 0x00, 0x00, 0x00,
  0x01, 0x00, 0x00, 0x00, 0x01, 0x00, 0x00, 0x00, 0x01, 0x00, 0x00, 0x00,
  0x87, 0x00, 0x00, 0x00, 0x03, 0x00, 0x00, 0x00, 0x86, 0x00, 0x00, 0x00,
  0x3e, 0x00, 0x00, 0x00, 0x44, 0x00, 0x00, 0x00, 0x06, 0xf3, 0xff, 0xff,
  0x14, 0x00, 0x00, 0x00, 0x00, 0x00, 0x00, 0x02, 0x1c, 0x00, 0x00, 0x00,
  0x20, 0x00, 0x00, 0x00, 0x01, 0x00, 0x00, 0x00, 0xf8, 0xf2, 0xff, 0xff,
  0x01, 0x00, 0x00, 0x00, 0x01, 0x00, 0x00, 0x00, 0x01, 0x00, 0x00, 0x00,
  0x01, 0x00, 0x00, 0x00, 0x86, 0x00, 0x00, 0x00, 0x03, 0x00, 0x00, 0x00,
  0x85, 0x00, 0x00, 0x00, 0x3d, 0x00, 0x00, 0x00, 0x44, 0x00, 0x00, 0x00,
  0x46, 0xf3, 0xff, 0xff, 0x14, 0x00, 0x00, 0x00, 0x00, 0x00, 0x00, 0x0b,
  0x14, 0x00, 0x00, 0x00, 0x18, 0x00, 0x00, 0x00, 0x03, 0x00, 0x00, 0x00,
  0x50, 0xf6, 0xff, 0xff, 0x00, 0x00, 0x00, 0x00, 0x01, 0x00, 0x00, 0x00,
  0x85, 0x00, 0x00, 0x00, 0x02, 0x00, 0x00, 0x00, 0x84, 0x00, 0x00, 0x00,
  0x81, 0x00, 0x00, 0x00, 0x7a, 0xf3, 0xff, 0xff, 0x14, 0x00, 0x00, 0x00,
  0x00, 0x00, 0x00, 0x01, 0x18, 0x00, 0x00, 0x00, 0x1c, 0x00, 0x00, 0x00,
  0x02, 0x00, 0x00, 0x00, 0x02, 0xf4, 0xff, 0xff, 0x01, 0x00, 0x00, 0x00,
  0x01, 0x00, 0x00, 0x00, 0x01, 0x00, 0x00, 0x00, 0x84, 0x00, 0x00, 0x00,
  0x03, 0x00, 0x00, 0x00, 0x83, 0x00, 0x00, 0x00, 0x3c, 0x00, 0x00, 0x00,
  0x4d, 0x00, 0x00, 0x00, 0xb6, 0xf3, 0xff, 0xff, 0x14, 0x00, 0x00, 0x00,
  0x00, 0x00, 0x00, 0x02, 0x1c, 0x00, 0x00, 0x00, 0x20, 0x00, 0x00, 0x00,
  0x01, 0x00, 0x00, 0x00, 0xa8, 0xf3, 0xff, 0xff, 0x01, 0x00, 0x00, 0x00,
  0x01, 0x00, 0x00, 0x00, 0x01, 0x00, 0x00, 0x00, 0x01, 0x00, 0x00, 0x00,
  0x83, 0x00, 0x00, 0x00, 0x03, 0x00, 0x00, 0x00, 0x82, 0x00, 0x00, 0x00,
  0x3b, 0x00, 0x00, 0x00, 0x3a, 0x00, 0x00, 0x00, 0xf6, 0xf3, 0xff, 0xff,
  0x14, 0x00, 0x00, 0x00, 0x00, 0x00, 0x00, 0x02, 0x1c, 0x00, 0x00, 0x00,
  0x20, 0x00, 0x00, 0x00, 0x01, 0x00, 0x00, 0x00, 0xe8, 0xf3, 0xff, 0xff,
  0x01, 0x00, 0x00, 0x00, 0x01, 0x00, 0x00, 0x00, 0x01, 0x00, 0x00, 0x00,
  0x01, 0x00, 0x00, 0x00, 0x82, 0x00, 0x00, 0x00, 0x03, 0x00, 0x00, 0x00,
  0x7b, 0x00, 0x00, 0x00, 0x39, 0x00, 0x00, 0x00, 0x3a, 0x00, 0x00, 0x00,
  0x36, 0xf4, 0xff, 0xff, 0x14, 0x00, 0x00, 0x00, 0x00, 0x00, 0x00, 0x01,
  0x18, 0x00, 0x00, 0x00, 0x1c, 0x00, 0x00, 0x00, 0x02, 0x00, 0x00, 0x00,
  0xbe, 0xf4, 0xff, 0xff, 0x01, 0x00, 0x00, 0x00, 0x01, 0x00, 0x00, 0x00,
  0x01, 0x00, 0x00, 0x00, 0x81, 0x00, 0x00, 0x00, 0x03, 0x00, 0x00, 0x00,
  0x80, 0x00, 0x00, 0x00, 0x38, 0x00, 0x00, 0x00, 0x4d, 0x00, 0x00, 0x00,
  0x72, 0xf4, 0xff, 0xff, 0x14, 0x00, 0x00, 0x00, 0x00, 0x00, 0x00, 0x02,
  0x1c, 0x00, 0x00, 0x00, 0x20, 0x00, 0x00, 0x00, 0x01, 0x00, 0x00, 0x00,
  0x64, 0xf4, 0xff, 0xff, 0x01, 0x00, 0x00, 0x00, 0x01, 0x00, 0x00, 0x00,
  0x01, 0x00, 0x00, 0x00, 0x01, 0x00, 0x00, 0x00, 0x80, 0x00, 0x00, 0x00,
  0x03, 0x00, 0x00, 0x00, 0x7f, 0x00, 0x00, 0x00, 0x37, 0x00, 0x00, 0x00,
  0x44, 0x00, 0x00, 0x00, 0xb2, 0xf4, 0xff, 0xff, 0x14, 0x00, 0x00, 0x00,
  0x00, 0x00, 0x00, 0x02, 0x1c, 0x00, 0x00, 0x00, 0x20, 0x00, 0x00, 0x00,
  0x01, 0x00, 0x00, 0x00, 0xa4, 0xf4, 0xff, 0xff, 0x01, 0x00, 0x00, 0x00,
  0x01, 0x00, 0x00, 0x00, 0x01, 0x00, 0x00, 0x00, 0x01, 0x00, 0x00, 0x00,
  0x7f, 0x00, 0x00, 0x00, 0x03, 0x00, 0x00, 0x00, 0x7e, 0x00, 0x00, 0x00,
  0x36, 0x00, 0x00, 0x00, 0x44, 0x00, 0x00, 0x00, 0xf2, 0xf4, 0xff, 0xff,
  0x14, 0x00, 0x00, 0x00, 0x00, 0x00, 0x00, 0x01, 0x1c, 0x00, 0x00, 0x00,
  0x20, 0x00, 0x00, 0x00, 0x02, 0x00, 0x00, 0x00, 0x48, 0xf6, 0xff, 0xff,
  0x00, 0x00, 0x00, 0x01, 0x01, 0x00, 0x00, 0x00, 0x01, 0x00, 0x00, 0x00,
  0x01, 0x00, 0x00, 0x00, 0x7e, 0x00, 0x00, 0x00, 0x03, 0x00, 0x00, 0x00,
  0x7d, 0x00, 0x00, 0x00, 0x35, 0x00, 0x00, 0x00, 0x02, 0x00, 0x00, 0x00,
  0x32, 0xf5, 0xff, 0xff, 0x14, 0x00, 0x00, 0x00, 0x00, 0x00, 0x00, 0x02,
  0x1c, 0x00, 0x00, 0x00, 0x20, 0x00, 0x00, 0x00, 0x01, 0x00, 0x00, 0x00,
  0x24, 0xf5, 0xff, 0xff, 0x01, 0x00, 0x00, 0x00, 0x01, 0x00, 0x00, 0x00,
  0x01, 0x00, 0x00, 0x00, 0x01, 0x00, 0x00, 0x00, 0x7d, 0x00, 0x00, 0x00,
  0x03, 0x00, 0x00, 0x00, 0x7c, 0x00, 0x00, 0x00, 0x34, 0x00, 0x00, 0x00,
  0x3a, 0x00, 0x00, 0x00, 0x72, 0xf5, 0xff, 0xff, 0x14, 0x00, 0x00, 0x00,
  0x00, 0x00, 0x00, 0x02, 0x1c, 0x00, 0x00, 0x00, 0x20, 0x00, 0x00, 0x00,
  0x01, 0x00, 0x00, 0x00, 0x64, 0xf5, 0xff, 0xff, 0x01, 0x00, 0x00, 0x00,
  0x01, 0x00, 0x00, 0x00, 0x01, 0x00, 0x00, 0x00, 0x01, 0x00, 0x00, 0x00,
  0x7c, 0x00, 0x00, 0x00, 0x03, 0x00, 0x00, 0x00, 0x7b, 0x00, 0x00, 0x00,
  0x33, 0x00, 0x00, 0x00, 0x3a, 0x00, 0x00, 0x00, 0xb2, 0xf5, 0xff, 0xff,
  0x14, 0x00, 0x00, 0x00, 0x00, 0x00, 0x00, 0x0b, 0x14, 0x00, 0x00, 0x00,
  0x18, 0x00, 0x00, 0x00, 0x03, 0x00, 0x00, 0x00, 0xbc, 0xf8, 0xff, 0xff,
  0x00, 0x00, 0x00, 0x00, 0x01, 0x00, 0x00, 0x00, 0x7b, 0x00, 0x00, 0x00,
  0x02, 0x00, 0x00, 0x00, 0x7a, 0x00, 0x00, 0x00, 0x77, 0x00, 0x00, 0x00,
  0xe6, 0xf5, 0xff, 0xff, 0x14, 0x00, 0x00, 0x00, 0x00, 0x00, 0x00, 0x01,
  0x18, 0x00, 0x00, 0x00, 0x1c, 0x00, 0x00, 0x00, 0x02, 0x00, 0x00, 0x00,
  0x6e, 0xf6, 0xff, 0xff, 0x01, 0x00, 0x00, 0x00, 0x01, 0x00, 0x00, 0x00,
  0x01, 0x00, 0x00, 0x00, 0x7a, 0x00, 0x00, 0x00, 0x03, 0x00, 0x00, 0x00,
  0x79, 0x00, 0x00, 0x00, 0x32, 0x00, 0x00, 0x00, 0x4c, 0x00, 0x00, 0x00,
  0x22, 0xf6, 0xff, 0xff, 0x14, 0x00, 0x00, 0x00, 0x00, 0x00, 0x00, 0x02,
  0x1c, 0x00, 0x00, 0x00, 0x20, 0x00, 0x00, 0x00, 0x01, 0x00, 0x00, 0x00,
  0x14, 0xf6, 0xff, 0xff, 0x01, 0x00, 0x00, 0x00, 0x01, 0x00, 0x00, 0x00,
  0x01, 0x00, 0x00, 0x00, 0x01, 0x00, 0x00, 0x00, 0x79, 0x00, 0x00, 0x00,
  0x03, 0x00, 0x00, 0x00, 0x78, 0x00, 0x00, 0x00, 0x31, 0x00, 0x00, 0x00,
  0x30, 0x00, 0x00, 0x00, 0x62, 0xf6, 0xff, 0xff, 0x14, 0x00, 0x00, 0x00,
  0x00, 0x00, 0x00, 0x02, 0x1c, 0x00, 0x00, 0x00, 0x20, 0x00, 0x00, 0x00,
  0x01, 0x00, 0x00, 0x00, 0x54, 0xf6, 0xff, 0xff, 0x01, 0x00, 0x00, 0x00,
  0x01, 0x00, 0x00, 0x00, 0x01, 0x00, 0x00, 0x00, 0x01, 0x00, 0x00, 0x00,
  0x78, 0x00, 0x00, 0x00, 0x03, 0x00, 0x00, 0x00, 0x71, 0x00, 0x00, 0x00,
  0x2f, 0x00, 0x00, 0x00, 0x30, 0x00, 0x00, 0x00, 0xa2, 0xf6, 0xff, 0xff,
  0x14, 0x00, 0x00, 0x00, 0x00, 0x00, 0x00, 0x01, 0x18, 0x00, 0x00, 0x00,
  0x1c, 0x00, 0x00, 0x00, 0x02, 0x00, 0x00, 0x00, 0x2a, 0xf7, 0xff, 0xff,
  0x01, 0x00, 0x00, 0x00, 0x01, 0x00, 0x00, 0x00, 0x01, 0x00, 0x00, 0x00,
  0x77, 0x00, 0x00, 0x00, 0x03, 0x00, 0x00, 0x00, 0x76, 0x00, 0x00, 0x00,
  0x2e, 0x00, 0x00, 0x00, 0x4c, 0x00, 0x00, 0x00, 0xde, 0xf6, 0xff, 0xff,
  0x14, 0x00, 0x00, 0x00, 0x00, 0x00, 0x00, 0x02, 0x1c, 0x00, 0x00, 0x00,
  0x20, 0x00, 0x00, 0x00, 0x01, 0x00, 0x00, 0x00, 0xd0, 0xf6, 0xff, 0xff,
  0x01, 0x00, 0x00, 0x00, 0x01, 0x00, 0x00, 0x00, 0x01, 0x00, 0x00, 0x00,
  0x01, 0x00, 0x00, 0x00, 0x76, 0x00, 0x00, 0x00, 0x03, 0x00, 0x00, 0x00,
  0x75, 0x00, 0x00, 0x00, 0x2d, 0x00, 0x00, 0x00, 0x3a, 0x00, 0x00, 0x00,
  0x1e, 0xf7, 0xff, 0xff, 0x14, 0x00, 0x00, 0x00, 0x00, 0x00, 0x00, 0x02,
  0x1c, 0x00, 0x00, 0x00, 0x20, 0x00, 0x00, 0x00, 0x01, 0x00, 0x00, 0x00,
  0x10, 0xf7, 0xff, 0xff, 0x01, 0x00, 0x00, 0x00, 0x01, 0x00, 0x00, 0x00,
  0x01, 0x00, 0x00, 0x00, 0x01, 0x00, 0x00, 0x00, 0x75, 0x00, 0x00, 0x00,
  0x03, 0x00, 0x00, 0x00, 0x74, 0x00, 0x00, 0x00, 0x2c, 0x00, 0x00, 0x00,
  0x3a, 0x00, 0x00, 0x00, 0x5e, 0xf7, 0xff, 0xff, 0x14, 0x00, 0x00, 0x00,
  0x00, 0x00, 0x00, 0x01, 0x1c, 0x00, 0x00, 0x00, 0x20, 0x00, 0x00, 0x00,
  0x02, 0x00, 0x00, 0x00, 0xb4, 0xf8, 0xff, 0xff, 0x00, 0x00, 0x00, 0x01,
  0x01, 0x00, 0x00, 0x00, 0x01, 0x00, 0x00, 0x00, 0x01, 0x00, 0x00, 0x00,
  0x74, 0x00, 0x00, 0x00, 0x03, 0x00, 0x00, 0x00, 0x73, 0x00, 0x00, 0x00,
  0x2b, 0x00, 0x00, 0x00, 0x03, 0x00, 0x00, 0x00, 0x9e, 0xf7, 0xff, 0xff,
  0x14, 0x00, 0x00, 0x00, 0x00, 0x00, 0x00, 0x02, 0x1c, 0x00, 0x00, 0x00,
  0x20, 0x00, 0x00, 0x00, 0x01, 0x00, 0x00, 0x00, 0x90, 0xf7, 0xff, 0xff,
  0x01, 0x00, 0x00, 0x00, 0x01, 0x00, 0x00, 0x00, 0x01, 0x00, 0x00, 0x00,
  0x01, 0x00, 0x00, 0x00, 0x73, 0x00, 0x00, 0x00, 0x03, 0x00, 0x00, 0x00,
  0x72, 0x00, 0x00, 0x00, 0x2a, 0x00, 0x00, 0x00, 0x30, 0x00, 0x00, 0x00,
  0xde, 0xf7, 0xff, 0xff, 0x14, 0x00, 0x00, 0x00, 0x00, 0x00, 0x00, 0x02,
  0x1c, 0x00, 0x00, 0x00, 0x20, 0x00, 0x00, 0x00, 0x01, 0x00, 0x00, 0x00,
  0xd0, 0xf7, 0xff, 0xff, 0x01, 0x00, 0x00, 0x00, 0x01, 0x00, 0x00, 0x00,
  0x01, 0x00, 0x00, 0x00, 0x01, 0x00, 0x00, 0x00, 0x72, 0x00, 0x00, 0x00,
  0x03, 0x00, 0x00, 0x00, 0x71, 0x00, 0x00, 0x00, 0x29, 0x00, 0x00, 0x00,
  0x30, 0x00, 0x00, 0x00, 0x1e, 0xf8, 0xff, 0xff, 0x14, 0x00, 0x00, 0x00,
  0x00, 0x00, 0x00, 0x0b, 0x14, 0x00, 0x00, 0x00, 0x18, 0x00, 0x00, 0x00,
  0x03, 0x00, 0x00, 0x00, 0x28, 0xfb, 0xff, 0xff, 0x00, 0x00, 0x00, 0x00,
  0x01, 0x00, 0x00, 0x00, 0x71, 0x00, 0x00, 0x00, 0x02, 0x00, 0x00, 0x00,
  0x70, 0x00, 0x00, 0x00, 0x6d, 0x00, 0x00, 0x00, 0x52, 0xf8, 0xff, 0xff,
  0x14, 0x00, 0x00, 0x00, 0x00, 0x00, 0x00, 0x01, 0x18, 0x00, 0x00, 0x00,
  0x1c, 0x00, 0x00, 0x00, 0x02, 0x00, 0x00, 0x00, 0xda, 0xf8, 0xff, 0xff,
  0x01, 0x00, 0x00, 0x00, 0x01, 0x00, 0x00, 0x00, 0x01, 0x00, 0x00, 0x00,
  0x70, 0x00, 0x00, 0x00, 0x03, 0x00, 0x00, 0x00, 0x6f, 0x00, 0x00, 0x00,
  0x28, 0x00, 0x00, 0x00, 0x4b, 0x00, 0x00, 0x00, 0x8e, 0xf8, 0xff, 0xff,
  0x14, 0x00, 0x00, 0x00, 0x00, 0x00, 0x00, 0x02, 0x1c, 0x00, 0x00, 0x00,
  0x20, 0x00, 0x00, 0x00, 0x01, 0x00, 0x00, 0x00, 0x80, 0xf8, 0xff, 0xff,
  0x01, 0x00, 0x00, 0x00, 0x01, 0x00, 0x00, 0x00, 0x01, 0x00, 0x00, 0x00,
  0x01, 0x00, 0x00, 0x00, 0x6f, 0x00, 0x00, 0x00, 0x03, 0x00, 0x00, 0x00,
  0x6e, 0x00, 0x00, 0x00, 0x27, 0x00, 0x00, 0x00, 0x26, 0x00, 0x00, 0x00,
  0xce, 0xf8, 0xff, 0xff, 0x14, 0x00, 0x00, 0x00, 0x00, 0x00, 0x00, 0x02,
  0x1c, 0x00, 0x00, 0x00, 0x20, 0x00, 0x00, 0x00, 0x01, 0x00, 0x00, 0x00,
  0xc0, 0xf8, 0xff, 0xff, 0x01, 0x00, 0x00, 0x00, 0x01, 0x00, 0x00, 0x00,
  0x01, 0x00, 0x00, 0x00, 0x01, 0x00, 0x00, 0x00, 0x6e, 0x00, 0x00, 0x00,
  0x03, 0x00, 0x00, 0x00, 0x67, 0x00, 0x00, 0x00, 0x25, 0x00, 0x00, 0x00,
  0x26, 0x00, 0x00, 0x00, 0x0e, 0xf9, 0xff, 0xff, 0x14, 0x00, 0x00, 0x00,
  0x00, 0x00, 0x00, 0x01, 0x18, 0x00, 0x00, 0x00, 0x1c, 0x00, 0x00, 0x00,
  0x02, 0x00, 0x00, 0x00, 0x96, 0xf9, 0xff, 0xff, 0x01, 0x00, 0x00, 0x00,
  0x01, 0x00, 0x00, 0x00, 0x01, 0x00, 0x00, 0x00, 0x6d, 0x00, 0x00, 0x00,
  0x03, 0x00, 0x00, 0x00, 0x6c, 0x00, 0x00, 0x00, 0x24, 0x00, 0x00, 0x00,
  0x4b, 0x00, 0x00, 0x00, 0x4a, 0xf9, 0xff, 0xff, 0x14, 0x00, 0x00, 0x00,
  0x00, 0x00, 0x00, 0x02, 0x1c, 0x00, 0x00, 0x00, 0x20, 0x00, 0x00, 0x00,
  0x01, 0x00, 0x00, 0x00, 0x3c, 0xf9, 0xff, 0xff, 0x01, 0x00, 0x00, 0x00,
  0x01, 0x00, 0x00, 0x00, 0x01, 0x00, 0x00, 0x00, 0x01, 0x00, 0x00, 0x00,
  0x6c, 0x00, 0x00, 0x00, 0x03, 0x00, 0x00, 0x00, 0x6b, 0x00, 0x00, 0x00,
  0x23, 0x00, 0x00, 0x00, 0x30, 0x00, 0x00, 0x00, 0x8a, 0xf9, 0xff, 0xff,
  0x14, 0x00, 0x00, 0x00, 0x00, 0x00, 0x00, 0x02, 0x1c, 0x00, 0x00, 0x00,
  0x20, 0x00, 0x00, 0x00, 0x01, 0x00, 0x00, 0x00, 0x7c, 0xf9, 0xff, 0xff,
  0x01, 0x00, 0x00, 0x00, 0x01, 0x00, 0x00, 0x00, 0x01, 0x00, 0x00, 0x00,
  0x01, 0x00, 0x00, 0x00, 0x6b, 0x00, 0x00, 0x00, 0x03, 0x00, 0x00, 0x00,
  0x6a, 0x00, 0x00, 0x00, 0x22, 0x00, 0x00, 0x00, 0x30, 0x00, 0x00, 0x00,
  0xca, 0xf9, 0xff, 0xff, 0x14, 0x00, 0x00, 0x00, 0x00, 0x00, 0x00, 0x01,
  0x1c, 0x00, 0x00, 0x00, 0x20, 0x00, 0x00, 0x00, 0x02, 0x00, 0x00, 0x00,
  0x20, 0xfb, 0xff, 0xff, 0x00, 0x00, 0x00, 0x01, 0x01, 0x00, 0x00, 0x00,
  0x01, 0x00, 0x00, 0x00, 0x01, 0x00, 0x00, 0x00, 0x6a, 0x00, 0x00, 0x00,
  0x03, 0x00, 0x00, 0x00, 0x69, 0x00, 0x00, 0x00, 0x21, 0x00, 0x00, 0x00,
  0x04, 0x00, 0x00, 0x00, 0x0a, 0xfa, 0xff, 0xff, 0x14, 0x00, 0x00, 0x00,
  0x00, 0x00, 0x00, 0x02, 0x1c, 0x00, 0x00, 0x00, 0x20, 0x00, 0x00, 0x00,
  0x01, 0x00, 0x00, 0x00, 0xfc, 0xf9, 0xff, 0xff, 0x01, 0x00, 0x00, 0x00,
  0x01, 0x00, 0x00, 0x00, 0x01, 0x00, 0x00, 0x00, 0x01, 0x00, 0x00, 0x00,
  0x69, 0x00, 0x00, 0x00, 0x03, 0x00, 0x00, 0x00, 0x68, 0x00, 0x00, 0x00,
  0x20, 0x00, 0x00, 0x00, 0x26, 0x00, 0x00, 0x00, 0x4a, 0xfa, 0xff, 0xff,
  0x14, 0x00, 0x00, 0x00, 0x00, 0x00, 0x00, 0x02, 0x1c, 0x00, 0x00, 0x00,
  0x20, 0x00, 0x00, 0x00, 0x01, 0x00, 0x00, 0x00, 0x3c, 0xfa, 0xff, 0xff,
  0x01, 0x00, 0x00, 0x00, 0x01, 0x00, 0x00, 0x00, 0x01, 0x00, 0x00, 0x00,
  0x01, 0x00, 0x00, 0x00, 0x68, 0x00, 0x00, 0x00, 0x03, 0x00, 0x00, 0x00,
  0x67, 0x00, 0x00, 0x00, 0x1f, 0x00, 0x00, 0x00, 0x26, 0x00, 0x00, 0x00,
  0x8a, 0xfa, 0xff, 0xff, 0x14, 0x00, 0x00, 0x00, 0x00, 0x00, 0x00, 0x0b,
  0x14, 0x00, 0x00, 0x00, 0x18, 0x00, 0x00, 0x00, 0x03, 0x00, 0x00, 0x00,
  0x94, 0xfd, 0xff, 0xff, 0x00, 0x00, 0x00, 0x00, 0x01, 0x00, 0x00, 0x00,
  0x67, 0x00, 0x00, 0x00, 0x02, 0x00, 0x00, 0x00, 0x66, 0x00, 0x00, 0x00,
  0x63, 0x00, 0x00, 0x00, 0xbe, 0xfa, 0xff, 0xff, 0x14, 0x00, 0x00, 0x00,
  0x00, 0x00, 0x00, 0x01, 0x18, 0x00, 0x00, 0x00, 0x1c, 0x00, 0x00, 0x00,
  0x02, 0x00, 0x00, 0x00, 0x46, 0xfb, 0xff, 0xff, 0x01, 0x00, 0x00, 0x00,
  0x01, 0x00, 0x00, 0x00, 0x01, 0x00, 0x00, 0x00, 0x66, 0x00, 0x00, 0x00,
  0x03, 0x00, 0x00, 0x00, 0x65, 0x00, 0x00, 0x00, 0x1e, 0x00, 0x00, 0x00,
  0x4a, 0x00, 0x00, 0x00, 0xfa, 0xfa, 0xff, 0xff, 0x14, 0x00, 0x00, 0x00,
  0x00, 0x00, 0x00, 0x02, 0x1c, 0x00, 0x00, 0x00, 0x20, 0x00, 0x00, 0x00,
  0x01, 0x00, 0x00, 0x00, 0xec, 0xfa, 0xff, 0xff, 0x01, 0x00, 0x00, 0x00,
  0x01, 0x00, 0x00, 0x00, 0x01, 0x00, 0x00, 0x00, 0x01, 0x00, 0x00, 0x00,
  0x65, 0x00, 0x00, 0x00, 0x03, 0x00, 0x00, 0x00, 0x64, 0x00, 0x00, 0x00,
  0x1d, 0x00, 0x00, 0x00, 0x1c, 0x00, 0x00, 0x00, 0x3a, 0xfb, 0xff, 0xff,
  0x14, 0x00, 0x00, 0x00, 0x00, 0x00, 0x00, 0x02, 0x1c, 0x00, 0x00, 0x00,
  0x20, 0x00, 0x00, 0x00, 0x01, 0x00, 0x00, 0x00, 0x2c, 0xfb, 0xff, 0xff,
  0x01, 0x00, 0x00, 0x00, 0x01, 0x00, 0x00, 0x00, 0x01, 0x00, 0x00, 0x00,
  0x01, 0x00, 0x00, 0x00, 0x64, 0x00, 0x00, 0x00, 0x03, 0x00, 0x00, 0x00,
  0x5d, 0x00, 0x00, 0x00, 0x1b, 0x00, 0x00, 0x00, 0x1c, 0x00, 0x00, 0x00,
  0x7a, 0xfb, 0xff, 0xff, 0x14, 0x00, 0x00, 0x00, 0x00, 0x00, 0x00, 0x01,
  0x18, 0x00, 0x00, 0x00, 0x1c, 0x00, 0x00, 0x00, 0x02, 0x00, 0x00, 0x00,
  0x02, 0xfc, 0xff, 0xff, 0x01, 0x00, 0x00, 0x00, 0x01, 0x00, 0x00, 0x00,
  0x01, 0x00, 0x00, 0x00, 0x63, 0x00, 0x00, 0x00, 0x03, 0x00, 0x00, 0x00,
  0x62, 0x00, 0x00, 0x00, 0x1a, 0x00, 0x00, 0x00, 0x4a, 0x00, 0x00, 0x00,
  0xb6, 0xfb, 0xff, 0xff, 0x14, 0x00, 0x00, 0x00, 0x00, 0x00, 0x00, 0x02,
  0x1c, 0x00, 0x00, 0x00, 0x20, 0x00, 0x00, 0x00, 0x01, 0x00, 0x00, 0x00,
  0xa8, 0xfb, 0xff, 0xff, 0x01, 0x00, 0x00, 0x00, 0x01, 0x00, 0x00, 0x00,
  0x01, 0x00, 0x00, 0x00, 0x01, 0x00, 0x00, 0x00, 0x62, 0x00, 0x00, 0x00,
  0x03, 0x00, 0x00, 0x00, 0x61, 0x00, 0x00, 0x00, 0x19, 0x00, 0x00, 0x00,
  0x26, 0x00, 0x00, 0x00, 0xf6, 0xfb, 0xff, 0xff, 0x14, 0x00, 0x00, 0x00,
  0x00, 0x00, 0x00, 0x02, 0x1c, 0x00, 0x00, 0x00, 0x20, 0x00, 0x00, 0x00,
  0x01, 0x00, 0x00, 0x00, 0xe8, 0xfb, 0xff, 0xff, 0x01, 0x00, 0x00, 0x00,
  0x01, 0x00, 0x00, 0x00, 0x01, 0x00, 0x00, 0x00, 0x01, 0x00, 0x00, 0x00,
  0x61, 0x00, 0x00, 0x00, 0x03, 0x00, 0x00, 0x00, 0x60, 0x00, 0x00, 0x00,
  0x18, 0x00, 0x00, 0x00, 0x26, 0x00, 0x00, 0x00, 0x36, 0xfc, 0xff, 0xff,
  0x14, 0x00, 0x00, 0x00, 0x00, 0x00, 0x00, 0x01, 0x1c, 0x00, 0x00, 0x00,
  0x20, 0x00, 0x00, 0x00, 0x02, 0x00, 0x00, 0x00, 0x8c, 0xfd, 0xff, 0xff,
  0x00, 0x00, 0x00, 0x01, 0x01, 0x00, 0x00, 0x00, 0x01, 0x00, 0x00, 0x00,
  0x01, 0x00, 0x00, 0x00, 0x60, 0x00, 0x00, 0x00, 0x03, 0x00, 0x00, 0x00,
  0x5f, 0x00, 0x00, 0x00, 0x17, 0x00, 0x00, 0x00, 0x05, 0x00, 0x00, 0x00,
  0x76, 0xfc, 0xff, 0xff, 0x14, 0x00, 0x00, 0x00, 0x00, 0x00, 0x00, 0x02,
  0x1c, 0x00, 0x00, 0x00, 0x20, 0x00, 0x00, 0x00, 0x01, 0x00, 0x00, 0x00,
  0x68, 0xfc, 0xff, 0xff, 0x01, 0x00, 0x00, 0x00, 0x01, 0x00, 0x00, 0x00,
  0x01, 0x00, 0x00, 0x00, 0x01, 0x00, 0x00, 0x00, 0x5f, 0x00, 0x00, 0x00,
  0x03, 0x00, 0x00, 0x00, 0x5e, 0x00, 0x00, 0x00, 0x16, 0x00, 0x00, 0x00,
  0x1c, 0x00, 0x00, 0x00, 0xb6, 0xfc, 0xff, 0xff, 0x14, 0x00, 0x00, 0x00,
  0x00, 0x00, 0x00, 0x02, 0x1c, 0x00, 0x00, 0x00, 0x20, 0x00, 0x00, 0x00,
  0x01, 0x00, 0x00, 0x00, 0xa8, 0xfc, 0xff, 0xff, 0x01, 0x00, 0x00, 0x00,
  0x01, 0x00, 0x00, 0x00, 0x01, 0x00, 0x00, 0x00, 0x01, 0x00, 0x00, 0x00,
  0x5e, 0x00, 0x00, 0x00, 0x03, 0x00, 0x00, 0x00, 0x5d, 0x00, 0x00, 0x00,
  0x15, 0x00, 0x00, 0x00, 0x1c, 0x00, 0x00, 0x00, 0xf6, 0xfc, 0xff, 0xff,
  0x1c, 0x00, 0x00, 0x00, 0x00, 0x00, 0x00, 0x0b, 0x1c, 0x00, 0x00, 0x00,
  0x20, 0x00, 0x00, 0x00, 0x03, 0x00, 0x00, 0x00, 0x08, 0x00, 0x08, 0x00,
  0x00, 0x00, 0x07, 0x00, 0x08, 0x00, 0x00, 0x00, 0x00, 0x00, 0x00, 0x00,
  0x01, 0x00, 0x00, 0x00, 0x5d, 0x00, 0x00, 0x00, 0x02, 0x00, 0x00, 0x00,
  0x5c, 0x00, 0x00, 0x00, 0x59, 0x00, 0x00, 0x00, 0x32, 0xfd, 0xff, 0xff,
  0x14, 0x00, 0x00, 0x00, 0x00, 0x00, 0x00, 0x01, 0x18, 0x00, 0x00, 0x00,
  0x1c, 0x00, 0x00, 0x00, 0x02, 0x00, 0x00, 0x00, 0xba, 0xfd, 0xff, 0xff,
  0x01, 0x00, 0x00, 0x00, 0x01, 0x00, 0x00, 0x00, 0x01, 0x00, 0x00, 0x00,
  0x5c, 0x00, 0x00, 0x00, 0x03, 0x00, 0x00, 0x00, 0x5b, 0x00, 0x00, 0x00,
  0x14, 0x00, 0x00, 0x00, 0x49, 0x00, 0x00, 0x00, 0x6e, 0xfd, 0xff, 0xff,
  0x14, 0x00, 0x00, 0x00, 0x00, 0x00, 0x00, 0x02, 0x1c, 0x00, 0x00, 0x00,
  0x20, 0x00, 0x00, 0x00, 0x01, 0x00, 0x00, 0x00, 0x60, 0xfd, 0xff, 0xff,
  0x01, 0x00, 0x00, 0x00, 0x01, 0x00, 0x00, 0x00, 0x01, 0x00, 0x00, 0x00,
  0x01, 0x00, 0x00, 0x00, 0x5b, 0x00, 0x00, 0x00, 0x03, 0x00, 0x00, 0x00,
  0x5a, 0x00, 0x00, 0x00, 0x13, 0x00, 0x00, 0x00, 0x12, 0x00, 0x00, 0x00,
  0xae, 0xfd, 0xff, 0xff, 0x14, 0x00, 0x00, 0x00, 0x00, 0x00, 0x00, 0x02,
  0x1c, 0x00, 0x00, 0x00, 0x20, 0x00, 0x00, 0x00, 0x01, 0x00, 0x00, 0x00,
  0xa0, 0xfd, 0xff, 0xff, 0x01, 0x00, 0x00, 0x00, 0x01, 0x00, 0x00, 0x00,
  0x01, 0x00, 0x00, 0x00, 0x01, 0x00, 0x00, 0x00, 0x5a, 0x00, 0x00, 0x00,
  0x03, 0x00, 0x00, 0x00, 0x53, 0x00, 0x00, 0x00, 0x11, 0x00, 0x00, 0x00,
  0x12, 0x00, 0x00, 0x00, 0xee, 0xfd, 0xff, 0xff, 0x14, 0x00, 0x00, 0x00,
  0x00, 0x00, 0x00, 0x01, 0x18, 0x00, 0x00, 0x00, 0x1c, 0x00, 0x00, 0x00,
  0x02, 0x00, 0x00, 0x00, 0x76, 0xfe, 0xff, 0xff, 0x01, 0x00, 0x00, 0x00,
  0x01, 0x00, 0x00, 0x00, 0x01, 0x00, 0x00, 0x00, 0x59, 0x00, 0x00, 0x00,
  0x03, 0x00, 0x00, 0x00, 0x58, 0x00, 0x00, 0x00, 0x10, 0x00, 0x00, 0x00,
  0x49, 0x00, 0x00, 0x00, 0x2a, 0xfe, 0xff, 0xff, 0x14, 0x00, 0x00, 0x00,
  0x00, 0x00, 0x00, 0x02, 0x1c, 0x00, 0x00, 0x00, 0x20, 0x00, 0x00, 0x00,
  0x01, 0x00, 0x00, 0x00, 0x1c, 0xfe, 0xff, 0xff, 0x01, 0x00, 0x00, 0x00,
  0x01, 0x00, 0x00, 0x00, 0x01, 0x00, 0x00, 0x00, 0x01, 0x00, 0x00, 0x00,
  0x58, 0x00, 0x00, 0x00, 0x03, 0x00, 0x00, 0x00, 0x57, 0x00, 0x00, 0x00,
  0x0f, 0x00, 0x00, 0x00, 0x1c, 0x00, 0x00, 0x00, 0x6a, 0xfe, 0xff, 0xff,
  0x14, 0x00, 0x00, 0x00, 0x00, 0x00, 0x00, 0x02, 0x1c, 0x00, 0x00, 0x00,
  0x20, 0x00, 0x00, 0x00, 0x01, 0x00, 0x00, 0x00, 0x5c, 0xfe, 0xff, 0xff,
  0x01, 0x00, 0x00, 0x00, 0x01, 0x00, 0x00, 0x00, 0x01, 0x00, 0x00, 0x00,
  0x01, 0x00, 0x00, 0x00, 0x57, 0x00, 0x00, 0x00, 0x03, 0x00, 0x00, 0x00,
  0x56, 0x00, 0x00, 0x00, 0x0e, 0x00, 0x00, 0x00, 0x1c, 0x00, 0x00, 0x00,
  0xaa, 0xfe, 0xff, 0xff, 0x20, 0x00, 0x00, 0x00, 0x00, 0x00, 0x00, 0x01,
  0x28, 0x00, 0x00, 0x00, 0x2c, 0x00, 0x00, 0x00, 0x02, 0x00, 0x00, 0x00,
  0x0c, 0x00, 0x10, 0x00, 0x00, 0x00, 0x0c, 0x00, 0x08, 0x00, 0x07, 0x00,
  0x0c, 0x00, 0x00, 0x00, 0x00, 0x00, 0x00, 0x01, 0x01, 0x00, 0x00, 0x00,
  0x01, 0x00, 0x00, 0x00, 0x01, 0x00, 0x00, 0x00, 0x56, 0x00, 0x00, 0x00,
  0x03, 0x00, 0x00, 0x00, 0x55, 0x00, 0x00, 0x00, 0x0d, 0x00, 0x00, 0x00,
  0x06, 0x00, 0x00, 0x00, 0xf6, 0xfe, 0xff, 0xff, 0x14, 0x00, 0x00, 0x00,
  0x00, 0x00, 0x00, 0x02, 0x1c, 0x00, 0x00, 0x00, 0x20, 0x00, 0x00, 0x00,
  0x01, 0x00, 0x00, 0x00, 0xe8, 0xfe, 0xff, 0xff, 0x01, 0x00, 0x00, 0x00,
  0x01, 0x00, 0x00, 0x00, 0x01, 0x00, 0x00, 0x00, 0x01, 0x00, 0x00, 0x00,
  0x55, 0x00, 0x00, 0x00, 0x03, 0x00, 0x00, 0x00, 0x54, 0x00, 0x00, 0x00,
  0x0c, 0x00, 0x00, 0x00, 0x12, 0x00, 0x00, 0x00, 0x36, 0xff, 0xff, 0xff,
  0x14, 0x00, 0x00, 0x00, 0x00, 0x00, 0x00, 0x02, 0x1c, 0x00, 0x00, 0x00,
  0x20, 0x00, 0x00, 0x00, 0x01, 0x00, 0x00, 0x00, 0x28, 0xff, 0xff, 0xff,
  0x01, 0x00, 0x00, 0x00, 0x01, 0x00, 0x00, 0x00, 0x01, 0x00, 0x00, 0x00,
  0x01, 0x00, 0x00, 0x00, 0x54, 0x00, 0x00, 0x00, 0x03, 0x00, 0x00, 0x00,
  0x53, 0x00, 0x00, 0x00, 0x0b, 0x00, 0x00, 0x00, 0x12, 0x00, 0x00, 0x00,
  0x76, 0xff, 0xff, 0xff, 0x20, 0x00, 0x00, 0x00, 0x00, 0x00, 0x00, 0x01,
  0x24, 0x00, 0x00, 0x00, 0x28, 0x00, 0x00, 0x00, 0x02, 0x00, 0x00, 0x00,
  0x00, 0x00, 0x0a, 0x00, 0x0c, 0x00, 0x00, 0x00, 0x08, 0x00, 0x04, 0x00,
  0x0a, 0x00, 0x00, 0x00, 0x01, 0x00, 0x00, 0x00, 0x01, 0x00, 0x00, 0x00,
  0x01, 0x00, 0x00, 0x00, 0x53, 0x00, 0x00, 0x00, 0x03, 0x00, 0x00, 0x00,
  0x52, 0x00, 0x00, 0x00, 0x0a, 0x00, 0x00, 0x00, 0x48, 0x00, 0x00, 0x00,
  0xbe, 0xff, 0xff, 0xff, 0x14, 0x00, 0x00, 0x00, 0x00, 0x00, 0x00, 0x02,
  0x1c, 0x00, 0x00, 0x00, 0x20, 0x00, 0x00, 0x00, 0x01, 0x00, 0x00, 0x00,
  0xb0, 0xff, 0xff, 0xff, 0x01, 0x00, 0x00, 0x00, 0x01, 0x00, 0x00, 0x00,
  0x01, 0x00, 0x00, 0x00, 0x01, 0x00, 0x00, 0x00, 0x52, 0x00, 0x00, 0x00,
  0x03, 0x00, 0x00, 0x00, 0x51, 0x00, 0x00, 0x00, 0x09, 0x00, 0x00, 0x00,
  0x46, 0x00, 0x00, 0x00, 0x00, 0x00, 0x0e, 0x00, 0x18, 0x00, 0x14, 0x00,
  0x10, 0x00, 0x0c, 0x00, 0x0b, 0x00, 0x04, 0x00, 0x0e, 0x00, 0x00, 0x00,
  0x20, 0x00, 0x00, 0x00, 0x00, 0x00, 0x00, 0x02, 0x28, 0x00, 0x00, 0x00,
  0x2c, 0x00, 0x00, 0x00, 0x01, 0x00, 0x00, 0x00, 0x0c, 0x00, 0x10, 0x00,
  0x00, 0x00, 0x0c, 0x00, 0x08, 0x00, 0x04, 0x00, 0x0c, 0x00, 0x00, 0x00,
  0x01, 0x00, 0x00, 0x00, 0x01, 0x00, 0x00, 0x00, 0x01, 0x00, 0x00, 0x00,
  0x01, 0x00, 0x00, 0x00, 0x51, 0x00, 0x00, 0x00, 0x03, 0x00, 0x00, 0x00,
  0x50, 0x00, 0x00, 0x00, 0x08, 0x00, 0x00, 0x00, 0x46, 0x00, 0x00, 0x00,
  0x00, 0x00, 0x0e, 0x00, 0x14, 0x00, 0x00, 0x00, 0x10, 0x00, 0x0c, 0x00,
  0x0b, 0x00, 0x04, 0x00, 0x0e, 0x00, 0x00, 0x00, 0x10, 0x00, 0x00, 0x00,
  0x00, 0x00, 0x00, 0x16, 0x0c, 0x00, 0x00, 0x00, 0x10, 0x00, 0x00, 0x00,
  0xa4, 0x8e, 0xff, 0xff, 0x01, 0x00, 0x00, 0x00, 0x50, 0x00, 0x00, 0x00,
  0x02, 0x00, 0x00, 0x00, 0x00, 0x00, 0x00, 0x00, 0x07, 0x00, 0x00, 0x00,
  0x00, 0x00, 0x0a, 0x00, 0x10, 0x00, 0x0c, 0x00, 0x08, 0x00, 0x04, 0x00,
  0x0a, 0x00, 0x00, 0x00, 0x0c, 0x00, 0x00, 0x00, 0x10, 0x00, 0x00, 0x00,
  0x04, 0x00, 0x00, 0x00, 0x01, 0x00, 0x00, 0x00, 0x00, 0x00, 0x00, 0x00,
  0x01, 0x00, 0x00, 0x00, 0x90, 0x00, 0x00, 0x00, 0x01, 0x00, 0x00, 0x00,
  0x91, 0x00, 0x00, 0x00, 0x01, 0x00, 0x00, 0x00, 0x90, 0x00, 0x00, 0x00,
  0x92, 0x00, 0x00, 0x00, 0x60, 0x75, 0x00, 0x00, 0xbc, 0x74, 0x00, 0x00,
  0x34, 0x74, 0x00, 0x00, 0x98, 0x73, 0x00, 0x00, 0xe4, 0x72, 0x00, 0x00,
  0x08, 0x72, 0x00, 0x00, 0x0c, 0x71, 0x00, 0x00, 0xd0, 0x70, 0x00, 0x00,
  0x3c, 0x70, 0x00, 0x00, 0xbc, 0x6f, 0x00, 0x00, 0xcc, 0x6d, 0x00, 0x00,
  0xd4, 0x6b, 0x00, 0x00, 0xd8, 0x69, 0x00, 0x00, 0x48, 0x68, 0x00, 0x00,
  0xb0, 0x66, 0x00, 0x00, 0x1c, 0x65, 0x00, 0x00, 0x8c, 0x63, 0x00, 0x00,
  0x94, 0x61, 0x00, 0x00, 0x5c, 0x60, 0x00, 0x00, 0x5c, 0x5e, 0x00, 0x00,
  0xcc, 0x5c, 0x00, 0x00, 0x34, 0x5b, 0x00, 0x00, 0xa0, 0x59, 0x00, 0x00,
  0x48, 0x58, 0x00, 0x00, 0xe8, 0x56, 0x00, 0x00, 0x8c, 0x55, 0x00, 0x00,
  0x34, 0x54, 0x00, 0x00, 0x9c, 0x52, 0x00, 0x00, 0x9c, 0x51, 0x00, 0x00,
  0x04, 0x50, 0x00, 0x00, 0xac, 0x4e, 0x00, 0x00, 0x4c, 0x4d, 0x00, 0x00,
  0xf0, 0x4b, 0x00, 0x00, 0xd8, 0x4a, 0x00, 0x00, 0xb8, 0x49, 0x00, 0x00,
  0x94, 0x48, 0x00, 0x00, 0x7c, 0x47, 0x00, 0x00, 0x1c, 0x46, 0x00, 0x00,
  0x3c, 0x45, 0x00, 0x00, 0xdc, 0x43, 0x00, 0x00, 0xc4, 0x42, 0x00, 0x00,
  0xa4, 0x41, 0x00, 0x00, 0x80, 0x40, 0x00, 0x00, 0x90, 0x3f, 0x00, 0x00,
  0x98, 0x3e, 0x00, 0x00, 0x9c, 0x3d, 0x00, 0x00, 0xac, 0x3c, 0x00, 0x00,
  0x8c, 0x3b, 0x00, 0x00, 0xd4, 0x3a, 0x00, 0x00, 0xb4, 0x39, 0x00, 0x00,
  0xc4, 0x38, 0x00, 0x00, 0xcc, 0x37, 0x00, 0x00, 0xd0, 0x36, 0x00, 0x00,
  0x08, 0x36, 0x00, 0x00, 0x38, 0x35, 0x00, 0x00, 0x64, 0x34, 0x00, 0x00,
  0x9c, 0x33, 0x00, 0x00, 0xa4, 0x32, 0x00, 0x00, 0x04, 0x32, 0x00, 0x00,
  0x0c, 0x31, 0x00, 0x00, 0x44, 0x30, 0x00, 0x00, 0x74, 0x2f, 0x00, 0x00,
  0xa0, 0x2e, 0x00, 0x00, 0xd8, 0x2d, 0x00, 0x00, 0x08, 0x2d, 0x00, 0x00,
  0x34, 0x2c, 0x00, 0x00, 0x6c, 0x2b, 0x00, 0x00, 0x9c, 0x2a, 0x00, 0x00,
  0x14, 0x2a, 0x00, 0x00, 0x44, 0x29, 0x00, 0x00, 0xec, 0x28, 0x00, 0x00,
  0x70, 0x28, 0x00, 0x00, 0x1c, 0x27, 0x00, 0x00, 0x00, 0x26, 0x00, 0x00,
  0x04, 0x25, 0x00, 0x00, 0x30, 0x24, 0x00, 0x00, 0x6c, 0x23, 0x00, 0x00,
  0xc0, 0x22, 0x00, 0x00, 0x14, 0x22, 0x00, 0x00, 0xa8, 0x21, 0x00, 0x00,
  0x34, 0x21, 0x00, 0x00, 0xb8, 0x20, 0x00, 0x00, 0x3c, 0x20, 0x00, 0x00,
  0xa8, 0x1f, 0x00, 0x00, 0x2c, 0x1f, 0x00, 0x00, 0xb0, 0x1e, 0x00, 0x00,
  0x14, 0x1e, 0x00, 0x00, 0x98, 0x1d, 0x00, 0x00, 0x1c, 0x1d, 0x00, 0x00,
  0x80, 0x1c, 0x00, 0x00, 0x04, 0x1c, 0x00, 0x00, 0x88, 0x1b, 0x00, 0x00,
  0xec, 0x1a, 0x00, 0x00, 0x78, 0x1a, 0x00, 0x00, 0xfc, 0x19, 0x00, 0x00,
  0x80, 0x19, 0x00, 0x00, 0xdc, 0x18, 0x00, 0x00, 0x60, 0x18, 0x00, 0x00,
  0xe4, 0x17, 0x00, 0x00, 0x48, 0x17, 0x00, 0x00, 0xcc, 0x16, 0x00, 0x00,
  0x50, 0x16, 0x00, 0x00, 0xb4, 0x15, 0x00, 0x00, 0x40, 0x15, 0x00, 0x00,
  0xc4, 0x14, 0x00, 0x00, 0x48, 0x14, 0x00, 0x00, 0xa4, 0x13, 0x00, 0x00,
  0x28, 0x13, 0x00, 0x00, 0xac, 0x12, 0x00, 0x00, 0x10, 0x12, 0x00, 0x00,
  0x94, 0x11, 0x00, 0x00, 0x18, 0x11, 0x00, 0x00, 0x7c, 0x10, 0x00, 0x00,
  0x08, 0x10, 0x00, 0x00, 0x8c, 0x0f, 0x00, 0x00, 0x10, 0x0f, 0x00, 0x00,
  0x6c, 0x0e, 0x00, 0x00, 0xf0, 0x0d, 0x00, 0x00, 0x74, 0x0d, 0x00, 0x00,
  0xd8, 0x0c, 0x00, 0x00, 0x5c, 0x0c, 0x00, 0x00, 0xe0, 0x0b, 0x00, 0x00,
  0x44, 0x0b, 0x00, 0x00, 0xd0, 0x0a, 0x00, 0x00, 0x54, 0x0a, 0x00, 0x00,
  0xd8, 0x09, 0x00, 0x00, 0x34, 0x09, 0x00, 0x00, 0xb8, 0x08, 0x00, 0x00,
  0x3c, 0x08, 0x00, 0x00, 0xa0, 0x07, 0x00, 0x00, 0x24, 0x07, 0x00, 0x00,
  0xa8, 0x06, 0x00, 0x00, 0x0c, 0x06, 0x00, 0x00, 0x98, 0x05, 0x00, 0x00,
  0x1c, 0x05, 0x00, 0x00, 0xa0, 0x04, 0x00, 0x00, 0xfc, 0x03, 0x00, 0x00,
  0x80, 0x03, 0x00, 0x00, 0x04, 0x03, 0x00, 0x00, 0x68, 0x02, 0x00, 0x00,
  0xf4, 0x01, 0x00, 0x00, 0x78, 0x01, 0x00, 0x00, 0xfc, 0x00, 0x00, 0x00,
  0x78, 0x00, 0x00, 0x00, 0x44, 0x00, 0x00, 0x00, 0x04, 0x00, 0x00, 0x00,
  0xd0, 0xff, 0xff, 0xff, 0x08, 0x00, 0x00, 0x00, 0x14, 0x00, 0x00, 0x00,
  0x0a, 0x00, 0x00, 0x00, 0x42, 0x69, 0x61, 0x73, 0x41, 0x64, 0x64, 0x5f,
  0x31, 0x38, 0x00, 0x00, 0x04, 0x00, 0x00, 0x00, 0x01, 0x00, 0x00, 0x00,
  0x38, 0x04, 0x00, 0x00, 0x80, 0x07, 0x00, 0x00, 0x01, 0x00, 0x00, 0x00,
  0x0c, 0x00, 0x0c, 0x00, 0x08, 0x00, 0x00, 0x00, 0x00, 0x00, 0x04, 0x00,
  0x0c, 0x00, 0x00, 0x00, 0x08, 0x00, 0x00, 0x00, 0x14, 0x00, 0x00, 0x00,
  0x0b, 0x00, 0x00, 0x00, 0x50, 0x6c, 0x61, 0x63, 0x65, 0x68, 0x6f, 0x6c,
  0x64, 0x65, 0x72, 0x00, 0x04, 0x00, 0x00, 0x00, 0x01, 0x00, 0x00, 0x00,
  0x38, 0x04, 0x00, 0x00, 0x80, 0x07, 0x00, 0x00, 0x01, 0x00, 0x00, 0x00,
  0x62, 0x8d, 0xff, 0xff, 0x14, 0x00, 0x00, 0x00, 0x4c, 0x00, 0x00, 0x00,
  0x90, 0x00, 0x00, 0x00, 0x00, 0x00, 0x00, 0x07, 0x58, 0x00, 0x00, 0x00,
  0x54, 0x8d, 0xff, 0xff, 0x10, 0x00, 0x00, 0x00, 0x1c, 0x00, 0x00, 0x00,
  0x20, 0x00, 0x00, 0x00, 0x24, 0x00, 0x00, 0x00, 0x01, 0x00, 0x00, 0x00,
  0x00, 0x00, 0x00, 0x00, 0x00, 0x00, 0x00, 0x00, 0x00, 0x00, 0x00, 0x00,
  0x01, 0x00, 0x00, 0x00, 0xb4, 0x5e, 0xf8, 0x36, 0x01, 0x00, 0x00, 0x00,
  0xc3, 0x5c, 0x78, 0x3e, 0x01, 0x00, 0x00, 0x00, 0xc4, 0xdc, 0x2a, 0xbe,
  0x10, 0x00, 0x00, 0x00, 0x42, 0x69, 0x61, 0x73, 0x41, 0x64, 0x64, 0x5f,
  0x31, 0x38, 0x5f, 0x69, 0x6e, 0x74, 0x31, 0x36, 0x00, 0x00, 0x00, 0x00,
  0x04, 0x00, 0x00, 0x00, 0x01, 0x00, 0x00, 0x00, 0x38, 0x04, 0x00, 0x00,
  0x80, 0x07, 0x00, 0x00, 0x01, 0x00, 0x00, 0x00, 0xe2, 0x8d, 0xff, 0xff,
  0x14, 0x00, 0x00, 0x00, 0x48, 0x00, 0x00, 0x00, 0x8f, 0x00, 0x00, 0x00,
  0x00, 0x00, 0x00, 0x07, 0x50, 0x00, 0x00, 0x00, 0xd4, 0x8d, 0xff, 0xff,
  0x10, 0x00, 0x00, 0x00, 0x18, 0x00, 0x00, 0x00, 0x1c, 0x00, 0x00, 0x00,
  0x20, 0x00, 0x00, 0x00, 0x01, 0x00, 0x00, 0x00, 0x00, 0x00, 0x00, 0x00,
  0x00, 0x00, 0x00, 0x00, 0x01, 0x00, 0x00, 0x00, 0x1c, 0xd0, 0x8f, 0x38,
  0x01, 0x00, 0x00, 0x00, 0x5d, 0xc4, 0x07, 0x40, 0x01, 0x00, 0x00, 0x00,
  0xfc, 0xce, 0x0f, 0xc0, 0x0d, 0x00, 0x00, 0x00, 0x64, 0x65, 0x70, 0x74,
  0x68, 0x77, 0x69, 0x73, 0x65, 0x5f, 0x33, 0x37, 0x32, 0x00, 0x00, 0x00,
  0x04, 0x00, 0x00, 0x00, 0x01, 0x00, 0x00, 0x00, 0x38, 0x04, 0x00, 0x00,
  0x80, 0x07, 0x00, 0x00, 0x05, 0x00, 0x00, 0x00, 0x5a, 0x8e, 0xff, 0xff,
  0x14, 0x00, 0x00, 0x00, 0x48, 0x00, 0x00, 0x00, 0x8e, 0x00, 0x00, 0x00,
  0x00, 0x00, 0x00, 0x07, 0x50, 0x00, 0x00, 0x00, 0x4c, 0x8e, 0xff, 0xff,
  0x10, 0x00, 0x00, 0x00, 0x18, 0x00, 0x00, 0x00, 0x1c, 0x00, 0x00, 0x00,
  0x20, 0x00, 0x00, 0x00, 0x01, 0x00, 0x00, 0x00, 0x00, 0x00, 0x00, 0x00,
  0x00, 0x00, 0x00, 0x00, 0x01, 0x00, 0x00, 0x00, 0xf1, 0x7a, 0x7c, 0x39,
  0x01, 0x00, 0x00, 0x00, 0xdd, 0x94, 0xda, 0x40, 0x01, 0x00, 0x00, 0x00,
  0xf8, 0x78, 0xfc, 0xc0, 0x0d, 0x00, 0x00, 0x00, 0x64, 0x65, 0x70, 0x74,
  0x68, 0x77, 0x69, 0x73, 0x65, 0x5f, 0x33, 0x36, 0x31, 0x00, 0x00, 0x00,
  0x04, 0x00, 0x00, 0x00, 0x01, 0x00, 0x00, 0x00, 0x38, 0x04, 0x00, 0x00,
  0x86, 0x07, 0x00, 0x00, 0x05, 0x00, 0x00, 0x00, 0xd2, 0x8e, 0xff, 0xff,
  0x14, 0x00, 0x00, 0x00, 0x48, 0x00, 0x00, 0x00, 0x8d, 0x00, 0x00, 0x00,
  0x00, 0x00, 0x00, 0x07, 0x48, 0x00, 0x00, 0x00, 0xc4, 0x8e, 0xff, 0xff,
  0x10, 0x00, 0x00, 0x00, 0x18, 0x00, 0x00, 0x00, 0x1c, 0x00, 0x00, 0x00,
  0x20, 0x00, 0x00, 0x00, 0x01, 0x00, 0x00, 0x00, 0x00, 0x00, 0x00, 0x00,
  0x00, 0x00, 0x00, 0x00, 0x01, 0x00, 0x00, 0x00, 0x32, 0x29, 0xf5, 0x39,
  0x01, 0x00, 0x00, 0x00, 0x2f, 0x7a, 0x49, 0x41, 0x01, 0x00, 0x00, 0x00,
  0x48, 0x27, 0x75, 0xc1, 0x05, 0x00, 0x00, 0x00, 0x41, 0x64, 0x64, 0x5f,
  0x35, 0x00, 0x00, 0x00, 0x04, 0x00, 0x00, 0x00, 0x01, 0x00, 0x00, 0x00,
  0x3e, 0x04, 0x00, 0x00, 0x86, 0x07, 0x00, 0x00, 0x05, 0x00, 0x00, 0x00,
  0x42, 0x8f, 0xff, 0xff, 0x14, 0x00, 0x00, 0x00, 0x48, 0x00, 0x00, 0x00,
  0x8c, 0x00, 0x00, 0x00, 0x00, 0x00, 0x00, 0x07, 0x70, 0x00, 0x00, 0x00,
  0x34, 0x8f, 0xff, 0xff, 0x10, 0x00, 0x00, 0x00, 0x18, 0x00, 0x00, 0x00,
  0x1c, 0x00, 0x00, 0x00, 0x20, 0x00, 0x00, 0x00, 0x01, 0x00, 0x00, 0x00,
  0x00, 0x00, 0x00, 0x00, 0x00, 0x00, 0x00, 0x00, 0x01, 0x00, 0x00, 0x00,
  0xe7, 0x29, 0xf5, 0x39, 0x01, 0x00, 0x00, 0x00, 0xc1, 0x67, 0x3a, 0x41,
  0x01, 0x00, 0x00, 0x00, 0xfd, 0x27, 0x75, 0xc1, 0x2d, 0x00, 0x00, 0x00,
  0x42, 0x69, 0x61, 0x73, 0x41, 0x64, 0x64, 0x5f, 0x31, 0x37, 0x3b, 0x64,
  0x65, 0x70, 0x74, 0x68, 0x77, 0x69, 0x73, 0x65, 0x5f, 0x33, 0x37, 0x3b,
  0x43, 0x6f, 0x6e, 0x76, 0x32, 0x44, 0x5f, 0x31, 0x37, 0x3b, 0x63, 0x6f,
  0x6e, 0x76, 0x5f, 0x36, 0x5f, 0x31, 0x5f, 0x62, 0x31, 0x00, 0x00, 0x00,
  0x04, 0x00, 0x00, 0x00, 0x01, 0x00, 0x00, 0x00, 0x3e, 0x04, 0x00, 0x00,
  0x86, 0x07, 0x00, 0x00, 0x05, 0x00, 0x00, 0x00, 0xda, 0x8f, 0xff, 0xff,
  0x14, 0x00, 0x00, 0x00, 0x48, 0x00, 0x00, 0x00, 0x8b, 0x00, 0x00, 0x00,
  0x00, 0x00, 0x00, 0x07, 0x50, 0x00, 0x00, 0x00, 0xcc, 0x8f, 0xff, 0xff,
  0x10, 0x00, 0x00, 0x00, 0x18, 0x00, 0x00, 0x00, 0x1c, 0x00, 0x00, 0x00,
  0x20, 0x00, 0x00, 0x00, 0x01, 0x00, 0x00, 0x00, 0x00, 0x00, 0x00, 0x00,
  0x00, 0x00, 0x00, 0x00, 0x01, 0x00, 0x00, 0x00, 0x3f, 0x79, 0x6e, 0x39,
  0x01, 0x00, 0x00, 0x00, 0x2c, 0xbe, 0xb6, 0x40, 0x01, 0x00, 0x00, 0x00,
  0x62, 0x77, 0xee, 0xc0, 0x0d, 0x00, 0x00, 0x00, 0x64, 0x65, 0x70, 0x74,
  0x68, 0x77, 0x69, 0x73, 0x65, 0x5f, 0x33, 0x35, 0x31, 0x00, 0x00, 0x00,
  0x04, 0x00, 0x00, 0x00, 0x01, 0x00, 0x00, 0x00, 0x3e, 0x04, 0x00, 0x00,
  0x86, 0x07, 0x00, 0x00, 0x05, 0x00, 0x00, 0x00, 0x52, 0x90, 0xff, 0xff,
  0x14, 0x00, 0x00, 0x00, 0x48, 0x00, 0x00, 0x00, 0x8a, 0x00, 0x00, 0x00,
  0x00, 0x00, 0x00, 0x07, 0x50, 0x00, 0x00, 0x00, 0x44, 0x90, 0xff, 0xff,
  0x10, 0x00, 0x00, 0x00, 0x18, 0x00, 0x00, 0x00, 0x1c, 0x00, 0x00, 0x00,
  0x20, 0x00, 0x00, 0x00, 0x01, 0x00, 0x00, 0x00, 0x00, 0x00, 0x00, 0x00,
  0x00, 0x00, 0x00, 0x00, 0x01, 0x00, 0x00, 0x00, 0x3b, 0x28, 0x66, 0x39,
  0x01, 0x00, 0x00, 0x00, 0xec, 0x48, 0x36, 0x40, 0x01, 0x00, 0x00, 0x00,
  0x6f, 0x26, 0xe6, 0xc0, 0x0d, 0x00, 0x00, 0x00, 0x64, 0x65, 0x70, 0x74,
  0x68, 0x77, 0x69, 0x73, 0x65, 0x5f, 0x33, 0x34, 0x31, 0x00, 0x00, 0x00,
  0x04, 0x00, 0x00, 0x00, 0x01, 0x00, 0x00, 0x00, 0x3e, 0x04, 0x00, 0x00,
  0x86, 0x07, 0x00, 0x00, 0x05, 0x00, 0x00, 0x00, 0xca, 0x90, 0xff, 0xff,
  0x14, 0x00, 0x00, 0x00, 0x4c, 0x00, 0x00, 0x00, 0x89, 0x00, 0x00, 0x00,
  0x00, 0x00, 0x00, 0x07, 0x78, 0x00, 0x00, 0x00, 0xbc, 0x90, 0xff, 0xff,
  0x10, 0x00, 0x00, 0x00, 0x1c, 0x00, 0x00, 0x00, 0x20, 0x00, 0x00, 0x00,
  0x24, 0x00, 0x00, 0x00, 0x01, 0x00, 0x00, 0x00, 0x00, 0x00, 0x00, 0x00,
  0x00, 0x00, 0x00, 0x00, 0x00, 0x00, 0x00, 0x00, 0x01, 0x00, 0x00, 0x00,
  0x69, 0x70, 0x6f, 0x39, 0x01, 0x00, 0x00, 0x00, 0x8a, 0x6e, 0xef, 0x40,
  0x01, 0x00, 0x00, 0x00, 0x00, 0x00, 0x00, 0x00, 0x33, 0x00, 0x00, 0x00,
  0x52, 0x65, 0x6c, 0x75, 0x5f, 0x35, 0x3b, 0x42, 0x69, 0x61, 0x73, 0x41,
  0x64, 0x64, 0x5f, 0x31, 0x36, 0x3b, 0x64, 0x65, 0x70, 0x74, 0x68, 0x77,
  0x69, 0x73, 0x65, 0x5f, 0x33, 0x37, 0x3b, 0x43, 0x6f, 0x6e, 0x76, 0x32,
  0x44, 0x5f, 0x31, 0x36, 0x3b, 0x63, 0x6f, 0x6e, 0x76, 0x5f, 0x36, 0x5f,
  0x30, 0x5f, 0x62, 0x00, 0x04, 0x00, 0x00, 0x00, 0x01, 0x00, 0x00, 0x00,
  0x3e, 0x04, 0x00, 0x00, 0x86, 0x07, 0x00, 0x00, 0x05, 0x00, 0x00, 0x00,
  0x6a, 0x91, 0xff, 0xff, 0x14, 0x00, 0x00, 0x00, 0x48, 0x00, 0x00, 0x00,
  0x88, 0x00, 0x00, 0x00, 0x00, 0x00, 0x00, 0x07, 0x50, 0x00, 0x00, 0x00,
  0x5c, 0x91, 0xff, 0xff, 0x10, 0x00, 0x00, 0x00, 0x18, 0x00, 0x00, 0x00,
  0x1c, 0x00, 0x00, 0x00, 0x20, 0x00, 0x00, 0x00, 0x01, 0x00, 0x00, 0x00,
  0x00, 0x00, 0x00, 0x00, 0x00, 0x00, 0x00, 0x00, 0x01, 0x00, 0x00, 0x00,
  0x31, 0x7d, 0x47, 0x39, 0x01, 0x00, 0x00, 0x00, 0x2c, 0xe6, 0xb6, 0x40,
  0x01, 0x00, 0x00, 0x00, 0xa2, 0x7b, 0xc7, 0xc0, 0x0d, 0x00, 0x00, 0x00,
  0x64, 0x65, 0x70, 0x74, 0x68, 0x77, 0x69, 0x73, 0x65, 0x5f, 0x33, 0x33,
  0x31, 0x00, 0x00, 0x00, 0x04, 0x00, 0x00, 0x00, 0x01, 0x00, 0x00, 0x00,
  0x3e, 0x04, 0x00, 0x00, 0x86, 0x07, 0x00, 0x00, 0x05, 0x00, 0x00, 0x00,
  0xe2, 0x91, 0xff, 0xff, 0x14, 0x00, 0x00, 0x00, 0x48, 0x00, 0x00, 0x00,
  0x87, 0x00, 0x00, 0x00, 0x00, 0x00, 0x00, 0x07, 0x50, 0x00, 0x00, 0x00,
  0xd4, 0x91, 0xff, 0xff, 0x10, 0x00, 0x00, 0x00, 0x18, 0x00, 0x00, 0x00,
  0x1c, 0x00, 0x00, 0x00, 0x20, 0x00, 0x00, 0x00, 0x01, 0x00, 0x00, 0x00,
  0x00, 0x00, 0x00, 0x00, 0x00, 0x00, 0x00, 0x00, 0x01, 0x00, 0x00, 0x00,
  0x12, 0x38, 0x2d, 0x39, 0x01, 0x00, 0x00, 0x00, 0xb8, 0x36, 0xad, 0x40,
  0x01, 0x00, 0x00, 0x00, 0xb4, 0x2a, 0x96, 0xc0, 0x0d, 0x00, 0x00, 0x00,
  0x64, 0x65, 0x70, 0x74, 0x68, 0x77, 0x69, 0x73, 0x65, 0x5f, 0x33, 0x32,
  0x31, 0x00, 0x00, 0x00, 0x04, 0x00, 0x00, 0x00, 0x01, 0x00, 0x00, 0x00,
  0x3e, 0x04, 0x00, 0x00, 0x86, 0x07, 0x00, 0x00, 0x05, 0x00, 0x00, 0x00,
  0x5a, 0x92, 0xff, 0xff, 0x14, 0x00, 0x00, 0x00, 0x48, 0x00, 0x00, 0x00,
  0x86, 0x00, 0x00, 0x00, 0x00, 0x00, 0x00, 0x07, 0x48, 0x00, 0x00, 0x00,
  0x4c, 0x92, 0xff, 0xff, 0x10, 0x00, 0x00, 0x00, 0x18, 0x00, 0x00, 0x00,
  0x1c, 0x00, 0x00, 0x00, 0x20, 0x00, 0x00, 0x00, 0x01, 0x00, 0x00, 0x00,
  0x00, 0x00, 0x00, 0x00, 0x00, 0x00, 0x00, 0x00, 0x01, 0x00, 0x00, 0x00,
  0x78, 0xe9, 0x3b, 0x39, 0x01, 0x00, 0x00, 0x00, 0x00, 0xe8, 0xbb, 0x40,
  0x01, 0x00, 0x00, 0x00, 0x94, 0xc7, 0x9a, 0xc0, 0x05, 0x00, 0x00, 0x00,
  0x41, 0x64, 0x64, 0x5f, 0x34, 0x00, 0x00, 0x00, 0x04, 0x00, 0x00, 0x00,
  0x01, 0x00, 0x00, 0x00, 0x3e, 0x04, 0x00, 0x00, 0x86, 0x07, 0x00, 0x00,
  0x05, 0x00, 0x00, 0x00, 0xca, 0x92, 0xff, 0xff, 0x14, 0x00, 0x00, 0x00,
  0x48, 0x00, 0x00, 0x00, 0x85, 0x00, 0x00, 0x00, 0x00, 0x00, 0x00, 0x07,
  0x70, 0x00, 0x00, 0x00, 0xbc, 0x92, 0xff, 0xff, 0x10, 0x00, 0x00, 0x00,
  0x18, 0x00, 0x00, 0x00, 0x1c, 0x00, 0x00, 0x00, 0x20, 0x00, 0x00, 0x00,
  0x01, 0x00, 0x00, 0x00, 0x00, 0x00, 0x00, 0x00, 0x00, 0x00, 0x00, 0x00,
  0x01, 0x00, 0x00, 0x00, 0xee, 0x0b, 0x37, 0x39, 0x01, 0x00, 0x00, 0x00,
  0x80, 0x0a, 0xb7, 0x40, 0x01, 0x00, 0x00, 0x00, 0x6c, 0x1f, 0x9f, 0xc0,
  0x2d, 0x00, 0x00, 0x00, 0x42, 0x69, 0x61, 0x73, 0x41, 0x64, 0x64, 0x5f,
  0x31, 0x35, 0x3b, 0x64, 0x65, 0x70, 0x74, 0x68, 0x77, 0x69, 0x73, 0x65,
  0x5f, 0x33, 0x37, 0x3b, 0x43, 0x6f, 0x6e, 0x76, 0x32, 0x44, 0x5f, 0x31,
  0x35, 0x3b, 0x63, 0x6f, 0x6e, 0x76, 0x5f, 0x35, 0x5f, 0x31, 0x5f, 0x62,
  0x31, 0x00, 0x00, 0x00, 0x04, 0x00, 0x00, 0x00, 0x01, 0x00, 0x00, 0x00,
  0x3e, 0x04, 0x00, 0x00, 0x86, 0x07, 0x00, 0x00, 0x05, 0x00, 0x00, 0x00,
  0x62, 0x93, 0xff, 0xff, 0x14, 0x00, 0x00, 0x00, 0x48, 0x00, 0x00, 0x00,
  0x84, 0x00, 0x00, 0x00, 0x00, 0x00, 0x00, 0x07, 0x50, 0x00, 0x00, 0x00,
  0x54, 0x93, 0xff, 0xff, 0x10, 0x00, 0x00, 0x00, 0x18, 0x00, 0x00, 0x00,
  0x1c, 0x00, 0x00, 0x00, 0x20, 0x00, 0x00, 0x00, 0x01, 0x00, 0x00, 0x00,
  0x00, 0x00, 0x00, 0x00, 0x00, 0x00, 0x00, 0x00, 0x01, 0x00, 0x00, 0x00,
  0x3c, 0x0f, 0x82, 0x39, 0x01, 0x00, 0x00, 0x00, 0x38, 0x0e, 0x02, 0x41,
  0x01, 0x00, 0x00, 0x00, 0xe8, 0x25, 0xcf, 0xc0, 0x0d, 0x00, 0x00, 0x00,
  0x64, 0x65, 0x70, 0x74, 0x68, 0x77, 0x69, 0x73, 0x65, 0x5f, 0x33, 0x31,
  0x32, 0x00, 0x00, 0x00, 0x04, 0x00, 0x00, 0x00, 0x01, 0x00, 0x00, 0x00,
  0x3e, 0x04, 0x00, 0x00, 0x86, 0x07, 0x00, 0x00, 0x07, 0x00, 0x00, 0x00,
  0xda, 0x93, 0xff, 0xff, 0x14, 0x00, 0x00, 0x00, 0x48, 0x00, 0x00, 0x00,
  0x83, 0x00, 0x00, 0x00, 0x00, 0x00, 0x00, 0x07, 0x50, 0x00, 0x00, 0x00,
  0xcc, 0x93, 0xff, 0xff, 0x10, 0x00, 0x00, 0x00, 0x18, 0x00, 0x00, 0x00,
  0x1c, 0x00, 0x00, 0x00, 0x20, 0x00, 0x00, 0x00, 0x01, 0x00, 0x00, 0x00,
  0x00, 0x00, 0x00, 0x00, 0x00, 0x00, 0x00, 0x00, 0x01, 0x00, 0x00, 0x00,
  0xfc, 0x60, 0x99, 0x39, 0x01, 0x00, 0x00, 0x00, 0x3c, 0x99, 0x06, 0x41,
  0x01, 0x00, 0x00, 0x00, 0xc9, 0x5f, 0x19, 0xc1, 0x0d, 0x00, 0x00, 0x00,
  0x64, 0x65, 0x70, 0x74, 0x68, 0x77, 0x69, 0x73, 0x65, 0x5f, 0x33, 0x30,
  0x31, 0x00, 0x00, 0x00, 0x04, 0x00, 0x00, 0x00, 0x01, 0x00, 0x00, 0x00,
  0x3e, 0x04, 0x00, 0x00, 0x86, 0x07, 0x00, 0x00, 0x07, 0x00, 0x00, 0x00,
  0x52, 0x94, 0xff, 0xff, 0x14, 0x00, 0x00, 0x00, 0x48, 0x00, 0x00, 0x00,
  0x82, 0x00, 0x00, 0x00, 0x00, 0x00, 0x00, 0x07, 0x70, 0x00, 0x00, 0x00,
  0x44, 0x94, 0xff, 0xff, 0x10, 0x00, 0x00, 0x00, 0x18, 0x00, 0x00, 0x00,
  0x1c, 0x00, 0x00, 0x00, 0x20, 0x00, 0x00, 0x00, 0x01, 0x00, 0x00, 0x00,
  0x00, 0x00, 0x00, 0x00, 0x00, 0x00, 0x00, 0x00, 0x01, 0x00, 0x00, 0x00,
  0x6f, 0x5c, 0x67, 0x39, 0x01, 0x00, 0x00, 0x00, 0xa0, 0x5a, 0xe7, 0x40,
  0x01, 0x00, 0x00, 0x00, 0xd0, 0xa0, 0x9f, 0xc0, 0x2c, 0x00, 0x00, 0x00,
  0x42, 0x69, 0x61, 0x73, 0x41, 0x64, 0x64, 0x5f, 0x31, 0x34, 0x3b, 0x64,
  0x65, 0x70, 0x74, 0x68, 0x77, 0x69, 0x73, 0x65, 0x5f, 0x33, 0x37, 0x3b,
  0x43, 0x6f, 0x6e, 0x76, 0x32, 0x44, 0x5f, 0x31, 0x34, 0x3b, 0x63, 0x6f,
  0x6e, 0x76, 0x5f, 0x35, 0x5f, 0x31, 0x5f, 0x62, 0x00, 0x00, 0x00, 0x00,
  0x04, 0x00, 0x00, 0x00, 0x01, 0x00, 0x00, 0x00, 0x3e, 0x04, 0x00, 0x00,
  0x86, 0x07, 0x00, 0x00, 0x05, 0x00, 0x00, 0x00, 0xea, 0x94, 0xff, 0xff,
  0x14, 0x00, 0x00, 0x00, 0x48, 0x00, 0x00, 0x00, 0x81, 0x00, 0x00, 0x00,
  0x00, 0x00, 0x00, 0x07, 0x50, 0x00, 0x00, 0x00, 0xdc, 0x94, 0xff, 0xff,
  0x10, 0x00, 0x00, 0x00, 0x18, 0x00, 0x00, 0x00, 0x1c, 0x00, 0x00, 0x00,
  0x20, 0x00, 0x00, 0x00, 0x01, 0x00, 0x00, 0x00, 0x00, 0x00, 0x00, 0x00,
  0x00, 0x00, 0x00, 0x00, 0x01, 0x00, 0x00, 0x00, 0x22, 0xd0, 0x7b, 0x39,
  0x01, 0x00, 0x00, 0x00, 0x2a, 0xce, 0xfb, 0x40, 0x01, 0x00, 0x00, 0x00,
  0xd1, 0xb6, 0x83, 0xc0, 0x0d, 0x00, 0x00, 0x00, 0x64, 0x65, 0x70, 0x74,
  0x68, 0x77, 0x69, 0x73, 0x65, 0x5f, 0x32, 0x39, 0x31, 0x00, 0x00, 0x00,
  0x04, 0x00, 0x00, 0x00, 0x01, 0x00, 0x00, 0x00, 0x3e, 0x04, 0x00, 0x00,
  0x86, 0x07, 0x00, 0x00, 0x05, 0x00, 0x00, 0x00, 0x62, 0x95, 0xff, 0xff,
  0x14, 0x00, 0x00, 0x00, 0x48, 0x00, 0x00, 0x00, 0x80, 0x00, 0x00, 0x00,
  0x00, 0x00, 0x00, 0x07, 0x50, 0x00, 0x00, 0x00, 0x54, 0x95, 0xff, 0xff,
  0x10, 0x00, 0x00, 0x00, 0x18, 0x00, 0x00, 0x00, 0x1c, 0x00, 0x00, 0x00,
  0x20, 0x00, 0x00, 0x00, 0x01, 0x00, 0x00, 0x00, 0x00, 0x00, 0x00, 0x00,
  0x00, 0x00, 0x00, 0x00, 0x01, 0x00, 0x00, 0x00, 0x15, 0x78, 0x8a, 0x39,
  0x01, 0x00, 0x00, 0x00, 0x00, 0x77, 0x0a, 0x41, 0x01, 0x00, 0x00, 0x00,
  0xe1, 0x11, 0xa7, 0xc0, 0x0d, 0x00, 0x00, 0x00, 0x64, 0x65, 0x70, 0x74,
  0x68, 0x77, 0x69, 0x73, 0x65, 0x5f, 0x32, 0x38, 0x31, 0x00, 0x00, 0x00,
  0x04, 0x00, 0x00, 0x00, 0x01, 0x00, 0x00, 0x00, 0x3e, 0x04, 0x00, 0x00,
  0x86, 0x07, 0x00, 0x00, 0x05, 0x00, 0x00, 0x00, 0xda, 0x95, 0xff, 0xff,
  0x14, 0x00, 0x00, 0x00, 0x4c, 0x00, 0x00, 0x00, 0x7f, 0x00, 0x00, 0x00,
  0x00, 0x00, 0x00, 0x07, 0x78, 0x00, 0x00, 0x00, 0xcc, 0x95, 0xff, 0xff,
  0x10, 0x00, 0x00, 0x00, 0x1c, 0x00, 0x00, 0x00, 0x20, 0x00, 0x00, 0x00,
  0x24, 0x00, 0x00, 0x00, 0x01, 0x00, 0x00, 0x00, 0x00, 0x00, 0x00, 0x00,
  0x00, 0x00, 0x00, 0x00, 0x00, 0x00, 0x00, 0x00, 0x01, 0x00, 0x00, 0x00,
  0xfc, 0x1f, 0x9b, 0x39, 0x01, 0x00, 0x00, 0x00, 0xc6, 0x1e, 0x1b, 0x41,
  0x01, 0x00, 0x00, 0x00, 0x00, 0x00, 0x00, 0x00, 0x33, 0x00, 0x00, 0x00,
  0x52, 0x65, 0x6c, 0x75, 0x5f, 0x34, 0x3b, 0x42, 0x69, 0x61, 0x73, 0x41,
  0x64, 0x64, 0x5f, 0x31, 0x33, 0x3b, 0x64, 0x65, 0x70, 0x74, 0x68, 0x77,
  0x69, 0x73, 0x65, 0x5f, 0x33, 0x37, 0x3b, 0x43, 0x6f, 0x6e, 0x76, 0x32,
  0x44, 0x5f, 0x31, 0x33, 0x3b, 0x63, 0x6f, 0x6e, 0x76, 0x5f, 0x35, 0x5f,
  0x30, 0x5f, 0x62, 0x00, 0x04, 0x00, 0x00, 0x00, 0x01, 0x00, 0x00, 0x00,
  0x3e, 0x04, 0x00, 0x00, 0x86, 0x07, 0x00, 0x00, 0x05, 0x00, 0x00, 0x00,
  0x7a, 0x96, 0xff, 0xff, 0x14, 0x00, 0x00, 0x00, 0x48, 0x00, 0x00, 0x00,
  0x7e, 0x00, 0x00, 0x00, 0x00, 0x00, 0x00, 0x07, 0x50, 0x00, 0x00, 0x00,
  0x6c, 0x96, 0xff, 0xff, 0x10, 0x00, 0x00, 0x00, 0x18, 0x00, 0x00, 0x00,
  0x1c, 0x00, 0x00, 0x00, 0x20, 0x00, 0x00, 0x00, 0x01, 0x00, 0x00, 0x00,
  0x00, 0x00, 0x00, 0x00, 0x00, 0x00, 0x00, 0x00, 0x01, 0x00, 0x00, 0x00,
  0xae, 0x5a, 0x8b, 0x39, 0x01, 0x00, 0x00, 0x00, 0x97, 0x59, 0x0b, 0x41,
  0x01, 0x00, 0x00, 0x00, 0x32, 0x3f, 0x07, 0xc1, 0x0d, 0x00, 0x00, 0x00,
  0x64, 0x65, 0x70, 0x74, 0x68, 0x77, 0x69, 0x73, 0x65, 0x5f, 0x32, 0x37,
  0x31, 0x00, 0x00, 0x00, 0x04, 0x00, 0x00, 0x00, 0x01, 0x00, 0x00, 0x00,
  0x3e, 0x04, 0x00, 0x00, 0x86, 0x07, 0x00, 0x00, 0x07, 0x00, 0x00, 0x00,
  0xf2, 0x96, 0xff, 0xff, 0x14, 0x00, 0x00, 0x00, 0x48, 0x00, 0x00, 0x00,
  0x7d, 0x00, 0x00, 0x00, 0x00, 0x00, 0x00, 0x07, 0x50, 0x00, 0x00, 0x00,
  0xe4, 0x96, 0xff, 0xff, 0x10, 0x00, 0x00, 0x00, 0x18, 0x00, 0x00, 0x00,
  0x1c, 0x00, 0x00, 0x00, 0x20, 0x00, 0x00, 0x00, 0x01, 0x00, 0x00, 0x00,
  0x00, 0x00, 0x00, 0x00, 0x00, 0x00, 0x00, 0x00, 0x01, 0x00, 0x00, 0x00,
  0xcb, 0xb8, 0xd4, 0x39, 0x01, 0x00, 0x00, 0x00, 0x22, 0xb7, 0x54, 0x41,
  0x01, 0x00, 0x00, 0x00, 0xce, 0xcf, 0x16, 0xc1, 0x0d, 0x00, 0x00, 0x00,
  0x64, 0x65, 0x70, 0x74, 0x68, 0x77, 0x69, 0x73, 0x65, 0x5f, 0x32, 0x36,
  0x31, 0x00, 0x00, 0x00, 0x04, 0x00, 0x00, 0x00, 0x01, 0x00, 0x00, 0x00,
  0x3e, 0x04, 0x00, 0x00, 0x86, 0x07, 0x00, 0x00, 0x07, 0x00, 0x00, 0x00,
  0x6a, 0x97, 0xff, 0xff, 0x14, 0x00, 0x00, 0x00, 0x48, 0x00, 0x00, 0x00,
  0x7c, 0x00, 0x00, 0x00, 0x00, 0x00, 0x00, 0x07, 0x48, 0x00, 0x00, 0x00,
  0x5c, 0x97, 0xff, 0xff, 0x10, 0x00, 0x00, 0x00, 0x18, 0x00, 0x00, 0x00,
  0x1c, 0x00, 0x00, 0x00, 0x20, 0x00, 0x00, 0x00, 0x01, 0x00, 0x00, 0x00,
  0x00, 0x00, 0x00, 0x00, 0x00, 0x00, 0x00, 0x00, 0x01, 0x00, 0x00, 0x00,
  0xec, 0x76, 0xbc, 0x39, 0x01, 0x00, 0x00, 0x00, 0x73, 0x75, 0x3c, 0x41,
  0x01, 0x00, 0x00, 0x00, 0x2c, 0x3f, 0x3a, 0xc1, 0x05, 0x00, 0x00, 0x00,
  0x41, 0x64, 0x64, 0x5f, 0x33, 0x00, 0x00, 0x00, 0x04, 0x00, 0x00, 0x00,
  0x01, 0x00, 0x00, 0x00, 0x3e, 0x04, 0x00, 0x00, 0x86, 0x07, 0x00, 0x00,
  0x07, 0x00, 0x00, 0x00, 0xda, 0x97, 0xff, 0xff, 0x14, 0x00, 0x00, 0x00,
  0x48, 0x00, 0x00, 0x00, 0x7b, 0x00, 0x00, 0x00, 0x00, 0x00, 0x00, 0x07,
  0x70, 0x00, 0x00, 0x00, 0xcc, 0x97, 0xff, 0xff, 0x10, 0x00, 0x00, 0x00,
  0x18, 0x00, 0x00, 0x00, 0x1c, 0x00, 0x00, 0x00, 0x20, 0x00, 0x00, 0x00,
  0x01, 0x00, 0x00, 0x00, 0x00, 0x00, 0x00, 0x00, 0x00, 0x00, 0x00, 0x00,
  0x01, 0x00, 0x00, 0x00, 0xab, 0x1c, 0xc2, 0x39, 0x01, 0x00, 0x00, 0x00,
  0x27, 0x1b, 0x42, 0x41, 0x01, 0x00, 0x00, 0x00, 0xba, 0x7b, 0x0d, 0xc1,
  0x2d, 0x00, 0x00, 0x00, 0x42, 0x69, 0x61, 0x73, 0x41, 0x64, 0x64, 0x5f,
  0x31, 0x32, 0x3b, 0x64, 0x65, 0x70, 0x74, 0x68, 0x77, 0x69, 0x73, 0x65,
  0x5f, 0x33, 0x31, 0x3b, 0x43, 0x6f, 0x6e, 0x76, 0x32, 0x44, 0x5f, 0x31,
  0x32, 0x3b, 0x63, 0x6f, 0x6e, 0x76, 0x5f, 0x34, 0x5f, 0x31, 0x5f, 0x62,
  0x31, 0x00, 0x00, 0x00, 0x04, 0x00, 0x00, 0x00, 0x01, 0x00, 0x00, 0x00,
  0x3e, 0x04, 0x00, 0x00, 0x86, 0x07, 0x00, 0x00, 0x07, 0x00, 0x00, 0x00,
  0x72, 0x98, 0xff, 0xff, 0x14, 0x00, 0x00, 0x00, 0x48, 0x00, 0x00, 0x00,
  0x7a, 0x00, 0x00, 0x00, 0x00, 0x00, 0x00, 0x07, 0x50, 0x00, 0x00, 0x00,
  0x64, 0x98, 0xff, 0xff, 0x10, 0x00, 0x00, 0x00, 0x18, 0x00, 0x00, 0x00,
  0x1c, 0x00, 0x00, 0x00, 0x20, 0x00, 0x00, 0x00, 0x01, 0x00, 0x00, 0x00,
  0x00, 0x00, 0x00, 0x00, 0x00, 0x00, 0x00, 0x00, 0x01, 0x00, 0x00, 0x00,
  0x81, 0xb7, 0xcf, 0x39, 0x01, 0x00, 0x00, 0x00, 0x55, 0x00, 0x2c, 0x41,
  0x01, 0x00, 0x00, 0x00, 0xe2, 0xb5, 0x4f, 0xc1, 0x0d, 0x00, 0x00, 0x00,
  0x64, 0x65, 0x70, 0x74, 0x68, 0x77, 0x69, 0x73, 0x65, 0x5f, 0x32, 0x35,
  0x32, 0x00, 0x00, 0x00, 0x04, 0x00, 0x00, 0x00, 0x01, 0x00, 0x00, 0x00,
  0x3e, 0x04, 0x00, 0x00, 0x86, 0x07, 0x00, 0x00, 0x09, 0x00, 0x00, 0x00,
  0xea, 0x98, 0xff, 0xff, 0x14, 0x00, 0x00, 0x00, 0x48, 0x00, 0x00, 0x00,
  0x79, 0x00, 0x00, 0x00, 0x00, 0x00, 0x00, 0x07, 0x50, 0x00, 0x00, 0x00,
  0xdc, 0x98, 0xff, 0xff, 0x10, 0x00, 0x00, 0x00, 0x18, 0x00, 0x00, 0x00,
  0x1c, 0x00, 0x00, 0x00, 0x20, 0x00, 0x00, 0x00, 0x01, 0x00, 0x00, 0x00,
  0x00, 0x00, 0x00, 0x00, 0x00, 0x00, 0x00, 0x00, 0x01, 0x00, 0x00, 0x00,
  0x65, 0x79, 0x11, 0x3a, 0x01, 0x00, 0x00, 0x00, 0x42, 0x78, 0x91, 0x41,
  0x01, 0x00, 0x00, 0x00, 0x52, 0x97, 0x8c, 0xc1, 0x0d, 0x00, 0x00, 0x00,
  0x64, 0x65, 0x70, 0x74, 0x68, 0x77, 0x69, 0x73, 0x65, 0x5f, 0x32, 0x34,
  0x31, 0x00, 0x00, 0x00, 0x04, 0x00, 0x00, 0x00, 0x01, 0x00, 0x00, 0x00,
  0x3e, 0x04, 0x00, 0x00, 0x86, 0x07, 0x00, 0x00, 0x09, 0x00, 0x00, 0x00,
  0x62, 0x99, 0xff, 0xff, 0x14, 0x00, 0x00, 0x00, 0x48, 0x00, 0x00, 0x00,
  0x78, 0x00, 0x00, 0x00, 0x00, 0x00, 0x00, 0x07, 0x70, 0x00, 0x00, 0x00,
  0x54, 0x99, 0xff, 0xff, 0x10, 0x00, 0x00, 0x00, 0x18, 0x00, 0x00, 0x00,
  0x1c, 0x00, 0x00, 0x00, 0x20, 0x00, 0x00, 0x00, 0x01, 0x00, 0x00, 0x00,
  0x00, 0x00, 0x00, 0x00, 0x00, 0x00, 0x00, 0x00, 0x01, 0x00, 0x00, 0x00,
  0x84, 0x89, 0x9f, 0x39, 0x01, 0x00, 0x00, 0x00, 0xd6, 0xa1, 0x1e, 0x41,
  0x01, 0x00, 0x00, 0x00, 0x45, 0x88, 0x1f, 0xc1, 0x2c, 0x00, 0x00, 0x00,
  0x42, 0x69, 0x61, 0x73, 0x41, 0x64, 0x64, 0x5f, 0x31, 0x31, 0x3b, 0x64,
  0x65, 0x70, 0x74, 0x68, 0x77, 0x69, 0x73, 0x65, 0x5f, 0x33, 0x31, 0x3b,
  0x43, 0x6f, 0x6e, 0x76, 0x32, 0x44, 0x5f, 0x31, 0x31, 0x3b, 0x63, 0x6f,
  0x6e, 0x76, 0x5f, 0x34, 0x5f, 0x31, 0x5f, 0x62, 0x00, 0x00, 0x00, 0x00,
  0x04, 0x00, 0x00, 0x00, 0x01, 0x00, 0x00, 0x00, 0x3e, 0x04, 0x00, 0x00,
  0x86, 0x07, 0x00, 0x00, 0x07, 0x00, 0x00, 0x00, 0xfa, 0x99, 0xff, 0xff,
  0x14, 0x00, 0x00, 0x00, 0x48, 0x00, 0x00, 0x00, 0x77, 0x00, 0x00, 0x00,
  0x00, 0x00, 0x00, 0x07, 0x50, 0x00, 0x00, 0x00, 0xec, 0x99, 0xff, 0xff,
  0x10, 0x00, 0x00, 0x00, 0x18, 0x00, 0x00, 0x00, 0x1c, 0x00, 0x00, 0x00,
  0x20, 0x00, 0x00, 0x00, 0x01, 0x00, 0x00, 0x00, 0x00, 0x00, 0x00, 0x00,
  0x00, 0x00, 0x00, 0x00, 0x01, 0x00, 0x00, 0x00, 0xef, 0xea, 0xdf, 0x39,
  0x01, 0x00, 0x00, 0x00, 0xe8, 0x1b, 0x97, 0x40, 0x01, 0x00, 0x00, 0x00,
  0x2f, 0xe9, 0x5f, 0xc1, 0x0d, 0x00, 0x00, 0x00, 0x64, 0x65, 0x70, 0x74,
  0x68, 0x77, 0x69, 0x73, 0x65, 0x5f, 0x32, 0x33, 0x31, 0x00, 0x00, 0x00,
  0x04, 0x00, 0x00, 0x00, 0x01, 0x00, 0x00, 0x00, 0x3e, 0x04, 0x00, 0x00,
  0x86, 0x07, 0x00, 0x00, 0x07, 0x00, 0x00, 0x00, 0x72, 0x9a, 0xff, 0xff,
  0x14, 0x00, 0x00, 0x00, 0x48, 0x00, 0x00, 0x00, 0x76, 0x00, 0x00, 0x00,
  0x00, 0x00, 0x00, 0x07, 0x50, 0x00, 0x00, 0x00, 0x64, 0x9a, 0xff, 0xff,
  0x10, 0x00, 0x00, 0x00, 0x18, 0x00, 0x00, 0x00, 0x1c, 0x00, 0x00, 0x00,
  0x20, 0x00, 0x00, 0x00, 0x01, 0x00, 0x00, 0x00, 0x00, 0x00, 0x00, 0x00,
  0x00, 0x00, 0x00, 0x00, 0x01, 0x00, 0x00, 0x00, 0x5e, 0xb7, 0xc7, 0x39,
  0x01, 0x00, 0x00, 0x00, 0xcf, 0xb5, 0x47, 0x41, 0x01, 0x00, 0x00, 0x00,
  0x0c, 0x71, 0x3e, 0xc1, 0x0d, 0x00, 0x00, 0x00, 0x64, 0x65, 0x70, 0x74,
  0x68, 0x77, 0x69, 0x73, 0x65, 0x5f, 0x32, 0x32, 0x31, 0x00, 0x00, 0x00,
  0x04, 0x00, 0x00, 0x00, 0x01, 0x00, 0x00, 0x00, 0x3e, 0x04, 0x00, 0x00,
  0x86, 0x07, 0x00, 0x00, 0x07, 0x00, 0x00, 0x00, 0xea, 0x9a, 0xff, 0xff,
  0x14, 0x00, 0x00, 0x00, 0x4c, 0x00, 0x00, 0x00, 0x75, 0x00, 0x00, 0x00,
