const unsigned char sr3by2_1_tflite[] = {
  0x20, 0x00, 0x00, 0x00, 0x54, 0x46, 0x4c, 0x33, 0x00, 0x00, 0x00, 0x00, 0x00,
  0x00, 0x12, 0x00, 0x1c, 0x00, 0x18, 0x00, 0x14, 0x00, 0x10, 0x00, 0x0c, 0x00,
  0x08, 0x00, 0x00, 0x00, 0x04, 0x00, 0x12, 0x00, 0x00, 0x00, 0x18, 0x00, 0x00,
  0x00, 0x48, 0x00, 0x00, 0x00, 0x34, 0x1d, 0x00, 0x00, 0x44, 0x1d, 0x00, 0x00,
  0xb4, 0xa4, 0x00, 0x00, 0x03, 0x00, 0x00, 0x00, 0x01, 0x00, 0x00, 0x00, 0x0c,
  0x00, 0x00, 0x00, 0x08, 0x00, 0x0c, 0x00, 0x08, 0x00, 0x04, 0x00, 0x08, 0x00,
  0x00, 0x00, 0x91, 0x00, 0x00, 0x00, 0x04, 0x00, 0x00, 0x00, 0x13, 0x00, 0x00,
  0x00, 0x6d, 0x69, 0x6e, 0x5f, 0x72, 0x75, 0x6e, 0x74, 0x69, 0x6d, 0x65, 0x5f,
  0x76, 0x65, 0x72, 0x73, 0x69, 0x6f, 0x6e, 0x00, 0x92, 0x00, 0x00, 0x00, 0xe8,
  0x1c, 0x00, 0x00, 0xe0, 0x1c, 0x00, 0x00, 0xa8, 0x1c, 0x00, 0x00, 0x68, 0x1c,
  0x00, 0x00, 0x20, 0x1c, 0x00, 0x00, 0xc8, 0x1b, 0x00, 0x00, 0x58, 0x1b, 0x00,
  0x00, 0xd0, 0x1a, 0x00, 0x00, 0xa0, 0x1a, 0x00, 0x00, 0x88, 0x1a, 0x00, 0x00,
  0x70, 0x1a, 0x00, 0x00, 0x4c, 0x1a, 0x00, 0x00, 0xd8, 0x19, 0x00, 0x00, 0x64,
  0x19, 0x00, 0x00, 0x28, 0x18, 0x00, 0x00, 0xcc, 0x17, 0x00, 0x00, 0x70, 0x17,
  0x00, 0x00, 0x7c, 0x16, 0x00, 0x00, 0x08, 0x16, 0x00, 0x00, 0x58, 0x15, 0x00,
  0x00, 0xe4, 0x14, 0x00, 0x00, 0xa8, 0x13, 0x00, 0x00, 0x4c, 0x13, 0x00, 0x00,
  0xf0, 0x12, 0x00, 0x00, 0x2c, 0x12, 0x00, 0x00, 0xe0, 0x11, 0x00, 0x00, 0x94,
  0x11, 0x00, 0x00, 0xf4, 0x10, 0x00, 0x00, 0x98, 0x10, 0x00, 0x00, 0x10, 0x10,
  0x00, 0x00, 0xb4, 0x0f, 0x00, 0x00, 0xf0, 0x0e, 0x00, 0x00, 0xa4, 0x0e, 0x00,
  0x00, 0x58, 0x0e, 0x00, 0x00, 0xdc, 0x0d, 0x00, 0x00, 0x9c, 0x0d, 0x00, 0x00,
  0x5c, 0x0d, 0x00, 0x00, 0xf8, 0x0c, 0x00, 0x00, 0xac, 0x0c, 0x00, 0x00, 0x3c,
  0x0c, 0x00, 0x00, 0xf0, 0x0b, 0x00, 0x00, 0x74, 0x0b, 0x00, 0x00, 0x34, 0x0b,
  0x00, 0x00, 0xf4, 0x0a, 0x00, 0x00, 0xa4, 0x0a, 0x00, 0x00, 0x70, 0x0a, 0x00,
  0x00, 0x3c, 0x0a, 0x00, 0x00, 0xf8, 0x09, 0x00, 0x00, 0xb8, 0x09, 0x00, 0x00,
  0x60, 0x09, 0x00, 0x00, 0x20, 0x09, 0x00, 0x00, 0xd0, 0x08, 0x00, 0x00, 0x9c,
  0x08, 0x00, 0x00, 0x68, 0x08, 0x00, 0x00, 0x34, 0x08, 0x00, 0x00, 0x08, 0x08,
  0x00, 0x00, 0xdc, 0x07, 0x00, 0x00, 0xb0, 0x07, 0x00, 0x00, 0x7c, 0x07, 0x00,
  0x00, 0x34, 0x07, 0x00, 0x00, 0x00, 0x07, 0x00, 0x00, 0xcc, 0x06, 0x00, 0x00,
  0xa0, 0x06, 0x00, 0x00, 0x74, 0x06, 0x00, 0x00, 0x48, 0x06, 0x00, 0x00, 0x1c,
  0x06, 0x00, 0x00, 0xf0, 0x05, 0x00, 0x00, 0xc4, 0x05, 0x00, 0x00, 0x90, 0x05,
  0x00, 0x00, 0x58, 0x05, 0x00, 0x00, 0x24, 0x05, 0x00, 0x00, 0x0c, 0x05, 0x00,
  0x00, 0xf4, 0x04, 0x00, 0x00, 0x44, 0x04, 0x00, 0x00, 0xbc, 0x03, 0x00, 0x00,
  0x4c, 0x03, 0x00, 0x00, 0xf4, 0x02, 0x00, 0x00, 0xac, 0x02, 0x00, 0x00, 0x74,
  0x02, 0x00, 0x00, 0x3c, 0x02, 0x00, 0x00, 0x24, 0x02, 0x00, 0x00, 0x1c, 0x02,
  0x00, 0x00, 0x14, 0x02, 0x00, 0x00, 0x0c, 0x02, 0x00, 0x00, 0x04, 0x02, 0x00,
  0x00, 0xfc, 0x01, 0x00, 0x00, 0xf4, 0x01, 0x00, 0x00, 0xec, 0x01, 0x00, 0x00,
  0xe4, 0x01, 0x00, 0x00, 0xdc, 0x01, 0x00, 0x00, 0xd4, 0x01, 0x00, 0x00, 0xcc,
  0x01, 0x00, 0x00, 0xc4, 0x01, 0x00, 0x00, 0xbc, 0x01, 0x00, 0x00, 0xb4, 0x01,
  0x00, 0x00, 0xac, 0x01, 0x00, 0x00, 0xa4, 0x01, 0x00, 0x00, 0x9c, 0x01, 0x00,
  0x00, 0x94, 0x01, 0x00, 0x00, 0x8c, 0x01, 0x00, 0x00, 0x84, 0x01, 0x00, 0x00,
  0x7c, 0x01, 0x00, 0x00, 0x74, 0x01, 0x00, 0x00, 0x6c, 0x01, 0x00, 0x00, 0x64,
  0x01, 0x00, 0x00, 0x5c, 0x01, 0x00, 0x00, 0x54, 0x01, 0x00, 0x00, 0x4c, 0x01,
  0x00, 0x00, 0x44, 0x01, 0x00, 0x00, 0x3c, 0x01, 0x00, 0x00, 0x34, 0x01, 0x00,
  0x00, 0x2c, 0x01, 0x00, 0x00, 0x24, 0x01, 0x00, 0x00, 0x1c, 0x01, 0x00, 0x00,
  0x14, 0x01, 0x00, 0x00, 0x0c, 0x01, 0x00, 0x00, 0x04, 0x01, 0x00, 0x00, 0xfc,
  0x00, 0x00, 0x00, 0xf4, 0x00, 0x00, 0x00, 0xec, 0x00, 0x00, 0x00, 0xe4, 0x00,
  0x00, 0x00, 0xdc, 0x00, 0x00, 0x00, 0xd4, 0x00, 0x00, 0x00, 0xcc, 0x00, 0x00,
  0x00, 0xc4, 0x00, 0x00, 0x00, 0xbc, 0x00, 0x00, 0x00, 0xb4, 0x00, 0x00, 0x00,
  0xac, 0x00, 0x00, 0x00, 0xa4, 0x00, 0x00, 0x00, 0x9c, 0x00, 0x00, 0x00, 0x94,
  0x00, 0x00, 0x00, 0x8c, 0x00, 0x00, 0x00, 0x84, 0x00, 0x00, 0x00, 0x7c, 0x00,
  0x00, 0x00, 0x74, 0x00, 0x00, 0x00, 0x6c, 0x00, 0x00, 0x00, 0x64, 0x00, 0x00,
  0x00, 0x5c, 0x00, 0x00, 0x00, 0x54, 0x00, 0x00, 0x00, 0x4c, 0x00, 0x00, 0x00,
  0x44, 0x00, 0x00, 0x00, 0x3c, 0x00, 0x00, 0x00, 0x34, 0x00, 0x00, 0x00, 0x2c,
  0x00, 0x00, 0x00, 0x24, 0x00, 0x00, 0x00, 0x04, 0x00, 0x00, 0x00, 0x9e, 0xe5,
  0xff, 0xff, 0x04, 0x00, 0x00, 0x00, 0x10, 0x00, 0x00, 0x00, 0x31, 0x2e, 0x35,
  0x2e, 0x30, 0x00, 0x00, 0x00, 0x00, 0x00, 0x00, 0x00, 0x00, 0x00, 0x00, 0x00,
  0xd8, 0x62, 0xff, 0xff, 0xdc, 0x62, 0xff, 0xff, 0xe0, 0x62, 0xff, 0xff, 0xe4,
  0x62, 0xff, 0xff, 0xe8, 0x62, 0xff, 0xff, 0xec, 0x62, 0xff, 0xff, 0xf0, 0x62,
  0xff, 0xff, 0xf4, 0x62, 0xff, 0xff, 0xf8, 0x62, 0xff, 0xff, 0xfc, 0x62, 0xff,
  0xff, 0x00, 0x63, 0xff, 0xff, 0x04, 0x63, 0xff, 0xff, 0x08, 0x63, 0xff, 0xff,
  0x0c, 0x63, 0xff, 0xff, 0x10, 0x63, 0xff, 0xff, 0x14, 0x63, 0xff, 0xff, 0x18,
  0x63, 0xff, 0xff, 0x1c, 0x63, 0xff, 0xff, 0x20, 0x63, 0xff, 0xff, 0x24, 0x63,
  0xff, 0xff, 0x28, 0x63, 0xff, 0xff, 0x2c, 0x63, 0xff, 0xff, 0x30, 0x63, 0xff,
  0xff, 0x34, 0x63, 0xff, 0xff, 0x38, 0x63, 0xff, 0xff, 0x3c, 0x63, 0xff, 0xff,
  0x40, 0x63, 0xff, 0xff, 0x44, 0x63, 0xff, 0xff, 0x48, 0x63, 0xff, 0xff, 0x4c,
  0x63, 0xff, 0xff, 0x50, 0x63, 0xff, 0xff, 0x54, 0x63, 0xff, 0xff, 0x58, 0x63,
  0xff, 0xff, 0x5c, 0x63, 0xff, 0xff, 0x60, 0x63, 0xff, 0xff, 0x64, 0x63, 0xff,
  0xff, 0x68, 0x63, 0xff, 0xff, 0x6c, 0x63, 0xff, 0xff, 0x70, 0x63, 0xff, 0xff,
  0x74, 0x63, 0xff, 0xff, 0x78, 0x63, 0xff, 0xff, 0x7c, 0x63, 0xff, 0xff, 0x80,
  0x63, 0xff, 0xff, 0x84, 0x63, 0xff, 0xff, 0x88, 0x63, 0xff, 0xff, 0x8c, 0x63,
  0xff, 0xff, 0x90, 0x63, 0xff, 0xff, 0x94, 0x63, 0xff, 0xff, 0x98, 0x63, 0xff,
  0xff, 0x9c, 0x63, 0xff, 0xff, 0xa0, 0x63, 0xff, 0xff, 0xa4, 0x63, 0xff, 0xff,
  0xa8, 0x63, 0xff, 0xff, 0xac, 0x63, 0xff, 0xff, 0xb0, 0x63, 0xff, 0xff, 0xb4,
  0x63, 0xff, 0xff, 0xb8, 0x63, 0xff, 0xff, 0xbc, 0x63, 0xff, 0xff, 0xc0, 0x63,
  0xff, 0xff, 0xc4, 0x63, 0xff, 0xff, 0xc8, 0x63, 0xff, 0xff, 0xcc, 0x63, 0xff,
  0xff, 0xd0, 0x63, 0xff, 0xff, 0xd4, 0x63, 0xff, 0xff, 0xba, 0xe6, 0xff, 0xff,
  0x04, 0x00, 0x00, 0x00, 0x08, 0x00, 0x00, 0x00, 0x72, 0x0d, 0x00, 0x00, 0x00,
  0x00, 0x00, 0x00, 0xce, 0xe6, 0xff, 0xff, 0x04, 0x00, 0x00, 0x00, 0x28, 0x00,
  0x00, 0x00, 0x05, 0xb4, 0x00, 0x00, 0x00, 0x00, 0x00, 0x00, 0x16, 0x37, 0x00,
  0x00, 0x00, 0x00, 0x00, 0x00, 0x7e, 0xb7, 0xff, 0xff, 0xff, 0xff, 0xff, 0xff,
  0xf1, 0xf7, 0xff, 0xff, 0xff, 0xff, 0xff, 0xff, 0x31, 0x23, 0x02, 0x00, 0x00,
  0x00, 0x00, 0x00, 0x02, 0xe7, 0xff, 0xff, 0x04, 0x00, 0x00, 0x00, 0x28, 0x00,
  0x00, 0x00, 0xf6, 0x9f, 0x01, 0x00, 0x00, 0x00, 0x00, 0x00, 0x7c, 0xb3, 0xfe,
  0xff, 0xff, 0xff, 0xff, 0xff, 0x17, 0xaa, 0xfe, 0xff, 0xff, 0xff, 0xff, 0xff,
  0xcb, 0xee, 0xff, 0xff, 0xff, 0xff, 0xff, 0xff, 0xa9, 0x57, 0xff, 0xff, 0xff,
  0xff, 0xff, 0xff, 0x36, 0xe7, 0xff, 0xff, 0x04, 0x00, 0x00, 0x00, 0x38, 0x00,
  0x00, 0x00, 0xa8, 0x38, 0x00, 0x00, 0x00, 0x00, 0x00, 0x00, 0xa5, 0x31, 0x01,
  0x00, 0x00, 0x00, 0x00, 0x00, 0x79, 0xf9, 0xff, 0xff, 0xff, 0xff, 0xff, 0xff,
  0x97, 0xb6, 0xff, 0xff, 0xff, 0xff, 0xff, 0xff, 0x30, 0x4c, 0x00, 0x00, 0x00,
  0x00, 0x00, 0x00, 0x89, 0x35, 0x01, 0x00, 0x00, 0x00, 0x00, 0x00, 0xeb, 0x1e,
  0xff, 0xff, 0xff, 0xff, 0xff, 0xff, 0x7a, 0xe7, 0xff, 0xff, 0x04, 0x00, 0x00,
  0x00, 0x48, 0x00, 0x00, 0x00, 0x5b, 0x27, 0xff, 0xff, 0xff, 0xff, 0xff, 0xff,
  0x82, 0x5f, 0xff, 0xff, 0xff, 0xff, 0xff, 0xff, 0x08, 0x63, 0xff, 0xff, 0xff,
  0xff, 0xff, 0xff, 0xee, 0x9c, 0xff, 0xff, 0xff, 0xff, 0xff, 0xff, 0x50, 0xa4,
  0x02, 0x00, 0x00, 0x00, 0x00, 0x00, 0x9c, 0x33, 0x00, 0x00, 0x00, 0x00, 0x00,
  0x00, 0xbf, 0x5b, 0x02, 0x00, 0x00, 0x00, 0x00, 0x00, 0x4f, 0xf7, 0xff, 0xff,
  0xff, 0xff, 0xff, 0xff, 0x22, 0xdd, 0x00, 0x00, 0x00, 0x00, 0x00, 0x00, 0xce,
  0xe7, 0xff, 0xff, 0x04, 0x00, 0x00, 0x00, 0x60, 0x00, 0x00, 0x00, 0x2d, 0xd1,
  0xff, 0xff, 0xff, 0xff, 0xff, 0xff, 0x24, 0x31, 0x00, 0x00, 0x00, 0x00, 0x00,
  0x00, 0xb0, 0x19, 0x00, 0x00, 0x00, 0x00, 0x00, 0x00, 0x1b, 0xd1, 0xff, 0xff,
  0xff, 0xff, 0xff, 0xff, 0x95, 0xbd, 0xff, 0xff, 0xff, 0xff, 0xff, 0xff, 0xf7,
  0x96, 0xff, 0xff, 0xff, 0xff, 0xff, 0xff, 0xc8, 0xff, 0xff, 0xff, 0xff, 0xff,
  0xff, 0xff, 0x14, 0x55, 0xff, 0xff, 0xff, 0xff, 0xff, 0xff, 0x3e, 0x04, 0x00,
  0x00, 0x00, 0x00, 0x00, 0x00, 0x56, 0x5d, 0x00, 0x00, 0x00, 0x00, 0x00, 0x00,
  0x50, 0x75, 0xff, 0xff, 0xff, 0xff, 0xff, 0xff, 0xed, 0x3c, 0x00, 0x00, 0x00,
  0x00, 0x00, 0x00, 0x3a, 0xe8, 0xff, 0xff, 0x04, 0x00, 0x00, 0x00, 0x78, 0x00,
  0x00, 0x00, 0x87, 0x04, 0x00, 0x00, 0x00, 0x00, 0x00, 0x00, 0x0d, 0xf9, 0xff,
  0xff, 0xff, 0xff, 0xff, 0xff, 0xda, 0x3b, 0x00, 0x00, 0x00, 0x00, 0x00, 0x00,
  0xc5, 0x0d, 0xff, 0xff, 0xff, 0xff, 0xff, 0xff, 0xa3, 0x0d, 0x00, 0x00, 0x00,
  0x00, 0x00, 0x00, 0xbc, 0x36, 0x00, 0x00, 0x00, 0x00, 0x00, 0x00, 0x90, 0x36,
  0x00, 0x00, 0x00, 0x00, 0x00, 0x00, 0x97, 0x62, 0x00, 0x00, 0x00, 0x00, 0x00,
  0x00, 0x4e, 0x72, 0xff, 0xff, 0xff, 0xff, 0xff, 0xff, 0xed, 0xfd, 0xff, 0xff,
  0xff, 0xff, 0xff, 0xff, 0x2f, 0x2b, 0x00, 0x00, 0x00, 0x00, 0x00, 0x00, 0xbd,
  0xa5, 0xff, 0xff, 0xff, 0xff, 0xff, 0xff, 0x79, 0x6d, 0x00, 0x00, 0x00, 0x00,
  0x00, 0x00, 0x34, 0x2e, 0x00, 0x00, 0x00, 0x00, 0x00, 0x00, 0x52, 0x8f, 0xff,
  0xff, 0xff, 0xff, 0xff, 0xff, 0xbe, 0xe8, 0xff, 0xff, 0x04, 0x00, 0x00, 0x00,
  0xa0, 0x00, 0x00, 0x00, 0xf0, 0x3b, 0x08, 0x00, 0x00, 0x00, 0x00, 0x00, 0x53,
  0x58, 0x03, 0x00, 0x00, 0x00, 0x00, 0x00, 0xee, 0x40, 0x08, 0x00, 0x00, 0x00,
  0x00, 0x00, 0x25, 0x16, 0x01, 0x00, 0x00, 0x00, 0x00, 0x00, 0x46, 0xed, 0x06,
  0x00, 0x00, 0x00, 0x00, 0x00, 0x66, 0xc5, 0x10, 0x00, 0x00, 0x00, 0x00, 0x00,
  0x37, 0x39, 0x35, 0x00, 0x00, 0x00, 0x00, 0x00, 0xf7, 0xdd, 0x03, 0x00, 0x00,
  0x00, 0x00, 0x00, 0x34, 0x9e, 0xfd, 0xff, 0xff, 0xff, 0xff, 0xff, 0x02, 0x13,
  0xfa, 0xff, 0xff, 0xff, 0xff, 0xff, 0x43, 0x05, 0xfe, 0xff, 0xff, 0xff, 0xff,
  0xff, 0xdb, 0xb3, 0xfc, 0xff, 0xff, 0xff, 0xff, 0xff, 0xb7, 0x54, 0x77, 0xff,
  0xff, 0xff, 0xff, 0xff, 0x70, 0x70, 0x6e, 0x00, 0x00, 0x00, 0x00, 0x00, 0x04,
  0xac, 0xfd, 0xff, 0xff, 0xff, 0xff, 0xff, 0xc4, 0xab, 0x00, 0x00, 0x00, 0x00,
  0x00, 0x00, 0x6b, 0x43, 0x03, 0x00, 0x00, 0x00, 0x00, 0x00, 0xd1, 0xe9, 0xfe,
  0xff, 0xff, 0xff, 0xff, 0xff, 0xbb, 0xde, 0x01, 0x00, 0x00, 0x00, 0x00, 0x00,
  0x96, 0x28, 0x01, 0x00, 0x00, 0x00, 0x00, 0x00, 0x6a, 0xe9, 0xff, 0xff, 0x04,
  0x00, 0x00, 0x00, 0x05, 0x00, 0x00, 0x00, 0x9f, 0x30, 0x5e, 0x79, 0x81, 0x00,
  0x00, 0x00, 0x7e, 0xe9, 0xff, 0xff, 0x04, 0x00, 0x00, 0x00, 0x08, 0x00, 0x00,
  0x00, 0x00, 0x00, 0x00, 0x00, 0x00, 0x00, 0x00, 0x00, 0x92, 0xe9, 0xff, 0xff,
  0x04, 0x00, 0x00, 0x00, 0x23, 0x00, 0x00, 0x00, 0x01, 0x52, 0xec, 0x03, 0x22,
  0xfc, 0x6d, 0x1f, 0x04, 0xcd, 0x1a, 0xd4, 0xe0, 0xd9, 0xaf, 0x14, 0x81, 0x81,
  0x7f, 0x7f, 0x7f, 0xd8, 0xd8, 0xe3, 0xbd, 0xbf, 0x70, 0x18, 0x02, 0xab, 0x0a,
  0x4c, 0xf4, 0x02, 0x3c, 0x00, 0xc2, 0xe9, 0xff, 0xff, 0x04, 0x00, 0x00, 0x00,
  0x28, 0x00, 0x00, 0x00, 0x00, 0x00, 0x00, 0x00, 0x00, 0x00, 0x00, 0x00, 0x00,
  0x00, 0x00, 0x00, 0x00, 0x00, 0x00, 0x00, 0x00, 0x00, 0x00, 0x00, 0x00, 0x00,
  0x00, 0x00, 0x00, 0x00, 0x00, 0x00, 0x00, 0x00, 0x00, 0x00, 0x00, 0x00, 0x00,
  0x00, 0x00, 0x00, 0x00, 0x00, 0xf6, 0xe9, 0xff, 0xff, 0x04, 0x00, 0x00, 0x00,
  0x23, 0x00, 0x00, 0x00, 0x67, 0x30, 0xd6, 0xef, 0xe4, 0x81, 0xba, 0x3c, 0x1c,
  0x2f, 0x33, 0x81, 0x4c, 0xb0, 0x28, 0xbd, 0x96, 0x3b, 0x81, 0x7f, 0xf0, 0xdf,
  0x6a, 0x55, 0xef, 0x11, 0x18, 0xa9, 0xe0, 0x01, 0xee, 0x1f, 0x7f, 0x05, 0x15,
  0x00, 0x26, 0xea, 0xff, 0xff, 0x04, 0x00, 0x00, 0x00, 0x19, 0x00, 0x00, 0x00,
  0xfc, 0xbd, 0xff, 0xfc, 0x81, 0x09, 0x00, 0x81, 0x0d, 0x06, 0x81, 0x1c, 0x27,
  0x97, 0xe7, 0x74, 0xbe, 0x81, 0x36, 0xd5, 0xfc, 0x81, 0xb2, 0x07, 0x34, 0x00,
  0x00, 0x00, 0x4e, 0xea, 0xff, 0xff, 0x04, 0x00, 0x00, 0x00, 0x19, 0x00, 0x00,
  0x00, 0x03, 0x10, 0xbb, 0x04, 0xd7, 0x2a, 0x18, 0x7f, 0xdf, 0x7f, 0x7f, 0x81,
  0x8e, 0x81, 0x72, 0x34, 0x15, 0x20, 0xcb, 0x16, 0x02, 0x0a, 0x03, 0x02, 0xf8,
  0x00, 0x00, 0x00, 0x76, 0xea, 0xff, 0xff, 0x04, 0x00, 0x00, 0x00, 0x19, 0x00,
  0x00, 0x00, 0xb1, 0xc3, 0x21, 0xb7, 0x0f, 0x7f, 0x81, 0xe0, 0x7f, 0x30, 0x2c,
  0xf3, 0x7f, 0x35, 0xa4, 0xb2, 0x1b, 0x71, 0xb3, 0x7f, 0xd2, 0xf0, 0x1e, 0xd2,
  0xa3, 0x00, 0x00, 0x00, 0x9e, 0xea, 0xff, 0xff, 0x04, 0x00, 0x00, 0x00, 0x19,
  0x00, 0x00, 0x00, 0x36, 0x57, 0xf3, 0x81, 0x1e, 0x30, 0x1d, 0x7f, 0xef, 0x06,
  0x21, 0x1a, 0xfe, 0x0a, 0x81, 0xd3, 0x18, 0x1c, 0x7f, 0x0f, 0x7f, 0x39, 0x15,
  0xb3, 0x20, 0x00, 0x00, 0x00, 0xc6, 0xea, 0xff, 0xff, 0x04, 0x00, 0x00, 0x00,
  0x19, 0x00, 0x00, 0x00, 0x0d, 0x4e, 0x34, 0x03, 0x04, 0xfd, 0x3c, 0x68, 0xed,
  0xfc, 0x7f, 0x7f, 0x7f, 0x7f, 0x7f, 0x15, 0x4a, 0x61, 0xf0, 0xea, 0x24, 0x5d,
  0x2a, 0x03, 0x52, 0x00, 0x00, 0x00, 0xee, 0xea, 0xff, 0xff, 0x04, 0x00, 0x00,
  0x00, 0x19, 0x00, 0x00, 0x00, 0xc8, 0x18, 0x93, 0xe4, 0xff, 0xf2, 0xcf, 0x59,
  0x15, 0xae, 0x7f, 0x0b, 0xc8, 0x27, 0x81, 0xa8, 0x7f, 0xab, 0x81, 0x1e, 0xd5,
  0x5e, 0x81, 0x4e, 0xe9, 0x00, 0x00, 0x00, 0x16, 0xeb, 0xff, 0xff, 0x04, 0x00,
  0x00, 0x00, 0x23, 0x00, 0x00, 0x00, 0xfb, 0xb3, 0x9b, 0x81, 0xae, 0xe1, 0xd2,
  0x91, 0x98, 0x41, 0x02, 0x81, 0xe1, 0xcd, 0xa8, 0xe9, 0xdf, 0xf7, 0xb1, 0x81,
  0xb2, 0x4b, 0x99, 0x01, 0xff, 0xd3, 0x88, 0x81, 0x45, 0x81, 0x14, 0x36, 0x35,
  0x10, 0xdf, 0x00, 0x46, 0xeb, 0xff, 0xff, 0x04, 0x00, 0x00, 0x00, 0x23, 0x00,
  0x00, 0x00, 0x1e, 0xf3, 0x08, 0xf5, 0x24, 0xfd, 0x10, 0x17, 0x93, 0x7f, 0x7f,
  0x81, 0x7f, 0xe3, 0x7f, 0xe1, 0x60, 0x51, 0xb1, 0x67, 0x81, 0x29, 0x81, 0x31,
  0xd6, 0xe7, 0xdf, 0x0e, 0xfc, 0x12, 0xe9, 0xf2, 0xfb, 0x02, 0xfe, 0x00, 0x76,
  0xeb, 0xff, 0xff, 0x04, 0x00, 0x00, 0x00, 0x38, 0x00, 0x00, 0x00, 0x00, 0x00,
  0x00, 0x00, 0x00, 0x00, 0x00, 0x00, 0x00, 0x00, 0x00, 0x00, 0x00, 0x00, 0x00,
  0x00, 0x00, 0x00, 0x00, 0x00, 0x00, 0x00, 0x00, 0x00, 0x00, 0x00, 0x00, 0x00,
  0x00, 0x00, 0x00, 0x00, 0x00, 0x00, 0x00, 0x00, 0x00, 0x00, 0x00, 0x00, 0x00,
  0x00, 0x00, 0x00, 0x00, 0x00, 0x00, 0x00, 0x00, 0x00, 0x00, 0x00, 0x00, 0x00,
  0x00, 0x00, 0xba, 0xeb, 0xff, 0xff, 0x04, 0x00, 0x00, 0x00, 0x23, 0x00, 0x00,
  0x00, 0x7f, 0x7f, 0x7f, 0xba, 0x5e, 0x7f, 0x81, 0x0e, 0x17, 0xaf, 0xce, 0x04,
  0xaa, 0xb5, 0x60, 0x1e, 0x63, 0x81, 0x7f, 0x04, 0x0a, 0x0e, 0xf1, 0xfb, 0x43,
  0xc8, 0x10, 0xf8, 0xe8, 0x0a, 0x1a, 0xd3, 0x33, 0xce, 0x04, 0x00, 0xea, 0xeb,
  0xff, 0xff, 0x04, 0x00, 0x00, 0x00, 0x19, 0x00, 0x00, 0x00, 0xbd, 0x52, 0x81,
  0xf2, 0xf6, 0xb5, 0xbf, 0x02, 0xf8, 0x81, 0x18, 0xdb, 0xdd, 0x39, 0x7f, 0x37,
  0x7f, 0xef, 0x49, 0xe1, 0xf7, 0x02, 0x7f, 0x10, 0xb7, 0x00, 0x00, 0x00, 0x12,
  0xec, 0xff, 0xff, 0x04, 0x00, 0x00, 0x00, 0x19, 0x00, 0x00, 0x00, 0xf8, 0x32,
  0x77, 0xfa, 0xc2, 0x67, 0x9a, 0x50, 0xc7, 0x7f, 0x7f, 0x81, 0x7f, 0x81, 0xdb,
  0x22, 0x97, 0x53, 0xde, 0x96, 0xe9, 0x37, 0xf0, 0x05, 0x56, 0x00, 0x00, 0x00,
  0x3a, 0xec, 0xff, 0xff, 0x04, 0x00, 0x00, 0x00, 0x19, 0x00, 0x00, 0x00, 0xc6,
  0x3f, 0x36, 0xca, 0xe9, 0x15, 0x7f, 0xbc, 0x7f, 0x7f, 0x7f, 0x3c, 0x7f, 0xaa,
  0x5a, 0x00, 0x02, 0xc3, 0x2c, 0xff, 0xd0, 0xfd, 0x49, 0x49, 0xf1, 0x00, 0x00,
  0x00, 0x62, 0xec, 0xff, 0xff, 0x04, 0x00, 0x00, 0x00, 0x23, 0x00, 0x00, 0x00,
  0xcb, 0xf9, 0xf5, 0x40, 0x81, 0x68, 0x4a, 0x60, 0xd6, 0xc1, 0x01, 0x09, 0x57,
  0x7f, 0x20, 0xc7, 0x52, 0x48, 0xce, 0x13, 0x7f, 0x5d, 0x04, 0xf5, 0x81, 0x5a,
  0x8d, 0xd1, 0x7f, 0x4c, 0x02, 0xf0, 0xd9, 0xfc, 0xf3, 0x00, 0x92, 0xec, 0xff,
  0xff, 0x04, 0x00, 0x00, 0x00, 0x23, 0x00, 0x00, 0x00, 0x14, 0x6e, 0x15, 0xe3,
  0x0f, 0x02, 0xc4, 0x19, 0xcd, 0x76, 0xdc, 0x38, 0x0e, 0x2a, 0x7f, 0x7f, 0x2c,
  0x81, 0x7f, 0x7f, 0x81, 0xc9, 0x46, 0x7f, 0x35, 0x47, 0xbf, 0x02, 0x3d, 0x23,
  0x05, 0xd2, 0x11, 0x11, 0xd8, 0x00, 0xc2, 0xec, 0xff, 0xff, 0x04, 0x00, 0x00,
  0x00, 0x23, 0x00, 0x00, 0x00, 0x2c, 0x26, 0xf0, 0x8f, 0x44, 0x1a, 0x21, 0x7f,
  0x7f, 0x7f, 0x94, 0x7f, 0x94, 0x81, 0x1d, 0x10, 0x41, 0x81, 0x27, 0x81, 0x06,
  0x05, 0x08, 0xe6, 0xdf, 0x04, 0xd6, 0xed, 0x17, 0x16, 0xff, 0x01, 0x22, 0x99,
  0xeb, 0x00, 0xf2, 0xec, 0xff, 0xff, 0x04, 0x00, 0x00, 0x00, 0x3f, 0x00, 0x00,
  0x00, 0x3f, 0x1c, 0x46, 0x89, 0xfc, 0x01, 0xa9, 0xf1, 0x7f, 0x81, 0xa4, 0x92,
  0x1b, 0x6a, 0xf1, 0x1b, 0xa0, 0xb4, 0xd4, 0x10, 0x7f, 0xd3, 0x0a, 0x25, 0x57,
  0x54, 0x5a, 0x70, 0xcd, 0x35, 0xa3, 0x4a, 0x6a, 0x81, 0x1d, 0xc3, 0x93, 0xaf,
  0x12, 0x8e, 0x7f, 0xf9, 0x51, 0xce, 0x56, 0x2f, 0x81, 0xf2, 0xd4, 0xbc, 0x3b,
  0x97, 0x0d, 0x98, 0x81, 0xb2, 0x0b, 0x15, 0x63, 0x40, 0x16, 0xfe, 0xe1, 0x00,
  0x3e, 0xed, 0xff, 0xff, 0x04, 0x00, 0x00, 0x00, 0x2d, 0x00, 0x00, 0x00, 0x1e,
  0x09, 0xd8, 0x38, 0xe4, 0xd5, 0xc5, 0x26, 0xd0, 0x1f, 0x14, 0x7f, 0xcd, 0xef,
  0xe9, 0xf4, 0x81, 0x45, 0x7f, 0x7f, 0x8c, 0xaf, 0x81, 0x83, 0x7f, 0x31, 0x5f,
  0x5d, 0x4c, 0x16, 0x81, 0xd0, 0x5d, 0xf4, 0x2c, 0x7f, 0x14, 0x15, 0x1c, 0x1a,
  0xef, 0x81, 0xcc, 0xbb, 0xe9, 0x00, 0x00, 0x00, 0x7a, 0xed, 0xff, 0xff, 0x04,
  0x00, 0x00, 0x00, 0x48, 0x00, 0x00, 0x00, 0x00, 0x00, 0x00, 0x00, 0x00, 0x00,
  0x00, 0x00, 0x00, 0x00, 0x00, 0x00, 0x00, 0x00, 0x00, 0x00, 0x00, 0x00, 0x00,
  0x00, 0x00, 0x00, 0x00, 0x00, 0x00, 0x00, 0x00, 0x00, 0x00, 0x00, 0x00, 0x00,
  0x00, 0x00, 0x00, 0x00, 0x00, 0x00, 0x00, 0x00, 0x00, 0x00, 0x00, 0x00, 0x00,
  0x00, 0x00, 0x00, 0x00, 0x00, 0x00, 0x00, 0x00, 0x00, 0x00, 0x00, 0x00, 0x00,
  0x00, 0x00, 0x00, 0x00, 0x00, 0x00, 0x00, 0x00, 0x00, 0x00, 0x00, 0x00, 0x00,
  0x00, 0xce, 0xed, 0xff, 0xff, 0x04, 0x00, 0x00, 0x00, 0x2d, 0x00, 0x00, 0x00,
  0x01, 0x81, 0x0b, 0x7f, 0x74, 0xbf, 0x5c, 0xf4, 0x81, 0x81, 0x03, 0x9d, 0x47,
  0x81, 0x0a, 0x7f, 0x7f, 0xef, 0xde, 0x2b, 0x81, 0x2c, 0xd1, 0x1c, 0x53, 0x70,
  0xf3, 0x1b, 0xe3, 0xfa, 0x0b, 0x38, 0x7f, 0x14, 0x26, 0x1f, 0x0d, 0xee, 0x0d,
  0xd6, 0x07, 0x2a, 0xf5, 0x03, 0x04, 0x00, 0x00, 0x00, 0x0a, 0xee, 0xff, 0xff,
  0x04, 0x00, 0x00, 0x00, 0x31, 0x00, 0x00, 0x00, 0x7f, 0x31, 0xf2, 0x10, 0xc0,
  0x2d, 0x0e, 0x81, 0x70, 0x28, 0x08, 0x25, 0xf9, 0xd4, 0x81, 0x42, 0x1a, 0x18,
  0x31, 0xf5, 0xda, 0x81, 0x27, 0xf8, 0xc2, 0xbd, 0xe8, 0xe4, 0x81, 0xfc, 0x2c,
  0x32, 0x21, 0x07, 0xa6, 0x81, 0x1c, 0xc4, 0xcb, 0xe1, 0x55, 0xd8, 0x81, 0x72,
  0x6a, 0x36, 0x15, 0xd6, 0xa9, 0x00, 0x00, 0x00, 0x4a, 0xee, 0xff, 0xff, 0x04,
  0x00, 0x00, 0x00, 0x23, 0x00, 0x00, 0x00, 0x1b, 0xdc, 0x0d, 0xf6, 0x17, 0xfd,
  0xfb, 0x81, 0x38, 0xb9, 0xc7, 0x2a, 0xc7, 0x7f, 0xee, 0x7f, 0x81, 0x81, 0x7f,
  0x81, 0x3d, 0xe7, 0x36, 0xdc, 0xf9, 0x37, 0xc7, 0x02, 0x0b, 0xf6, 0x01, 0xe4,
  0x02, 0x0d, 0x01, 0x00, 0x7a, 0xee, 0xff, 0xff, 0x04, 0x00, 0x00, 0x00, 0x23,
  0x00, 0x00, 0x00, 0xf6, 0x2b, 0x25, 0x7f, 0x0c, 0x7f, 0x09, 0x13, 0xfb, 0x1a,
  0x2a, 0xef, 0xf0, 0x81, 0xdd, 0x78, 0x81, 0x0d, 0xe4, 0xfc, 0x06, 0x3e, 0x7f,
  0x02, 0xfb, 0x7f, 0xd6, 0x5b, 0x81, 0x05, 0x3f, 0x09, 0x2f, 0x4f, 0xfd, 0x00,
  0xaa, 0xee, 0xff, 0xff, 0x04, 0x00, 0x00, 0x00, 0x3f, 0x00, 0x00, 0x00, 0x81,
  0x08, 0xff, 0xf2, 0x01, 0xf9, 0x18, 0xfa, 0x3f, 0x06, 0xed, 0x7f, 0xf8, 0xfb,
  0xfe, 0x0e, 0x14, 0xfe, 0xaf, 0x42, 0x05, 0xf2, 0x7f, 0x04, 0x3f, 0xbb, 0xb1,
  0xd1, 0xd1, 0x0c, 0x7f, 0x06, 0xde, 0xf5, 0x7e, 0x2c, 0xde, 0xa7, 0x03, 0xe9,
  0x06, 0x7a, 0x7f, 0x9c, 0xff, 0xdd, 0x00, 0xf1, 0xb0, 0xd9, 0xd1, 0x81, 0x0e,
  0xb5, 0x20, 0xed, 0x05, 0x20, 0x0e, 0x7f, 0xee, 0xe1, 0x43, 0x00, 0xf6, 0xee,
  0xff, 0xff, 0x04, 0x00, 0x00, 0x00, 0x2d, 0x00, 0x00, 0x00, 0xff, 0xfd, 0x1d,
  0x00, 0xf1, 0xd8, 0xe0, 0xce, 0xf1, 0x2c, 0x00, 0xd2, 0xfd, 0xff, 0xe8, 0xe8,
  0xf7, 0xf7, 0xe6, 0xc9, 0x13, 0x52, 0xe0, 0xd2, 0x81, 0x81, 0xcc, 0x7f, 0x81,
  0x7f, 0x7f, 0x7f, 0x81, 0xb9, 0xa3, 0x81, 0x27, 0x22, 0xbb, 0x1a, 0x45, 0xac,
  0x92, 0xc9, 0xda, 0x00, 0x00, 0x00, 0x32, 0xef, 0xff, 0xff, 0x04, 0x00, 0x00,
  0x00, 0x2d, 0x00, 0x00, 0x00, 0x7f, 0x93, 0xda, 0x8b, 0x81, 0x0c, 0x3c, 0x12,
  0x5c, 0x78, 0x7f, 0x81, 0x7f, 0x70, 0xb6, 0x7f, 0x7f, 0x7f, 0x39, 0xe9, 0xc5,
  0x20, 0x62, 0x29, 0xbb, 0x2a, 0x20, 0x23, 0xb5, 0x05, 0x42, 0x98, 0xb9, 0x20,
  0xc4, 0xda, 0x1f, 0x37, 0xee, 0x5a, 0xe6, 0x81, 0x6e, 0xf7, 0xfe, 0x00, 0x00,
  0x00, 0x6e, 0xef, 0xff, 0xff, 0x04, 0x00, 0x00, 0x00, 0x6c, 0x00, 0x00, 0x00,
  0xa3, 0x99, 0xd1, 0x97, 0xc2, 0xe9, 0x70, 0xbf, 0x8f, 0x7f, 0xec, 0x58, 0x11,
  0x89, 0xd5, 0xb8, 0xaf, 0xfb, 0xc6, 0x2d, 0x7f, 0xb8, 0xec, 0x18, 0xe3, 0xfe,
  0xf1, 0x15, 0xa6, 0x4b, 0x59, 0x29, 0xd6, 0xd0, 0x81, 0xf4, 0x40, 0x42, 0xd2,
  0x7f, 0x6a, 0x38, 0x50, 0xf0, 0xdd, 0x2a, 0x0c, 0xbc, 0x1f, 0xd4, 0x1e, 0x24,
  0xbe, 0xad, 0xef, 0x7f, 0x48, 0xe0, 0xfd, 0xcc, 0xfa, 0x26, 0x2c, 0xf0, 0xfd,
  0xf8, 0xff, 0x1d, 0x81, 0xc2, 0xf9, 0xb7, 0xcc, 0x31, 0x7f, 0xfd, 0xf1, 0xf1,
  0x19, 0x18, 0xee, 0x1f, 0x05, 0x05, 0x2c, 0xed, 0x7f, 0xeb, 0x36, 0xfd, 0xf0,
  0xd3, 0x28, 0x3e, 0x15, 0x48, 0xad, 0x3b, 0xa9, 0x81, 0x05, 0x16, 0xe9, 0xab,
  0xb2, 0x10, 0x21, 0xbe, 0xe6, 0xef, 0xff, 0xff, 0x04, 0x00, 0x00, 0x00, 0x3c,
  0x00, 0x00, 0x00, 0x07, 0x03, 0xe0, 0x04, 0x11, 0x34, 0x19, 0xf2, 0x02, 0x2d,
  0x5d, 0xa2, 0xbb, 0x81, 0x7f, 0x0c, 0x09, 0x81, 0xc0, 0x04, 0xe4, 0xda, 0x54,
  0x7f, 0x81, 0x1a, 0x78, 0x81, 0x81, 0xe5, 0xdf, 0x7f, 0x7f, 0x81, 0xa6, 0x40,
  0xed, 0xc4, 0x32, 0xfa, 0xdc, 0xd1, 0x81, 0x24, 0xf8, 0x2a, 0x1c, 0x15, 0xfd,
  0xe7, 0x5f, 0x02, 0x10, 0x20, 0x30, 0x01, 0x06, 0xe3, 0x7f, 0xfd, 0x2e, 0xf0,
  0xff, 0xff, 0x04, 0x00, 0x00, 0x00, 0x60, 0x00, 0x00, 0x00, 0x00, 0x00, 0x00,
  0x00, 0x00, 0x00, 0x00, 0x00, 0x00, 0x00, 0x00, 0x00, 0x00, 0x00, 0x00, 0x00,
  0x00, 0x00, 0x00, 0x00, 0x00, 0x00, 0x00, 0x00, 0x00, 0x00, 0x00, 0x00, 0x00,
  0x00, 0x00, 0x00, 0x00, 0x00, 0x00, 0x00, 0x00, 0x00, 0x00, 0x00, 0x00, 0x00,
  0x00, 0x00, 0x00, 0x00, 0x00, 0x00, 0x00, 0x00, 0x00, 0x00, 0x00, 0x00, 0x00,
  0x00, 0x00, 0x00, 0x00, 0x00, 0x00, 0x00, 0x00, 0x00, 0x00, 0x00, 0x00, 0x00,
  0x00, 0x00, 0x00, 0x00, 0x00, 0x00, 0x00, 0x00, 0x00, 0x00, 0x00, 0x00, 0x00,
  0x00, 0x00, 0x00, 0x00, 0x00, 0x00, 0x00, 0x00, 0x00, 0x00, 0x00, 0x00, 0x00,
  0x00, 0x00, 0x9a, 0xf0, 0xff, 0xff, 0x04, 0x00, 0x00, 0x00, 0x3c, 0x00, 0x00,
  0x00, 0x81, 0x66, 0x2b, 0xc9, 0xee, 0x1f, 0xf7, 0xd0, 0x81, 0x28, 0x1c, 0xed,
  0x3a, 0xfd, 0x18, 0xf4, 0x16, 0x7f, 0x6b, 0x81, 0xd3, 0x81, 0x81, 0x81, 0x5b,
  0x81, 0x03, 0x7f, 0x7f, 0x41, 0x7f, 0x3f, 0x21, 0x9f, 0xb8, 0xf2, 0xb2, 0xcf,
  0x7f, 0x55, 0xd1, 0xce, 0x69, 0xc3, 0x01, 0xfb, 0x1a, 0x25, 0x41, 0xf9, 0xf9,
  0xca, 0x13, 0xfe, 0xc1, 0x09, 0x1d, 0x19, 0x04, 0x2c, 0xe2, 0xf0, 0xff, 0xff,
  0x04, 0x00, 0x00, 0x00, 0x51, 0x00, 0x00, 0x00, 0x66, 0x38, 0x6e, 0x81, 0x15,
  0xd2, 0xe7, 0x18, 0xcb, 0x4a, 0x7f, 0xe4, 0x3a, 0x3d, 0xf2, 0xc1, 0x32, 0x96,
  0xfb, 0xae, 0x7f, 0x70, 0x98, 0xba, 0xc6, 0x22, 0xb0, 0x29, 0x23, 0xdf, 0x81,
  0x34, 0x08, 0x25, 0xca, 0x63, 0x14, 0x21, 0xba, 0x08, 0x7f, 0xd1, 0xc2, 0x6c,
  0xd4, 0xc9, 0xfa, 0x07, 0x13, 0x05, 0x03, 0x81, 0x0e, 0x02, 0xa1, 0x81, 0x19,
  0xb3, 0xb7, 0xc1, 0x0a, 0x03, 0x69, 0x38, 0x3c, 0xd5, 0xda, 0xde, 0x81, 0x2f,
  0x9a, 0xd5, 0xcd, 0x10, 0xe9, 0xf1, 0x1d, 0x2a, 0x7f, 0xb1, 0x2d, 0x00, 0x00,
  0x00, 0x42, 0xf1, 0xff, 0xff, 0x04, 0x00, 0x00, 0x00, 0x2d, 0x00, 0x00, 0x00,
  0xb2, 0x20, 0x2a, 0x08, 0x23, 0xfc, 0x35, 0x10, 0x0d, 0xae, 0xec, 0xd1, 0x2c,
  0x5b, 0x15, 0xb3, 0xe1, 0x34, 0x81, 0x7f, 0x64, 0x7f, 0x7f, 0xe8, 0x81, 0x81,
  0x7f, 0xb0, 0x1b, 0xe6, 0xef, 0x25, 0x7f, 0x90, 0xec, 0xf6, 0xc3, 0xfc, 0x7f,
  0x1c, 0x15, 0xc6, 0xdc, 0xf8, 0x18, 0x00, 0x00, 0x00, 0x7e, 0xf1, 0xff, 0xff,
  0x04, 0x00, 0x00, 0x00, 0x2d, 0x00, 0x00, 0x00, 0xbc, 0xc9, 0xf8, 0xfc, 0x81,
  0xda, 0x7f, 0x03, 0xda, 0xc0, 0x0a, 0x7f, 0x81, 0x19, 0x62, 0xaf, 0x81, 0x93,
  0x81, 0x9a, 0x3f, 0x74, 0xeb, 0x81, 0x06, 0x3a, 0x7f, 0xd5, 0x7f, 0xbb, 0x06,
  0x07, 0x55, 0xe3, 0xb0, 0x08, 0xf2, 0xea, 0x15, 0x02, 0x09, 0xdb, 0xd0, 0x02,
  0xfe, 0x00, 0x00, 0x00, 0xba, 0xf1, 0xff, 0xff, 0x04, 0x00, 0x00, 0x00, 0x6c,
  0x00, 0x00, 0x00, 0x7f, 0x24, 0xe3, 0x10, 0xff, 0xf2, 0xe0, 0xfc, 0x31, 0x1e,
  0x03, 0x64, 0x08, 0xd1, 0xb7, 0x19, 0xfa, 0x90, 0x81, 0xf3, 0x38, 0xeb, 0x33,
  0x53, 0x1d, 0x45, 0x7f, 0x1d, 0xac, 0xfa, 0x15, 0xb1, 0x14, 0x28, 0x2e, 0x01,
  0x53, 0xcb, 0x29, 0x48, 0x11, 0xa6, 0xd4, 0xee, 0x7f, 0x56, 0x29, 0x50, 0x2a,
  0x02, 0x86, 0xc8, 0x16, 0xb3, 0x30, 0x59, 0x7f, 0x34, 0x07, 0x31, 0xde, 0x4b,
  0x3e, 0x76, 0x2d, 0x7f, 0x26, 0xd8, 0x33, 0x42, 0x68, 0xed, 0xf1, 0x20, 0x31,
  0xf4, 0x61, 0x81, 0xfd, 0xf5, 0xe8, 0x4d, 0x1b, 0x19, 0xe5, 0x5b, 0x59, 0x94,
  0xf0, 0x43, 0x4c, 0xb8, 0x9f, 0x7f, 0xa4, 0xbb, 0xbb, 0x39, 0x05, 0xc7, 0xd7,
  0xf6, 0x6f, 0x1b, 0xa0, 0x39, 0x81, 0xd1, 0x32, 0xf2, 0xff, 0xff, 0x04, 0x00,
  0x00, 0x00, 0x3c, 0x00, 0x00, 0x00, 0xf7, 0xeb, 0x03, 0xf6, 0xe2, 0x4c, 0x17,
  0xec, 0x00, 0x28, 0xd0, 0xbb, 0xec, 0x3f, 0x81, 0x64, 0x81, 0xf8, 0x28, 0x81,
  0xec, 0x58, 0x65, 0x7f, 0x81, 0x81, 0x2e, 0x68, 0xb4, 0x7f, 0x7f, 0x7c, 0x81,
  0x7f, 0x7f, 0x7e, 0xcc, 0x00, 0xe4, 0x7f, 0xbe, 0x65, 0x59, 0xd6, 0xa9, 0x56,
  0x6c, 0x7e, 0x00, 0x07, 0xd3, 0xf4, 0x1b, 0x51, 0x17, 0xf7, 0x23, 0x0b, 0x10,
  0xf0, 0x7a, 0xf2, 0xff, 0xff, 0x04, 0x00, 0x00, 0x00, 0x3c, 0x00, 0x00, 0x00,
  0x2e, 0xff, 0xe6, 0x5c, 0x16, 0x47, 0xc4, 0xf8, 0xe4, 0x0f, 0xc0, 0x52, 0xe8,
  0x7f, 0x3f, 0xce, 0xc2, 0x2d, 0x14, 0xca, 0xd0, 0x27, 0x5b, 0xff, 0x81, 0x57,
  0x7f, 0x0c, 0x8a, 0x64, 0x7f, 0x81, 0x2d, 0x7f, 0xb9, 0x27, 0x7c, 0xf3, 0x58,
  0xac, 0x81, 0x81, 0x75, 0xf3, 0x2a, 0x72, 0x81, 0x81, 0xc9, 0x06, 0xe9, 0x81,
  0xbf, 0xb9, 0x8d, 0xd5, 0x7f, 0x47, 0xf9, 0x17, 0xc2, 0xf2, 0xff, 0xff, 0x04,
  0x00, 0x00, 0x00, 0xb4, 0x00, 0x00, 0x00, 0x81, 0x23, 0xcb, 0x3d, 0x60, 0x98,
  0x21, 0xd2, 0xfa, 0x23, 0x4d, 0x0d, 0x12, 0xd7, 0x32, 0xf9, 0xb8, 0xca, 0x7f,
  0x26, 0xf2, 0x0b, 0x0e, 0xfb, 0xfe, 0xfe, 0xfb, 0x01, 0x29, 0xda, 0x38, 0x7d,
  0xee, 0x13, 0xe5, 0xdf, 0xa3, 0x81, 0xe4, 0xb9, 0xf8, 0xac, 0x7d, 0x7c, 0x35,
  0x4f, 0xdd, 0x09, 0xc8, 0x31, 0x7f, 0x7b, 0x51, 0x42, 0xd7, 0x2c, 0x48, 0xc8,
  0x38, 0x81, 0xaa, 0xc9, 0x22, 0x10, 0xfa, 0xcb, 0x1c, 0xc1, 0x29, 0x48, 0x22,
  0x53, 0xc1, 0x49, 0x7f, 0x10, 0x25, 0x17, 0xee, 0xd6, 0x65, 0xf6, 0x01, 0xe1,
  0xff, 0xae, 0x81, 0x25, 0xb8, 0xe0, 0x08, 0x1b, 0xa4, 0x05, 0xdc, 0xc4, 0x8a,
  0xc9, 0x1e, 0xee, 0xde, 0xaf, 0x7f, 0x0f, 0x09, 0xca, 0x00, 0xfc, 0x22, 0x1d,
  0xcf, 0x01, 0x34, 0x81, 0xb7, 0xfe, 0xfe, 0xbd, 0x44, 0xe0, 0xf5, 0x5c, 0xe9,
  0x69, 0xf9, 0x81, 0x14, 0xd1, 0xb2, 0x04, 0x5d, 0xf7, 0x15, 0x27, 0x40, 0xd1,
  0x07, 0x99, 0x7f, 0x2b, 0xa8, 0xf6, 0xe8, 0xfb, 0x1a, 0xfd, 0x02, 0xd8, 0x16,
  0x3a, 0x03, 0x81, 0xdf, 0xde, 0x91, 0x03, 0x05, 0x5f, 0xb0, 0x3e, 0xbd, 0xf4,
  0xe0, 0xec, 0xe5, 0xb3, 0x3a, 0x6f, 0xfb, 0xc3, 0x0a, 0xf0, 0x2d, 0xf3, 0x38,
  0xdb, 0x21, 0x81, 0x74, 0x1b, 0x82, 0xf3, 0xff, 0xff, 0x04, 0x00, 0x00, 0x00,
  0x4b, 0x00, 0x00, 0x00, 0x05, 0x36, 0xaf, 0xfe, 0xf6, 0xff, 0x24, 0x81, 0xdb,
  0x98, 0x7f, 0xd4, 0xdf, 0xfd, 0x1f, 0x81, 0x7f, 0xb3, 0x7d, 0x60, 0x25, 0x81,
  0x2c, 0x7f, 0x62, 0x71, 0x81, 0x47, 0xd1, 0x84, 0x60, 0x1c, 0x59, 0x7f, 0x4f,
  0x7f, 0x07, 0xcf, 0x2d, 0x7f, 0xf8, 0x18, 0x7f, 0x8e, 0x88, 0xae, 0x1e, 0x28,
  0x02, 0x7f, 0xcd, 0x10, 0x9e, 0x17, 0xb2, 0xed, 0x8d, 0xd7, 0x7f, 0x7f, 0xfe,
  0x39, 0x7f, 0x0c, 0xe8, 0x0f, 0x01, 0x0e, 0xf8, 0x16, 0x00, 0x34, 0x05, 0xcd,
  0xce, 0x00, 0xda, 0xf3, 0xff, 0xff, 0x04, 0x00, 0x00, 0x00, 0x78, 0x00, 0x00,
  0x00, 0x00, 0x00, 0x00, 0x00, 0x00, 0x00, 0x00, 0x00, 0x00, 0x00, 0x00, 0x00,
  0x00, 0x00, 0x00, 0x00, 0x00, 0x00, 0x00, 0x00, 0x00, 0x00, 0x00, 0x00, 0x00,
  0x00, 0x00, 0x00, 0x00, 0x00, 0x00, 0x00, 0x00, 0x00, 0x00, 0x00, 0x00, 0x00,
  0x00, 0x00, 0x00, 0x00, 0x00, 0x00, 0x00, 0x00, 0x00, 0x00, 0x00, 0x00, 0x00,
  0x00, 0x00, 0x00, 0x00, 0x00, 0x00, 0x00, 0x00, 0x00, 0x00, 0x00, 0x00, 0x00,
  0x00, 0x00, 0x00, 0x00, 0x00, 0x00, 0x00, 0x00, 0x00, 0x00, 0x00, 0x00, 0x00,
  0x00, 0x00, 0x00, 0x00, 0x00, 0x00, 0x00, 0x00, 0x00, 0x00, 0x00, 0x00, 0x00,
  0x00, 0x00, 0x00, 0x00, 0x00, 0x00, 0x00, 0x00, 0x00, 0x00, 0x00, 0x00, 0x00,
  0x00, 0x00, 0x00, 0x00, 0x00, 0x00, 0x00, 0x00, 0x00, 0x00, 0x00, 0x00, 0x00,
  0x00, 0x00, 0x00, 0x00, 0x5e, 0xf4, 0xff, 0xff, 0x04, 0x00, 0x00, 0x00, 0x4b,
  0x00, 0x00, 0x00, 0x1b, 0xcf, 0x29, 0xf0, 0x10, 0xdc, 0x00, 0x2d, 0xea, 0x1a,
  0x04, 0x29, 0xee, 0x20, 0xe5, 0x6e, 0x21, 0x6e, 0x0f, 0x0f, 0x3d, 0xd1, 0xec,
  0x1f, 0x04, 0x6c, 0xde, 0xf4, 0xeb, 0xea, 0x7f, 0x37, 0x7f, 0x81, 0xff, 0x81,
  0xea, 0x15, 0xbc, 0xe1, 0x4a, 0x5e, 0x81, 0xa5, 0x7f, 0xe5, 0x7f, 0xec, 0x70,
  0xd5, 0x4a, 0x81, 0x7f, 0x7f, 0x7f, 0x70, 0x7f, 0x89, 0x7f, 0x2c, 0x9c, 0xc7,
  0x0f, 0x09, 0x81, 0x96, 0xd7, 0xd7, 0x3e, 0x23, 0x7f, 0x10, 0x64, 0xc5, 0x03,
  0x00, 0xb6, 0xf4, 0xff, 0xff, 0x04, 0x00, 0x00, 0x00, 0x90, 0x00, 0x00, 0x00,
  0x49, 0xa1, 0xdf, 0xe3, 0x28, 0xd1, 0xef, 0xc3, 0x81, 0xa2, 0x0f, 0x28, 0x00,
  0x40, 0x81, 0xfd, 0x63, 0xd5, 0x1a, 0xcd, 0xb9, 0x65, 0x57, 0x22, 0x35, 0x33,
  0xb8, 0x7f, 0xe8, 0x7a, 0xfd, 0xe8, 0x35, 0xae, 0x13, 0x67, 0x4d, 0x0a, 0x49,
  0xdc, 0xd3, 0x0b, 0x2f, 0x7d, 0x7f, 0xbc, 0x3f, 0xaf, 0xd0, 0xa6, 0xc7, 0xa2,
  0x20, 0xba, 0x19, 0x5e, 0xfd, 0xf3, 0x81, 0xca, 0x47, 0x25, 0x31, 0x0d, 0x81,
  0xf4, 0x00, 0x81, 0xbd, 0xfd, 0x7b, 0x1a, 0xf9, 0xfb, 0xb1, 0x43, 0x4e, 0x13,
  0xb5, 0x81, 0xeb, 0x3d, 0xf9, 0x4f, 0x54, 0xeb, 0xe2, 0x72, 0xf6, 0x7f, 0xee,
  0x0a, 0xe0, 0xe0, 0xb2, 0xe9, 0x8d, 0x92, 0xf1, 0xfc, 0xeb, 0xff, 0x9e, 0xeb,
  0x81, 0x0c, 0x9d, 0x3b, 0xaf, 0x05, 0x42, 0xef, 0xf0, 0xe2, 0xdf, 0xb4, 0x68,
  0x7f, 0x84, 0x2e, 0xeb, 0xdf, 0xdb, 0xe8, 0x3a, 0xd7, 0x7f, 0x38, 0xe4, 0x2c,
  0x24, 0xa1, 0x81, 0xdd, 0x38, 0xdf, 0x9d, 0xe5, 0x1b, 0x09, 0x15, 0x25, 0xd6,
  0xdd, 0x52, 0xf5, 0xff, 0xff, 0x04, 0x00, 0x00, 0x00, 0x3c, 0x00, 0x00, 0x00,
  0x19, 0x03, 0xde, 0x0c, 0xfd, 0xf6, 0xca, 0x31, 0xe3, 0x36, 0xfb, 0xbf, 0x86,
  0xf3, 0xf7, 0x7f, 0x39, 0x7f, 0x7f, 0x49, 0x59, 0x35, 0xd7, 0x0c, 0x81, 0x81,
  0x7f, 0xc3, 0x7f, 0xcb, 0x27, 0xa4, 0x7f, 0x7f, 0x81, 0x7f, 0x35, 0xe5, 0x3d,
  0x9f, 0x1a, 0xae, 0x76, 0x81, 0x30, 0xd0, 0x18, 0x31, 0xfc, 0x0d, 0xd0, 0x1a,
  0xd4, 0x04, 0xc4, 0x06, 0x02, 0x2a, 0x00, 0xe0, 0x9a, 0xf5, 0xff, 0xff, 0x04,
  0x00, 0x00, 0x00, 0x3c, 0x00, 0x00, 0x00, 0x23, 0xfa, 0x23, 0x14, 0x10, 0xe9,
  0xf5, 0x1d, 0x76, 0xb7, 0xf1, 0xfe, 0xac, 0x1d, 0x7f, 0xe7, 0xd6, 0x1e, 0x7f,
  0x13, 0xce, 0x3f, 0x81, 0x2c, 0x9f, 0x81, 0x11, 0x7f, 0x7f, 0x81, 0x73, 0x7f,
  0xab, 0x81, 0x5c, 0x81, 0x7f, 0xf7, 0xf9, 0xd5, 0x04, 0x33, 0x02, 0xd1, 0x81,
  0xe8, 0xe1, 0xd6, 0x28, 0x28, 0x10, 0x07, 0x00, 0xf4, 0x07, 0x02, 0x1f, 0xf8,
  0x0f, 0x0b, 0xe2, 0xf5, 0xff, 0xff, 0x04, 0x00, 0x00, 0x00, 0xb4, 0x00, 0x00,
  0x00, 0xf9, 0x1c, 0x19, 0xfe, 0x07, 0xf1, 0xed, 0x7f, 0x13, 0x15, 0xeb, 0xd7,
  0xf9, 0x26, 0xec, 0xf8, 0x1c, 0x0a, 0x10, 0x21, 0x3b, 0xd2, 0x0e, 0xfa, 0xf7,
  0x7f, 0x12, 0x12, 0xf6, 0xe4, 0xfe, 0x15, 0x1d, 0x37, 0x00, 0x08, 0x81, 0xf6,
  0x14, 0xed, 0x01, 0x04, 0x11, 0x27, 0xf5, 0xd6, 0x08, 0x72, 0x7f, 0xf6, 0xe4,
  0x41, 0x07, 0xf0, 0x93, 0x0a, 0xc7, 0x1d, 0xd4, 0xe8, 0x81, 0xf0, 0xd4, 0xcf,
  0x10, 0xec, 0x2b, 0x2d, 0xc9, 0x24, 0x08, 0x3f, 0x0c, 0x8c, 0xf3, 0x10, 0x0a,
  0x2c, 0x81, 0x07, 0x0a, 0xad, 0x07, 0x92, 0x95, 0x11, 0x00, 0x43, 0x01, 0xfc,
  0xd9, 0xe9, 0xa5, 0x27, 0xa1, 0xfb, 0xdb, 0xf7, 0x31, 0x22, 0x22, 0x7f, 0x41,
  0x1a, 0x38, 0x20, 0x18, 0x3c, 0xad, 0x4a, 0x2e, 0xf4, 0x19, 0x81, 0xf6, 0xea,
  0x95, 0x08, 0xbd, 0xd6, 0x0f, 0x32, 0xe0, 0x03, 0x7f, 0x47, 0xeb, 0x21, 0x0d,
  0x01, 0x29, 0xbb, 0xb0, 0xf7, 0x99, 0x3a, 0x9b, 0x12, 0xec, 0xef, 0xa1, 0x13,
  0x27, 0x1b, 0xfc, 0xec, 0x06, 0x85, 0x0b, 0x7f, 0xb6, 0x15, 0x4e, 0xf9, 0x14,
  0x98, 0xfb, 0x89, 0xf7, 0x27, 0x58, 0x46, 0x44, 0x38, 0x7f, 0xf9, 0x7f, 0x56,
  0x0a, 0xe2, 0xf9, 0x04, 0x14, 0x60, 0xb5, 0xf9, 0x2c, 0xe7, 0x91, 0x08, 0xa2,
  0xf6, 0xff, 0xff, 0x04, 0x00, 0x00, 0x00, 0x4b, 0x00, 0x00, 0x00, 0xde, 0xd1,
  0x06, 0xea, 0x05, 0xf3, 0xea, 0xfa, 0x3a, 0x7f, 0x1c, 0xde, 0x11, 0x21, 0x21,
  0xb9, 0x7f, 0xc7, 0x9f, 0x26, 0xec, 0xa1, 0x15, 0x0e, 0x0c, 0x7f, 0xdb, 0x24,
  0x7a, 0x9b, 0x81, 0xd0, 0x81, 0xeb, 0x7f, 0x81, 0x7f, 0x7f, 0x50, 0x0a, 0x21,
  0x81, 0x7f, 0x75, 0x81, 0x54, 0x25, 0x16, 0x7f, 0xf0, 0x17, 0x11, 0x51, 0xf4,
  0xec, 0x33, 0xb8, 0xd2, 0x33, 0x9d, 0xf9, 0x05, 0x2d, 0x06, 0xf9, 0x02, 0xea,
  0xda, 0x81, 0x05, 0x09, 0x43, 0x18, 0x7f, 0x32, 0x00, 0xfa, 0xf6, 0xff, 0xff,
  0x04, 0x00, 0x00, 0x00, 0x4b, 0x00, 0x00, 0x00, 0x13, 0xd6, 0xf6, 0xf3, 0xe7,
  0x1f, 0x0d, 0x02, 0xee, 0xea, 0xea, 0xfa, 0xff, 0x01, 0x02, 0x1f, 0x7c, 0x0c,
  0x1c, 0x12, 0x13, 0xe6, 0xea, 0xcd, 0xf0, 0x03, 0xf5, 0x34, 0x4d, 0x27, 0x7f,
  0x7f, 0x05, 0xd7, 0x98, 0xb8, 0xf4, 0xe9, 0x9a, 0xb4, 0xde, 0x01, 0xf1, 0x7f,
  0xb2, 0x29, 0x3c, 0x7f, 0x81, 0x7c, 0x70, 0x5c, 0x81, 0xaf, 0xc1, 0xa0, 0x81,
  0x81, 0x40, 0x81, 0x2c, 0xdd, 0xf1, 0xf1, 0x81, 0x81, 0x7f, 0x07, 0x81, 0x81,
  0x7f, 0xf1, 0x37, 0x4d, 0x1e, 0x00, 0x52, 0xf7, 0xff, 0xff, 0x04, 0x00, 0x00,
  0x00, 0x2c, 0x01, 0x00, 0x00, 0x7f, 0x0c, 0xfb, 0xf4, 0x0c, 0xde, 0xec, 0xf6,
  0x16, 0x56, 0xb5, 0xca, 0xf1, 0xfa, 0x33, 0x4e, 0x46, 0x1c, 0xe3, 0xbf, 0xf4,
  0x06, 0x63, 0xff, 0x45, 0x81, 0xe7, 0xb5, 0xa7, 0xd4, 0xe1, 0x7a, 0xda, 0x33,
  0x29, 0xbf, 0x25, 0x08, 0xe8, 0x3c, 0xa6, 0xca, 0x0c, 0x1b, 0x05, 0xfa, 0xaa,
  0x0d, 0x14, 0x75, 0x0e, 0x03, 0x08, 0x0a, 0xf1, 0xe0, 0xbf, 0xe8, 0x7f, 0xfa,
  0xf5, 0xcd, 0x41, 0x1b, 0x81, 0x3c, 0xeb, 0xae, 0x14, 0x0c, 0xce, 0xe1, 0xaa,
  0xc9, 0x14, 0x00, 0xe0, 0x5a, 0xf2, 0xf9, 0x40, 0x4c, 0x2a, 0x08, 0x1a, 0x53,
  0x04, 0x81, 0xb7, 0x20, 0x1c, 0xb3, 0x1b, 0x27, 0x23, 0x19, 0x5f, 0x2d, 0xa4,
  0x37, 0x3d, 0x0b, 0x5b, 0xaa, 0xe6, 0xbb, 0xe2, 0x29, 0xdd, 0x5b, 0x5e, 0x08,
  0x24, 0xf6, 0x3d, 0xe7, 0x34, 0x17, 0x7f, 0x18, 0xdd, 0x4d, 0xd1, 0xe3, 0x55,
  0x81, 0x2d, 0x51, 0x41, 0xda, 0x02, 0x45, 0x48, 0x4d, 0x44, 0xdb, 0x3d, 0xb0,
  0x0b, 0x38, 0x2e, 0x61, 0x18, 0xeb, 0x23, 0xd8, 0xce, 0xe6, 0xd5, 0x45, 0x39,
  0x1f, 0x45, 0x32, 0x81, 0x1c, 0x62, 0xf2, 0xf7, 0x39, 0xdd, 0x28, 0xec, 0xbd,
  0xbf, 0x4d, 0xce, 0x10, 0xde, 0x05, 0x0f, 0x15, 0x81, 0xde, 0xff, 0x0e, 0x28,
  0x1a, 0xd1, 0xf7, 0xee, 0xf5, 0xb8, 0x00, 0xda, 0xb9, 0x11, 0xeb, 0xe3, 0x0b,
  0xed, 0xfb, 0xec, 0xf0, 0x2d, 0x81, 0xe6, 0x00, 0x06, 0x48, 0xd2, 0xf4, 0xfb,
  0xf2, 0xdd, 0xd7, 0x3c, 0x8d, 0xea, 0x64, 0x81, 0x03, 0xcb, 0xf9, 0xd1, 0x57,
  0xec, 0x01, 0xe2, 0x37, 0xe8, 0xef, 0xcc, 0x04, 0xf1, 0x55, 0x30, 0x3b, 0x7f,
  0x9b, 0xfc, 0xd2, 0xcd, 0xd1, 0xb4, 0xe5, 0xf4, 0x05, 0x3a, 0xa4, 0x11, 0x64,
  0x20, 0xb5, 0x29, 0xcf, 0x1b, 0x45, 0xed, 0x3e, 0xf1, 0xf4, 0x20, 0x36, 0xff,
  0xce, 0xea, 0x4a, 0x81, 0xef, 0xcc, 0x32, 0x81, 0xdd, 0x11, 0xd8, 0xcb, 0x23,
  0x31, 0xa2, 0xf9, 0x03, 0xd5, 0x0c, 0xc5, 0x5e, 0x2a, 0xd4, 0xc4, 0x64, 0x1a,
  0xe6, 0xb6, 0xb5, 0x05, 0x72, 0xb6, 0x81, 0xa9, 0xc6, 0xe6, 0xe3, 0x96, 0xa9,
  0x73, 0xba, 0x54, 0x02, 0xc4, 0xde, 0x8a, 0xf8, 0xff, 0xff, 0x04, 0x00, 0x00,
  0x00, 0x64, 0x00, 0x00, 0x00, 0x60, 0x37, 0xb6, 0x22, 0x81, 0x21, 0x81, 0x98,
  0x0c, 0xf3, 0x7f, 0xfa, 0x83, 0x7f, 0xf6, 0x2b, 0x32, 0x3d, 0xa2, 0xe9, 0x7f,
  0x7f, 0xb8, 0x6b, 0xca, 0x7f, 0xd3, 0xd9, 0x7f, 0xf1, 0x3d, 0x7f, 0x81, 0x08,
  0x7f, 0x81, 0x7f, 0x35, 0x7f, 0x0c, 0xa3, 0x28, 0xbf, 0x39, 0x8b, 0x62, 0x6f,
  0x81, 0xc1, 0x4d, 0xee, 0xc2, 0xaa, 0x3e, 0x1f, 0x10, 0x1e, 0x7f, 0xe0, 0x7f,
  0x76, 0xcd, 0x0e, 0x81, 0xb5, 0x07, 0x2a, 0xb3, 0xc9, 0x81, 0x09, 0xcd, 0xe9,
  0xe5, 0x1d, 0x03, 0xe9, 0x21, 0x07, 0xb7, 0x47, 0xfa, 0x81, 0xc8, 0xd3, 0x7d,
  0x1b, 0x73, 0xe3, 0x4b, 0x16, 0x02, 0x04, 0x67, 0xf3, 0x09, 0x17, 0x02, 0xfd,
  0xc8, 0xfa, 0xf8, 0xff, 0xff, 0x04, 0x00, 0x00, 0x00, 0xa0, 0x00, 0x00, 0x00,
  0x00, 0x00, 0x00, 0x00, 0x00, 0x00, 0x00, 0x00, 0x00, 0x00, 0x00, 0x00, 0x00,
  0x00, 0x00, 0x00, 0x00, 0x00, 0x00, 0x00, 0x00, 0x00, 0x00, 0x00, 0x00, 0x00,
  0x00, 0x00, 0x00, 0x00, 0x00, 0x00, 0x00, 0x00, 0x00, 0x00, 0x00, 0x00, 0x00,
  0x00, 0x00, 0x00, 0x00, 0x00, 0x00, 0x00, 0x00, 0x00, 0x00, 0x00, 0x00, 0x00,
  0x00, 0x00, 0x00, 0x00, 0x00, 0x00, 0x00, 0x00, 0x00, 0x00, 0x00, 0x00, 0x00,
  0x00, 0x00, 0x00, 0x00, 0x00, 0x00, 0x00, 0x00, 0x00, 0x00, 0x00, 0x00, 0x00,
  0x00, 0x00, 0x00, 0x00, 0x00, 0x00, 0x00, 0x00, 0x00, 0x00, 0x00, 0x00, 0x00,
  0x00, 0x00, 0x00, 0x00, 0x00, 0x00, 0x00, 0x00, 0x00, 0x00, 0x00, 0x00, 0x00,
  0x00, 0x00, 0x00, 0x00, 0x00, 0x00, 0x00, 0x00, 0x00, 0x00, 0x00, 0x00, 0x00,
  0x00, 0x00, 0x00, 0x00, 0x00, 0x00, 0x00, 0x00, 0x00, 0x00, 0x00, 0x00, 0x00,
  0x00, 0x00, 0x00, 0x00, 0x00, 0x00, 0x00, 0x00, 0x00, 0x00, 0x00, 0x00, 0x00,
  0x00, 0x00, 0x00, 0x00, 0x00, 0x00, 0x00, 0x00, 0x00, 0x00, 0x00, 0x00, 0x00,
  0x00, 0x00, 0x00, 0x00, 0xa6, 0xf9, 0xff, 0xff, 0x04, 0x00, 0x00, 0x00, 0x64,
  0x00, 0x00, 0x00, 0xd9, 0xbd, 0x7f, 0x67, 0xf0, 0x0e, 0xb1, 0x18, 0xff, 0xec,
  0x84, 0xb0, 0x5d, 0x09, 0xb4, 0xef, 0x1f, 0xec, 0x16, 0xfa, 0x2c, 0x08, 0x26,
  0x45, 0xc0, 0xa9, 0x0d, 0x81, 0xf4, 0x2a, 0x33, 0x7f, 0x7f, 0xe8, 0xda, 0x1b,
  0x83, 0xf3, 0xef, 0xf4, 0x7f, 0xb6, 0xdc, 0x81, 0xb7, 0x81, 0xa2, 0xc8, 0x45,
  0x28, 0x1e, 0x38, 0x17, 0x56, 0xe1, 0xb6, 0x0b, 0x7f, 0xf7, 0x7f, 0xbe, 0x51,
  0x97, 0x17, 0x81, 0xce, 0x81, 0x33, 0x7f, 0xdf, 0x15, 0xfe, 0x39, 0x7f, 0xa7,
  0x7f, 0x24, 0xc7, 0x7f, 0x1e, 0xbb, 0x7f, 0x2c, 0x51, 0x85, 0x33, 0x8a, 0xe2,
  0x31, 0x81, 0x7f, 0xcf, 0xf6, 0x14, 0x7f, 0x9d, 0x7f, 0x31, 0x75, 0x7d, 0x16,
  0xfa, 0xff, 0xff, 0x04, 0x00, 0x00, 0x00, 0xe1, 0x00, 0x00, 0x00, 0x1c, 0xf0,
  0xc1, 0x4d, 0x11, 0x7f, 0x31, 0x4a, 0x28, 0xf0, 0x2f, 0xeb, 0xe2, 0x55, 0xda,
  0x17, 0xb2, 0x09, 0x2b, 0xdc, 0x7f, 0x5f, 0x9a, 0x11, 0xfc, 0x43, 0xc0, 0x63,
  0x4b, 0x82, 0xea, 0x5d, 0x79, 0x7f, 0x9b, 0xfa, 0x6d, 0xc8, 0xd3, 0xd5, 0xf1,
  0xc5, 0xe8, 0x17, 0xdf, 0x04, 0xdf, 0xbc, 0x09, 0x2e, 0x7a, 0x03, 0x15, 0x7f,
  0x94, 0x51, 0x9d, 0x51, 0x54, 0x8d, 0xbd, 0xef, 0xab, 0xef, 0x09, 0x7f, 0xd2,
  0x52, 0x63, 0x13, 0x44, 0xd6, 0x78, 0x65, 0xb5, 0xf3, 0xed, 0xdb, 0xbf, 0xe2,
  0xf6, 0xb6, 0x2f, 0x81, 0xfd, 0xd5, 0x0e, 0xec, 0x15, 0xb7, 0xf7, 0x04, 0x42,
  0x0e, 0x81, 0x92, 0xf4, 0xd7, 0xb9, 0x11, 0xc4, 0x41, 0xba, 0xc7, 0x6c, 0xc7,
  0xf9, 0xc3, 0xa4, 0x2e, 0xb2, 0x81, 0x9b, 0xc5, 0x3b, 0x0c, 0x12, 0xc0, 0x30,
  0x1a, 0xd2, 0xad, 0x9f, 0x0f, 0x48, 0x08, 0xe6, 0x94, 0x73, 0x81, 0x47, 0x9e,
  0x76, 0x37, 0x3b, 0x3e, 0x45, 0x26, 0xa5, 0x12, 0xe6, 0x59, 0x20, 0x81, 0xed,
  0x02, 0x19, 0xaf, 0xc7, 0xac, 0x04, 0xf9, 0xe5, 0x25, 0x7f, 0x54, 0xa8, 0x07,
  0xae, 0xd7, 0x03, 0xe6, 0x43, 0x62, 0xb1, 0x77, 0x39, 0x76, 0xfe, 0x40, 0xdb,
  0x81, 0xe2, 0xe3, 0xb1, 0x81, 0x4f, 0xc7, 0x86, 0x3a, 0x7f, 0xfc, 0x7d, 0xfa,
  0x21, 0xa6, 0x15, 0xc5, 0x31, 0x72, 0x25, 0xe3, 0x02, 0x89, 0x57, 0xba, 0x7f,
  0x13, 0x54, 0xdd, 0x11, 0x3c, 0x35, 0xfe, 0x04, 0x0a, 0xc5, 0xf5, 0x0c, 0xdb,
  0x22, 0xea, 0xeb, 0x20, 0xfe, 0x7f, 0x4b, 0x2d, 0x62, 0xa8, 0x45, 0x87, 0xed,
  0x15, 0xa3, 0x00, 0x00, 0x00, 0x06, 0xfb, 0xff, 0xff, 0x04, 0x00, 0x00, 0x00,
  0x4b, 0x00, 0x00, 0x00, 0x22, 0xa4, 0x54, 0x7a, 0x02, 0x38, 0x83, 0xc8, 0x3c,
  0x5b, 0x7a, 0x84, 0x02, 0x81, 0xde, 0x7f, 0x81, 0x7f, 0x7f, 0x81, 0x7f, 0x81,
  0x81, 0x7f, 0x7f, 0x9f, 0x81, 0x7f, 0xe9, 0x81, 0x5a, 0x83, 0x57, 0xdc, 0x9b,
  0x0b, 0xe6, 0x0e, 0x11, 0xb6, 0x7f, 0xc9, 0x31, 0x18, 0xf8, 0x56, 0x8b, 0xf0,
  0x32, 0xb8, 0xf4, 0xee, 0xfb, 0x18, 0xf3, 0x0d, 0x03, 0xd5, 0xe9, 0xd5, 0x1e,
  0xd2, 0xdf, 0xff, 0xbc, 0xfe, 0xf9, 0x03, 0xf4, 0x05, 0xe3, 0xf5, 0x26, 0xff,
  0x0f, 0x00, 0x5e, 0xfb, 0xff, 0xff, 0x04, 0x00, 0x00, 0x00, 0x4b, 0x00, 0x00,
  0x00, 0xed, 0x1e, 0xfe, 0xf5, 0x26, 0x22, 0xf3, 0x06, 0xfa, 0x00, 0x07, 0x16,
  0xdb, 0xfa, 0xfc, 0xdd, 0x52, 0xef, 0x7f, 0x38, 0x81, 0x60, 0xbe, 0xeb, 0x81,
  0x0b, 0x15, 0x14, 0x25, 0xf5, 0x81, 0x7f, 0x18, 0x3e, 0xa2, 0x6b, 0x41, 0xdd,
  0xb1, 0xe4, 0xec, 0x48, 0xc6, 0x7f, 0x7f, 0x95, 0x6f, 0x74, 0xab, 0xd8, 0x11,
  0x7f, 0x7f, 0x13, 0xbd, 0x81, 0x6f, 0xb2, 0x21, 0xd7, 0xf7, 0x2f, 0x7f, 0x29,
  0x7f, 0x82, 0x0b, 0xd8, 0x7f, 0x23, 0x83, 0x7f, 0x7f, 0xed, 0x59, 0x00, 0xb6,
  0xfb, 0xff, 0xff, 0x04, 0x00, 0x00, 0x00, 0x2c, 0x01, 0x00, 0x00, 0x7f, 0xbc,
  0x0b, 0xca, 0x1e, 0xfc, 0x19, 0xdd, 0xc3, 0x42, 0x4a, 0x09, 0xe4, 0xc5, 0xaf,
  0x79, 0xb9, 0xce, 0xf4, 0xe3, 0x14, 0x38, 0xbf, 0xf0, 0x49, 0xe6, 0x0b, 0xed,
  0xda, 0x03, 0x81, 0xf9, 0x1c, 0xd8, 0xc0, 0x5b, 0x0c, 0xf2, 0xf6, 0x17, 0x2c,
  0x81, 0xe2, 0xf3, 0xf6, 0x2a, 0xfc, 0x11, 0xdd, 0x24, 0xeb, 0xef, 0xdc, 0xe8,
  0x26, 0x1b, 0xee, 0x1d, 0xe0, 0xdc, 0x0a, 0xf0, 0x4a, 0xb9, 0x64, 0xe9, 0x13,
  0xf9, 0xed, 0x81, 0xe0, 0xfa, 0xe7, 0x41, 0x03, 0x33, 0x3d, 0x10, 0x18, 0x37,
  0x2d, 0x7b, 0xf9, 0x01, 0x7b, 0xdd, 0xf5, 0xd9, 0x0c, 0x3a, 0x38, 0xf9, 0x7f,
  0x32, 0x96, 0x4d, 0x1b, 0xdc, 0xe6, 0x1b, 0x71, 0xf5, 0xd2, 0x10, 0xa8, 0x12,
  0x01, 0x27, 0x09, 0x03, 0xf0, 0x0d, 0x23, 0x0c, 0xf3, 0x17, 0x7f, 0x2b, 0x65,
  0x32, 0x06, 0xe5, 0x17, 0x57, 0xa9, 0x10, 0xfb, 0xf9, 0xe4, 0x7f, 0x28, 0x05,
  0xde, 0xf4, 0x03, 0xf6, 0xe1, 0x22, 0xf5, 0xff, 0x0b, 0xe2, 0x16, 0x46, 0x64,
  0x1b, 0xfd, 0xe7, 0x21, 0xe7, 0x0d, 0xe8, 0xf3, 0x07, 0xf7, 0xe2, 0xd7, 0xf7,
  0xd7, 0x81, 0x3d, 0xfd, 0xc3, 0xbd, 0xea, 0xa0, 0xfd, 0x00, 0x4c, 0xdd, 0xf3,
  0xe8, 0x7f, 0x14, 0xfe, 0xfb, 0xdf, 0x03, 0xfd, 0x33, 0xfe, 0x01, 0xf1, 0xfe,
  0x17, 0x7f, 0xfd, 0x03, 0x0b, 0xe8, 0xfb, 0xf3, 0x44, 0x02, 0xfc, 0x02, 0x0d,
  0xf8, 0xe3, 0x0a, 0x3e, 0x0c, 0x63, 0x81, 0xe7, 0xdd, 0x34, 0x22, 0x3a, 0x2a,
  0xc0, 0xde, 0x3a, 0xfd, 0x66, 0x23, 0xcc, 0x4f, 0xea, 0xc3, 0x32, 0xa8, 0x26,
  0xd3, 0x0d, 0x0c, 0x05, 0xe0, 0x7f, 0xe0, 0xb8, 0x39, 0x4d, 0xd1, 0x3f, 0x01,
  0x1b, 0x16, 0x2d, 0x75, 0x7f, 0xbd, 0x59, 0x2b, 0xb5, 0xd8, 0x01, 0xab, 0x10,
  0x2e, 0xdc, 0xbc, 0x0a, 0x00, 0x38, 0x26, 0xc8, 0x06, 0x03, 0xf5, 0xbe, 0x18,
  0x34, 0x11, 0xc0, 0xf0, 0x2c, 0x55, 0x06, 0xcf, 0x31, 0xde, 0x3b, 0xa3, 0x0b,
  0x13, 0x28, 0x81, 0x21, 0xed, 0xb8, 0x06, 0x12, 0x4c, 0x7f, 0x37, 0x06, 0xfe,
  0xd2, 0x10, 0x2d, 0x0f, 0x91, 0x14, 0x20, 0x15, 0x85, 0xfa, 0xe9, 0x1e, 0xee,
  0xfc, 0xff, 0xff, 0x04, 0x00, 0x00, 0x00, 0x64, 0x00, 0x00, 0x00, 0xfa, 0x66,
  0x54, 0x15, 0xff, 0xfe, 0x52, 0x11, 0x14, 0xee, 0x3b, 0xf9, 0x81, 0x5d, 0x02,
  0x0d, 0x06, 0x09, 0xc3, 0x07, 0x09, 0x81, 0x32, 0xbc, 0xed, 0xd9, 0x77, 0x32,
  0x2c, 0xf2, 0xa4, 0xec, 0x01, 0x7b, 0x5c, 0x7f, 0xfa, 0x17, 0xf5, 0xd9, 0x81,
  0xc9, 0x81, 0x7f, 0x7f, 0xbc, 0xf7, 0xc6, 0x81, 0x16, 0x81, 0xfb, 0xd4, 0x81,
  0x81, 0xa9, 0x7f, 0xef, 0xdc, 0x7f, 0xf2, 0x24, 0x0c, 0x0a, 0xed, 0xac, 0x81,
  0x7b, 0xd5, 0x81, 0x47, 0x7f, 0x0c, 0xb0, 0x0d, 0xe8, 0x31, 0x81, 0x1d, 0x39,
  0x12, 0x04, 0xe9, 0x07, 0x0d, 0x81, 0xc5, 0x81, 0x46, 0xfe, 0x39, 0x8a, 0xb3,
  0xfb, 0x0e, 0xee, 0x32, 0x72, 0x81, 0xfc, 0x5e, 0xfd, 0xff, 0xff, 0x04, 0x00,
  0x00, 0x00, 0x64, 0x00, 0x00, 0x00, 0xf4, 0xdc, 0xf4, 0xeb, 0x07, 0xd4, 0x19,
  0x0f, 0xed, 0x10, 0xc4, 0x13, 0x82, 0xad, 0x10, 0x1c, 0xd5, 0xfa, 0x7f, 0x5e,
  0x42, 0x62, 0x7f, 0x2c, 0x81, 0xfb, 0x49, 0x17, 0xe7, 0x42, 0x3e, 0xb7, 0x16,
  0xb3, 0x00, 0xe0, 0x7f, 0x07, 0xc7, 0x56, 0x81, 0x22, 0xcf, 0x81, 0x4a, 0xa1,
  0x72, 0x11, 0x81, 0x7f, 0x81, 0x81, 0x7f, 0x81, 0xa7, 0x66, 0xc3, 0x7f, 0xf0,
  0x81, 0x7a, 0x7b, 0x6c, 0x09, 0xd8, 0xbf, 0x7f, 0x7f, 0x27, 0x90, 0x2d, 0x8f,
  0x0d, 0x8c, 0x81, 0x81, 0x23, 0xaf, 0x30, 0x88, 0xd5, 0x81, 0x17, 0x56, 0x6b,
  0x81, 0x5a, 0x34, 0xe4, 0x9d, 0x6f, 0xf5, 0x3c, 0x96, 0x18, 0x0b, 0x1b, 0x87,
  0xed, 0x1a, 0xce, 0xfd, 0xff, 0xff, 0x04, 0x00, 0x00, 0x00, 0x14, 0x00, 0x00,
  0x00, 0x7f, 0x81, 0x81, 0x7f, 0x81, 0x81, 0x7f, 0x81, 0x7f, 0x7f, 0x81, 0x81,
  0x81, 0x7f, 0x7f, 0x81, 0x81, 0x7f, 0x7f, 0x81, 0xee, 0xfd, 0xff, 0xff, 0x04,
  0x00, 0x00, 0x00, 0x07, 0x00, 0x00, 0x00, 0xfe, 0x00, 0x05, 0xe1, 0x7f, 0x00,
  0xff, 0x00, 0x02, 0xfe, 0xff, 0xff, 0x04, 0x00, 0x00, 0x00, 0x07, 0x00, 0x00,
  0x00, 0xff, 0x01, 0x03, 0xcf, 0x7f, 0x06, 0xfe, 0x00, 0x16, 0xfe, 0xff, 0xff,
  0x04, 0x00, 0x00, 0x00, 0x20, 0x00, 0x00, 0x00, 0x00, 0x00, 0x00, 0x00, 0x00,
  0x00, 0x00, 0x00, 0x03, 0x00, 0x00, 0x00, 0x03, 0x00, 0x00, 0x00, 0x03, 0x00,
  0x00, 0x00, 0x03, 0x00, 0x00, 0x00, 0x00, 0x00, 0x00, 0x00, 0x00, 0x00, 0x00,
  0x00, 0x42, 0xfe, 0xff, 0xff, 0x04, 0x00, 0x00, 0x00, 0x78, 0x00, 0x00, 0x00,
  0xa4, 0x2a, 0x00, 0x00, 0x00, 0x00, 0x00, 0x00, 0xe7, 0x0b, 0x00, 0x00, 0x00,
  0x00, 0x00, 0x00, 0x05, 0x1d, 0x00, 0x00, 0x00, 0x00, 0x00, 0x00, 0xc1, 0xc5,
  0xff, 0xff, 0xff, 0xff, 0xff, 0xff, 0xeb, 0x05, 0x00, 0x00, 0x00, 0x00, 0x00,
  0x00, 0xe7, 0x55, 0xfe, 0xff, 0xff, 0xff, 0xff, 0xff, 0xad, 0x01, 0x00, 0x00,
  0x00, 0x00, 0x00, 0x00, 0x61, 0xfe, 0xff, 0xff, 0xff, 0xff, 0xff, 0xff, 0x0b,
  0xcd, 0x02, 0x00, 0x00, 0x00, 0x00, 0x00, 0xea, 0xdb, 0x00, 0x00, 0x00, 0x00,
  0x00, 0x00, 0x3e, 0xd8, 0x00, 0x00, 0x00, 0x00, 0x00, 0x00, 0xc5, 0x52, 0x00,
  0x00, 0x00, 0x00, 0x00, 0x00, 0xc0, 0xa7, 0x00, 0x00, 0x00, 0x00, 0x00, 0x00,
  0xc0, 0xe3, 0xff, 0xff, 0xff, 0xff, 0xff, 0xff, 0xe0, 0x55, 0x00, 0x00, 0x00,
  0x00, 0x00, 0x00, 0xc6, 0xfe, 0xff, 0xff, 0x04, 0x00, 0x00, 0x00, 0x60, 0x00,
  0x00, 0x00, 0xcd, 0xc2, 0xff, 0xff, 0xff, 0xff, 0xff, 0xff, 0xe5, 0x9f, 0xff,
  0xff, 0xff, 0xff, 0xff, 0xff, 0xd7, 0x1f, 0x00, 0x00, 0x00, 0x00, 0x00, 0x00,
  0xd0, 0xfa, 0xff, 0xff, 0xff, 0xff, 0xff, 0xff, 0xbb, 0xed, 0xff, 0xff, 0xff,
  0xff, 0xff, 0xff, 0xee, 0x03, 0xff, 0xff, 0xff, 0xff, 0xff, 0xff, 0x1f, 0x42,
  0x00, 0x00, 0x00, 0x00, 0x00, 0x00, 0x75, 0x24, 0x00, 0x00, 0x00, 0x00, 0x00,
  0x00, 0x7c, 0x3d, 0x00, 0x00, 0x00, 0x00, 0x00, 0x00, 0xbc, 0x31, 0x00, 0x00,
  0x00, 0x00, 0x00, 0x00, 0x5e, 0x43, 0xff, 0xff, 0xff, 0xff, 0xff, 0xff, 0xe5,
  0xaa, 0xff, 0xff, 0xff, 0xff, 0xff, 0xff, 0x32, 0xff, 0xff, 0xff, 0x04, 0x00,
  0x00, 0x00, 0x48, 0x00, 0x00, 0x00, 0x3e, 0x4d, 0x00, 0x00, 0x00, 0x00, 0x00,
  0x00, 0x1f, 0x79, 0x03, 0x00, 0x00, 0x00, 0x00, 0x00, 0xa5, 0x22, 0x00, 0x00,
  0x00, 0x00, 0x00, 0x00, 0xa4, 0xbd, 0x03, 0x00, 0x00, 0x00, 0x00, 0x00, 0x3c,
  0x76, 0xf6, 0xff, 0xff, 0xff, 0xff, 0xff, 0x75, 0x22, 0xfc, 0xff, 0xff, 0xff,
  0xff, 0xff, 0x23, 0xa9, 0xf9, 0xff, 0xff, 0xff, 0xff, 0xff, 0x02, 0xe8, 0xfd,
  0xff, 0xff, 0xff, 0xff, 0xff, 0x13, 0x2b, 0x01, 0x00, 0x00, 0x00, 0x00, 0x00,
  0x86, 0xff, 0xff, 0xff, 0x04, 0x00, 0x00, 0x00, 0x38, 0x00, 0x00, 0x00, 0x25,
  0x72, 0xed, 0xff, 0xff, 0xff, 0xff, 0xff, 0x38, 0x03, 0x00, 0x00, 0x00, 0x00,
  0x00, 0x00, 0x2a, 0xf9, 0xff, 0xff, 0xff, 0xff, 0xff, 0xff, 0x99, 0x3f, 0xfe,
  0xff, 0xff, 0xff, 0xff, 0xff, 0x2e, 0x16, 0x00, 0x00, 0x00, 0x00, 0x00, 0x00,
  0x9a, 0x13, 0x00, 0x00, 0x00, 0x00, 0x00, 0x00, 0xc6, 0x83, 0xfe, 0xff, 0xff,
  0xff, 0xff, 0xff, 0xca, 0xff, 0xff, 0xff, 0x04, 0x00, 0x00, 0x00, 0x28, 0x00,
  0x00, 0x00, 0x07, 0x35, 0xfd, 0xff, 0xff, 0xff, 0xff, 0xff, 0x4f, 0xfe, 0xf8,
  0xff, 0xff, 0xff, 0xff, 0xff, 0x73, 0x04, 0xff, 0xff, 0xff, 0xff, 0xff, 0xff,
  0xb6, 0xdd, 0x00, 0x00, 0x00, 0x00, 0x00, 0x00, 0xe0, 0x40, 0xfd, 0xff, 0xff,
  0xff, 0xff, 0xff, 0x00, 0x00, 0x06, 0x00, 0x08, 0x00, 0x04, 0x00, 0x06, 0x00,
  0x00, 0x00, 0x04, 0x00, 0x00, 0x00, 0x28, 0x00, 0x00, 0x00, 0x00, 0xbb, 0xff,
  0xff, 0xff, 0xff, 0xff, 0xff, 0xe6, 0x7b, 0x01, 0x00, 0x00, 0x00, 0x00, 0x00,
  0x16, 0x37, 0xfd, 0xff, 0xff, 0xff, 0xff, 0xff, 0x3d, 0x25, 0xfe, 0xff, 0xff,
  0xff, 0xff, 0xff, 0x49, 0x64, 0xfd, 0xff, 0xff, 0xff, 0xff, 0xff, 0x58, 0x7d,
  0xff, 0xff, 0x5c, 0x7d, 0xff, 0xff, 0x0f, 0x00, 0x00, 0x00, 0x4d, 0x4c, 0x49,
  0x52, 0x20, 0x43, 0x6f, 0x6e, 0x76, 0x65, 0x72, 0x74, 0x65, 0x64, 0x2e, 0x00,
  0x01, 0x00, 0x00, 0x00, 0x14, 0x00, 0x00, 0x00, 0x00, 0x00, 0x0e, 0x00, 0x18,
  0x00, 0x14, 0x00, 0x10, 0x00, 0x0c, 0x00, 0x08, 0x00, 0x04, 0x00, 0x0e, 0x00,
  0x00, 0x00, 0x14, 0x00, 0x00, 0x00, 0x1c, 0x00, 0x00, 0x00, 0x50, 0x11, 0x00,
  0x00, 0x54, 0x11, 0x00, 0x00, 0x58, 0x11, 0x00, 0x00, 0x04, 0x00, 0x00, 0x00,
  0x6d, 0x61, 0x69, 0x6e, 0x00, 0x00, 0x00, 0x00, 0x42, 0x00, 0x00, 0x00, 0x14,
  0x11, 0x00, 0x00, 0xd8, 0x10, 0x00, 0x00, 0x78, 0x10, 0x00, 0x00, 0x24, 0x10,
  0x00, 0x00, 0xd8, 0x0f, 0x00, 0x00, 0x94, 0x0f, 0x00, 0x00, 0x50, 0x0f, 0x00,
  0x00, 0x00, 0x0f, 0x00, 0x00, 0xbc, 0x0e, 0x00, 0x00, 0x78, 0x0e, 0x00, 0x00,
  0x38, 0x0e, 0x00, 0x00, 0xf4, 0x0d, 0x00, 0x00, 0xb0, 0x0d, 0x00, 0x00, 0x70,
  0x0d, 0x00, 0x00, 0x30, 0x0d, 0x00, 0x00, 0xec, 0x0c, 0x00, 0x00, 0xa8, 0x0c,
  0x00, 0x00, 0x64, 0x0c, 0x00, 0x00, 0x20, 0x0c, 0x00, 0x00, 0xdc, 0x0b, 0x00,
  0x00, 0x9c, 0x0b, 0x00, 0x00, 0x58, 0x0b, 0x00, 0x00, 0x14, 0x0b, 0x00, 0x00,
  0xd4, 0x0a, 0x00, 0x00, 0x9c, 0x0a, 0x00, 0x00, 0x58, 0x0a, 0x00, 0x00, 0x14,
  0x0a, 0x00, 0x00, 0xd0, 0x09, 0x00, 0x00, 0x8c, 0x09, 0x00, 0x00, 0x48, 0x09,
  0x00, 0x00, 0x08, 0x09, 0x00, 0x00, 0xc4, 0x08, 0x00, 0x00, 0x80, 0x08, 0x00,
  0x00, 0x40, 0x08, 0x00, 0x00, 0x08, 0x08, 0x00, 0x00, 0xc4, 0x07, 0x00, 0x00,
  0x80, 0x07, 0x00, 0x00, 0x3c, 0x07, 0x00, 0x00, 0xf8, 0x06, 0x00, 0x00, 0xb4,
  0x06, 0x00, 0x00, 0x74, 0x06, 0x00, 0x00, 0x30, 0x06, 0x00, 0x00, 0xec, 0x05,
  0x00, 0x00, 0xac, 0x05, 0x00, 0x00, 0x74, 0x05, 0x00, 0x00, 0x30, 0x05, 0x00,
  0x00, 0xec, 0x04, 0x00, 0x00, 0xa8, 0x04, 0x00, 0x00, 0x64, 0x04, 0x00, 0x00,
  0x20, 0x04, 0x00, 0x00, 0xe0, 0x03, 0x00, 0x00, 0x9c, 0x03, 0x00, 0x00, 0x58,
  0x03, 0x00, 0x00, 0x18, 0x03, 0x00, 0x00, 0xe0, 0x02, 0x00, 0x00, 0x9c, 0x02,
  0x00, 0x00, 0x58, 0x02, 0x00, 0x00, 0x14, 0x02, 0x00, 0x00, 0xd0, 0x01, 0x00,
  0x00, 0x8c, 0x01, 0x00, 0x00, 0x4c, 0x01, 0x00, 0x00, 0x14, 0x01, 0x00, 0x00,
  0xc0, 0x00, 0x00, 0x00, 0x78, 0x00, 0x00, 0x00, 0x28, 0x00, 0x00, 0x00, 0x04,
  0x00, 0x00, 0x00, 0xfe, 0xef, 0xff, 0xff, 0x0c, 0x00, 0x00, 0x00, 0x10, 0x00,
  0x00, 0x00, 0x05, 0x00, 0x00, 0x00, 0x01, 0x00, 0x00, 0x00, 0x91, 0x00, 0x00,
  0x00, 0x01, 0x00, 0x00, 0x00, 0x8f, 0x00, 0x00, 0x00, 0xb6, 0xf0, 0xff, 0xff,
  0x20, 0x00, 0x00, 0x00, 0x00, 0x00, 0x00, 0x01, 0x28, 0x00, 0x00, 0x00, 0x2c,
  0x00, 0x00, 0x00, 0x02, 0x00, 0x00, 0x00, 0x00, 0x00, 0x0a, 0x00, 0x10, 0x00,
  0x0f, 0x00, 0x08, 0x00, 0x04, 0x00, 0x0a, 0x00, 0x00, 0x00, 0x01, 0x00, 0x00,
  0x00, 0x01, 0x00, 0x00, 0x00, 0x00, 0x00, 0x00, 0x01, 0x01, 0x00, 0x00, 0x00,
  0x8f, 0x00, 0x00, 0x00, 0x03, 0x00, 0x00, 0x00, 0x8e, 0x00, 0x00, 0x00, 0x47,
  0x00, 0x00, 0x00, 0x4f, 0x00, 0x00, 0x00, 0x02, 0xf1, 0xff, 0xff, 0x14, 0x00,
  0x00, 0x00, 0x00, 0x00, 0x00, 0x02, 0x20, 0x00, 0x00, 0x00, 0x24, 0x00, 0x00,
  0x00, 0x01, 0x00, 0x00, 0x00, 0xbc, 0xff, 0xff, 0xff, 0x01, 0x00, 0x00, 0x00,
  0x01, 0x00, 0x00, 0x00, 0x01, 0x00, 0x00, 0x00, 0x00, 0x00, 0x00, 0x01, 0x01,
  0x00, 0x00, 0x00, 0x8e, 0x00, 0x00, 0x00, 0x03, 0x00, 0x00, 0x00, 0x8d, 0x00,
  0x00, 0x00, 0x45, 0x00, 0x00, 0x00, 0x44, 0x00, 0x00, 0x00, 0x46, 0xf1, 0xff,
  0xff, 0x20, 0x00, 0x00, 0x00, 0x00, 0x00, 0x00, 0x02, 0x2c, 0x00, 0x00, 0x00,
  0x30, 0x00, 0x00, 0x00, 0x01, 0x00, 0x00, 0x00, 0x0c, 0x00, 0x14, 0x00, 0x13,
  0x00, 0x0c, 0x00, 0x08, 0x00, 0x04, 0x00, 0x0c, 0x00, 0x00, 0x00, 0x01, 0x00,
  0x00, 0x00, 0x01, 0x00, 0x00, 0x00, 0x01, 0x00, 0x00, 0x00, 0x00, 0x00, 0x00,
  0x01, 0x01, 0x00, 0x00, 0x00, 0x8d, 0x00, 0x00, 0x00, 0x03, 0x00, 0x00, 0x00,
  0x8c, 0x00, 0x00, 0x00, 0x43, 0x00, 0x00, 0x00, 0x44, 0x00, 0x00, 0x00, 0x96,
  0xf1, 0xff, 0xff, 0x14, 0x00, 0x00, 0x00, 0x00, 0x00, 0x00, 0x0b, 0x14, 0x00,
  0x00, 0x00, 0x18, 0x00, 0x00, 0x00, 0x03, 0x00, 0x00, 0x00, 0xa0, 0xf4, 0xff,
  0xff, 0x00, 0x00, 0x00, 0x00, 0x01, 0x00, 0x00, 0x00, 0x8c, 0x00, 0x00, 0x00,
  0x02, 0x00, 0x00, 0x00, 0x85, 0x00, 0x00, 0x00, 0x8b, 0x00, 0x00, 0x00, 0xca,
  0xf1, 0xff, 0xff, 0x14, 0x00, 0x00, 0x00, 0x00, 0x00, 0x00, 0x01, 0x18, 0x00,
  0x00, 0x00, 0x1c, 0x00, 0x00, 0x00, 0x02, 0x00, 0x00, 0x00, 0x52, 0xf2, 0xff,
  0xff, 0x01, 0x00, 0x00, 0x00, 0x01, 0x00, 0x00, 0x00, 0x01, 0x00, 0x00, 0x00,
  0x8b, 0x00, 0x00, 0x00, 0x03, 0x00, 0x00, 0x00, 0x8a, 0x00, 0x00, 0x00, 0x42,
  0x00, 0x00, 0x00, 0x4e, 0x00, 0x00, 0x00, 0x06, 0xf2, 0xff, 0xff, 0x14, 0x00,
  0x00, 0x00, 0x00, 0x00, 0x00, 0x02, 0x1c, 0x00, 0x00, 0x00, 0x20, 0x00, 0x00,
  0x00, 0x01, 0x00, 0x00, 0x00, 0xf8, 0xf1, 0xff, 0xff, 0x01, 0x00, 0x00, 0x00,
  0x01, 0x00, 0x00, 0x00, 0x01, 0x00, 0x00, 0x00, 0x01, 0x00, 0x00, 0x00, 0x8a,
  0x00, 0x00, 0x00, 0x03, 0x00, 0x00, 0x00, 0x89, 0x00, 0x00, 0x00, 0x41, 0x00,
  0x00, 0x00, 0x44, 0x00, 0x00, 0x00, 0x46, 0xf2, 0xff, 0xff, 0x14, 0x00, 0x00,
  0x00, 0x00, 0x00, 0x00, 0x02, 0x1c, 0x00, 0x00, 0x00, 0x20, 0x00, 0x00, 0x00,
  0x01, 0x00, 0x00, 0x00, 0x38, 0xf2, 0xff, 0xff, 0x01, 0x00, 0x00, 0x00, 0x01,
  0x00, 0x00, 0x00, 0x01, 0x00, 0x00, 0x00, 0x01, 0x00, 0x00, 0x00, 0x89, 0x00,
  0x00, 0x00, 0x03, 0x00, 0x00, 0x00, 0x88, 0x00, 0x00, 0x00, 0x40, 0x00, 0x00,
  0x00, 0x44, 0x00, 0x00, 0x00, 0x86, 0xf2, 0xff, 0xff, 0x14, 0x00, 0x00, 0x00,
  0x00, 0x00, 0x00, 0x01, 0x1c, 0x00, 0x00, 0x00, 0x20, 0x00, 0x00, 0x00, 0x02,
  0x00, 0x00, 0x00, 0xdc, 0xf3, 0xff, 0xff, 0x00, 0x00, 0x00, 0x01, 0x01, 0x00,
  0x00, 0x00, 0x01, 0x00, 0x00, 0x00, 0x01, 0x00, 0x00, 0x00, 0x88, 0x00, 0x00,
  0x00, 0x03, 0x00, 0x00, 0x00, 0x87, 0x00, 0x00, 0x00, 0x3f, 0x00, 0x00, 0x00,
  0x01, 0x00, 0x00, 0x00, 0xc6, 0xf2, 0xff, 0xff, 0x14, 0x00, 0x00, 0x00, 0x00,
  0x00, 0x00, 0x02, 0x1c, 0x00, 0x00, 0x00, 0x20, 0x00, 0x00, 0x00, 0x01, 0x00,
  0x00, 0x00, 0xb8, 0xf2, 0xff, 0xff, 0x01, 0x00, 0x00, 0x00, 0x01, 0x00, 0x00,
  0x00, 0x01, 0x00, 0x00, 0x00, 0x01, 0x00, 0x00, 0x00, 0x87, 0x00, 0x00, 0x00,
  0x03, 0x00, 0x00, 0x00, 0x86, 0x00, 0x00, 0x00, 0x3e, 0x00, 0x00, 0x00, 0x44,
  0x00, 0x00, 0x00, 0x06, 0xf3, 0xff, 0xff, 0x14, 0x00, 0x00, 0x00, 0x00, 0x00,
  0x00, 0x02, 0x1c, 0x00, 0x00, 0x00, 0x20, 0x00, 0x00, 0x00, 0x01, 0x00, 0x00,
  0x00, 0xf8, 0xf2, 0xff, 0xff, 0x01, 0x00, 0x00, 0x00, 0x01, 0x00, 0x00, 0x00,
  0x01, 0x00, 0x00, 0x00, 0x01, 0x00, 0x00, 0x00, 0x86, 0x00, 0x00, 0x00, 0x03,
  0x00, 0x00, 0x00, 0x85, 0x00, 0x00, 0x00, 0x3d, 0x00, 0x00, 0x00, 0x44, 0x00,
  0x00, 0x00, 0x46, 0xf3, 0xff, 0xff, 0x14, 0x00, 0x00, 0x00, 0x00, 0x00, 0x00,
  0x0b, 0x14, 0x00, 0x00, 0x00, 0x18, 0x00, 0x00, 0x00, 0x03, 0x00, 0x00, 0x00,
  0x50, 0xf6, 0xff, 0xff, 0x00, 0x00, 0x00, 0x00, 0x01, 0x00, 0x00, 0x00, 0x85,
  0x00, 0x00, 0x00, 0x02, 0x00, 0x00, 0x00, 0x84, 0x00, 0x00, 0x00, 0x81, 0x00,
  0x00, 0x00, 0x7a, 0xf3, 0xff, 0xff, 0x14, 0x00, 0x00, 0x00, 0x00, 0x00, 0x00,
  0x01, 0x18, 0x00, 0x00, 0x00, 0x1c, 0x00, 0x00, 0x00, 0x02, 0x00, 0x00, 0x00,
  0x02, 0xf4, 0xff, 0xff, 0x01, 0x00, 0x00, 0x00, 0x01, 0x00, 0x00, 0x00, 0x01,
  0x00, 0x00, 0x00, 0x84, 0x00, 0x00, 0x00, 0x03, 0x00, 0x00, 0x00, 0x83, 0x00,
  0x00, 0x00, 0x3c, 0x00, 0x00, 0x00, 0x4d, 0x00, 0x00, 0x00, 0xb6, 0xf3, 0xff,
  0xff, 0x14, 0x00, 0x00, 0x00, 0x00, 0x00, 0x00, 0x02, 0x1c, 0x00, 0x00, 0x00,
  0x20, 0x00, 0x00, 0x00, 0x01, 0x00, 0x00, 0x00, 0xa8, 0xf3, 0xff, 0xff, 0x01,
  0x00, 0x00, 0x00, 0x01, 0x00, 0x00, 0x00, 0x01, 0x00, 0x00, 0x00, 0x01, 0x00,
  0x00, 0x00, 0x83, 0x00, 0x00, 0x00, 0x03, 0x00, 0x00, 0x00, 0x82, 0x00, 0x00,
  0x00, 0x3b, 0x00, 0x00, 0x00, 0x3a, 0x00, 0x00, 0x00, 0xf6, 0xf3, 0xff, 0xff,
  0x14, 0x00, 0x00, 0x00, 0x00, 0x00, 0x00, 0x02, 0x1c, 0x00, 0x00, 0x00, 0x20,
  0x00, 0x00, 0x00, 0x01, 0x00, 0x00, 0x00, 0xe8, 0xf3, 0xff, 0xff, 0x01, 0x00,
  0x00, 0x00, 0x01, 0x00, 0x00, 0x00, 0x01, 0x00, 0x00, 0x00, 0x01, 0x00, 0x00,
  0x00, 0x82, 0x00, 0x00, 0x00, 0x03, 0x00, 0x00, 0x00, 0x7b, 0x00, 0x00, 0x00,
  0x39, 0x00, 0x00, 0x00, 0x3a, 0x00, 0x00, 0x00, 0x36, 0xf4, 0xff, 0xff, 0x14,
  0x00, 0x00, 0x00, 0x00, 0x00, 0x00, 0x01, 0x18, 0x00, 0x00, 0x00, 0x1c, 0x00,
  0x00, 0x00, 0x02, 0x00, 0x00, 0x00, 0xbe, 0xf4, 0xff, 0xff, 0x01, 0x00, 0x00,
  0x00, 0x01, 0x00, 0x00, 0x00, 0x01, 0x00, 0x00, 0x00, 0x81, 0x00, 0x00, 0x00,
  0x03, 0x00, 0x00, 0x00, 0x80, 0x00, 0x00, 0x00, 0x38, 0x00, 0x00, 0x00, 0x4d,
  0x00, 0x00, 0x00, 0x72, 0xf4, 0xff, 0xff, 0x14, 0x00, 0x00, 0x00, 0x00, 0x00,
  0x00, 0x02, 0x1c, 0x00, 0x00, 0x00, 0x20, 0x00, 0x00, 0x00, 0x01, 0x00, 0x00,
  0x00, 0x64, 0xf4, 0xff, 0xff, 0x01, 0x00, 0x00, 0x00, 0x01, 0x00, 0x00, 0x00,
  0x01, 0x00, 0x00, 0x00, 0x01, 0x00, 0x00, 0x00, 0x80, 0x00, 0x00, 0x00, 0x03,
  0x00, 0x00, 0x00, 0x7f, 0x00, 0x00, 0x00, 0x37, 0x00, 0x00, 0x00, 0x44, 0x00,
  0x00, 0x00, 0xb2, 0xf4, 0xff, 0xff, 0x14, 0x00, 0x00, 0x00, 0x00, 0x00, 0x00,
  0x02, 0x1c, 0x00, 0x00, 0x00, 0x20, 0x00, 0x00, 0x00, 0x01, 0x00, 0x00, 0x00,
  0xa4, 0xf4, 0xff, 0xff, 0x01, 0x00, 0x00, 0x00, 0x01, 0x00, 0x00, 0x00, 0x01,
  0x00, 0x00, 0x00, 0x01, 0x00, 0x00, 0x00, 0x7f, 0x00, 0x00, 0x00, 0x03, 0x00,
  0x00, 0x00, 0x7e, 0x00, 0x00, 0x00, 0x36, 0x00, 0x00, 0x00, 0x44, 0x00, 0x00,
  0x00, 0xf2, 0xf4, 0xff, 0xff, 0x14, 0x00, 0x00, 0x00, 0x00, 0x00, 0x00, 0x01,
  0x1c, 0x00, 0x00, 0x00, 0x20, 0x00, 0x00, 0x00, 0x02, 0x00, 0x00, 0x00, 0x48,
  0xf6, 0xff, 0xff, 0x00, 0x00, 0x00, 0x01, 0x01, 0x00, 0x00, 0x00, 0x01, 0x00,
  0x00, 0x00, 0x01, 0x00, 0x00, 0x00, 0x7e, 0x00, 0x00, 0x00, 0x03, 0x00, 0x00,
  0x00, 0x7d, 0x00, 0x00, 0x00, 0x35, 0x00, 0x00, 0x00, 0x02, 0x00, 0x00, 0x00,
  0x32, 0xf5, 0xff, 0xff, 0x14, 0x00, 0x00, 0x00, 0x00, 0x00, 0x00, 0x02, 0x1c,
  0x00, 0x00, 0x00, 0x20, 0x00, 0x00, 0x00, 0x01, 0x00, 0x00, 0x00, 0x24, 0xf5,
  0xff, 0xff, 0x01, 0x00, 0x00, 0x00, 0x01, 0x00, 0x00, 0x00, 0x01, 0x00, 0x00,
  0x00, 0x01, 0x00, 0x00, 0x00, 0x7d, 0x00, 0x00, 0x00, 0x03, 0x00, 0x00, 0x00,
  0x7c, 0x00, 0x00, 0x00, 0x34, 0x00, 0x00, 0x00, 0x3a, 0x00, 0x00, 0x00, 0x72,
  0xf5, 0xff, 0xff, 0x14, 0x00, 0x00, 0x00, 0x00, 0x00, 0x00, 0x02, 0x1c, 0x00,
  0x00, 0x00, 0x20, 0x00, 0x00, 0x00, 0x01, 0x00, 0x00, 0x00, 0x64, 0xf5, 0xff,
  0xff, 0x01, 0x00, 0x00, 0x00, 0x01, 0x00, 0x00, 0x00, 0x01, 0x00, 0x00, 0x00,
  0x01, 0x00, 0x00, 0x00, 0x7c, 0x00, 0x00, 0x00, 0x03, 0x00, 0x00, 0x00, 0x7b,
  0x00, 0x00, 0x00, 0x33, 0x00, 0x00, 0x00, 0x3a, 0x00, 0x00, 0x00, 0xb2, 0xf5,
  0xff, 0xff, 0x14, 0x00, 0x00, 0x00, 0x00, 0x00, 0x00, 0x0b, 0x14, 0x00, 0x00,
  0x00, 0x18, 0x00, 0x00, 0x00, 0x03, 0x00, 0x00, 0x00, 0xbc, 0xf8, 0xff, 0xff,
  0x00, 0x00, 0x00, 0x00, 0x01, 0x00, 0x00, 0x00, 0x7b, 0x00, 0x00, 0x00, 0x02,
  0x00, 0x00, 0x00, 0x7a, 0x00, 0x00, 0x00, 0x77, 0x00, 0x00, 0x00, 0xe6, 0xf5,
  0xff, 0xff, 0x14, 0x00, 0x00, 0x00, 0x00, 0x00, 0x00, 0x01, 0x18, 0x00, 0x00,
  0x00, 0x1c, 0x00, 0x00, 0x00, 0x02, 0x00, 0x00, 0x00, 0x6e, 0xf6, 0xff, 0xff,
  0x01, 0x00, 0x00, 0x00, 0x01, 0x00, 0x00, 0x00, 0x01, 0x00, 0x00, 0x00, 0x7a,
  0x00, 0x00, 0x00, 0x03, 0x00, 0x00, 0x00, 0x79, 0x00, 0x00, 0x00, 0x32, 0x00,
  0x00, 0x00, 0x4c, 0x00, 0x00, 0x00, 0x22, 0xf6, 0xff, 0xff, 0x14, 0x00, 0x00,
  0x00, 0x00, 0x00, 0x00, 0x02, 0x1c, 0x00, 0x00, 0x00, 0x20, 0x00, 0x00, 0x00,
  0x01, 0x00, 0x00, 0x00, 0x14, 0xf6, 0xff, 0xff, 0x01, 0x00, 0x00, 0x00, 0x01,
  0x00, 0x00, 0x00, 0x01, 0x00, 0x00, 0x00, 0x01, 0x00, 0x00, 0x00, 0x79, 0x00,
  0x00, 0x00, 0x03, 0x00, 0x00, 0x00, 0x78, 0x00, 0x00, 0x00, 0x31, 0x00, 0x00,
  0x00, 0x30, 0x00, 0x00, 0x00, 0x62, 0xf6, 0xff, 0xff, 0x14, 0x00, 0x00, 0x00,
  0x00, 0x00, 0x00, 0x02, 0x1c, 0x00, 0x00, 0x00, 0x20, 0x00, 0x00, 0x00, 0x01,
  0x00, 0x00, 0x00, 0x54, 0xf6, 0xff, 0xff, 0x01, 0x00, 0x00, 0x00, 0x01, 0x00,
  0x00, 0x00, 0x01, 0x00, 0x00, 0x00, 0x01, 0x00, 0x00, 0x00, 0x78, 0x00, 0x00,
  0x00, 0x03, 0x00, 0x00, 0x00, 0x71, 0x00, 0x00, 0x00, 0x2f, 0x00, 0x00, 0x00,
  0x30, 0x00, 0x00, 0x00, 0xa2, 0xf6, 0xff, 0xff, 0x14, 0x00, 0x00, 0x00, 0x00,
  0x00, 0x00, 0x01, 0x18, 0x00, 0x00, 0x00, 0x1c, 0x00, 0x00, 0x00, 0x02, 0x00,
  0x00, 0x00, 0x2a, 0xf7, 0xff, 0xff, 0x01, 0x00, 0x00, 0x00, 0x01, 0x00, 0x00,
  0x00, 0x01, 0x00, 0x00, 0x00, 0x77, 0x00, 0x00, 0x00, 0x03, 0x00, 0x00, 0x00,
  0x76, 0x00, 0x00, 0x00, 0x2e, 0x00, 0x00, 0x00, 0x4c, 0x00, 0x00, 0x00, 0xde,
  0xf6, 0xff, 0xff, 0x14, 0x00, 0x00, 0x00, 0x00, 0x00, 0x00, 0x02, 0x1c, 0x00,
  0x00, 0x00, 0x20, 0x00, 0x00, 0x00, 0x01, 0x00, 0x00, 0x00, 0xd0, 0xf6, 0xff,
  0xff, 0x01, 0x00, 0x00, 0x00, 0x01, 0x00, 0x00, 0x00, 0x01, 0x00, 0x00, 0x00,
  0x01, 0x00, 0x00, 0x00, 0x76, 0x00, 0x00, 0x00, 0x03, 0x00, 0x00, 0x00, 0x75,
  0x00, 0x00, 0x00, 0x2d, 0x00, 0x00, 0x00, 0x3a, 0x00, 0x00, 0x00, 0x1e, 0xf7,
  0xff, 0xff, 0x14, 0x00, 0x00, 0x00, 0x00, 0x00, 0x00, 0x02, 0x1c, 0x00, 0x00,
  0x00, 0x20, 0x00, 0x00, 0x00, 0x01, 0x00, 0x00, 0x00, 0x10, 0xf7, 0xff, 0xff,
  0x01, 0x00, 0x00, 0x00, 0x01, 0x00, 0x00, 0x00, 0x01, 0x00, 0x00, 0x00, 0x01,
  0x00, 0x00, 0x00, 0x75, 0x00, 0x00, 0x00, 0x03, 0x00, 0x00, 0x00, 0x74, 0x00,
  0x00, 0x00, 0x2c, 0x00, 0x00, 0x00, 0x3a, 0x00, 0x00, 0x00, 0x5e, 0xf7, 0xff,
  0xff, 0x14, 0x00, 0x00, 0x00, 0x00, 0x00, 0x00, 0x01, 0x1c, 0x00, 0x00, 0x00,
  0x20, 0x00, 0x00, 0x00, 0x02, 0x00, 0x00, 0x00, 0xb4, 0xf8, 0xff, 0xff, 0x00,
  0x00, 0x00, 0x01, 0x01, 0x00, 0x00, 0x00, 0x01, 0x00, 0x00, 0x00, 0x01, 0x00,
  0x00, 0x00, 0x74, 0x00, 0x00, 0x00, 0x03, 0x00, 0x00, 0x00, 0x73, 0x00, 0x00,
  0x00, 0x2b, 0x00, 0x00, 0x00, 0x03, 0x00, 0x00, 0x00, 0x9e, 0xf7, 0xff, 0xff,
  0x14, 0x00, 0x00, 0x00, 0x00, 0x00, 0x00, 0x02, 0x1c, 0x00, 0x00, 0x00, 0x20,
  0x00, 0x00, 0x00, 0x01, 0x00, 0x00, 0x00, 0x90, 0xf7, 0xff, 0xff, 0x01, 0x00,
  0x00, 0x00, 0x01, 0x00, 0x00, 0x00, 0x01, 0x00, 0x00, 0x00, 0x01, 0x00, 0x00,
  0x00, 0x73, 0x00, 0x00, 0x00, 0x03, 0x00, 0x00, 0x00, 0x72, 0x00, 0x00, 0x00,
  0x2a, 0x00, 0x00, 0x00, 0x30, 0x00, 0x00, 0x00, 0xde, 0xf7, 0xff, 0xff, 0x14,
  0x00, 0x00, 0x00, 0x00, 0x00, 0x00, 0x02, 0x1c, 0x00, 0x00, 0x00, 0x20, 0x00,
  0x00, 0x00, 0x01, 0x00, 0x00, 0x00, 0xd0, 0xf7, 0xff, 0xff, 0x01, 0x00, 0x00,
  0x00, 0x01, 0x00, 0x00, 0x00, 0x01, 0x00, 0x00, 0x00, 0x01, 0x00, 0x00, 0x00,
  0x72, 0x00, 0x00, 0x00, 0x03, 0x00, 0x00, 0x00, 0x71, 0x00, 0x00, 0x00, 0x29,
  0x00, 0x00, 0x00, 0x30, 0x00, 0x00, 0x00, 0x1e, 0xf8, 0xff, 0xff, 0x14, 0x00,
  0x00, 0x00, 0x00, 0x00, 0x00, 0x0b, 0x14, 0x00, 0x00, 0x00, 0x18, 0x00, 0x00,
  0x00, 0x03, 0x00, 0x00, 0x00, 0x28, 0xfb, 0xff, 0xff, 0x00, 0x00, 0x00, 0x00,
  0x01, 0x00, 0x00, 0x00, 0x71, 0x00, 0x00, 0x00, 0x02, 0x00, 0x00, 0x00, 0x70,
  0x00, 0x00, 0x00, 0x6d, 0x00, 0x00, 0x00, 0x52, 0xf8, 0xff, 0xff, 0x14, 0x00,
  0x00, 0x00, 0x00, 0x00, 0x00, 0x01, 0x18, 0x00, 0x00, 0x00, 0x1c, 0x00, 0x00,
  0x00, 0x02, 0x00, 0x00, 0x00, 0xda, 0xf8, 0xff, 0xff, 0x01, 0x00, 0x00, 0x00,
  0x01, 0x00, 0x00, 0x00, 0x01, 0x00, 0x00, 0x00, 0x70, 0x00, 0x00, 0x00, 0x03,
  0x00, 0x00, 0x00, 0x6f, 0x00, 0x00, 0x00, 0x28, 0x00, 0x00, 0x00, 0x4b, 0x00,
  0x00, 0x00, 0x8e, 0xf8, 0xff, 0xff, 0x14, 0x00, 0x00, 0x00, 0x00, 0x00, 0x00,
  0x02, 0x1c, 0x00, 0x00, 0x00, 0x20, 0x00, 0x00, 0x00, 0x01, 0x00, 0x00, 0x00,
  0x80, 0xf8, 0xff, 0xff, 0x01, 0x00, 0x00, 0x00, 0x01, 0x00, 0x00, 0x00, 0x01,
  0x00, 0x00, 0x00, 0x01, 0x00, 0x00, 0x00, 0x6f, 0x00, 0x00, 0x00, 0x03, 0x00,
  0x00, 0x00, 0x6e, 0x00, 0x00, 0x00, 0x27, 0x00, 0x00, 0x00, 0x26, 0x00, 0x00,
  0x00, 0xce, 0xf8, 0xff, 0xff, 0x14, 0x00, 0x00, 0x00, 0x00, 0x00, 0x00, 0x02,
  0x1c, 0x00, 0x00, 0x00, 0x20, 0x00, 0x00, 0x00, 0x01, 0x00, 0x00, 0x00, 0xc0,
  0xf8, 0xff, 0xff, 0x01, 0x00, 0x00, 0x00, 0x01, 0x00, 0x00, 0x00, 0x01, 0x00,
  0x00, 0x00, 0x01, 0x00, 0x00, 0x00, 0x6e, 0x00, 0x00, 0x00, 0x03, 0x00, 0x00,
  0x00, 0x67, 0x00, 0x00, 0x00, 0x25, 0x00, 0x00, 0x00, 0x26, 0x00, 0x00, 0x00,
  0x0e, 0xf9, 0xff, 0xff, 0x14, 0x00, 0x00, 0x00, 0x00, 0x00, 0x00, 0x01, 0x18,
  0x00, 0x00, 0x00, 0x1c, 0x00, 0x00, 0x00, 0x02, 0x00, 0x00, 0x00, 0x96, 0xf9,
  0xff, 0xff, 0x01, 0x00, 0x00, 0x00, 0x01, 0x00, 0x00, 0x00, 0x01, 0x00, 0x00,
  0x00, 0x6d, 0x00, 0x00, 0x00, 0x03, 0x00, 0x00, 0x00, 0x6c, 0x00, 0x00, 0x00,
  0x24, 0x00, 0x00, 0x00, 0x4b, 0x00, 0x00, 0x00, 0x4a, 0xf9, 0xff, 0xff, 0x14,
  0x00, 0x00, 0x00, 0x00, 0x00, 0x00, 0x02, 0x1c, 0x00, 0x00, 0x00, 0x20, 0x00,
  0x00, 0x00, 0x01, 0x00, 0x00, 0x00, 0x3c, 0xf9, 0xff, 0xff, 0x01, 0x00, 0x00,
  0x00, 0x01, 0x00, 0x00, 0x00, 0x01, 0x00, 0x00, 0x00, 0x01, 0x00, 0x00, 0x00,
  0x6c, 0x00, 0x00, 0x00, 0x03, 0x00, 0x00, 0x00, 0x6b, 0x00, 0x00, 0x00, 0x23,
  0x00, 0x00, 0x00, 0x30, 0x00, 0x00, 0x00, 0x8a, 0xf9, 0xff, 0xff, 0x14, 0x00,
  0x00, 0x00, 0x00, 0x00, 0x00, 0x02, 0x1c, 0x00, 0x00, 0x00, 0x20, 0x00, 0x00,
  0x00, 0x01, 0x00, 0x00, 0x00, 0x7c, 0xf9, 0xff, 0xff, 0x01, 0x00, 0x00, 0x00,
  0x01, 0x00, 0x00, 0x00, 0x01, 0x00, 0x00, 0x00, 0x01, 0x00, 0x00, 0x00, 0x6b,
  0x00, 0x00, 0x00, 0x03, 0x00, 0x00, 0x00, 0x6a, 0x00, 0x00, 0x00, 0x22, 0x00,
  0x00, 0x00, 0x30, 0x00, 0x00, 0x00, 0xca, 0xf9, 0xff, 0xff, 0x14, 0x00, 0x00,
  0x00, 0x00, 0x00, 0x00, 0x01, 0x1c, 0x00, 0x00, 0x00, 0x20, 0x00, 0x00, 0x00,
  0x02, 0x00, 0x00, 0x00, 0x20, 0xfb, 0xff, 0xff, 0x00, 0x00, 0x00, 0x01, 0x01,
  0x00, 0x00, 0x00, 0x01, 0x00, 0x00, 0x00, 0x01, 0x00, 0x00, 0x00, 0x6a, 0x00,
  0x00, 0x00, 0x03, 0x00, 0x00, 0x00, 0x69, 0x00, 0x00, 0x00, 0x21, 0x00, 0x00,
  0x00, 0x04, 0x00, 0x00, 0x00, 0x0a, 0xfa, 0xff, 0xff, 0x14, 0x00, 0x00, 0x00,
  0x00, 0x00, 0x00, 0x02, 0x1c, 0x00, 0x00, 0x00, 0x20, 0x00, 0x00, 0x00, 0x01,
  0x00, 0x00, 0x00, 0xfc, 0xf9, 0xff, 0xff, 0x01, 0x00, 0x00, 0x00, 0x01, 0x00,
  0x00, 0x00, 0x01, 0x00, 0x00, 0x00, 0x01, 0x00, 0x00, 0x00, 0x69, 0x00, 0x00,
  0x00, 0x03, 0x00, 0x00, 0x00, 0x68, 0x00, 0x00, 0x00, 0x20, 0x00, 0x00, 0x00,
  0x26, 0x00, 0x00, 0x00, 0x4a, 0xfa, 0xff, 0xff, 0x14, 0x00, 0x00, 0x00, 0x00,
  0x00, 0x00, 0x02, 0x1c, 0x00, 0x00, 0x00, 0x20, 0x00, 0x00, 0x00, 0x01, 0x00,
  0x00, 0x00, 0x3c, 0xfa, 0xff, 0xff, 0x01, 0x00, 0x00, 0x00, 0x01, 0x00, 0x00,
  0x00, 0x01, 0x00, 0x00, 0x00, 0x01, 0x00, 0x00, 0x00, 0x68, 0x00, 0x00, 0x00,
  0x03, 0x00, 0x00, 0x00, 0x67, 0x00, 0x00, 0x00, 0x1f, 0x00, 0x00, 0x00, 0x26,
  0x00, 0x00, 0x00, 0x8a, 0xfa, 0xff, 0xff, 0x14, 0x00, 0x00, 0x00, 0x00, 0x00,
  0x00, 0x0b, 0x14, 0x00, 0x00, 0x00, 0x18, 0x00, 0x00, 0x00, 0x03, 0x00, 0x00,
  0x00, 0x94, 0xfd, 0xff, 0xff, 0x00, 0x00, 0x00, 0x00, 0x01, 0x00, 0x00, 0x00,
  0x67, 0x00, 0x00, 0x00, 0x02, 0x00, 0x00, 0x00, 0x66, 0x00, 0x00, 0x00, 0x63,
  0x00, 0x00, 0x00, 0xbe, 0xfa, 0xff, 0xff, 0x14, 0x00, 0x00, 0x00, 0x00, 0x00,
  0x00, 0x01, 0x18, 0x00, 0x00, 0x00, 0x1c, 0x00, 0x00, 0x00, 0x02, 0x00, 0x00,
  0x00, 0x46, 0xfb, 0xff, 0xff, 0x01, 0x00, 0x00, 0x00, 0x01, 0x00, 0x00, 0x00,
  0x01, 0x00, 0x00, 0x00, 0x66, 0x00, 0x00, 0x00, 0x03, 0x00, 0x00, 0x00, 0x65,
  0x00, 0x00, 0x00, 0x1e, 0x00, 0x00, 0x00, 0x4a, 0x00, 0x00, 0x00, 0xfa, 0xfa,
  0xff, 0xff, 0x14, 0x00, 0x00, 0x00, 0x00, 0x00, 0x00, 0x02, 0x1c, 0x00, 0x00,
  0x00, 0x20, 0x00, 0x00, 0x00, 0x01, 0x00, 0x00, 0x00, 0xec, 0xfa, 0xff, 0xff,
  0x01, 0x00, 0x00, 0x00, 0x01, 0x00, 0x00, 0x00, 0x01, 0x00, 0x00, 0x00, 0x01,
  0x00, 0x00, 0x00, 0x65, 0x00, 0x00, 0x00, 0x03, 0x00, 0x00, 0x00, 0x64, 0x00,
  0x00, 0x00, 0x1d, 0x00, 0x00, 0x00, 0x1c, 0x00, 0x00, 0x00, 0x3a, 0xfb, 0xff,
  0xff, 0x14, 0x00, 0x00, 0x00, 0x00, 0x00, 0x00, 0x02, 0x1c, 0x00, 0x00, 0x00,
  0x20, 0x00, 0x00, 0x00, 0x01, 0x00, 0x00, 0x00, 0x2c, 0xfb, 0xff, 0xff, 0x01,
  0x00, 0x00, 0x00, 0x01, 0x00, 0x00, 0x00, 0x01, 0x00, 0x00, 0x00, 0x01, 0x00,
  0x00, 0x00, 0x64, 0x00, 0x00, 0x00, 0x03, 0x00, 0x00, 0x00, 0x5d, 0x00, 0x00,
  0x00, 0x1b, 0x00, 0x00, 0x00, 0x1c, 0x00, 0x00, 0x00, 0x7a, 0xfb, 0xff, 0xff,
  0x14, 0x00, 0x00, 0x00, 0x00, 0x00, 0x00, 0x01, 0x18, 0x00, 0x00, 0x00, 0x1c,
  0x00, 0x00, 0x00, 0x02, 0x00, 0x00, 0x00, 0x02, 0xfc, 0xff, 0xff, 0x01, 0x00,
  0x00, 0x00, 0x01, 0x00, 0x00, 0x00, 0x01, 0x00, 0x00, 0x00, 0x63, 0x00, 0x00,
  0x00, 0x03, 0x00, 0x00, 0x00, 0x62, 0x00, 0x00, 0x00, 0x1a, 0x00, 0x00, 0x00,
  0x4a, 0x00, 0x00, 0x00, 0xb6, 0xfb, 0xff, 0xff, 0x14, 0x00, 0x00, 0x00, 0x00,
  0x00, 0x00, 0x02, 0x1c, 0x00, 0x00, 0x00, 0x20, 0x00, 0x00, 0x00, 0x01, 0x00,
  0x00, 0x00, 0xa8, 0xfb, 0xff, 0xff, 0x01, 0x00, 0x00, 0x00, 0x01, 0x00, 0x00,
  0x00, 0x01, 0x00, 0x00, 0x00, 0x01, 0x00, 0x00, 0x00, 0x62, 0x00, 0x00, 0x00,
  0x03, 0x00, 0x00, 0x00, 0x61, 0x00, 0x00, 0x00, 0x19, 0x00, 0x00, 0x00, 0x26,
  0x00, 0x00, 0x00, 0xf6, 0xfb, 0xff, 0xff, 0x14, 0x00, 0x00, 0x00, 0x00, 0x00,
  0x00, 0x02, 0x1c, 0x00, 0x00, 0x00, 0x20, 0x00, 0x00, 0x00, 0x01, 0x00, 0x00,
  0x00, 0xe8, 0xfb, 0xff, 0xff, 0x01, 0x00, 0x00, 0x00, 0x01, 0x00, 0x00, 0x00,
  0x01, 0x00, 0x00, 0x00, 0x01, 0x00, 0x00, 0x00, 0x61, 0x00, 0x00, 0x00, 0x03,
  0x00, 0x00, 0x00, 0x60, 0x00, 0x00, 0x00, 0x18, 0x00, 0x00, 0x00, 0x26, 0x00,
  0x00, 0x00, 0x36, 0xfc, 0xff, 0xff, 0x14, 0x00, 0x00, 0x00, 0x00, 0x00, 0x00,
  0x01, 0x1c, 0x00, 0x00, 0x00, 0x20, 0x00, 0x00, 0x00, 0x02, 0x00, 0x00, 0x00,
  0x8c, 0xfd, 0xff, 0xff, 0x00, 0x00, 0x00, 0x01, 0x01, 0x00, 0x00, 0x00, 0x01,
  0x00, 0x00, 0x00, 0x01, 0x00, 0x00, 0x00, 0x60, 0x00, 0x00, 0x00, 0x03, 0x00,
  0x00, 0x00, 0x5f, 0x00, 0x00, 0x00, 0x17, 0x00, 0x00, 0x00, 0x05, 0x00, 0x00,
  0x00, 0x76, 0xfc, 0xff, 0xff, 0x14, 0x00, 0x00, 0x00, 0x00, 0x00, 0x00, 0x02,
  0x1c, 0x00, 0x00, 0x00, 0x20, 0x00, 0x00, 0x00, 0x01, 0x00, 0x00, 0x00, 0x68,
  0xfc, 0xff, 0xff, 0x01, 0x00, 0x00, 0x00, 0x01, 0x00, 0x00, 0x00, 0x01, 0x00,
  0x00, 0x00, 0x01, 0x00, 0x00, 0x00, 0x5f, 0x00, 0x00, 0x00, 0x03, 0x00, 0x00,
  0x00, 0x5e, 0x00, 0x00, 0x00, 0x16, 0x00, 0x00, 0x00, 0x1c, 0x00, 0x00, 0x00,
  0xb6, 0xfc, 0xff, 0xff, 0x14, 0x00, 0x00, 0x00, 0x00, 0x00, 0x00, 0x02, 0x1c,
  0x00, 0x00, 0x00, 0x20, 0x00, 0x00, 0x00, 0x01, 0x00, 0x00, 0x00, 0xa8, 0xfc,
  0xff, 0xff, 0x01, 0x00, 0x00, 0x00, 0x01, 0x00, 0x00, 0x00, 0x01, 0x00, 0x00,
  0x00, 0x01, 0x00, 0x00, 0x00, 0x5e, 0x00, 0x00, 0x00, 0x03, 0x00, 0x00, 0x00,
  0x5d, 0x00, 0x00, 0x00, 0x15, 0x00, 0x00, 0x00, 0x1c, 0x00, 0x00, 0x00, 0xf6,
  0xfc, 0xff, 0xff, 0x1c, 0x00, 0x00, 0x00, 0x00, 0x00, 0x00, 0x0b, 0x1c, 0x00,
  0x00, 0x00, 0x20, 0x00, 0x00, 0x00, 0x03, 0x00, 0x00, 0x00, 0x08, 0x00, 0x08,
  0x00, 0x00, 0x00, 0x07, 0x00, 0x08, 0x00, 0x00, 0x00, 0x00, 0x00, 0x00, 0x00,
  0x01, 0x00, 0x00, 0x00, 0x5d, 0x00, 0x00, 0x00, 0x02, 0x00, 0x00, 0x00, 0x5c,
  0x00, 0x00, 0x00, 0x59, 0x00, 0x00, 0x00, 0x32, 0xfd, 0xff, 0xff, 0x14, 0x00,
  0x00, 0x00, 0x00, 0x00, 0x00, 0x01, 0x18, 0x00, 0x00, 0x00, 0x1c, 0x00, 0x00,
  0x00, 0x02, 0x00, 0x00, 0x00, 0xba, 0xfd, 0xff, 0xff, 0x01, 0x00, 0x00, 0x00,
  0x01, 0x00, 0x00, 0x00, 0x01, 0x00, 0x00, 0x00, 0x5c, 0x00, 0x00, 0x00, 0x03,
  0x00, 0x00, 0x00, 0x5b, 0x00, 0x00, 0x00, 0x14, 0x00, 0x00, 0x00, 0x49, 0x00,
  0x00, 0x00, 0x6e, 0xfd, 0xff, 0xff, 0x14, 0x00, 0x00, 0x00, 0x00, 0x00, 0x00,
  0x02, 0x1c, 0x00, 0x00, 0x00, 0x20, 0x00, 0x00, 0x00, 0x01, 0x00, 0x00, 0x00,
  0x60, 0xfd, 0xff, 0xff, 0x01, 0x00, 0x00, 0x00, 0x01, 0x00, 0x00, 0x00, 0x01,
  0x00, 0x00, 0x00, 0x01, 0x00, 0x00, 0x00, 0x5b, 0x00, 0x00, 0x00, 0x03, 0x00,
  0x00, 0x00, 0x5a, 0x00, 0x00, 0x00, 0x13, 0x00, 0x00, 0x00, 0x12, 0x00, 0x00,
  0x00, 0xae, 0xfd, 0xff, 0xff, 0x14, 0x00, 0x00, 0x00, 0x00, 0x00, 0x00, 0x02,
  0x1c, 0x00, 0x00, 0x00, 0x20, 0x00, 0x00, 0x00, 0x01, 0x00, 0x00, 0x00, 0xa0,
  0xfd, 0xff, 0xff, 0x01, 0x00, 0x00, 0x00, 0x01, 0x00, 0x00, 0x00, 0x01, 0x00,
  0x00, 0x00, 0x01, 0x00, 0x00, 0x00, 0x5a, 0x00, 0x00, 0x00, 0x03, 0x00, 0x00,
  0x00, 0x53, 0x00, 0x00, 0x00, 0x11, 0x00, 0x00, 0x00, 0x12, 0x00, 0x00, 0x00,
  0xee, 0xfd, 0xff, 0xff, 0x14, 0x00, 0x00, 0x00, 0x00, 0x00, 0x00, 0x01, 0x18,
  0x00, 0x00, 0x00, 0x1c, 0x00, 0x00, 0x00, 0x02, 0x00, 0x00, 0x00, 0x76, 0xfe,
  0xff, 0xff, 0x01, 0x00, 0x00, 0x00, 0x01, 0x00, 0x00, 0x00, 0x01, 0x00, 0x00,
  0x00, 0x59, 0x00, 0x00, 0x00, 0x03, 0x00, 0x00, 0x00, 0x58, 0x00, 0x00, 0x00,
  0x10, 0x00, 0x00, 0x00, 0x49, 0x00, 0x00, 0x00, 0x2a, 0xfe, 0xff, 0xff, 0x14,
  0x00, 0x00, 0x00, 0x00, 0x00, 0x00, 0x02, 0x1c, 0x00, 0x00, 0x00, 0x20, 0x00,
  0x00, 0x00, 0x01, 0x00, 0x00, 0x00, 0x1c, 0xfe, 0xff, 0xff, 0x01, 0x00, 0x00,
  0x00, 0x01, 0x00, 0x00, 0x00, 0x01, 0x00, 0x00, 0x00, 0x01, 0x00, 0x00, 0x00,
  0x58, 0x00, 0x00, 0x00, 0x03, 0x00, 0x00, 0x00, 0x57, 0x00, 0x00, 0x00, 0x0f,
  0x00, 0x00, 0x00, 0x1c, 0x00, 0x00, 0x00, 0x6a, 0xfe, 0xff, 0xff, 0x14, 0x00,
  0x00, 0x00, 0x00, 0x00, 0x00, 0x02, 0x1c, 0x00, 0x00, 0x00, 0x20, 0x00, 0x00,
  0x00, 0x01, 0x00, 0x00, 0x00, 0x5c, 0xfe, 0xff, 0xff, 0x01, 0x00, 0x00, 0x00,
  0x01, 0x00, 0x00, 0x00, 0x01, 0x00, 0x00, 0x00, 0x01, 0x00, 0x00, 0x00, 0x57,
  0x00, 0x00, 0x00, 0x03, 0x00, 0x00, 0x00, 0x56, 0x00, 0x00, 0x00, 0x0e, 0x00,
  0x00, 0x00, 0x1c, 0x00, 0x00, 0x00, 0xaa, 0xfe, 0xff, 0xff, 0x20, 0x00, 0x00,
  0x00, 0x00, 0x00, 0x00, 0x01, 0x28, 0x00, 0x00, 0x00, 0x2c, 0x00, 0x00, 0x00,
  0x02, 0x00, 0x00, 0x00, 0x0c, 0x00, 0x10, 0x00, 0x00, 0x00, 0x0c, 0x00, 0x08,
  0x00, 0x07, 0x00, 0x0c, 0x00, 0x00, 0x00, 0x00, 0x00, 0x00, 0x01, 0x01, 0x00,
  0x00, 0x00, 0x01, 0x00, 0x00, 0x00, 0x01, 0x00, 0x00, 0x00, 0x56, 0x00, 0x00,
  0x00, 0x03, 0x00, 0x00, 0x00, 0x55, 0x00, 0x00, 0x00, 0x0d, 0x00, 0x00, 0x00,
  0x06, 0x00, 0x00, 0x00, 0xf6, 0xfe, 0xff, 0xff, 0x14, 0x00, 0x00, 0x00, 0x00,
  0x00, 0x00, 0x02, 0x1c, 0x00, 0x00, 0x00, 0x20, 0x00, 0x00, 0x00, 0x01, 0x00,
  0x00, 0x00, 0xe8, 0xfe, 0xff, 0xff, 0x01, 0x00, 0x00, 0x00, 0x01, 0x00, 0x00,
  0x00, 0x01, 0x00, 0x00, 0x00, 0x01, 0x00, 0x00, 0x00, 0x55, 0x00, 0x00, 0x00,
  0x03, 0x00, 0x00, 0x00, 0x54, 0x00, 0x00, 0x00, 0x0c, 0x00, 0x00, 0x00, 0x12,
  0x00, 0x00, 0x00, 0x36, 0xff, 0xff, 0xff, 0x14, 0x00, 0x00, 0x00, 0x00, 0x00,
  0x00, 0x02, 0x1c, 0x00, 0x00, 0x00, 0x20, 0x00, 0x00, 0x00, 0x01, 0x00, 0x00,
  0x00, 0x28, 0xff, 0xff, 0xff, 0x01, 0x00, 0x00, 0x00, 0x01, 0x00, 0x00, 0x00,
  0x01, 0x00, 0x00, 0x00, 0x01, 0x00, 0x00, 0x00, 0x54, 0x00, 0x00, 0x00, 0x03,
  0x00, 0x00, 0x00, 0x53, 0x00, 0x00, 0x00, 0x0b, 0x00, 0x00, 0x00, 0x12, 0x00,
  0x00, 0x00, 0x76, 0xff, 0xff, 0xff, 0x20, 0x00, 0x00, 0x00, 0x00, 0x00, 0x00,
  0x01, 0x24, 0x00, 0x00, 0x00, 0x28, 0x00, 0x00, 0x00, 0x02, 0x00, 0x00, 0x00,
  0x00, 0x00, 0x0a, 0x00, 0x0c, 0x00, 0x00, 0x00, 0x08, 0x00, 0x04, 0x00, 0x0a,
  0x00, 0x00, 0x00, 0x01, 0x00, 0x00, 0x00, 0x01, 0x00, 0x00, 0x00, 0x01, 0x00,
  0x00, 0x00, 0x53, 0x00, 0x00, 0x00, 0x03, 0x00, 0x00, 0x00, 0x52, 0x00, 0x00,
  0x00, 0x0a, 0x00, 0x00, 0x00, 0x48, 0x00, 0x00, 0x00, 0xbe, 0xff, 0xff, 0xff,
  0x14, 0x00, 0x00, 0x00, 0x00, 0x00, 0x00, 0x02, 0x1c, 0x00, 0x00, 0x00, 0x20,
  0x00, 0x00, 0x00, 0x01, 0x00, 0x00, 0x00, 0xb0, 0xff, 0xff, 0xff, 0x01, 0x00,
  0x00, 0x00, 0x01, 0x00, 0x00, 0x00, 0x01, 0x00, 0x00, 0x00, 0x01, 0x00, 0x00,
  0x00, 0x52, 0x00, 0x00, 0x00, 0x03, 0x00, 0x00, 0x00, 0x51, 0x00, 0x00, 0x00,
  0x09, 0x00, 0x00, 0x00, 0x46, 0x00, 0x00, 0x00, 0x00, 0x00, 0x0e, 0x00, 0x18,
  0x00, 0x14, 0x00, 0x10, 0x00, 0x0c, 0x00, 0x0b, 0x00, 0x04, 0x00, 0x0e, 0x00,
  0x00, 0x00, 0x20, 0x00, 0x00, 0x00, 0x00, 0x00, 0x00, 0x02, 0x28, 0x00, 0x00,
  0x00, 0x2c, 0x00, 0x00, 0x00, 0x01, 0x00, 0x00, 0x00, 0x0c, 0x00, 0x10, 0x00,
  0x00, 0x00, 0x0c, 0x00, 0x08, 0x00, 0x04, 0x00, 0x0c, 0x00, 0x00, 0x00, 0x01,
  0x00, 0x00, 0x00, 0x01, 0x00, 0x00, 0x00, 0x01, 0x00, 0x00, 0x00, 0x01, 0x00,
  0x00, 0x00, 0x51, 0x00, 0x00, 0x00, 0x03, 0x00, 0x00, 0x00, 0x50, 0x00, 0x00,
  0x00, 0x08, 0x00, 0x00, 0x00, 0x46, 0x00, 0x00, 0x00, 0x00, 0x00, 0x0e, 0x00,
  0x14, 0x00, 0x00, 0x00, 0x10, 0x00, 0x0c, 0x00, 0x0b, 0x00, 0x04, 0x00, 0x0e,
  0x00, 0x00, 0x00, 0x10, 0x00, 0x00, 0x00, 0x00, 0x00, 0x00, 0x16, 0x0c, 0x00,
  0x00, 0x00, 0x10, 0x00, 0x00, 0x00, 0xa4, 0x8e, 0xff, 0xff, 0x01, 0x00, 0x00,
  0x00, 0x50, 0x00, 0x00, 0x00, 0x02, 0x00, 0x00, 0x00, 0x00, 0x00, 0x00, 0x00,
  0x07, 0x00, 0x00, 0x00, 0x00, 0x00, 0x0a, 0x00, 0x10, 0x00, 0x0c, 0x00, 0x08,
  0x00, 0x04, 0x00, 0x0a, 0x00, 0x00, 0x00, 0x0c, 0x00, 0x00, 0x00, 0x10, 0x00,
  0x00, 0x00, 0x04, 0x00, 0x00, 0x00, 0x01, 0x00, 0x00, 0x00, 0x00, 0x00, 0x00,
  0x00, 0x01, 0x00, 0x00, 0x00, 0x90, 0x00, 0x00, 0x00, 0x01, 0x00, 0x00, 0x00,
  0x91, 0x00, 0x00, 0x00, 0x01, 0x00, 0x00, 0x00, 0x90, 0x00, 0x00, 0x00, 0x92,
  0x00, 0x00, 0x00, 0x60, 0x75, 0x00, 0x00, 0xbc, 0x74, 0x00, 0x00, 0x34, 0x74,
  0x00, 0x00, 0x98, 0x73, 0x00, 0x00, 0xe4, 0x72, 0x00, 0x00, 0x08, 0x72, 0x00,
  0x00, 0x0c, 0x71, 0x00, 0x00, 0xd0, 0x70, 0x00, 0x00, 0x3c, 0x70, 0x00, 0x00,
  0xbc, 0x6f, 0x00, 0x00, 0xcc, 0x6d, 0x00, 0x00, 0xd4, 0x6b, 0x00, 0x00, 0xd8,
  0x69, 0x00, 0x00, 0x48, 0x68, 0x00, 0x00, 0xb0, 0x66, 0x00, 0x00, 0x1c, 0x65,
  0x00, 0x00, 0x8c, 0x63, 0x00, 0x00, 0x94, 0x61, 0x00, 0x00, 0x5c, 0x60, 0x00,
  0x00, 0x5c, 0x5e, 0x00, 0x00, 0xcc, 0x5c, 0x00, 0x00, 0x34, 0x5b, 0x00, 0x00,
  0xa0, 0x59, 0x00, 0x00, 0x48, 0x58, 0x00, 0x00, 0xe8, 0x56, 0x00, 0x00, 0x8c,
  0x55, 0x00, 0x00, 0x34, 0x54, 0x00, 0x00, 0x9c, 0x52, 0x00, 0x00, 0x9c, 0x51,
  0x00, 0x00, 0x04, 0x50, 0x00, 0x00, 0xac, 0x4e, 0x00, 0x00, 0x4c, 0x4d, 0x00,
  0x00, 0xf0, 0x4b, 0x00, 0x00, 0xd8, 0x4a, 0x00, 0x00, 0xb8, 0x49, 0x00, 0x00,
  0x94, 0x48, 0x00, 0x00, 0x7c, 0x47, 0x00, 0x00, 0x1c, 0x46, 0x00, 0x00, 0x3c,
  0x45, 0x00, 0x00, 0xdc, 0x43, 0x00, 0x00, 0xc4, 0x42, 0x00, 0x00, 0xa4, 0x41,
  0x00, 0x00, 0x80, 0x40, 0x00, 0x00, 0x90, 0x3f, 0x00, 0x00, 0x98, 0x3e, 0x00,
  0x00, 0x9c, 0x3d, 0x00, 0x00, 0xac, 0x3c, 0x00, 0x00, 0x8c, 0x3b, 0x00, 0x00,
  0xd4, 0x3a, 0x00, 0x00, 0xb4, 0x39, 0x00, 0x00, 0xc4, 0x38, 0x00, 0x00, 0xcc,
  0x37, 0x00, 0x00, 0xd0, 0x36, 0x00, 0x00, 0x08, 0x36, 0x00, 0x00, 0x38, 0x35,
  0x00, 0x00, 0x64, 0x34, 0x00, 0x00, 0x9c, 0x33, 0x00, 0x00, 0xa4, 0x32, 0x00,
  0x00, 0x04, 0x32, 0x00, 0x00, 0x0c, 0x31, 0x00, 0x00, 0x44, 0x30, 0x00, 0x00,
  0x74, 0x2f, 0x00, 0x00, 0xa0, 0x2e, 0x00, 0x00, 0xd8, 0x2d, 0x00, 0x00, 0x08,
  0x2d, 0x00, 0x00, 0x34, 0x2c, 0x00, 0x00, 0x6c, 0x2b, 0x00, 0x00, 0x9c, 0x2a,
  0x00, 0x00, 0x14, 0x2a, 0x00, 0x00, 0x44, 0x29, 0x00, 0x00, 0xec, 0x28, 0x00,
  0x00, 0x70, 0x28, 0x00, 0x00, 0x1c, 0x27, 0x00, 0x00, 0x00, 0x26, 0x00, 0x00,
  0x04, 0x25, 0x00, 0x00, 0x30, 0x24, 0x00, 0x00, 0x6c, 0x23, 0x00, 0x00, 0xc0,
  0x22, 0x00, 0x00, 0x14, 0x22, 0x00, 0x00, 0xa8, 0x21, 0x00, 0x00, 0x34, 0x21,
  0x00, 0x00, 0xb8, 0x20, 0x00, 0x00, 0x3c, 0x20, 0x00, 0x00, 0xa8, 0x1f, 0x00,
  0x00, 0x2c, 0x1f, 0x00, 0x00, 0xb0, 0x1e, 0x00, 0x00, 0x14, 0x1e, 0x00, 0x00,
  0x98, 0x1d, 0x00, 0x00, 0x1c, 0x1d, 0x00, 0x00, 0x80, 0x1c, 0x00, 0x00, 0x04,
  0x1c, 0x00, 0x00, 0x88, 0x1b, 0x00, 0x00, 0xec, 0x1a, 0x00, 0x00, 0x78, 0x1a,
  0x00, 0x00, 0xfc, 0x19, 0x00, 0x00, 0x80, 0x19, 0x00, 0x00, 0xdc, 0x18, 0x00,
  0x00, 0x60, 0x18, 0x00, 0x00, 0xe4, 0x17, 0x00, 0x00, 0x48, 0x17, 0x00, 0x00,
  0xcc, 0x16, 0x00, 0x00, 0x50, 0x16, 0x00, 0x00, 0xb4, 0x15, 0x00, 0x00, 0x40,
  0x15, 0x00, 0x00, 0xc4, 0x14, 0x00, 0x00, 0x48, 0x14, 0x00, 0x00, 0xa4, 0x13,
  0x00, 0x00, 0x28, 0x13, 0x00, 0x00, 0xac, 0x12, 0x00, 0x00, 0x10, 0x12, 0x00,
  0x00, 0x94, 0x11, 0x00, 0x00, 0x18, 0x11, 0x00, 0x00, 0x7c, 0x10, 0x00, 0x00,
  0x08, 0x10, 0x00, 0x00, 0x8c, 0x0f, 0x00, 0x00, 0x10, 0x0f, 0x00, 0x00, 0x6c,
  0x0e, 0x00, 0x00, 0xf0, 0x0d, 0x00, 0x00, 0x74, 0x0d, 0x00, 0x00, 0xd8, 0x0c,
  0x00, 0x00, 0x5c, 0x0c, 0x00, 0x00, 0xe0, 0x0b, 0x00, 0x00, 0x44, 0x0b, 0x00,
  0x00, 0xd0, 0x0a, 0x00, 0x00, 0x54, 0x0a, 0x00, 0x00, 0xd8, 0x09, 0x00, 0x00,
  0x34, 0x09, 0x00, 0x00, 0xb8, 0x08, 0x00, 0x00, 0x3c, 0x08, 0x00, 0x00, 0xa0,
  0x07, 0x00, 0x00, 0x24, 0x07, 0x00, 0x00, 0xa8, 0x06, 0x00, 0x00, 0x0c, 0x06,
  0x00, 0x00, 0x98, 0x05, 0x00, 0x00, 0x1c, 0x05, 0x00, 0x00, 0xa0, 0x04, 0x00,
  0x00, 0xfc, 0x03, 0x00, 0x00, 0x80, 0x03, 0x00, 0x00, 0x04, 0x03, 0x00, 0x00,
  0x68, 0x02, 0x00, 0x00, 0xf4, 0x01, 0x00, 0x00, 0x78, 0x01, 0x00, 0x00, 0xfc,
  0x00, 0x00, 0x00, 0x78, 0x00, 0x00, 0x00, 0x44, 0x00, 0x00, 0x00, 0x04, 0x00,
  0x00, 0x00, 0xd0, 0xff, 0xff, 0xff, 0x08, 0x00, 0x00, 0x00, 0x14, 0x00, 0x00,
  0x00, 0x0a, 0x00, 0x00, 0x00, 0x42, 0x69, 0x61, 0x73, 0x41, 0x64, 0x64, 0x5f,
  0x31, 0x38, 0x00, 0x00, 0x04, 0x00, 0x00, 0x00, 0x01, 0x00, 0x00, 0x00, 0x38,
  0x04, 0x00, 0x00, 0x80, 0x07, 0x00, 0x00, 0x01, 0x00, 0x00, 0x00, 0x0c, 0x00,
  0x0c, 0x00, 0x08, 0x00, 0x00, 0x00, 0x00, 0x00, 0x04, 0x00, 0x0c, 0x00, 0x00,
  0x00, 0x08, 0x00, 0x00, 0x00, 0x14, 0x00, 0x00, 0x00, 0x0b, 0x00, 0x00, 0x00,
  0x50, 0x6c, 0x61, 0x63, 0x65, 0x68, 0x6f, 0x6c, 0x64, 0x65, 0x72, 0x00, 0x04,
  0x00, 0x00, 0x00, 0x01, 0x00, 0x00, 0x00, 0x38, 0x04, 0x00, 0x00, 0x80, 0x07,
  0x00, 0x00, 0x01, 0x00, 0x00, 0x00, 0x62, 0x8d, 0xff, 0xff, 0x14, 0x00, 0x00,
  0x00, 0x4c, 0x00, 0x00, 0x00, 0x90, 0x00, 0x00, 0x00, 0x00, 0x00, 0x00, 0x07,
  0x58, 0x00, 0x00, 0x00, 0x54, 0x8d, 0xff, 0xff, 0x10, 0x00, 0x00, 0x00, 0x1c,
  0x00, 0x00, 0x00, 0x20, 0x00, 0x00, 0x00, 0x24, 0x00, 0x00, 0x00, 0x01, 0x00,
  0x00, 0x00, 0x00, 0x00, 0x00, 0x00, 0x00, 0x00, 0x00, 0x00, 0x00, 0x00, 0x00,
  0x00, 0x01, 0x00, 0x00, 0x00, 0x0c, 0x7b, 0xaf, 0x36, 0x01, 0x00, 0x00, 0x00,
  0xad, 0x79, 0x2f, 0x3e, 0x01, 0x00, 0x00, 0x00, 0xfc, 0xc6, 0x26, 0xbe, 0x10,
  0x00, 0x00, 0x00, 0x42, 0x69, 0x61, 0x73, 0x41, 0x64, 0x64, 0x5f, 0x31, 0x38,
  0x5f, 0x69, 0x6e, 0x74, 0x31, 0x36, 0x00, 0x00, 0x00, 0x00, 0x04, 0x00, 0x00,
  0x00, 0x01, 0x00, 0x00, 0x00, 0x38, 0x04, 0x00, 0x00, 0x80, 0x07, 0x00, 0x00,
  0x01, 0x00, 0x00, 0x00, 0xe2, 0x8d, 0xff, 0xff, 0x14, 0x00, 0x00, 0x00, 0x48,
  0x00, 0x00, 0x00, 0x8f, 0x00, 0x00, 0x00, 0x00, 0x00, 0x00, 0x07, 0x50, 0x00,
  0x00, 0x00, 0xd4, 0x8d, 0xff, 0xff, 0x10, 0x00, 0x00, 0x00, 0x18, 0x00, 0x00,
  0x00, 0x1c, 0x00, 0x00, 0x00, 0x20, 0x00, 0x00, 0x00, 0x01, 0x00, 0x00, 0x00,
  0x00, 0x00, 0x00, 0x00, 0x00, 0x00, 0x00, 0x00, 0x01, 0x00, 0x00, 0x00, 0x1a,
  0xe0, 0xdb, 0x38, 0x01, 0x00, 0x00, 0x00, 0x62, 0xde, 0x5b, 0x40, 0x01, 0x00,
  0x00, 0x00, 0xb8, 0x42, 0x40, 0xc0, 0x0d, 0x00, 0x00, 0x00, 0x64, 0x65, 0x70,
  0x74, 0x68, 0x77, 0x69, 0x73, 0x65, 0x5f, 0x33, 0x37, 0x32, 0x00, 0x00, 0x00,
  0x04, 0x00, 0x00, 0x00, 0x01, 0x00, 0x00, 0x00, 0x38, 0x04, 0x00, 0x00, 0x80,
  0x07, 0x00, 0x00, 0x05, 0x00, 0x00, 0x00, 0x5a, 0x8e, 0xff, 0xff, 0x14, 0x00,
  0x00, 0x00, 0x48, 0x00, 0x00, 0x00, 0x8e, 0x00, 0x00, 0x00, 0x00, 0x00, 0x00,
  0x07, 0x50, 0x00, 0x00, 0x00, 0x4c, 0x8e, 0xff, 0xff, 0x10, 0x00, 0x00, 0x00,
  0x18, 0x00, 0x00, 0x00, 0x1c, 0x00, 0x00, 0x00, 0x20, 0x00, 0x00, 0x00, 0x01,
  0x00, 0x00, 0x00, 0x00, 0x00, 0x00, 0x00, 0x00, 0x00, 0x00, 0x00, 0x01, 0x00,
  0x00, 0x00, 0x0d, 0xa5, 0xbb, 0x39, 0x01, 0x00, 0x00, 0x00, 0x91, 0x23, 0x14,
  0x41, 0x01, 0x00, 0x00, 0x00, 0x96, 0xa3, 0x3b, 0xc1, 0x0d, 0x00, 0x00, 0x00,
  0x64, 0x65, 0x70, 0x74, 0x68, 0x77, 0x69, 0x73, 0x65, 0x5f, 0x33, 0x36, 0x31,
  0x00, 0x00, 0x00, 0x04, 0x00, 0x00, 0x00, 0x01, 0x00, 0x00, 0x00, 0x38, 0x04,
  0x00, 0x00, 0x86, 0x07, 0x00, 0x00, 0x05, 0x00, 0x00, 0x00, 0xd2, 0x8e, 0xff,
  0xff, 0x14, 0x00, 0x00, 0x00, 0x48, 0x00, 0x00, 0x00, 0x8d, 0x00, 0x00, 0x00,
  0x00, 0x00, 0x00, 0x07, 0x48, 0x00, 0x00, 0x00, 0xc4, 0x8e, 0xff, 0xff, 0x10,
  0x00, 0x00, 0x00, 0x18, 0x00, 0x00, 0x00, 0x1c, 0x00, 0x00, 0x00, 0x20, 0x00,
  0x00, 0x00, 0x01, 0x00, 0x00, 0x00, 0x00, 0x00, 0x00, 0x00, 0x00, 0x00, 0x00,
  0x00, 0x01, 0x00, 0x00, 0x00, 0x04, 0xf1, 0x89, 0x3a, 0x01, 0x00, 0x00, 0x00,
  0xf0, 0xef, 0x09, 0x42, 0x01, 0x00, 0x00, 0x00, 0x71, 0x2a, 0xc3, 0xc1, 0x05,
  0x00, 0x00, 0x00, 0x41, 0x64, 0x64, 0x5f, 0x35, 0x00, 0x00, 0x00, 0x04, 0x00,
  0x00, 0x00, 0x01, 0x00, 0x00, 0x00, 0x3e, 0x04, 0x00, 0x00, 0x86, 0x07, 0x00,
  0x00, 0x05, 0x00, 0x00, 0x00, 0x42, 0x8f, 0xff, 0xff, 0x14, 0x00, 0x00, 0x00,
  0x48, 0x00, 0x00, 0x00, 0x8c, 0x00, 0x00, 0x00, 0x00, 0x00, 0x00, 0x07, 0x70,
  0x00, 0x00, 0x00, 0x34, 0x8f, 0xff, 0xff, 0x10, 0x00, 0x00, 0x00, 0x18, 0x00,
  0x00, 0x00, 0x1c, 0x00, 0x00, 0x00, 0x20, 0x00, 0x00, 0x00, 0x01, 0x00, 0x00,
  0x00, 0x00, 0x00, 0x00, 0x00, 0x00, 0x00, 0x00, 0x00, 0x01, 0x00, 0x00, 0x00,
  0x81, 0x9e, 0x57, 0x3a, 0x01, 0x00, 0x00, 0x00, 0xd2, 0x9c, 0xd7, 0x41, 0x01,
  0x00, 0x00, 0x00, 0xf9, 0xcc, 0xb7, 0xc1, 0x2d, 0x00, 0x00, 0x00, 0x42, 0x69,
  0x61, 0x73, 0x41, 0x64, 0x64, 0x5f, 0x31, 0x37, 0x3b, 0x64, 0x65, 0x70, 0x74,
  0x68, 0x77, 0x69, 0x73, 0x65, 0x5f, 0x33, 0x37, 0x3b, 0x43, 0x6f, 0x6e, 0x76,
  0x32, 0x44, 0x5f, 0x31, 0x37, 0x3b, 0x63, 0x6f, 0x6e, 0x76, 0x5f, 0x36, 0x5f,
  0x31, 0x5f, 0x62, 0x31, 0x00, 0x00, 0x00, 0x04, 0x00, 0x00, 0x00, 0x01, 0x00,
  0x00, 0x00, 0x3e, 0x04, 0x00, 0x00, 0x86, 0x07, 0x00, 0x00, 0x05, 0x00, 0x00,
  0x00, 0xda, 0x8f, 0xff, 0xff, 0x14, 0x00, 0x00, 0x00, 0x48, 0x00, 0x00, 0x00,
  0x8b, 0x00, 0x00, 0x00, 0x00, 0x00, 0x00, 0x07, 0x50, 0x00, 0x00, 0x00, 0xcc,
  0x8f, 0xff, 0xff, 0x10, 0x00, 0x00, 0x00, 0x18, 0x00, 0x00, 0x00, 0x1c, 0x00,
  0x00, 0x00, 0x20, 0x00, 0x00, 0x00, 0x01, 0x00, 0x00, 0x00, 0x00, 0x00, 0x00,
  0x00, 0x00, 0x00, 0x00, 0x00, 0x01, 0x00, 0x00, 0x00, 0x5d, 0x9c, 0x05, 0x3a,
  0x01, 0x00, 0x00, 0x00, 0x52, 0x9b, 0x85, 0x41, 0x01, 0x00, 0x00, 0x00, 0xca,
  0xea, 0x1e, 0xc1, 0x0d, 0x00, 0x00, 0x00, 0x64, 0x65, 0x70, 0x74, 0x68, 0x77,
  0x69, 0x73, 0x65, 0x5f, 0x33, 0x35, 0x31, 0x00, 0x00, 0x00, 0x04, 0x00, 0x00,
  0x00, 0x01, 0x00, 0x00, 0x00, 0x3e, 0x04, 0x00, 0x00, 0x86, 0x07, 0x00, 0x00,
  0x05, 0x00, 0x00, 0x00, 0x52, 0x90, 0xff, 0xff, 0x14, 0x00, 0x00, 0x00, 0x48,
  0x00, 0x00, 0x00, 0x8a, 0x00, 0x00, 0x00, 0x00, 0x00, 0x00, 0x07, 0x50, 0x00,
  0x00, 0x00, 0x44, 0x90, 0xff, 0xff, 0x10, 0x00, 0x00, 0x00, 0x18, 0x00, 0x00,
  0x00, 0x1c, 0x00, 0x00, 0x00, 0x20, 0x00, 0x00, 0x00, 0x01, 0x00, 0x00, 0x00,
  0x00, 0x00, 0x00, 0x00, 0x00, 0x00, 0x00, 0x00, 0x01, 0x00, 0x00, 0x00, 0x63,
  0x27, 0xa0, 0x3a, 0x01, 0x00, 0x00, 0x00, 0xbb, 0xe8, 0x2f, 0x41, 0x01, 0x00,
  0x00, 0x00, 0x23, 0x26, 0x20, 0xc2, 0x0d, 0x00, 0x00, 0x00, 0x64, 0x65, 0x70,
  0x74, 0x68, 0x77, 0x69, 0x73, 0x65, 0x5f, 0x33, 0x34, 0x31, 0x00, 0x00, 0x00,
  0x04, 0x00, 0x00, 0x00, 0x01, 0x00, 0x00, 0x00, 0x3e, 0x04, 0x00, 0x00, 0x86,
  0x07, 0x00, 0x00, 0x05, 0x00, 0x00, 0x00, 0xca, 0x90, 0xff, 0xff, 0x14, 0x00,
  0x00, 0x00, 0x4c, 0x00, 0x00, 0x00, 0x89, 0x00, 0x00, 0x00, 0x00, 0x00, 0x00,
  0x07, 0x78, 0x00, 0x00, 0x00, 0xbc, 0x90, 0xff, 0xff, 0x10, 0x00, 0x00, 0x00,
  0x1c, 0x00, 0x00, 0x00, 0x20, 0x00, 0x00, 0x00, 0x24, 0x00, 0x00, 0x00, 0x01,
  0x00, 0x00, 0x00, 0x00, 0x00, 0x00, 0x00, 0x00, 0x00, 0x00, 0x00, 0x00, 0x00,
  0x00, 0x00, 0x01, 0x00, 0x00, 0x00, 0xda, 0xeb, 0x62, 0x3a, 0x01, 0x00, 0x00,
  0x00, 0x14, 0xea, 0xe2, 0x41, 0x01, 0x00, 0x00, 0x00, 0x00, 0x00, 0x00, 0x00,
  0x33, 0x00, 0x00, 0x00, 0x52, 0x65, 0x6c, 0x75, 0x5f, 0x35, 0x3b, 0x42, 0x69,
  0x61, 0x73, 0x41, 0x64, 0x64, 0x5f, 0x31, 0x36, 0x3b, 0x64, 0x65, 0x70, 0x74,
  0x68, 0x77, 0x69, 0x73, 0x65, 0x5f, 0x33, 0x37, 0x3b, 0x43, 0x6f, 0x6e, 0x76,
  0x32, 0x44, 0x5f, 0x31, 0x36, 0x3b, 0x63, 0x6f, 0x6e, 0x76, 0x5f, 0x36, 0x5f,
  0x30, 0x5f, 0x62, 0x00, 0x04, 0x00, 0x00, 0x00, 0x01, 0x00, 0x00, 0x00, 0x3e,
  0x04, 0x00, 0x00, 0x86, 0x07, 0x00, 0x00, 0x05, 0x00, 0x00, 0x00, 0x6a, 0x91,
  0xff, 0xff, 0x14, 0x00, 0x00, 0x00, 0x48, 0x00, 0x00, 0x00, 0x88, 0x00, 0x00,
  0x00, 0x00, 0x00, 0x00, 0x07, 0x50, 0x00, 0x00, 0x00, 0x5c, 0x91, 0xff, 0xff,
  0x10, 0x00, 0x00, 0x00, 0x18, 0x00, 0x00, 0x00, 0x1c, 0x00, 0x00, 0x00, 0x20,
  0x00, 0x00, 0x00, 0x01, 0x00, 0x00, 0x00, 0x00, 0x00, 0x00, 0x00, 0x00, 0x00,
  0x00, 0x00, 0x01, 0x00, 0x00, 0x00, 0xd9, 0xc1, 0x23, 0x3a, 0x01, 0x00, 0x00,
  0x00, 0x91, 0xc0, 0xa3, 0x41, 0x01, 0x00, 0x00, 0x00, 0xfe, 0x6b, 0xd2, 0xc0,
  0x0d, 0x00, 0x00, 0x00, 0x64, 0x65, 0x70, 0x74, 0x68, 0x77, 0x69, 0x73, 0x65,
  0x5f, 0x33, 0x33, 0x31, 0x00, 0x00, 0x00, 0x04, 0x00, 0x00, 0x00, 0x01, 0x00,
  0x00, 0x00, 0x3e, 0x04, 0x00, 0x00, 0x86, 0x07, 0x00, 0x00, 0x05, 0x00, 0x00,
  0x00, 0xe2, 0x91, 0xff, 0xff, 0x14, 0x00, 0x00, 0x00, 0x48, 0x00, 0x00, 0x00,
  0x87, 0x00, 0x00, 0x00, 0x00, 0x00, 0x00, 0x07, 0x50, 0x00, 0x00, 0x00, 0xd4,
  0x91, 0xff, 0xff, 0x10, 0x00, 0x00, 0x00, 0x18, 0x00, 0x00, 0x00, 0x1c, 0x00,
  0x00, 0x00, 0x20, 0x00, 0x00, 0x00, 0x01, 0x00, 0x00, 0x00, 0x00, 0x00, 0x00,
  0x00, 0x00, 0x00, 0x00, 0x00, 0x01, 0x00, 0x00, 0x00, 0x8d, 0x65, 0xb3, 0x39,
  0x01, 0x00, 0x00, 0x00, 0x26, 0x64, 0x33, 0x41, 0x01, 0x00, 0x00, 0x00, 0xfd,
  0xf5, 0xe0, 0xc0, 0x0d, 0x00, 0x00, 0x00, 0x64, 0x65, 0x70, 0x74, 0x68, 0x77,
  0x69, 0x73, 0x65, 0x5f, 0x33, 0x32, 0x31, 0x00, 0x00, 0x00, 0x04, 0x00, 0x00,
  0x00, 0x01, 0x00, 0x00, 0x00, 0x3e, 0x04, 0x00, 0x00, 0x86, 0x07, 0x00, 0x00,
  0x05, 0x00, 0x00, 0x00, 0x5a, 0x92, 0xff, 0xff, 0x14, 0x00, 0x00, 0x00, 0x48,
  0x00, 0x00, 0x00, 0x86, 0x00, 0x00, 0x00, 0x00, 0x00, 0x00, 0x07, 0x48, 0x00,
  0x00, 0x00, 0x4c, 0x92, 0xff, 0xff, 0x10, 0x00, 0x00, 0x00, 0x18, 0x00, 0x00,
  0x00, 0x1c, 0x00, 0x00, 0x00, 0x20, 0x00, 0x00, 0x00, 0x01, 0x00, 0x00, 0x00,
  0x00, 0x00, 0x00, 0x00, 0x00, 0x00, 0x00, 0x00, 0x01, 0x00, 0x00, 0x00, 0x5b,
  0x44, 0xc3, 0x39, 0x01, 0x00, 0x00, 0x00, 0xad, 0xcd, 0x0d, 0x41, 0x01, 0x00,
  0x00, 0x00, 0xd4, 0x42, 0x43, 0xc1, 0x05, 0x00, 0x00, 0x00, 0x41, 0x64, 0x64,
  0x5f, 0x34, 0x00, 0x00, 0x00, 0x04, 0x00, 0x00, 0x00, 0x01, 0x00, 0x00, 0x00,
  0x3e, 0x04, 0x00, 0x00, 0x86, 0x07, 0x00, 0x00, 0x05, 0x00, 0x00, 0x00, 0xca,
  0x92, 0xff, 0xff, 0x14, 0x00, 0x00, 0x00, 0x48, 0x00, 0x00, 0x00, 0x85, 0x00,
  0x00, 0x00, 0x00, 0x00, 0x00, 0x07, 0x70, 0x00, 0x00, 0x00, 0xbc, 0x92, 0xff,
  0xff, 0x10, 0x00, 0x00, 0x00, 0x18, 0x00, 0x00, 0x00, 0x1c, 0x00, 0x00, 0x00,
  0x20, 0x00, 0x00, 0x00, 0x01, 0x00, 0x00, 0x00, 0x00, 0x00, 0x00, 0x00, 0x00,
  0x00, 0x00, 0x00, 0x01, 0x00, 0x00, 0x00, 0x53, 0x98, 0x7e, 0x39, 0x01, 0x00,
  0x00, 0x00, 0x56, 0x96, 0xfe, 0x40, 0x01, 0x00, 0x00, 0x00, 0xae, 0x5d, 0xb6,
  0xc0, 0x2d, 0x00, 0x00, 0x00, 0x42, 0x69, 0x61, 0x73, 0x41, 0x64, 0x64, 0x5f,
  0x31, 0x35, 0x3b, 0x64, 0x65, 0x70, 0x74, 0x68, 0x77, 0x69, 0x73, 0x65, 0x5f,
  0x33, 0x37, 0x3b, 0x43, 0x6f, 0x6e, 0x76, 0x32, 0x44, 0x5f, 0x31, 0x35, 0x3b,
  0x63, 0x6f, 0x6e, 0x76, 0x5f, 0x35, 0x5f, 0x31, 0x5f, 0x62, 0x31, 0x00, 0x00,
  0x00, 0x04, 0x00, 0x00, 0x00, 0x01, 0x00, 0x00, 0x00, 0x3e, 0x04, 0x00, 0x00,
  0x86, 0x07, 0x00, 0x00, 0x05, 0x00, 0x00, 0x00, 0x62, 0x93, 0xff, 0xff, 0x14,
  0x00, 0x00, 0x00, 0x48, 0x00, 0x00, 0x00, 0x84, 0x00, 0x00, 0x00, 0x00, 0x00,
  0x00, 0x07, 0x50, 0x00, 0x00, 0x00, 0x54, 0x93, 0xff, 0xff, 0x10, 0x00, 0x00,
  0x00, 0x18, 0x00, 0x00, 0x00, 0x1c, 0x00, 0x00, 0x00, 0x20, 0x00, 0x00, 0x00,
  0x01, 0x00, 0x00, 0x00, 0x00, 0x00, 0x00, 0x00, 0x00, 0x00, 0x00, 0x00, 0x01,
  0x00, 0x00, 0x00, 0x33, 0xe4, 0xc0, 0x39, 0x01, 0x00, 0x00, 0x00, 0xb1, 0xe2,
  0x40, 0x41, 0x01, 0x00, 0x00, 0x00, 0xd5, 0x45, 0x0b, 0xc1, 0x0d, 0x00, 0x00,
  0x00, 0x64, 0x65, 0x70, 0x74, 0x68, 0x77, 0x69, 0x73, 0x65, 0x5f, 0x33, 0x31,
  0x32, 0x00, 0x00, 0x00, 0x04, 0x00, 0x00, 0x00, 0x01, 0x00, 0x00, 0x00, 0x3e,
  0x04, 0x00, 0x00, 0x86, 0x07, 0x00, 0x00, 0x07, 0x00, 0x00, 0x00, 0xda, 0x93,
  0xff, 0xff, 0x14, 0x00, 0x00, 0x00, 0x48, 0x00, 0x00, 0x00, 0x83, 0x00, 0x00,
  0x00, 0x00, 0x00, 0x00, 0x07, 0x50, 0x00, 0x00, 0x00, 0xcc, 0x93, 0xff, 0xff,
  0x10, 0x00, 0x00, 0x00, 0x18, 0x00, 0x00, 0x00, 0x1c, 0x00, 0x00, 0x00, 0x20,
  0x00, 0x00, 0x00, 0x01, 0x00, 0x00, 0x00, 0x00, 0x00, 0x00, 0x00, 0x00, 0x00,
  0x00, 0x00, 0x01, 0x00, 0x00, 0x00, 0xaf, 0x7e, 0x24, 0x3a, 0x01, 0x00, 0x00,
  0x00, 0x66, 0x7d, 0xa4, 0x41, 0x01, 0x00, 0x00, 0x00, 0x50, 0x79, 0x9b, 0xc1,
  0x0d, 0x00, 0x00, 0x00, 0x64, 0x65, 0x70, 0x74, 0x68, 0x77, 0x69, 0x73, 0x65,
  0x5f, 0x33, 0x30, 0x31, 0x00, 0x00, 0x00, 0x04, 0x00, 0x00, 0x00, 0x01, 0x00,
  0x00, 0x00, 0x3e, 0x04, 0x00, 0x00, 0x86, 0x07, 0x00, 0x00, 0x07, 0x00, 0x00,
  0x00, 0x52, 0x94, 0xff, 0xff, 0x14, 0x00, 0x00, 0x00, 0x48, 0x00, 0x00, 0x00,
  0x82, 0x00, 0x00, 0x00, 0x00, 0x00, 0x00, 0x07, 0x70, 0x00, 0x00, 0x00, 0x44,
  0x94, 0xff, 0xff, 0x10, 0x00, 0x00, 0x00, 0x18, 0x00, 0x00, 0x00, 0x1c, 0x00,
  0x00, 0x00, 0x20, 0x00, 0x00, 0x00, 0x01, 0x00, 0x00, 0x00, 0x00, 0x00, 0x00,
  0x00, 0x00, 0x00, 0x00, 0x00, 0x01, 0x00, 0x00, 0x00, 0x0a, 0xb2, 0x9a, 0x39,
  0x01, 0x00, 0x00, 0x00, 0x6b, 0x14, 0xce, 0x40, 0x01, 0x00, 0x00, 0x00, 0xd5,
  0xb0, 0x1a, 0xc1, 0x2c, 0x00, 0x00, 0x00, 0x42, 0x69, 0x61, 0x73, 0x41, 0x64,
  0x64, 0x5f, 0x31, 0x34, 0x3b, 0x64, 0x65, 0x70, 0x74, 0x68, 0x77, 0x69, 0x73,
  0x65, 0x5f, 0x33, 0x37, 0x3b, 0x43, 0x6f, 0x6e, 0x76, 0x32, 0x44, 0x5f, 0x31,
  0x34, 0x3b, 0x63, 0x6f, 0x6e, 0x76, 0x5f, 0x35, 0x5f, 0x31, 0x5f, 0x62, 0x00,
  0x00, 0x00, 0x00, 0x04, 0x00, 0x00, 0x00, 0x01, 0x00, 0x00, 0x00, 0x3e, 0x04,
  0x00, 0x00, 0x86, 0x07, 0x00, 0x00, 0x05, 0x00, 0x00, 0x00, 0xea, 0x94, 0xff,
  0xff, 0x14, 0x00, 0x00, 0x00, 0x48, 0x00, 0x00, 0x00, 0x81, 0x00, 0x00, 0x00,
  0x00, 0x00, 0x00, 0x07, 0x50, 0x00, 0x00, 0x00, 0xdc, 0x94, 0xff, 0xff, 0x10,
  0x00, 0x00, 0x00, 0x18, 0x00, 0x00, 0x00, 0x1c, 0x00, 0x00, 0x00, 0x20, 0x00,
  0x00, 0x00, 0x01, 0x00, 0x00, 0x00, 0x00, 0x00, 0x00, 0x00, 0x00, 0x00, 0x00,
  0x00, 0x01, 0x00, 0x00, 0x00, 0x7f, 0xeb, 0x85, 0x39, 0x01, 0x00, 0x00, 0x00,
  0xca, 0xd0, 0x04, 0x41, 0x01, 0x00, 0x00, 0x00, 0x73, 0xea, 0x05, 0xc1, 0x0d,
  0x00, 0x00, 0x00, 0x64, 0x65, 0x70, 0x74, 0x68, 0x77, 0x69, 0x73, 0x65, 0x5f,
  0x32, 0x39, 0x31, 0x00, 0x00, 0x00, 0x04, 0x00, 0x00, 0x00, 0x01, 0x00, 0x00,
  0x00, 0x3e, 0x04, 0x00, 0x00, 0x86, 0x07, 0x00, 0x00, 0x05, 0x00, 0x00, 0x00,
  0x62, 0x95, 0xff, 0xff, 0x14, 0x00, 0x00, 0x00, 0x48, 0x00, 0x00, 0x00, 0x80,
  0x00, 0x00, 0x00, 0x00, 0x00, 0x00, 0x07, 0x50, 0x00, 0x00, 0x00, 0x54, 0x95,
  0xff, 0xff, 0x10, 0x00, 0x00, 0x00, 0x18, 0x00, 0x00, 0x00, 0x1c, 0x00, 0x00,
  0x00, 0x20, 0x00, 0x00, 0x00, 0x01, 0x00, 0x00, 0x00, 0x00, 0x00, 0x00, 0x00,
  0x00, 0x00, 0x00, 0x00, 0x01, 0x00, 0x00, 0x00, 0x5b, 0xc8, 0xdf, 0x39, 0x01,
  0x00, 0x00, 0x00, 0x9b, 0xc6, 0x5f, 0x41, 0x01, 0x00, 0x00, 0x00, 0x20, 0xe4,
  0x66, 0xc0, 0x0d, 0x00, 0x00, 0x00, 0x64, 0x65, 0x70, 0x74, 0x68, 0x77, 0x69,
  0x73, 0x65, 0x5f, 0x32, 0x38, 0x31, 0x00, 0x00, 0x00, 0x04, 0x00, 0x00, 0x00,
  0x01, 0x00, 0x00, 0x00, 0x3e, 0x04, 0x00, 0x00, 0x86, 0x07, 0x00, 0x00, 0x05,
  0x00, 0x00, 0x00, 0xda, 0x95, 0xff, 0xff, 0x14, 0x00, 0x00, 0x00, 0x4c, 0x00,
  0x00, 0x00, 0x7f, 0x00, 0x00, 0x00, 0x00, 0x00, 0x00, 0x07, 0x78, 0x00, 0x00,
  0x00, 0xcc, 0x95, 0xff, 0xff, 0x10, 0x00, 0x00, 0x00, 0x1c, 0x00, 0x00, 0x00,
  0x20, 0x00, 0x00, 0x00, 0x24, 0x00, 0x00, 0x00, 0x01, 0x00, 0x00, 0x00, 0x00,
  0x00, 0x00, 0x00, 0x00, 0x00, 0x00, 0x00, 0x00, 0x00, 0x00, 0x00, 0x01, 0x00,
  0x00, 0x00, 0x55, 0xa4, 0x03, 0x3a, 0x01, 0x00, 0x00, 0x00, 0x4e, 0xa3, 0x83,
  0x41, 0x01, 0x00, 0x00, 0x00, 0x00, 0x00, 0x00, 0x00, 0x33, 0x00, 0x00, 0x00,
  0x52, 0x65, 0x6c, 0x75, 0x5f, 0x34, 0x3b, 0x42, 0x69, 0x61, 0x73, 0x41, 0x64,
  0x64, 0x5f, 0x31, 0x33, 0x3b, 0x64, 0x65, 0x70, 0x74, 0x68, 0x77, 0x69, 0x73,
  0x65, 0x5f, 0x33, 0x37, 0x3b, 0x43, 0x6f, 0x6e, 0x76, 0x32, 0x44, 0x5f, 0x31,
  0x33, 0x3b, 0x63, 0x6f, 0x6e, 0x76, 0x5f, 0x35, 0x5f, 0x30, 0x5f, 0x62, 0x00,
  0x04, 0x00, 0x00, 0x00, 0x01, 0x00, 0x00, 0x00, 0x3e, 0x04, 0x00, 0x00, 0x86,
  0x07, 0x00, 0x00, 0x05, 0x00, 0x00, 0x00, 0x7a, 0x96, 0xff, 0xff, 0x14, 0x00,
  0x00, 0x00, 0x48, 0x00, 0x00, 0x00, 0x7e, 0x00, 0x00, 0x00, 0x00, 0x00, 0x00,
  0x07, 0x50, 0x00, 0x00, 0x00, 0x6c, 0x96, 0xff, 0xff, 0x10, 0x00, 0x00, 0x00,
  0x18, 0x00, 0x00, 0x00, 0x1c, 0x00, 0x00, 0x00, 0x20, 0x00, 0x00, 0x00, 0x01,
  0x00, 0x00, 0x00, 0x00, 0x00, 0x00, 0x00, 0x00, 0x00, 0x00, 0x00, 0x01, 0x00,
  0x00, 0x00, 0xd1, 0x65, 0x58, 0x3a, 0x01, 0x00, 0x00, 0x00, 0x20, 0x64, 0xd8,
  0x41, 0x01, 0x00, 0x00, 0x00, 0x22, 0xa5, 0x2b, 0xc1, 0x0d, 0x00, 0x00, 0x00,
  0x64, 0x65, 0x70, 0x74, 0x68, 0x77, 0x69, 0x73, 0x65, 0x5f, 0x32, 0x37, 0x31,
  0x00, 0x00, 0x00, 0x04, 0x00, 0x00, 0x00, 0x01, 0x00, 0x00, 0x00, 0x3e, 0x04,
  0x00, 0x00, 0x86, 0x07, 0x00, 0x00, 0x07, 0x00, 0x00, 0x00, 0xf2, 0x96, 0xff,
  0xff, 0x14, 0x00, 0x00, 0x00, 0x48, 0x00, 0x00, 0x00, 0x7d, 0x00, 0x00, 0x00,
  0x00, 0x00, 0x00, 0x07, 0x50, 0x00, 0x00, 0x00, 0xe4, 0x96, 0xff, 0xff, 0x10,
  0x00, 0x00, 0x00, 0x18, 0x00, 0x00, 0x00, 0x1c, 0x00, 0x00, 0x00, 0x20, 0x00,
  0x00, 0x00, 0x01, 0x00, 0x00, 0x00, 0x00, 0x00, 0x00, 0x00, 0x00, 0x00, 0x00,
  0x00, 0x01, 0x00, 0x00, 0x00, 0xeb, 0x4e, 0x74, 0x3a, 0x01, 0x00, 0x00, 0x00,
  0x02, 0x4d, 0xf4, 0x41, 0x01, 0x00, 0x00, 0x00, 0xdc, 0x4d, 0xf0, 0xc1, 0x0d,
  0x00, 0x00, 0x00, 0x64, 0x65, 0x70, 0x74, 0x68, 0x77, 0x69, 0x73, 0x65, 0x5f,
  0x32, 0x36, 0x31, 0x00, 0x00, 0x00, 0x04, 0x00, 0x00, 0x00, 0x01, 0x00, 0x00,
  0x00, 0x3e, 0x04, 0x00, 0x00, 0x86, 0x07, 0x00, 0x00, 0x07, 0x00, 0x00, 0x00,
  0x6a, 0x97, 0xff, 0xff, 0x14, 0x00, 0x00, 0x00, 0x48, 0x00, 0x00, 0x00, 0x7c,
  0x00, 0x00, 0x00, 0x00, 0x00, 0x00, 0x07, 0x48, 0x00, 0x00, 0x00, 0x5c, 0x97,
  0xff, 0xff, 0x10, 0x00, 0x00, 0x00, 0x18, 0x00, 0x00, 0x00, 0x1c, 0x00, 0x00,
  0x00, 0x20, 0x00, 0x00, 0x00, 0x01, 0x00, 0x00, 0x00, 0x00, 0x00, 0x00, 0x00,
  0x00, 0x00, 0x00, 0x00, 0x01, 0x00, 0x00, 0x00, 0xba, 0xb3, 0x93, 0x3a, 0x01,
  0x00, 0x00, 0x00, 0x93, 0xb2, 0x13, 0x42, 0x01, 0x00, 0x00, 0x00, 0xeb, 0xd8,
  0xd2, 0xc1, 0x05, 0x00, 0x00, 0x00, 0x41, 0x64, 0x64, 0x5f, 0x33, 0x00, 0x00,
  0x00, 0x04, 0x00, 0x00, 0x00, 0x01, 0x00, 0x00, 0x00, 0x3e, 0x04, 0x00, 0x00,
  0x86, 0x07, 0x00, 0x00, 0x07, 0x00, 0x00, 0x00, 0xda, 0x97, 0xff, 0xff, 0x14,
  0x00, 0x00, 0x00, 0x48, 0x00, 0x00, 0x00, 0x7b, 0x00, 0x00, 0x00, 0x00, 0x00,
  0x00, 0x07, 0x70, 0x00, 0x00, 0x00, 0xcc, 0x97, 0xff, 0xff, 0x10, 0x00, 0x00,
  0x00, 0x18, 0x00, 0x00, 0x00, 0x1c, 0x00, 0x00, 0x00, 0x20, 0x00, 0x00, 0x00,
  0x01, 0x00, 0x00, 0x00, 0x00, 0x00, 0x00, 0x00, 0x00, 0x00, 0x00, 0x00, 0x01,
  0x00, 0x00, 0x00, 0x9d, 0x5d, 0x83, 0x3a, 0x01, 0x00, 0x00, 0x00, 0x96, 0x5c,
  0x03, 0x42, 0x01, 0x00, 0x00, 0x00, 0x9b, 0x95, 0x02, 0xc2, 0x2d, 0x00, 0x00,
  0x00, 0x42, 0x69, 0x61, 0x73, 0x41, 0x64, 0x64, 0x5f, 0x31, 0x32, 0x3b, 0x64,
  0x65, 0x70, 0x74, 0x68, 0x77, 0x69, 0x73, 0x65, 0x5f, 0x33, 0x31, 0x3b, 0x43,
  0x6f, 0x6e, 0x76, 0x32, 0x44, 0x5f, 0x31, 0x32, 0x3b, 0x63, 0x6f, 0x6e, 0x76,
  0x5f, 0x34, 0x5f, 0x31, 0x5f, 0x62, 0x31, 0x00, 0x00, 0x00, 0x04, 0x00, 0x00,
  0x00, 0x01, 0x00, 0x00, 0x00, 0x3e, 0x04, 0x00, 0x00, 0x86, 0x07, 0x00, 0x00,
  0x07, 0x00, 0x00, 0x00, 0x72, 0x98, 0xff, 0xff, 0x14, 0x00, 0x00, 0x00, 0x48,
  0x00, 0x00, 0x00, 0x7a, 0x00, 0x00, 0x00, 0x00, 0x00, 0x00, 0x07, 0x50, 0x00,
  0x00, 0x00, 0x64, 0x98, 0xff, 0xff, 0x10, 0x00, 0x00, 0x00, 0x18, 0x00, 0x00,
  0x00, 0x1c, 0x00, 0x00, 0x00, 0x20, 0x00, 0x00, 0x00, 0x01, 0x00, 0x00, 0x00,
  0x00, 0x00, 0x00, 0x00, 0x00, 0x00, 0x00, 0x00, 0x01, 0x00, 0x00, 0x00, 0x92,
  0x7e, 0x9c, 0x3a, 0x01, 0x00, 0x00, 0x00, 0x59, 0x7d, 0x1c, 0x42, 0x01, 0x00,
  0x00, 0x00, 0xd6, 0x61, 0x1c, 0xc2, 0x0d, 0x00, 0x00, 0x00, 0x64, 0x65, 0x70,
  0x74, 0x68, 0x77, 0x69, 0x73, 0x65, 0x5f, 0x32, 0x35, 0x32, 0x00, 0x00, 0x00,
  0x04, 0x00, 0x00, 0x00, 0x01, 0x00, 0x00, 0x00, 0x3e, 0x04, 0x00, 0x00, 0x86,
  0x07, 0x00, 0x00, 0x09, 0x00, 0x00, 0x00, 0xea, 0x98, 0xff, 0xff, 0x14, 0x00,
  0x00, 0x00, 0x48, 0x00, 0x00, 0x00, 0x79, 0x00, 0x00, 0x00, 0x00, 0x00, 0x00,
  0x07, 0x50, 0x00, 0x00, 0x00, 0xdc, 0x98, 0xff, 0xff, 0x10, 0x00, 0x00, 0x00,
  0x18, 0x00, 0x00, 0x00, 0x1c, 0x00, 0x00, 0x00, 0x20, 0x00, 0x00, 0x00, 0x01,
  0x00, 0x00, 0x00, 0x00, 0x00, 0x00, 0x00, 0x00, 0x00, 0x00, 0x00, 0x01, 0x00,
  0x00, 0x00, 0xe6, 0x3e, 0xc5, 0x3a, 0x01, 0x00, 0x00, 0x00, 0x5c, 0x3d, 0x45,
  0x42, 0x01, 0x00, 0x00, 0x00, 0x47, 0xc6, 0x32, 0xc2, 0x0d, 0x00, 0x00, 0x00,
  0x64, 0x65, 0x70, 0x74, 0x68, 0x77, 0x69, 0x73, 0x65, 0x5f, 0x32, 0x34, 0x31,
  0x00, 0x00, 0x00, 0x04, 0x00, 0x00, 0x00, 0x01, 0x00, 0x00, 0x00, 0x3e, 0x04,
  0x00, 0x00, 0x86, 0x07, 0x00, 0x00, 0x09, 0x00, 0x00, 0x00, 0x62, 0x99, 0xff,
  0xff, 0x14, 0x00, 0x00, 0x00, 0x48, 0x00, 0x00, 0x00, 0x78, 0x00, 0x00, 0x00,
  0x00, 0x00, 0x00, 0x07, 0x70, 0x00, 0x00, 0x00, 0x54, 0x99, 0xff, 0xff, 0x10,
  0x00, 0x00, 0x00, 0x18, 0x00, 0x00, 0x00, 0x1c, 0x00, 0x00, 0x00, 0x20, 0x00,
  0x00, 0x00, 0x01, 0x00, 0x00, 0x00, 0x00, 0x00, 0x00, 0x00, 0x00, 0x00, 0x00,
  0x00, 0x01, 0x00, 0x00, 0x00, 0x48, 0xcd, 0x44, 0x3a, 0x01, 0x00, 0x00, 0x00,
  0xbe, 0xcb, 0xc4, 0x41, 0x01, 0x00, 0x00, 0x00, 0x9c, 0x1c, 0x5a, 0xc1, 0x2c,
  0x00, 0x00, 0x00, 0x42, 0x69, 0x61, 0x73, 0x41, 0x64, 0x64, 0x5f, 0x31, 0x31,
  0x3b, 0x64, 0x65, 0x70, 0x74, 0x68, 0x77, 0x69, 0x73, 0x65, 0x5f, 0x33, 0x31,
  0x3b, 0x43, 0x6f, 0x6e, 0x76, 0x32, 0x44, 0x5f, 0x31, 0x31, 0x3b, 0x63, 0x6f,
  0x6e, 0x76, 0x5f, 0x34, 0x5f, 0x31, 0x5f, 0x62, 0x00, 0x00, 0x00, 0x00, 0x04,
  0x00, 0x00, 0x00, 0x01, 0x00, 0x00, 0x00, 0x3e, 0x04, 0x00, 0x00, 0x86, 0x07,
  0x00, 0x00, 0x07, 0x00, 0x00, 0x00, 0xfa, 0x99, 0xff, 0xff, 0x14, 0x00, 0x00,
  0x00, 0x48, 0x00, 0x00, 0x00, 0x77, 0x00, 0x00, 0x00, 0x00, 0x00, 0x00, 0x07,
  0x50, 0x00, 0x00, 0x00, 0xec, 0x99, 0xff, 0xff, 0x10, 0x00, 0x00, 0x00, 0x18,
  0x00, 0x00, 0x00, 0x1c, 0x00, 0x00, 0x00, 0x20, 0x00, 0x00, 0x00, 0x01, 0x00,
  0x00, 0x00, 0x00, 0x00, 0x00, 0x00, 0x00, 0x00, 0x00, 0x00, 0x01, 0x00, 0x00,
  0x00, 0xf4, 0xec, 0x17, 0x3a, 0x01, 0x00, 0x00, 0x00, 0x7e, 0x9f, 0x4e, 0x41,
  0x01, 0x00, 0x00, 0x00, 0xc4, 0xeb, 0x97, 0xc1, 0x0d, 0x00, 0x00, 0x00, 0x64,
  0x65, 0x70, 0x74, 0x68, 0x77, 0x69, 0x73, 0x65, 0x5f, 0x32, 0x33, 0x31, 0x00,
  0x00, 0x00, 0x04, 0x00, 0x00, 0x00, 0x01, 0x00, 0x00, 0x00, 0x3e, 0x04, 0x00,
  0x00, 0x86, 0x07, 0x00, 0x00, 0x07, 0x00, 0x00, 0x00, 0x72, 0x9a, 0xff, 0xff,
  0x14, 0x00, 0x00, 0x00, 0x48, 0x00, 0x00, 0x00, 0x76, 0x00, 0x00, 0x00, 0x00,
  0x00, 0x00, 0x07, 0x50, 0x00, 0x00, 0x00, 0x64, 0x9a, 0xff, 0xff, 0x10, 0x00,
  0x00, 0x00, 0x18, 0x00, 0x00, 0x00, 0x1c, 0x00, 0x00, 0x00, 0x20, 0x00, 0x00,
  0x00, 0x01, 0x00, 0x00, 0x00, 0x00, 0x00, 0x00, 0x00, 0x00, 0x00, 0x00, 0x00,
  0x01, 0x00, 0x00, 0x00, 0x5f, 0x60, 0x19, 0x3a, 0x01, 0x00, 0x00, 0x00, 0x2c,
  0x5f, 0x99, 0x41, 0x01, 0x00, 0x00, 0x00, 0x7c, 0x52, 0x2f, 0xc1, 0x0d, 0x00,
  0x00, 0x00, 0x64, 0x65, 0x70, 0x74, 0x68, 0x77, 0x69, 0x73, 0x65, 0x5f, 0x32,
  0x32, 0x31, 0x00, 0x00, 0x00, 0x04, 0x00, 0x00, 0x00, 0x01, 0x00, 0x00, 0x00,
  0x3e, 0x04, 0x00, 0x00, 0x86, 0x07, 0x00, 0x00, 0x07, 0x00, 0x00, 0x00, 0xea,
  0x9a, 0xff, 0xff, 0x14, 0x00, 0x00, 0x00, 0x4c, 0x00, 0x00, 0x00, 0x75, 0x00,
  0x00, 0x00, 0x00, 0x00, 0x00, 0x07, 0x78, 0x00, 0x00, 0x00, 0xdc, 0x9a, 0xff,
  0xff, 0x10, 0x00, 0x00, 0x00, 0x1c, 0x00, 0x00, 0x00, 0x20, 0x00, 0x00, 0x00,
  0x24, 0x00, 0x00, 0x00, 0x01, 0x00, 0x00, 0x00, 0x00, 0x00, 0x00, 0x00, 0x00,
