const unsigned char sr3by2_3_tflite[] = {
  0x20, 0x00, 0x00, 0x00, 0x54, 0x46, 0x4c, 0x33, 0x00, 0x00, 0x00, 0x00, 0x00,
  0x00, 0x12, 0x00, 0x1c, 0x00, 0x18, 0x00, 0x14, 0x00, 0x10, 0x00, 0x0c, 0x00,
  0x08, 0x00, 0x00, 0x00, 0x04, 0x00, 0x12, 0x00, 0x00, 0x00, 0x18, 0x00, 0x00,
  0x00, 0x48, 0x00, 0x00, 0x00, 0x34, 0x1d, 0x00, 0x00, 0x44, 0x1d, 0x00, 0x00,
  0xb4, 0xa4, 0x00, 0x00, 0x03, 0x00, 0x00, 0x00, 0x01, 0x00, 0x00, 0x00, 0x0c,
  0x00, 0x00, 0x00, 0x08, 0x00, 0x0c, 0x00, 0x08, 0x00, 0x04, 0x00, 0x08, 0x00,
  0x00, 0x00, 0x91, 0x00, 0x00, 0x00, 0x04, 0x00, 0x00, 0x00, 0x13, 0x00, 0x00,
  0x00, 0x6d, 0x69, 0x6e, 0x5f, 0x72, 0x75, 0x6e, 0x74, 0x69, 0x6d, 0x65, 0x5f,
  0x76, 0x65, 0x72, 0x73, 0x69, 0x6f, 0x6e, 0x00, 0x92, 0x00, 0x00, 0x00, 0xe8,
  0x1c, 0x00, 0x00, 0xe0, 0x1c, 0x00, 0x00, 0xa8, 0x1c, 0x00, 0x00, 0x68, 0x1c,
  0x00, 0x00, 0x20, 0x1c, 0x00, 0x00, 0xc8, 0x1b, 0x00, 0x00, 0x58, 0x1b, 0x00,
  0x00, 0xd0, 0x1a, 0x00, 0x00, 0xa0, 0x1a, 0x00, 0x00, 0x88, 0x1a, 0x00, 0x00,
  0x70, 0x1a, 0x00, 0x00, 0x4c, 0x1a, 0x00, 0x00, 0xd8, 0x19, 0x00, 0x00, 0x64,
  0x19, 0x00, 0x00, 0x28, 0x18, 0x00, 0x00, 0xcc, 0x17, 0x00, 0x00, 0x70, 0x17,
  0x00, 0x00, 0x7c, 0x16, 0x00, 0x00, 0x08, 0x16, 0x00, 0x00, 0x58, 0x15, 0x00,
  0x00, 0xe4, 0x14, 0x00, 0x00, 0xa8, 0x13, 0x00, 0x00, 0x4c, 0x13, 0x00, 0x00,
  0xf0, 0x12, 0x00, 0x00, 0x2c, 0x12, 0x00, 0x00, 0xe0, 0x11, 0x00, 0x00, 0x94,
  0x11, 0x00, 0x00, 0xf4, 0x10, 0x00, 0x00, 0x98, 0x10, 0x00, 0x00, 0x10, 0x10,
  0x00, 0x00, 0xb4, 0x0f, 0x00, 0x00, 0xf0, 0x0e, 0x00, 0x00, 0xa4, 0x0e, 0x00,
  0x00, 0x58, 0x0e, 0x00, 0x00, 0xdc, 0x0d, 0x00, 0x00, 0x9c, 0x0d, 0x00, 0x00,
  0x5c, 0x0d, 0x00, 0x00, 0xf8, 0x0c, 0x00, 0x00, 0xac, 0x0c, 0x00, 0x00, 0x3c,
  0x0c, 0x00, 0x00, 0xf0, 0x0b, 0x00, 0x00, 0x74, 0x0b, 0x00, 0x00, 0x34, 0x0b,
  0x00, 0x00, 0xf4, 0x0a, 0x00, 0x00, 0xa4, 0x0a, 0x00, 0x00, 0x70, 0x0a, 0x00,
  0x00, 0x3c, 0x0a, 0x00, 0x00, 0xf8, 0x09, 0x00, 0x00, 0xb8, 0x09, 0x00, 0x00,
  0x60, 0x09, 0x00, 0x00, 0x20, 0x09, 0x00, 0x00, 0xd0, 0x08, 0x00, 0x00, 0x9c,
  0x08, 0x00, 0x00, 0x68, 0x08, 0x00, 0x00, 0x34, 0x08, 0x00, 0x00, 0x08, 0x08,
  0x00, 0x00, 0xdc, 0x07, 0x00, 0x00, 0xb0, 0x07, 0x00, 0x00, 0x7c, 0x07, 0x00,
  0x00, 0x34, 0x07, 0x00, 0x00, 0x00, 0x07, 0x00, 0x00, 0xcc, 0x06, 0x00, 0x00,
  0xa0, 0x06, 0x00, 0x00, 0x74, 0x06, 0x00, 0x00, 0x48, 0x06, 0x00, 0x00, 0x1c,
  0x06, 0x00, 0x00, 0xf0, 0x05, 0x00, 0x00, 0xc4, 0x05, 0x00, 0x00, 0x90, 0x05,
  0x00, 0x00, 0x58, 0x05, 0x00, 0x00, 0x24, 0x05, 0x00, 0x00, 0x0c, 0x05, 0x00,
  0x00, 0xf4, 0x04, 0x00, 0x00, 0x44, 0x04, 0x00, 0x00, 0xbc, 0x03, 0x00, 0x00,
  0x4c, 0x03, 0x00, 0x00, 0xf4, 0x02, 0x00, 0x00, 0xac, 0x02, 0x00, 0x00, 0x74,
  0x02, 0x00, 0x00, 0x3c, 0x02, 0x00, 0x00, 0x24, 0x02, 0x00, 0x00, 0x1c, 0x02,
  0x00, 0x00, 0x14, 0x02, 0x00, 0x00, 0x0c, 0x02, 0x00, 0x00, 0x04, 0x02, 0x00,
  0x00, 0xfc, 0x01, 0x00, 0x00, 0xf4, 0x01, 0x00, 0x00, 0xec, 0x01, 0x00, 0x00,
  0xe4, 0x01, 0x00, 0x00, 0xdc, 0x01, 0x00, 0x00, 0xd4, 0x01, 0x00, 0x00, 0xcc,
  0x01, 0x00, 0x00, 0xc4, 0x01, 0x00, 0x00, 0xbc, 0x01, 0x00, 0x00, 0xb4, 0x01,
  0x00, 0x00, 0xac, 0x01, 0x00, 0x00, 0xa4, 0x01, 0x00, 0x00, 0x9c, 0x01, 0x00,
  0x00, 0x94, 0x01, 0x00, 0x00, 0x8c, 0x01, 0x00, 0x00, 0x84, 0x01, 0x00, 0x00,
  0x7c, 0x01, 0x00, 0x00, 0x74, 0x01, 0x00, 0x00, 0x6c, 0x01, 0x00, 0x00, 0x64,
  0x01, 0x00, 0x00, 0x5c, 0x01, 0x00, 0x00, 0x54, 0x01, 0x00, 0x00, 0x4c, 0x01,
  0x00, 0x00, 0x44, 0x01, 0x00, 0x00, 0x3c, 0x01, 0x00, 0x00, 0x34, 0x01, 0x00,
  0x00, 0x2c, 0x01, 0x00, 0x00, 0x24, 0x01, 0x00, 0x00, 0x1c, 0x01, 0x00, 0x00,
  0x14, 0x01, 0x00, 0x00, 0x0c, 0x01, 0x00, 0x00, 0x04, 0x01, 0x00, 0x00, 0xfc,
  0x00, 0x00, 0x00, 0xf4, 0x00, 0x00, 0x00, 0xec, 0x00, 0x00, 0x00, 0xe4, 0x00,
  0x00, 0x00, 0xdc, 0x00, 0x00, 0x00, 0xd4, 0x00, 0x00, 0x00, 0xcc, 0x00, 0x00,
  0x00, 0xc4, 0x00, 0x00, 0x00, 0xbc, 0x00, 0x00, 0x00, 0xb4, 0x00, 0x00, 0x00,
  0xac, 0x00, 0x00, 0x00, 0xa4, 0x00, 0x00, 0x00, 0x9c, 0x00, 0x00, 0x00, 0x94,
  0x00, 0x00, 0x00, 0x8c, 0x00, 0x00, 0x00, 0x84, 0x00, 0x00, 0x00, 0x7c, 0x00,
  0x00, 0x00, 0x74, 0x00, 0x00, 0x00, 0x6c, 0x00, 0x00, 0x00, 0x64, 0x00, 0x00,
  0x00, 0x5c, 0x00, 0x00, 0x00, 0x54, 0x00, 0x00, 0x00, 0x4c, 0x00, 0x00, 0x00,
  0x44, 0x00, 0x00, 0x00, 0x3c, 0x00, 0x00, 0x00, 0x34, 0x00, 0x00, 0x00, 0x2c,
  0x00, 0x00, 0x00, 0x24, 0x00, 0x00, 0x00, 0x04, 0x00, 0x00, 0x00, 0x9e, 0xe5,
  0xff, 0xff, 0x04, 0x00, 0x00, 0x00, 0x10, 0x00, 0x00, 0x00, 0x31, 0x2e, 0x35,
  0x2e, 0x30, 0x00, 0x00, 0x00, 0x00, 0x00, 0x00, 0x00, 0x00, 0x00, 0x00, 0x00,
  0xd8, 0x62, 0xff, 0xff, 0xdc, 0x62, 0xff, 0xff, 0xe0, 0x62, 0xff, 0xff, 0xe4,
  0x62, 0xff, 0xff, 0xe8, 0x62, 0xff, 0xff, 0xec, 0x62, 0xff, 0xff, 0xf0, 0x62,
  0xff, 0xff, 0xf4, 0x62, 0xff, 0xff, 0xf8, 0x62, 0xff, 0xff, 0xfc, 0x62, 0xff,
  0xff, 0x00, 0x63, 0xff, 0xff, 0x04, 0x63, 0xff, 0xff, 0x08, 0x63, 0xff, 0xff,
  0x0c, 0x63, 0xff, 0xff, 0x10, 0x63, 0xff, 0xff, 0x14, 0x63, 0xff, 0xff, 0x18,
  0x63, 0xff, 0xff, 0x1c, 0x63, 0xff, 0xff, 0x20, 0x63, 0xff, 0xff, 0x24, 0x63,
  0xff, 0xff, 0x28, 0x63, 0xff, 0xff, 0x2c, 0x63, 0xff, 0xff, 0x30, 0x63, 0xff,
  0xff, 0x34, 0x63, 0xff, 0xff, 0x38, 0x63, 0xff, 0xff, 0x3c, 0x63, 0xff, 0xff,
  0x40, 0x63, 0xff, 0xff, 0x44, 0x63, 0xff, 0xff, 0x48, 0x63, 0xff, 0xff, 0x4c,
  0x63, 0xff, 0xff, 0x50, 0x63, 0xff, 0xff, 0x54, 0x63, 0xff, 0xff, 0x58, 0x63,
  0xff, 0xff, 0x5c, 0x63, 0xff, 0xff, 0x60, 0x63, 0xff, 0xff, 0x64, 0x63, 0xff,
  0xff, 0x68, 0x63, 0xff, 0xff, 0x6c, 0x63, 0xff, 0xff, 0x70, 0x63, 0xff, 0xff,
  0x74, 0x63, 0xff, 0xff, 0x78, 0x63, 0xff, 0xff, 0x7c, 0x63, 0xff, 0xff, 0x80,
  0x63, 0xff, 0xff, 0x84, 0x63, 0xff, 0xff, 0x88, 0x63, 0xff, 0xff, 0x8c, 0x63,
  0xff, 0xff, 0x90, 0x63, 0xff, 0xff, 0x94, 0x63, 0xff, 0xff, 0x98, 0x63, 0xff,
  0xff, 0x9c, 0x63, 0xff, 0xff, 0xa0, 0x63, 0xff, 0xff, 0xa4, 0x63, 0xff, 0xff,
  0xa8, 0x63, 0xff, 0xff, 0xac, 0x63, 0xff, 0xff, 0xb0, 0x63, 0xff, 0xff, 0xb4,
  0x63, 0xff, 0xff, 0xb8, 0x63, 0xff, 0xff, 0xbc, 0x63, 0xff, 0xff, 0xc0, 0x63,
  0xff, 0xff, 0xc4, 0x63, 0xff, 0xff, 0xc8, 0x63, 0xff, 0xff, 0xcc, 0x63, 0xff,
  0xff, 0xd0, 0x63, 0xff, 0xff, 0xd4, 0x63, 0xff, 0xff, 0xba, 0xe6, 0xff, 0xff,
  0x04, 0x00, 0x00, 0x00, 0x08, 0x00, 0x00, 0x00, 0x6e, 0xdc, 0xff, 0xff, 0xff,
  0xff, 0xff, 0xff, 0xce, 0xe6, 0xff, 0xff, 0x04, 0x00, 0x00, 0x00, 0x28, 0x00,
  0x00, 0x00, 0x9b, 0x18, 0x00, 0x00, 0x00, 0x00, 0x00, 0x00, 0x93, 0xe4, 0xff,
  0xff, 0xff, 0xff, 0xff, 0xff, 0x67, 0xa8, 0x00, 0x00, 0x00, 0x00, 0x00, 0x00,
  0x8e, 0x7b, 0x00, 0x00, 0x00, 0x00, 0x00, 0x00, 0xb0, 0xce, 0xff, 0xff, 0xff,
  0xff, 0xff, 0xff, 0x02, 0xe7, 0xff, 0xff, 0x04, 0x00, 0x00, 0x00, 0x28, 0x00,
  0x00, 0x00, 0xe6, 0xe5, 0xff, 0xff, 0xff, 0xff, 0xff, 0xff, 0x66, 0x14, 0x00,
  0x00, 0x00, 0x00, 0x00, 0x00, 0xcf, 0x0e, 0x00, 0x00, 0x00, 0x00, 0x00, 0x00,
  0x67, 0x1f, 0x00, 0x00, 0x00, 0x00, 0x00, 0x00, 0xd8, 0x0e, 0x00, 0x00, 0x00,
  0x00, 0x00, 0x00, 0x36, 0xe7, 0xff, 0xff, 0x04, 0x00, 0x00, 0x00, 0x38, 0x00,
  0x00, 0x00, 0x20, 0xd5, 0xff, 0xff, 0xff, 0xff, 0xff, 0xff, 0x58, 0xac, 0x00,
  0x00, 0x00, 0x00, 0x00, 0x00, 0x20, 0xe4, 0x00, 0x00, 0x00, 0x00, 0x00, 0x00,
  0xc6, 0x42, 0x00, 0x00, 0x00, 0x00, 0x00, 0x00, 0x6c, 0x11, 0x00, 0x00, 0x00,
  0x00, 0x00, 0x00, 0xd0, 0x55, 0x00, 0x00, 0x00, 0x00, 0x00, 0x00, 0x49, 0x55,
  0x00, 0x00, 0x00, 0x00, 0x00, 0x00, 0x7a, 0xe7, 0xff, 0xff, 0x04, 0x00, 0x00,
  0x00, 0x48, 0x00, 0x00, 0x00, 0x0c, 0xc0, 0x00, 0x00, 0x00, 0x00, 0x00, 0x00,
  0x5c, 0x47, 0x00, 0x00, 0x00, 0x00, 0x00, 0x00, 0xb6, 0x4e, 0x00, 0x00, 0x00,
  0x00, 0x00, 0x00, 0x60, 0x7d, 0x00, 0x00, 0x00, 0x00, 0x00, 0x00, 0xdc, 0x14,
  0x00, 0x00, 0x00, 0x00, 0x00, 0x00, 0x24, 0x60, 0x00, 0x00, 0x00, 0x00, 0x00,
  0x00, 0xf8, 0xac, 0x00, 0x00, 0x00, 0x00, 0x00, 0x00, 0x4a, 0xfa, 0xff, 0xff,
  0xff, 0xff, 0xff, 0xff, 0xa4, 0x30, 0x00, 0x00, 0x00, 0x00, 0x00, 0x00, 0xce,
  0xe7, 0xff, 0xff, 0x04, 0x00, 0x00, 0x00, 0x60, 0x00, 0x00, 0x00, 0x77, 0x5a,
  0x00, 0x00, 0x00, 0x00, 0x00, 0x00, 0x41, 0x58, 0x00, 0x00, 0x00, 0x00, 0x00,
  0x00, 0x08, 0xe5, 0xff, 0xff, 0xff, 0xff, 0xff, 0xff, 0x71, 0x30, 0xff, 0xff,
  0xff, 0xff, 0xff, 0xff, 0x76, 0xba, 0xff, 0xff, 0xff, 0xff, 0xff, 0xff, 0x76,
  0xee, 0xff, 0xff, 0xff, 0xff, 0xff, 0xff, 0x28, 0x7b, 0x00, 0x00, 0x00, 0x00,
  0x00, 0x00, 0x72, 0xd0, 0xff, 0xff, 0xff, 0xff, 0xff, 0xff, 0x08, 0xac, 0xff,
  0xff, 0xff, 0xff, 0xff, 0xff, 0xd4, 0x65, 0x00, 0x00, 0x00, 0x00, 0x00, 0x00,
  0xf9, 0x18, 0x00, 0x00, 0x00, 0x00, 0x00, 0x00, 0xf0, 0xf7, 0xff, 0xff, 0xff,
  0xff, 0xff, 0xff, 0x3a, 0xe8, 0xff, 0xff, 0x04, 0x00, 0x00, 0x00, 0x78, 0x00,
  0x00, 0x00, 0xb0, 0xe1, 0xff, 0xff, 0xff, 0xff, 0xff, 0xff, 0x2e, 0x01, 0x00,
  0x00, 0x00, 0x00, 0x00, 0x00, 0x03, 0xe7, 0xff, 0xff, 0xff, 0xff, 0xff, 0xff,
  0x83, 0x1e, 0x00, 0x00, 0x00, 0x00, 0x00, 0x00, 0x80, 0xf8, 0xff, 0xff, 0xff,
  0xff, 0xff, 0xff, 0x5c, 0xfe, 0xff, 0xff, 0xff, 0xff, 0xff, 0xff, 0x22, 0xe8,
  0xff, 0xff, 0xff, 0xff, 0xff, 0xff, 0x24, 0x04, 0x00, 0x00, 0x00, 0x00, 0x00,
  0x00, 0xac, 0x0e, 0x00, 0x00, 0x00, 0x00, 0x00, 0x00, 0xc4, 0x0b, 0x00, 0x00,
  0x00, 0x00, 0x00, 0x00, 0x47, 0x0a, 0x00, 0x00, 0x00, 0x00, 0x00, 0x00, 0xcf,
  0xe8, 0xff, 0xff, 0xff, 0xff, 0xff, 0xff, 0xf7, 0x03, 0x00, 0x00, 0x00, 0x00,
  0x00, 0x00, 0xc2, 0xf8, 0xff, 0xff, 0xff, 0xff, 0xff, 0xff, 0x0c, 0xff, 0xff,
  0xff, 0xff, 0xff, 0xff, 0xff, 0xbe, 0xe8, 0xff, 0xff, 0x04, 0x00, 0x00, 0x00,
  0xa0, 0x00, 0x00, 0x00, 0x4f, 0xf4, 0x00, 0x00, 0x00, 0x00, 0x00, 0x00, 0xf7,
  0x14, 0xf0, 0xff, 0xff, 0xff, 0xff, 0xff, 0xb2, 0x93, 0xdf, 0xff, 0xff, 0xff,
  0xff, 0xff, 0x07, 0x90, 0xfe, 0xff, 0xff, 0xff, 0xff, 0xff, 0x0f, 0x2c, 0x00,
  0x00, 0x00, 0x00, 0x00, 0x00, 0x87, 0xa2, 0xff, 0xff, 0xff, 0xff, 0xff, 0xff,
  0xa2, 0x3d, 0x01, 0x00, 0x00, 0x00, 0x00, 0x00, 0xdd, 0x5e, 0xfc, 0xff, 0xff,
  0xff, 0xff, 0xff, 0xf8, 0xc5, 0x02, 0x00, 0x00, 0x00, 0x00, 0x00, 0x45, 0x1d,
  0xf5, 0xff, 0xff, 0xff, 0xff, 0xff, 0xcb, 0x01, 0xff, 0xff, 0xff, 0xff, 0xff,
  0xff, 0xfb, 0xcd, 0x00, 0x00, 0x00, 0x00, 0x00, 0x00, 0x27, 0x89, 0x09, 0x00,
  0x00, 0x00, 0x00, 0x00, 0xa3, 0x0c, 0xff, 0xff, 0xff, 0xff, 0xff, 0xff, 0x7f,
  0xfb, 0xfe, 0xff, 0xff, 0xff, 0xff, 0xff, 0x31, 0xfb, 0x03, 0x00, 0x00, 0x00,
  0x00, 0x00, 0x06, 0x54, 0xfe, 0xff, 0xff, 0xff, 0xff, 0xff, 0x37, 0x24, 0x00,
  0x00, 0x00, 0x00, 0x00, 0x00, 0x2d, 0x79, 0x04, 0x00, 0x00, 0x00, 0x00, 0x00,
  0xdb, 0xb6, 0xff, 0xff, 0xff, 0xff, 0xff, 0xff, 0x6a, 0xe9, 0xff, 0xff, 0x04,
  0x00, 0x00, 0x00, 0x05, 0x00, 0x00, 0x00, 0x81, 0xc5, 0x90, 0x47, 0x6f, 0x00,
  0x00, 0x00, 0x7e, 0xe9, 0xff, 0xff, 0x04, 0x00, 0x00, 0x00, 0x08, 0x00, 0x00,
  0x00, 0x00, 0x00, 0x00, 0x00, 0x00, 0x00, 0x00, 0x00, 0x92, 0xe9, 0xff, 0xff,
  0x04, 0x00, 0x00, 0x00, 0x23, 0x00, 0x00, 0x00, 0xfa, 0xf7, 0x0c, 0xfe, 0xfc,
  0x13, 0x05, 0xf2, 0x20, 0x0b, 0x1f, 0x22, 0xd2, 0x5f, 0x25, 0xb9, 0x7f, 0x38,
  0x7f, 0x7f, 0x81, 0x5b, 0x49, 0x3f, 0x1a, 0x5f, 0xf8, 0x81, 0x2e, 0x00, 0x0d,
  0xdb, 0x1c, 0x1c, 0x12, 0x00, 0xc2, 0xe9, 0xff, 0xff, 0x04, 0x00, 0x00, 0x00,
  0x28, 0x00, 0x00, 0x00, 0x00, 0x00, 0x00, 0x00, 0x00, 0x00, 0x00, 0x00, 0x00,
  0x00, 0x00, 0x00, 0x00, 0x00, 0x00, 0x00, 0x00, 0x00, 0x00, 0x00, 0x00, 0x00,
  0x00, 0x00, 0x00, 0x00, 0x00, 0x00, 0x00, 0x00, 0x00, 0x00, 0x00, 0x00, 0x00,
  0x00, 0x00, 0x00, 0x00, 0x00, 0xf6, 0xe9, 0xff, 0xff, 0x04, 0x00, 0x00, 0x00,
  0x23, 0x00, 0x00, 0x00, 0x06, 0xb8, 0x25, 0xc6, 0x35, 0xfb, 0x7f, 0x1f, 0x76,
  0xf4, 0x5c, 0xc1, 0x7f, 0xcb, 0x91, 0x81, 0x01, 0x75, 0x7f, 0x72, 0xbd, 0x9a,
  0x3f, 0xa9, 0x7f, 0xd6, 0x66, 0xff, 0xd4, 0x1f, 0xf6, 0x52, 0xfd, 0x15, 0xf1,
  0x00, 0x26, 0xea, 0xff, 0xff, 0x04, 0x00, 0x00, 0x00, 0x19, 0x00, 0x00, 0x00,
  0xca, 0x7f, 0x32, 0xef, 0x3e, 0x11, 0x0b, 0x6e, 0x0a, 0x81, 0x8c, 0x81, 0x03,
  0x2a, 0x37, 0x3f, 0xe9, 0x81, 0x02, 0xe6, 0x03, 0xec, 0xbb, 0x40, 0x81, 0x00,
  0x00, 0x00, 0x4e, 0xea, 0xff, 0xff, 0x04, 0x00, 0x00, 0x00, 0x19, 0x00, 0x00,
  0x00, 0x25, 0xc9, 0x1b, 0x07, 0xed, 0x87, 0x7b, 0xb3, 0xe0, 0x21, 0x7f, 0x81,
  0x7f, 0x81, 0x81, 0x82, 0x7c, 0xf6, 0xd5, 0xd8, 0x0d, 0xd5, 0xf8, 0xee, 0xfd,
  0x00, 0x00, 0x00, 0x76, 0xea, 0xff, 0xff, 0x04, 0x00, 0x00, 0x00, 0x19, 0x00,
  0x00, 0x00, 0xc8, 0x04, 0x20, 0xe8, 0x08, 0xf3, 0xf8, 0x27, 0x4a, 0xb1, 0x81,
  0x93, 0x81, 0xef, 0x7f, 0x5b, 0x81, 0x35, 0x81, 0xb6, 0xcd, 0x37, 0x2b, 0x32,
  0x1d, 0x00, 0x00, 0x00, 0x9e, 0xea, 0xff, 0xff, 0x04, 0x00, 0x00, 0x00, 0x19,
  0x00, 0x00, 0x00, 0x15, 0xf3, 0x0f, 0x08, 0x81, 0xfd, 0x7f, 0x00, 0xff, 0xff,
  0x57, 0xf8, 0x81, 0x22, 0xf6, 0xe1, 0x02, 0x34, 0x7f, 0xdb, 0x49, 0xf5, 0x81,
  0x59, 0xb2, 0x00, 0x00, 0x00, 0xc6, 0xea, 0xff, 0xff, 0x04, 0x00, 0x00, 0x00,
  0x19, 0x00, 0x00, 0x00, 0xe6, 0xe6, 0x1f, 0xfe, 0xec, 0xdf, 0x5d, 0x59, 0x81,
  0x81, 0x81, 0x81, 0x7f, 0x9b, 0x0f, 0xc4, 0x4c, 0x33, 0xb7, 0xd5, 0x12, 0xf0,
  0x21, 0xdb, 0xe9, 0x00, 0x00, 0x00, 0xee, 0xea, 0xff, 0xff, 0x04, 0x00, 0x00,
  0x00, 0x19, 0x00, 0x00, 0x00, 0xf1, 0xbd, 0x47, 0x26, 0x16, 0xee, 0x7f, 0x81,
  0xbd, 0x81, 0x7f, 0xf9, 0xd9, 0x29, 0x92, 0x92, 0xe2, 0xf3, 0x4a, 0xce, 0x07,
  0xe4, 0x11, 0x81, 0xdc, 0x00, 0x00, 0x00, 0x16, 0xeb, 0xff, 0xff, 0x04, 0x00,
  0x00, 0x00, 0x23, 0x00, 0x00, 0x00, 0xb4, 0x26, 0x81, 0x11, 0xdf, 0x9d, 0x04,
  0x1e, 0x7f, 0xde, 0xf7, 0x20, 0x44, 0xf7, 0xf8, 0x89, 0xba, 0x5a, 0x74, 0xe8,
  0x81, 0xab, 0x51, 0xf1, 0x9d, 0x07, 0x63, 0x7f, 0x29, 0x97, 0x0d, 0x8d, 0x33,
  0x81, 0x43, 0x00, 0x46, 0xeb, 0xff, 0xff, 0x04, 0x00, 0x00, 0x00, 0x23, 0x00,
  0x00, 0x00, 0xa2, 0xfc, 0x10, 0xfa, 0x1a, 0xe8, 0x12, 0x7f, 0x3b, 0x01, 0xf2,
  0x3a, 0xd6, 0x88, 0x7f, 0x45, 0x7f, 0xaf, 0xe0, 0x81, 0x7c, 0x07, 0x7f, 0x4e,
  0x81, 0x7f, 0x20, 0xb2, 0xfc, 0x35, 0x20, 0x2f, 0x0f, 0xa9, 0x81, 0x00, 0x76,
  0xeb, 0xff, 0xff, 0x04, 0x00, 0x00, 0x00, 0x38, 0x00, 0x00, 0x00, 0x00, 0x00,
  0x00, 0x00, 0x00, 0x00, 0x00, 0x00, 0x00, 0x00, 0x00, 0x00, 0x00, 0x00, 0x00,
  0x00, 0x00, 0x00, 0x00, 0x00, 0x00, 0x00, 0x00, 0x00, 0x00, 0x00, 0x00, 0x00,
  0x00, 0x00, 0x00, 0x00, 0x00, 0x00, 0x00, 0x00, 0x00, 0x00, 0x00, 0x00, 0x00,
  0x00, 0x00, 0x00, 0x00, 0x00, 0x00, 0x00, 0x00, 0x00, 0x00, 0x00, 0x00, 0x00,
  0x00, 0x00, 0xba, 0xeb, 0xff, 0xff, 0x04, 0x00, 0x00, 0x00, 0x23, 0x00, 0x00,
  0x00, 0xca, 0x08, 0x1e, 0x12, 0x05, 0xc8, 0xc6, 0x86, 0x37, 0x6d, 0xcd, 0xae,
  0xec, 0x0f, 0x81, 0x81, 0x81, 0x7f, 0xb8, 0x81, 0x7f, 0x44, 0x26, 0xd7, 0xf5,
  0x91, 0xd4, 0x00, 0x19, 0x1c, 0x1f, 0xbe, 0x81, 0x27, 0x09, 0x00, 0xea, 0xeb,
  0xff, 0xff, 0x04, 0x00, 0x00, 0x00, 0x19, 0x00, 0x00, 0x00, 0x5c, 0xeb, 0x50,
  0xc3, 0x7f, 0x81, 0x31, 0x20, 0x1b, 0xa6, 0x0b, 0x7f, 0x23, 0x8f, 0x19, 0xee,
  0x4a, 0x67, 0x7f, 0xf8, 0xfa, 0x7f, 0x09, 0x1a, 0x1d, 0x00, 0x00, 0x00, 0x12,
  0xec, 0xff, 0xff, 0x04, 0x00, 0x00, 0x00, 0x19, 0x00, 0x00, 0x00, 0xff, 0xc0,
  0x78, 0x4f, 0x28, 0x0d, 0x7f, 0x7f, 0x7f, 0x7f, 0xb4, 0x36, 0x57, 0x59, 0x0f,
  0x81, 0xad, 0x14, 0x41, 0x52, 0xc1, 0xf4, 0x16, 0xdd, 0x31, 0x00, 0x00, 0x00,
  0x3a, 0xec, 0xff, 0xff, 0x04, 0x00, 0x00, 0x00, 0x19, 0x00, 0x00, 0x00, 0x28,
  0xf3, 0x03, 0xc9, 0xf7, 0x21, 0x1d, 0xda, 0x2a, 0xd0, 0x7f, 0xe2, 0x81, 0xfa,
  0x81, 0x2f, 0xd3, 0xba, 0x81, 0xdc, 0x09, 0x81, 0xe0, 0xb3, 0x13, 0x00, 0x00,
  0x00, 0x62, 0xec, 0xff, 0xff, 0x04, 0x00, 0x00, 0x00, 0x23, 0x00, 0x00, 0x00,
  0xe4, 0x33, 0x5f, 0xdb, 0x1a, 0x09, 0x81, 0x2c, 0x40, 0xce, 0x81, 0x91, 0xb4,
  0x8a, 0x7f, 0x00, 0x25, 0x0b, 0x42, 0x11, 0x23, 0xd8, 0x5d, 0xc9, 0x11, 0x81,
  0x2f, 0x0e, 0x12, 0xb1, 0xbd, 0xe0, 0x85, 0x81, 0x13, 0x00, 0x92, 0xec, 0xff,
  0xff, 0x04, 0x00, 0x00, 0x00, 0x23, 0x00, 0x00, 0x00, 0xc8, 0xe5, 0xe0, 0x39,
  0x20, 0x2b, 0xfd, 0x7f, 0x50, 0xdd, 0x97, 0x00, 0x08, 0x0b, 0x00, 0xa7, 0xbd,
  0xdf, 0xc6, 0x81, 0x2d, 0x60, 0x81, 0xce, 0xee, 0x7f, 0xbf, 0x7f, 0x40, 0x0e,
  0x81, 0x81, 0x43, 0x1d, 0x23, 0x00, 0xc2, 0xec, 0xff, 0xff, 0x04, 0x00, 0x00,
  0x00, 0x23, 0x00, 0x00, 0x00, 0x81, 0x5e, 0x90, 0x81, 0x15, 0xdb, 0x1a, 0xfc,
  0x28, 0xc5, 0x17, 0x3f, 0xa2, 0x7f, 0x09, 0x0d, 0x81, 0x05, 0x7f, 0x81, 0x64,
  0x23, 0x81, 0x1c, 0xbc, 0x13, 0xe4, 0x11, 0xfc, 0x41, 0xdb, 0xbc, 0x29, 0x2f,
  0x17, 0x00, 0xf2, 0xec, 0xff, 0xff, 0x04, 0x00, 0x00, 0x00, 0x3f, 0x00, 0x00,
  0x00, 0x7f, 0xe8, 0x32, 0x4a, 0x1b, 0xcb, 0xe0, 0x92, 0xde, 0x05, 0xf7, 0x7f,
  0x3a, 0xab, 0x90, 0x03, 0xd9, 0x9b, 0xf1, 0x25, 0x72, 0xf5, 0x7f, 0x05, 0xcb,
  0x02, 0x6a, 0x25, 0x40, 0x0b, 0x8b, 0xf1, 0x82, 0x81, 0x12, 0xfd, 0x2f, 0x1b,
  0x0a, 0xea, 0x7f, 0xd5, 0xa1, 0x12, 0xb4, 0xd6, 0x7f, 0x0d, 0xd9, 0xc9, 0x10,
  0xe7, 0x45, 0xe5, 0xf0, 0xf3, 0x49, 0xe3, 0x7f, 0xf4, 0x16, 0x0c, 0x49, 0x00,
  0x3e, 0xed, 0xff, 0xff, 0x04, 0x00, 0x00, 0x00, 0x2d, 0x00, 0x00, 0x00, 0x03,
  0x50, 0x81, 0xe9, 0xf9, 0x2c, 0x4e, 0x0c, 0xe9, 0x0f, 0x81, 0x4a, 0x49, 0x03,
  0x24, 0x81, 0x7f, 0x03, 0x1a, 0x51, 0xc6, 0x81, 0x81, 0x90, 0x06, 0x61, 0x1e,
  0x7f, 0x08, 0xa2, 0xd6, 0x08, 0xa3, 0x83, 0x13, 0x2c, 0x24, 0x1d, 0xec, 0xec,
  0xfb, 0x81, 0xc9, 0xf6, 0x81, 0x00, 0x00, 0x00, 0x7a, 0xed, 0xff, 0xff, 0x04,
  0x00, 0x00, 0x00, 0x48, 0x00, 0x00, 0x00, 0x00, 0x00, 0x00, 0x00, 0x00, 0x00,
  0x00, 0x00, 0x00, 0x00, 0x00, 0x00, 0x00, 0x00, 0x00, 0x00, 0x00, 0x00, 0x00,
  0x00, 0x00, 0x00, 0x00, 0x00, 0x00, 0x00, 0x00, 0x00, 0x00, 0x00, 0x00, 0x00,
  0x00, 0x00, 0x00, 0x00, 0x00, 0x00, 0x00, 0x00, 0x00, 0x00, 0x00, 0x00, 0x00,
  0x00, 0x00, 0x00, 0x00, 0x00, 0x00, 0x00, 0x00, 0x00, 0x00, 0x00, 0x00, 0x00,
  0x00, 0x00, 0x00, 0x00, 0x00, 0x00, 0x00, 0x00, 0x00, 0x00, 0x00, 0x00, 0x00,
  0x00, 0xce, 0xed, 0xff, 0xff, 0x04, 0x00, 0x00, 0x00, 0x2d, 0x00, 0x00, 0x00,
  0x01, 0x0e, 0xe1, 0x17, 0xe4, 0xa9, 0xd6, 0xe3, 0x81, 0x81, 0x7f, 0xc3, 0x81,
  0x81, 0x37, 0x7f, 0x7f, 0xd7, 0x0c, 0xc3, 0x8f, 0xae, 0x5d, 0x81, 0x67, 0x25,
  0xd9, 0xf6, 0x23, 0x81, 0x42, 0xdf, 0xc6, 0x18, 0xf0, 0xc2, 0xef, 0xfe, 0xbe,
  0xea, 0x04, 0xdc, 0x6d, 0x0e, 0x04, 0x00, 0x00, 0x00, 0x0a, 0xee, 0xff, 0xff,
  0x04, 0x00, 0x00, 0x00, 0x31, 0x00, 0x00, 0x00, 0x41, 0x99, 0x81, 0xe5, 0x7c,
  0x56, 0xaa, 0x0b, 0xd7, 0x04, 0xfb, 0x7f, 0xf4, 0xfc, 0x81, 0x22, 0x05, 0x2e,
  0xdc, 0x02, 0x4a, 0x81, 0xd4, 0x0b, 0xa0, 0xe1, 0x15, 0xfa, 0xe6, 0x81, 0xba,
  0xf3, 0x2c, 0x3d, 0x50, 0xe1, 0x1c, 0x1f, 0x7f, 0xf8, 0x00, 0x06, 0xf3, 0x2e,
  0x01, 0x03, 0x3e, 0x7f, 0x1f, 0x00, 0x00, 0x00, 0x4a, 0xee, 0xff, 0xff, 0x04,
  0x00, 0x00, 0x00, 0x23, 0x00, 0x00, 0x00, 0x3b, 0x0e, 0x09, 0xa4, 0xba, 0xf4,
  0xf3, 0xc2, 0xd6, 0xd3, 0x7f, 0x3b, 0x81, 0xd1, 0x7f, 0x81, 0x81, 0x4f, 0xd4,
  0x76, 0x81, 0xd8, 0xe7, 0x86, 0x10, 0x7f, 0xfc, 0x5a, 0x1f, 0xd6, 0xb1, 0xfd,
  0xa5, 0xf1, 0x9f, 0x00, 0x7a, 0xee, 0xff, 0xff, 0x04, 0x00, 0x00, 0x00, 0x23,
  0x00, 0x00, 0x00, 0x58, 0x9e, 0xea, 0xbe, 0xfb, 0x7f, 0x4c, 0xe2, 0x81, 0x6f,
  0x70, 0xc1, 0x28, 0x17, 0x7f, 0x49, 0x7f, 0x81, 0x96, 0xcd, 0x7f, 0x7e, 0xe9,
  0xb5, 0x4e, 0x81, 0x52, 0x93, 0x48, 0xdb, 0x10, 0xd8, 0xe4, 0xd7, 0x0a, 0x00,
  0xaa, 0xee, 0xff, 0xff, 0x04, 0x00, 0x00, 0x00, 0x3f, 0x00, 0x00, 0x00, 0x8f,
  0xb5, 0xd5, 0x1c, 0x98, 0xe8, 0xe6, 0x5e, 0x81, 0x44, 0xe0, 0x15, 0x17, 0xd4,
  0x81, 0x46, 0x72, 0xc9, 0x88, 0x4b, 0x66, 0xd7, 0x15, 0x72, 0x5d, 0x81, 0xe3,
  0x22, 0xea, 0x2f, 0x7f, 0xce, 0xd0, 0x45, 0x3c, 0x07, 0x3b, 0x81, 0xde, 0xf5,
  0xa4, 0xd8, 0xec, 0x6c, 0x0f, 0xec, 0xc8, 0xa9, 0x33, 0x0b, 0x2b, 0x81, 0x14,
  0xe3, 0xcf, 0x30, 0x4e, 0x7f, 0x34, 0x1c, 0x22, 0x36, 0x16, 0x00, 0xf6, 0xee,
  0xff, 0xff, 0x04, 0x00, 0x00, 0x00, 0x2d, 0x00, 0x00, 0x00, 0xe3, 0xb7, 0x4b,
  0x08, 0xcd, 0x02, 0x2d, 0x42, 0xa4, 0xe4, 0xef, 0xd1, 0x81, 0xde, 0xcb, 0x32,
  0x53, 0xe6, 0x81, 0x81, 0x81, 0xb0, 0x7f, 0x81, 0x7f, 0x7f, 0xe1, 0xba, 0x8a,
  0x1d, 0xa4, 0xc7, 0xda, 0x75, 0xe8, 0x81, 0xf8, 0xcb, 0x1a, 0xed, 0xd2, 0xee,
  0x3f, 0x52, 0x1b, 0x00, 0x00, 0x00, 0x32, 0xef, 0xff, 0xff, 0x04, 0x00, 0x00,
  0x00, 0x2d, 0x00, 0x00, 0x00, 0x99, 0xde, 0x31, 0xfa, 0xf4, 0x3f, 0xe5, 0x24,
  0x0c, 0xf0, 0x0b, 0xad, 0x1a, 0xdc, 0x81, 0x43, 0x08, 0x72, 0x7f, 0x81, 0x60,
  0x1b, 0x81, 0x76, 0x81, 0x9a, 0x41, 0x0e, 0x50, 0x81, 0x14, 0x27, 0x75, 0x45,
  0x7f, 0x7f, 0xfb, 0xc6, 0x14, 0x7f, 0xf2, 0x0a, 0xbb, 0xf1, 0xd0, 0x00, 0x00,
  0x00, 0x6e, 0xef, 0xff, 0xff, 0x04, 0x00, 0x00, 0x00, 0x6c, 0x00, 0x00, 0x00,
  0xb5, 0x81, 0xf2, 0x5c, 0xef, 0xe3, 0x1f, 0xbc, 0x0a, 0x19, 0x68, 0x0c, 0x8a,
  0xc8, 0xaa, 0x22, 0x65, 0x43, 0xc8, 0xdf, 0x93, 0xf7, 0xee, 0x7f, 0x73, 0x93,
  0x4f, 0xc7, 0x54, 0x7f, 0xd9, 0x2c, 0x6b, 0x20, 0xf3, 0x00, 0x10, 0xbd, 0x2d,
  0x13, 0xa5, 0xfc, 0x7f, 0x03, 0xaf, 0xce, 0x01, 0xaa, 0x1f, 0x3a, 0xfb, 0xc7,
  0x96, 0xce, 0xcb, 0x1e, 0xac, 0x81, 0xf5, 0xb3, 0x06, 0xbb, 0x85, 0x10, 0x5f,
  0x81, 0x1b, 0x03, 0x23, 0xc4, 0x37, 0x2d, 0xfd, 0x81, 0x35, 0xc6, 0x48, 0xa0,
  0x13, 0xe0, 0xee, 0xfd, 0x46, 0x64, 0x6d, 0x0b, 0x81, 0x28, 0xc0, 0x37, 0x5c,
  0x90, 0xf1, 0x69, 0xc1, 0x02, 0x00, 0x43, 0x24, 0x81, 0x08, 0x26, 0xe4, 0x4f,
  0xb9, 0xe6, 0xc2, 0xe8, 0xe6, 0xef, 0xff, 0xff, 0x04, 0x00, 0x00, 0x00, 0x3c,
  0x00, 0x00, 0x00, 0xf7, 0xe4, 0x0c, 0xbe, 0xec, 0xf3, 0xe7, 0xe0, 0xc9, 0xec,
  0xe0, 0x1a, 0x0c, 0x31, 0x89, 0x7f, 0xee, 0xff, 0xfc, 0xf3, 0xe7, 0xa0, 0xea,
  0x52, 0x81, 0x81, 0x81, 0x9a, 0x81, 0x07, 0x31, 0x7f, 0x8d, 0x81, 0x81, 0x7f,
  0xd3, 0x0c, 0xec, 0x4c, 0x9c, 0x7f, 0x7f, 0x32, 0x81, 0xd6, 0xd5, 0x2f, 0xea,
  0x0c, 0xe3, 0xc4, 0x19, 0x0f, 0xb4, 0x32, 0xd2, 0xb1, 0xf7, 0xdf, 0x2e, 0xf0,
  0xff, 0xff, 0x04, 0x00, 0x00, 0x00, 0x60, 0x00, 0x00, 0x00, 0x00, 0x00, 0x00,
  0x00, 0x00, 0x00, 0x00, 0x00, 0x00, 0x00, 0x00, 0x00, 0x00, 0x00, 0x00, 0x00,
  0x00, 0x00, 0x00, 0x00, 0x00, 0x00, 0x00, 0x00, 0x00, 0x00, 0x00, 0x00, 0x00,
  0x00, 0x00, 0x00, 0x00, 0x00, 0x00, 0x00, 0x00, 0x00, 0x00, 0x00, 0x00, 0x00,
  0x00, 0x00, 0x00, 0x00, 0x00, 0x00, 0x00, 0x00, 0x00, 0x00, 0x00, 0x00, 0x00,
  0x00, 0x00, 0x00, 0x00, 0x00, 0x00, 0x00, 0x00, 0x00, 0x00, 0x00, 0x00, 0x00,
  0x00, 0x00, 0x00, 0x00, 0x00, 0x00, 0x00, 0x00, 0x00, 0x00, 0x00, 0x00, 0x00,
  0x00, 0x00, 0x00, 0x00, 0x00, 0x00, 0x00, 0x00, 0x00, 0x00, 0x00, 0x00, 0x00,
  0x00, 0x00, 0x9a, 0xf0, 0xff, 0xff, 0x04, 0x00, 0x00, 0x00, 0x3c, 0x00, 0x00,
  0x00, 0x1b, 0xe7, 0x18, 0x4f, 0x20, 0x36, 0x8c, 0xda, 0xa7, 0x1d, 0xd0, 0x02,
  0x7f, 0x37, 0x7f, 0x7f, 0x7e, 0x48, 0x7f, 0x81, 0x81, 0x68, 0xfb, 0x0a, 0xcb,
  0x7f, 0xeb, 0x17, 0x7f, 0x7f, 0xe0, 0xf1, 0x00, 0x7f, 0xf2, 0x7f, 0xd7, 0xae,
  0x3f, 0x7b, 0xb9, 0x9c, 0x3c, 0x8f, 0x2c, 0xf0, 0x81, 0x37, 0xe0, 0xfa, 0xfd,
  0xe4, 0x2a, 0x0e, 0x04, 0x6f, 0x08, 0x05, 0x32, 0x0d, 0xe2, 0xf0, 0xff, 0xff,
  0x04, 0x00, 0x00, 0x00, 0x51, 0x00, 0x00, 0x00, 0xa1, 0x3a, 0x82, 0x5d, 0x14,
  0x7f, 0xae, 0xa8, 0x3c, 0xec, 0x13, 0x69, 0xf4, 0x0e, 0xc4, 0x81, 0xfa, 0xde,
  0x07, 0x1a, 0x7f, 0xea, 0x28, 0xfc, 0x19, 0xec, 0x13, 0x06, 0x16, 0x7f, 0x02,
  0x06, 0x0c, 0xdd, 0x1c, 0xf4, 0x7f, 0x81, 0x09, 0xfc, 0xdb, 0xa3, 0xc3, 0x6d,
  0x97, 0xe7, 0x67, 0x7f, 0xf0, 0x52, 0x40, 0x1a, 0x9a, 0xd3, 0xe8, 0x32, 0x7f,
  0xa1, 0x03, 0x28, 0xd5, 0xe7, 0x3e, 0xc6, 0x01, 0x37, 0xe5, 0x81, 0xe6, 0x03,
  0x00, 0xf7, 0x3d, 0xf2, 0x7f, 0xcd, 0xe0, 0xd5, 0xe9, 0x22, 0xfd, 0x00, 0x00,
  0x00, 0x42, 0xf1, 0xff, 0xff, 0x04, 0x00, 0x00, 0x00, 0x2d, 0x00, 0x00, 0x00,
  0xdd, 0xf1, 0x06, 0xb3, 0x19, 0x13, 0xe4, 0x22, 0xf9, 0x0c, 0xf9, 0x81, 0x3e,
  0xf1, 0xce, 0xb0, 0x3b, 0x20, 0x7f, 0xb1, 0xf4, 0xf5, 0x3b, 0x81, 0x79, 0x7f,
  0x81, 0x56, 0x81, 0xe6, 0x81, 0x7f, 0xca, 0x81, 0xe8, 0xfe, 0xf1, 0xd9, 0xec,
  0xf9, 0x39, 0x07, 0x02, 0xf9, 0x0f, 0x00, 0x00, 0x00, 0x7e, 0xf1, 0xff, 0xff,
  0x04, 0x00, 0x00, 0x00, 0x2d, 0x00, 0x00, 0x00, 0x12, 0x2c, 0x05, 0xd1, 0xd0,
  0x00, 0x04, 0x08, 0xbd, 0x77, 0x65, 0x3b, 0x99, 0xae, 0x6d, 0x00, 0x34, 0x81,
  0x7f, 0x7f, 0x7f, 0xd7, 0x81, 0x7f, 0x81, 0x7f, 0x27, 0x00, 0x4f, 0x34, 0x7f,
  0xbf, 0x9d, 0xaf, 0x1b, 0x0e, 0xeb, 0x22, 0x00, 0x63, 0xfe, 0xa0, 0xeb, 0x0e,
  0xfd, 0x00, 0x00, 0x00, 0xba, 0xf1, 0xff, 0xff, 0x04, 0x00, 0x00, 0x00, 0x6c,
  0x00, 0x00, 0x00, 0xcb, 0xd0, 0xf3, 0xbf, 0xe6, 0x3b, 0x1b, 0x81, 0x26, 0x01,
  0x0b, 0x0f, 0xd9, 0x0f, 0xe9, 0x19, 0x11, 0x6e, 0x81, 0x15, 0xc6, 0xb6, 0x19,
  0x83, 0xf0, 0xc0, 0x05, 0xe0, 0xf4, 0x04, 0x3b, 0xe4, 0x38, 0x81, 0x07, 0x8e,
  0xda, 0xac, 0x14, 0xf3, 0x7f, 0x11, 0x7c, 0xd9, 0xcf, 0x00, 0xa3, 0xa1, 0xb2,
  0xab, 0x72, 0x81, 0xd7, 0xdf, 0x0f, 0xfc, 0x0e, 0xc7, 0xf7, 0xe0, 0x15, 0xd3,
  0x08, 0x15, 0x39, 0xe8, 0x7f, 0x0a, 0xba, 0xfd, 0xf6, 0xfd, 0x7e, 0xfd, 0x6c,
  0x64, 0x6d, 0x10, 0xd2, 0xfb, 0xfd, 0x1b, 0x81, 0x13, 0xe6, 0xe2, 0x81, 0xa2,
  0xa4, 0x91, 0x39, 0x17, 0x33, 0x58, 0xfe, 0xdc, 0x3d, 0x5c, 0x13, 0x2e, 0x63,
  0x1b, 0x08, 0xf8, 0x81, 0xf2, 0x92, 0xd4, 0x32, 0xf2, 0xff, 0xff, 0x04, 0x00,
  0x00, 0x00, 0x3c, 0x00, 0x00, 0x00, 0x29, 0xc8, 0xa9, 0xe3, 0x25, 0xcd, 0x2f,
  0x28, 0x2b, 0xec, 0x81, 0x15, 0x83, 0x1e, 0xf6, 0x0f, 0x5b, 0x21, 0x7f, 0xda,
  0x30, 0x7f, 0xe9, 0x0f, 0x7f, 0x81, 0xb6, 0xce, 0x7f, 0xd0, 0x65, 0x78, 0x7f,
  0xfe, 0xbb, 0x7f, 0xfb, 0xca, 0xa2, 0x81, 0x57, 0x81, 0x2b, 0x7f, 0x62, 0xd3,
  0xb0, 0xe2, 0xbc, 0xfa, 0x81, 0x5c, 0x37, 0xea, 0x77, 0x33, 0x21, 0x40, 0xcf,
  0x05, 0x7a, 0xf2, 0xff, 0xff, 0x04, 0x00, 0x00, 0x00, 0x3c, 0x00, 0x00, 0x00,
  0xcb, 0xdf, 0x43, 0x0c, 0xf2, 0x0c, 0xc4, 0x06, 0xe4, 0xde, 0xbb, 0xdf, 0xfa,
  0x14, 0xe1, 0x41, 0xd8, 0x50, 0x2c, 0xfd, 0xae, 0x9b, 0xff, 0x20, 0x81, 0x7f,
  0x7f, 0x7f, 0xe8, 0x7f, 0x81, 0x31, 0xc7, 0x81, 0x13, 0x7f, 0xc5, 0xe1, 0xb6,
  0x04, 0x81, 0xe4, 0x28, 0x81, 0x7f, 0x36, 0x81, 0xec, 0x0f, 0xef, 0x74, 0xdd,
  0x5b, 0x08, 0xf5, 0x07, 0x0b, 0xfe, 0xe0, 0x4e, 0xc2, 0xf2, 0xff, 0xff, 0x04,
  0x00, 0x00, 0x00, 0xb4, 0x00, 0x00, 0x00, 0x0d, 0xce, 0x3e, 0x81, 0x62, 0x63,
  0xda, 0xf8, 0xff, 0xa0, 0x45, 0xf4, 0xd6, 0xc9, 0xc8, 0x85, 0x81, 0x25, 0x0e,
  0x41, 0x1b, 0x1c, 0x32, 0x0b, 0x24, 0xf1, 0xd3, 0xfe, 0x4b, 0x11, 0xc5, 0x1c,
  0x10, 0xfe, 0xfa, 0xc0, 0x39, 0x14, 0xc0, 0x81, 0xc1, 0xb7, 0x0a, 0xd2, 0x92,
  0x00, 0xe4, 0x3c, 0x58, 0x9f, 0x2f, 0x54, 0xa2, 0xf9, 0x07, 0xd6, 0x13, 0x7f,
  0x10, 0x24, 0x4d, 0xad, 0x4d, 0x9e, 0x5d, 0xe3, 0x81, 0x4b, 0xdf, 0xeb, 0xee,
  0xcb, 0xd0, 0x24, 0xc6, 0x63, 0xff, 0x0e, 0xb1, 0xea, 0x0b, 0x40, 0xc9, 0xca,
  0xbb, 0x12, 0x81, 0xe0, 0xf0, 0xb8, 0x17, 0x10, 0x19, 0xe8, 0x0a, 0x22, 0xd9,
  0x28, 0xec, 0x87, 0x22, 0xf6, 0x26, 0x65, 0x81, 0xf9, 0x20, 0xf2, 0xec, 0xfe,
  0xaa, 0x05, 0xd5, 0x44, 0x38, 0x81, 0x18, 0xc5, 0xe2, 0x0b, 0xd9, 0x28, 0x90,
  0xec, 0x37, 0x11, 0x15, 0xe6, 0x81, 0x35, 0x21, 0x71, 0x22, 0xdb, 0xe9, 0x41,
  0xe7, 0x89, 0x2c, 0xf8, 0x40, 0x33, 0xce, 0x81, 0xde, 0x39, 0x10, 0xe5, 0x12,
  0xc1, 0xc8, 0x55, 0xc3, 0x7f, 0xec, 0x29, 0x2a, 0xa2, 0xc8, 0xa0, 0xfd, 0x2f,
  0xae, 0x99, 0x14, 0x63, 0x0e, 0xc5, 0xd4, 0xe9, 0x27, 0xd9, 0xb7, 0xea, 0x1a,
  0xa0, 0x15, 0xcc, 0x68, 0x81, 0x82, 0xf3, 0xff, 0xff, 0x04, 0x00, 0x00, 0x00,
  0x4b, 0x00, 0x00, 0x00, 0x00, 0x1c, 0x05, 0x02, 0x21, 0x56, 0xcf, 0xd7, 0xe0,
  0xaf, 0x15, 0x0c, 0xe0, 0xe1, 0x07, 0x27, 0xf5, 0x81, 0xb9, 0x0e, 0x8e, 0x3a,
  0x7f, 0x12, 0xdd, 0x7f, 0xe3, 0x81, 0xda, 0x25, 0x81, 0xb0, 0xba, 0xd3, 0x81,
  0x4e, 0x81, 0x2b, 0xc9, 0x81, 0xad, 0x81, 0xf4, 0x7f, 0x66, 0x43, 0x81, 0xa0,
  0x81, 0x8c, 0x10, 0xbb, 0x5c, 0x81, 0xff, 0x1c, 0x0a, 0x18, 0x31, 0x7f, 0xe1,
  0x1b, 0x13, 0x39, 0x16, 0x7f, 0xf3, 0x2c, 0x27, 0x9f, 0xdc, 0xda, 0xf4, 0xe7,
  0x0f, 0x00, 0xda, 0xf3, 0xff, 0xff, 0x04, 0x00, 0x00, 0x00, 0x78, 0x00, 0x00,
  0x00, 0x00, 0x00, 0x00, 0x00, 0x00, 0x00, 0x00, 0x00, 0x00, 0x00, 0x00, 0x00,
  0x00, 0x00, 0x00, 0x00, 0x00, 0x00, 0x00, 0x00, 0x00, 0x00, 0x00, 0x00, 0x00,
  0x00, 0x00, 0x00, 0x00, 0x00, 0x00, 0x00, 0x00, 0x00, 0x00, 0x00, 0x00, 0x00,
  0x00, 0x00, 0x00, 0x00, 0x00, 0x00, 0x00, 0x00, 0x00, 0x00, 0x00, 0x00, 0x00,
  0x00, 0x00, 0x00, 0x00, 0x00, 0x00, 0x00, 0x00, 0x00, 0x00, 0x00, 0x00, 0x00,
  0x00, 0x00, 0x00, 0x00, 0x00, 0x00, 0x00, 0x00, 0x00, 0x00, 0x00, 0x00, 0x00,
  0x00, 0x00, 0x00, 0x00, 0x00, 0x00, 0x00, 0x00, 0x00, 0x00, 0x00, 0x00, 0x00,
  0x00, 0x00, 0x00, 0x00, 0x00, 0x00, 0x00, 0x00, 0x00, 0x00, 0x00, 0x00, 0x00,
  0x00, 0x00, 0x00, 0x00, 0x00, 0x00, 0x00, 0x00, 0x00, 0x00, 0x00, 0x00, 0x00,
  0x00, 0x00, 0x00, 0x00, 0x5e, 0xf4, 0xff, 0xff, 0x04, 0x00, 0x00, 0x00, 0x4b,
  0x00, 0x00, 0x00, 0xfe, 0xe6, 0x12, 0xfe, 0xe8, 0xda, 0xea, 0xf9, 0xe1, 0xf8,
  0x04, 0xf7, 0xe2, 0xdd, 0x0a, 0x06, 0x35, 0xd3, 0xe3, 0x0d, 0xe5, 0xe6, 0x09,
  0x07, 0x08, 0xb4, 0x10, 0x0e, 0xd9, 0x21, 0xe8, 0x81, 0x7f, 0x26, 0x8c, 0x8d,
  0x97, 0x5f, 0xa2, 0x7f, 0x24, 0xfa, 0x81, 0x27, 0xf3, 0x7f, 0x21, 0xb7, 0x81,
  0x02, 0x81, 0x97, 0x18, 0x7f, 0x65, 0x81, 0x81, 0x8a, 0x81, 0x7f, 0x1d, 0x00,
  0x17, 0x40, 0x7f, 0x41, 0x81, 0x7f, 0x74, 0xae, 0xc3, 0x01, 0xd9, 0x39, 0xf2,
  0x00, 0xb6, 0xf4, 0xff, 0xff, 0x04, 0x00, 0x00, 0x00, 0x90, 0x00, 0x00, 0x00,
  0x55, 0x3d, 0x23, 0xe9, 0x3a, 0x81, 0x3c, 0xe7, 0x4c, 0x35, 0x4e, 0xf0, 0x09,
  0x2c, 0xad, 0x58, 0x7f, 0xeb, 0x92, 0x3f, 0x52, 0xd0, 0x44, 0x1d, 0x54, 0x7f,
  0x29, 0xb3, 0xcf, 0x40, 0xad, 0x34, 0x17, 0xd7, 0x24, 0x1e, 0x21, 0xb6, 0xdb,
  0x1f, 0x5c, 0x81, 0xbc, 0x14, 0x07, 0xd9, 0x24, 0xb9, 0xec, 0x02, 0x60, 0x84,
  0xd5, 0x7f, 0x1c, 0x3a, 0x49, 0xe0, 0x72, 0x60, 0x16, 0xc0, 0xe3, 0xd8, 0x29,
  0xd0, 0x81, 0xf0, 0x8a, 0x17, 0x1e, 0x09, 0x24, 0xf3, 0xfb, 0x01, 0x1c, 0xd2,
  0x07, 0x0b, 0xd5, 0xef, 0xf4, 0x7f, 0xa0, 0x23, 0x81, 0x0a, 0x09, 0x37, 0x30,
  0xab, 0x2e, 0x2b, 0xd9, 0x21, 0x05, 0x00, 0x45, 0x27, 0x5b, 0x2b, 0x46, 0x6f,
  0xca, 0x8f, 0x18, 0x81, 0x23, 0x11, 0x74, 0x7f, 0x0e, 0xdb, 0x73, 0xc8, 0xb8,
  0x27, 0xb8, 0x0d, 0x59, 0x3d, 0x81, 0xf6, 0x22, 0xc9, 0x23, 0x22, 0xee, 0xc9,
  0x13, 0x40, 0x1c, 0x11, 0x3a, 0xd6, 0x46, 0xff, 0xe7, 0x7f, 0x2c, 0x8a, 0x4e,
  0xe6, 0x52, 0xf5, 0xff, 0xff, 0x04, 0x00, 0x00, 0x00, 0x3c, 0x00, 0x00, 0x00,
  0xb0, 0xe4, 0xfb, 0x3d, 0xe6, 0xfe, 0x2b, 0xc7, 0xf4, 0x2a, 0xe7, 0x81, 0x81,
  0x9e, 0x81, 0x32, 0x9f, 0xfc, 0x08, 0xcd, 0xc8, 0x25, 0x13, 0x9d, 0xa4, 0x84,
  0xb6, 0x73, 0x81, 0x81, 0x02, 0x5c, 0x07, 0xbd, 0x7f, 0x94, 0xba, 0x81, 0x20,
  0x7f, 0x42, 0xab, 0x7f, 0x7f, 0xe2, 0x81, 0x75, 0xd1, 0xa5, 0xbf, 0xdf, 0xd3,
  0xce, 0xcd, 0x26, 0xf4, 0x81, 0xfa, 0xc1, 0xb3, 0x9a, 0xf5, 0xff, 0xff, 0x04,
  0x00, 0x00, 0x00, 0x3c, 0x00, 0x00, 0x00, 0xb3, 0x37, 0xfd, 0xf5, 0x7f, 0xe2,
  0x06, 0x17, 0xf1, 0xd4, 0x05, 0x12, 0x81, 0x79, 0x08, 0xfb, 0x24, 0xe8, 0x0a,
  0xc3, 0xec, 0x3f, 0x7f, 0x4b, 0x91, 0x62, 0x7f, 0x92, 0x2e, 0x26, 0x7f, 0x81,
  0xc8, 0x7f, 0x64, 0x7f, 0xff, 0x7f, 0x6b, 0x81, 0x2d, 0xbc, 0x49, 0xff, 0xa2,
  0x04, 0x2f, 0x6d, 0xf2, 0x7b, 0x16, 0x98, 0x0d, 0x81, 0xfb, 0xfb, 0x81, 0x0f,
  0xdc, 0x43, 0xe2, 0xf5, 0xff, 0xff, 0x04, 0x00, 0x00, 0x00, 0xb4, 0x00, 0x00,
  0x00, 0x40, 0xac, 0xf1, 0x55, 0x0a, 0xed, 0xad, 0xbe, 0xdf, 0xc9, 0x81, 0xa1,
  0xb0, 0xee, 0x96, 0xe2, 0x25, 0x37, 0x22, 0xba, 0xd9, 0xd8, 0x3e, 0x7f, 0x1f,
  0x1d, 0xd3, 0xa6, 0x9e, 0xc5, 0xe5, 0x31, 0x08, 0xed, 0x81, 0xfa, 0xf3, 0x04,
  0x03, 0xe3, 0x06, 0x04, 0xe8, 0xde, 0xe5, 0x00, 0xe1, 0x08, 0xf3, 0xaa, 0x37,
  0x5d, 0xef, 0x1d, 0x10, 0xf7, 0xe4, 0xb7, 0xc3, 0x81, 0xc1, 0xc7, 0xf1, 0x3a,
  0x21, 0xbe, 0x1f, 0x5f, 0x06, 0x1a, 0x52, 0x81, 0x08, 0xef, 0xda, 0xbc, 0x50,
  0xfc, 0x4f, 0xd1, 0x46, 0xe1, 0x7f, 0x20, 0x39, 0xfc, 0x68, 0x2d, 0xd2, 0xf8,
  0x1c, 0x0d, 0x02, 0xeb, 0xef, 0x4a, 0x7d, 0xf2, 0xeb, 0x56, 0x7f, 0xef, 0xf7,
  0x1f, 0xb2, 0x57, 0x23, 0x04, 0x81, 0x07, 0xfc, 0xf0, 0xf0, 0xf1, 0x4e, 0x4b,
  0xf8, 0x3c, 0x21, 0xba, 0xe7, 0x46, 0xd6, 0xf7, 0x2e, 0x1a, 0x26, 0x7f, 0x06,
  0xdb, 0xff, 0x0d, 0xed, 0xb6, 0xee, 0x06, 0x2f, 0xef, 0x81, 0xf4, 0xa5, 0x12,
  0xfe, 0xe6, 0x1b, 0x20, 0x0c, 0x5d, 0x2f, 0xd5, 0xa0, 0x0e, 0xf4, 0x1d, 0xcf,
  0x81, 0x29, 0x0f, 0xc9, 0x25, 0x7a, 0xa6, 0x2d, 0x09, 0x93, 0x32, 0x4d, 0x81,
  0x17, 0x45, 0xf5, 0xff, 0x09, 0xdc, 0x20, 0x28, 0x0f, 0xcc, 0x63, 0xe6, 0xa2,
  0xf6, 0xff, 0xff, 0x04, 0x00, 0x00, 0x00, 0x4b, 0x00, 0x00, 0x00, 0xfb, 0xfc,
  0x0d, 0x84, 0xff, 0x7f, 0x20, 0x24, 0x0c, 0x0e, 0xf4, 0x2b, 0x1d, 0xef, 0xf3,
  0x0b, 0x24, 0xc8, 0x81, 0xe2, 0x1d, 0x7f, 0x81, 0x81, 0xf9, 0x36, 0x7a, 0xdf,
  0x23, 0x01, 0x7f, 0x42, 0xe1, 0x06, 0xd7, 0x50, 0xc2, 0x82, 0xdf, 0x81, 0xad,
  0x64, 0x81, 0x81, 0xf8, 0x0a, 0x7f, 0x81, 0x23, 0x81, 0x39, 0x17, 0xa1, 0x5f,
  0x8d, 0x7f, 0x7f, 0xda, 0xac, 0x81, 0x13, 0x1f, 0x8c, 0x2f, 0xa9, 0x01, 0x1c,
  0x02, 0x4b, 0x28, 0xda, 0x13, 0xe2, 0xdc, 0xd0, 0x00, 0xfa, 0xf6, 0xff, 0xff,
  0x04, 0x00, 0x00, 0x00, 0x4b, 0x00, 0x00, 0x00, 0xf1, 0x3a, 0xe9, 0x11, 0xf4,
  0x12, 0x06, 0x23, 0x19, 0x07, 0xe4, 0xfa, 0xea, 0x14, 0x11, 0x14, 0x96, 0xa8,
  0xd1, 0xdf, 0x29, 0x2b, 0xe6, 0xc8, 0xcf, 0x07, 0xdf, 0xec, 0x99, 0x03, 0xe9,
  0xcf, 0x33, 0x21, 0xa1, 0x38, 0x5d, 0x7f, 0x92, 0x19, 0xbf, 0x81, 0x94, 0x51,
  0x2f, 0x7f, 0x7f, 0xf6, 0x8c, 0x81, 0x7f, 0x7f, 0xc1, 0x81, 0x8a, 0x81, 0x91,
  0x81, 0xc5, 0x7f, 0x2a, 0x61, 0x81, 0x81, 0x02, 0x6f, 0x64, 0x41, 0x1f, 0x81,
  0xf4, 0x31, 0xe8, 0x81, 0x12, 0x00, 0x52, 0xf7, 0xff, 0xff, 0x04, 0x00, 0x00,
  0x00, 0x2c, 0x01, 0x00, 0x00, 0x16, 0x07, 0x9a, 0x2f, 0x45, 0x81, 0x4b, 0x78,
  0x2e, 0x25, 0x5e, 0x2b, 0x4e, 0x9b, 0x36, 0xc0, 0xf6, 0x3e, 0x29, 0xad, 0xcd,
  0xa1, 0x81, 0x12, 0x0a, 0x09, 0x12, 0x16, 0x08, 0x89, 0xff, 0xc4, 0x30, 0xc3,
  0x71, 0x8c, 0x09, 0x0e, 0x54, 0xfb, 0xe9, 0xf8, 0xe4, 0x18, 0x18, 0xfe, 0xf5,
  0xd7, 0xf6, 0x16, 0x51, 0xd3, 0xbb, 0xf3, 0xf1, 0x04, 0x7f, 0x20, 0xf6, 0xdc,
  0xae, 0x37, 0xcf, 0x03, 0x0f, 0xe2, 0xbf, 0x4a, 0xe9, 0x1c, 0xd9, 0x6b, 0x7f,
  0xbc, 0xc1, 0xb5, 0x3c, 0xd5, 0x45, 0xa3, 0x45, 0xba, 0x4b, 0xf6, 0xe3, 0xf3,
  0x30, 0x1b, 0x0d, 0xfe, 0xfc, 0x12, 0x01, 0xe0, 0x1c, 0x0d, 0x23, 0xcd, 0x81,
  0xf5, 0x0d, 0x14, 0xde, 0x81, 0x1e, 0x0d, 0x37, 0x1f, 0x03, 0xd1, 0xdd, 0xdf,
  0xd5, 0x45, 0x11, 0xf8, 0xfe, 0x29, 0x3c, 0x34, 0x26, 0x87, 0xa9, 0xcc, 0xa7,
  0x74, 0xfb, 0x24, 0x1a, 0x7f, 0x06, 0x21, 0xbb, 0x5d, 0x65, 0xf8, 0x6b, 0x1c,
  0xa2, 0x27, 0x04, 0x2b, 0xa9, 0x08, 0xcd, 0x0b, 0x0f, 0x06, 0xf5, 0x26, 0x1d,
  0xeb, 0x55, 0xc8, 0xfe, 0x06, 0x07, 0x7f, 0xec, 0x13, 0xda, 0x26, 0x40, 0x16,
  0x0c, 0xff, 0x81, 0xf3, 0xdd, 0xd6, 0xd7, 0x31, 0xf5, 0x2f, 0xf5, 0xed, 0x1e,
  0x0c, 0xd1, 0x00, 0x19, 0x02, 0xf3, 0x0f, 0x12, 0x13, 0xda, 0xeb, 0x13, 0xc7,
  0xe4, 0x17, 0x17, 0x4d, 0xa5, 0xe2, 0x16, 0x7f, 0xd5, 0x0f, 0x7f, 0xc1, 0x0d,
  0x05, 0x2f, 0xd2, 0xfa, 0x0a, 0xde, 0x85, 0xf9, 0xde, 0xda, 0x2c, 0x0c, 0xd3,
  0xcb, 0xe0, 0x25, 0xb1, 0x31, 0xe6, 0xf4, 0x3a, 0x0b, 0xe1, 0x06, 0x7f, 0x07,
  0x10, 0x09, 0xc6, 0xf4, 0x04, 0x38, 0xaa, 0xc0, 0x00, 0xeb, 0x25, 0xf9, 0xd8,
  0xe4, 0x07, 0x33, 0xcf, 0xf6, 0x7f, 0xff, 0x09, 0x02, 0xcd, 0xf2, 0xc8, 0x47,
  0xc2, 0xe0, 0x65, 0x6d, 0xe4, 0xc7, 0x3e, 0xa0, 0xfe, 0x51, 0xf1, 0x29, 0xf3,
  0xcf, 0x34, 0x7a, 0xf4, 0xe5, 0x33, 0xd8, 0xf0, 0xf3, 0x2b, 0x7f, 0x0e, 0x35,
  0x1b, 0x35, 0x27, 0x47, 0x0d, 0x9e, 0xce, 0xe4, 0x81, 0x0d, 0x35, 0x53, 0xed,
  0xb7, 0x69, 0xd5, 0x93, 0x3e, 0xcd, 0x8a, 0xf8, 0xff, 0xff, 0x04, 0x00, 0x00,
  0x00, 0x64, 0x00, 0x00, 0x00, 0x81, 0xf0, 0x81, 0x17, 0x93, 0x9c, 0xf2, 0x44,
  0x2e, 0x14, 0x77, 0x81, 0x0e, 0x6a, 0xf0, 0x72, 0xea, 0xee, 0x36, 0xb7, 0x06,
  0xf1, 0xec, 0x47, 0x7f, 0x76, 0x7f, 0xa7, 0x4c, 0x48, 0xd2, 0x55, 0x5f, 0xf0,
  0x53, 0x81, 0xe6, 0x1f, 0xc9, 0xaf, 0x83, 0x81, 0x4c, 0xde, 0x03, 0x7f, 0xa8,
  0x81, 0x81, 0xd0, 0xbc, 0x7f, 0x2d, 0x7f, 0x29, 0xdc, 0xe2, 0x7f, 0x81, 0x81,
  0xe3, 0xc6, 0x60, 0x3e, 0xd3, 0xc1, 0x0f, 0x3f, 0x0b, 0x7f, 0x81, 0xeb, 0x27,
  0x91, 0x7f, 0x4c, 0x7f, 0x8d, 0xe1, 0xf2, 0xff, 0xca, 0xf1, 0x81, 0x10, 0xab,
  0xe9, 0x57, 0xfb, 0x4f, 0x7c, 0xd6, 0x7f, 0x9b, 0xe6, 0xe4, 0xda, 0xe6, 0xf6,
  0x3a, 0xfa, 0xf8, 0xff, 0xff, 0x04, 0x00, 0x00, 0x00, 0xa0, 0x00, 0x00, 0x00,
  0x00, 0x00, 0x00, 0x00, 0x00, 0x00, 0x00, 0x00, 0x00, 0x00, 0x00, 0x00, 0x00,
  0x00, 0x00, 0x00, 0x00, 0x00, 0x00, 0x00, 0x00, 0x00, 0x00, 0x00, 0x00, 0x00,
  0x00, 0x00, 0x00, 0x00, 0x00, 0x00, 0x00, 0x00, 0x00, 0x00, 0x00, 0x00, 0x00,
  0x00, 0x00, 0x00, 0x00, 0x00, 0x00, 0x00, 0x00, 0x00, 0x00, 0x00, 0x00, 0x00,
  0x00, 0x00, 0x00, 0x00, 0x00, 0x00, 0x00, 0x00, 0x00, 0x00, 0x00, 0x00, 0x00,
  0x00, 0x00, 0x00, 0x00, 0x00, 0x00, 0x00, 0x00, 0x00, 0x00, 0x00, 0x00, 0x00,
  0x00, 0x00, 0x00, 0x00, 0x00, 0x00, 0x00, 0x00, 0x00, 0x00, 0x00, 0x00, 0x00,
  0x00, 0x00, 0x00, 0x00, 0x00, 0x00, 0x00, 0x00, 0x00, 0x00, 0x00, 0x00, 0x00,
  0x00, 0x00, 0x00, 0x00, 0x00, 0x00, 0x00, 0x00, 0x00, 0x00, 0x00, 0x00, 0x00,
  0x00, 0x00, 0x00, 0x00, 0x00, 0x00, 0x00, 0x00, 0x00, 0x00, 0x00, 0x00, 0x00,
  0x00, 0x00, 0x00, 0x00, 0x00, 0x00, 0x00, 0x00, 0x00, 0x00, 0x00, 0x00, 0x00,
  0x00, 0x00, 0x00, 0x00, 0x00, 0x00, 0x00, 0x00, 0x00, 0x00, 0x00, 0x00, 0x00,
  0x00, 0x00, 0x00, 0x00, 0xa6, 0xf9, 0xff, 0xff, 0x04, 0x00, 0x00, 0x00, 0x64,
  0x00, 0x00, 0x00, 0xb2, 0x0d, 0xcf, 0x7f, 0x65, 0x05, 0x06, 0x7d, 0xd0, 0x9f,
  0x48, 0x33, 0x55, 0x01, 0xe2, 0x41, 0xc4, 0x07, 0xe3, 0xe9, 0xe9, 0x7f, 0x43,
  0x99, 0x0b, 0xdf, 0x4b, 0x81, 0xdc, 0xbf, 0xf4, 0xd9, 0x94, 0x1b, 0xd0, 0x03,
  0xdb, 0x61, 0x7f, 0x1e, 0x28, 0xde, 0x7f, 0xf1, 0x81, 0x7f, 0x81, 0x58, 0x81,
  0xba, 0x22, 0x1a, 0xdb, 0x81, 0x7f, 0x72, 0x1b, 0x09, 0xdf, 0x2a, 0x7f, 0xcf,
  0x34, 0xbe, 0xd9, 0xff, 0x0d, 0x13, 0xdd, 0x7f, 0x43, 0x81, 0xc0, 0xa1, 0xb2,
  0x7f, 0x7f, 0x81, 0x8b, 0x4a, 0xc1, 0xc1, 0x61, 0xce, 0xeb, 0xc3, 0x14, 0x3e,
  0xde, 0x75, 0x81, 0x4c, 0x7f, 0xcb, 0x1b, 0x0b, 0xdc, 0x0f, 0x31, 0x81, 0x16,
  0xfa, 0xff, 0xff, 0x04, 0x00, 0x00, 0x00, 0xe1, 0x00, 0x00, 0x00, 0xc3, 0x88,
  0x81, 0xf4, 0xf5, 0x08, 0x23, 0x82, 0x29, 0x3b, 0x4a, 0x93, 0xc4, 0xd6, 0x3d,
  0x1a, 0xff, 0x2f, 0x81, 0x12, 0xa4, 0x00, 0xd5, 0xff, 0x23, 0xf2, 0xac, 0x10,
  0xf8, 0x1d, 0xd9, 0x2d, 0x3d, 0x59, 0x58, 0x08, 0xea, 0x76, 0x47, 0x98, 0x13,
  0x5c, 0xec, 0x1d, 0x81, 0xed, 0x11, 0xf4, 0xdc, 0x1b, 0x1b, 0xe0, 0xcd, 0x15,
  0x0e, 0x09, 0xe3, 0xd3, 0x81, 0xe1, 0x09, 0xff, 0x05, 0xf5, 0x34, 0x2a, 0x1b,
  0x0d, 0x1b, 0xf3, 0x04, 0x1c, 0xee, 0x7f, 0xc1, 0x7f, 0x30, 0x07, 0xef, 0x23,
  0xed, 0xfd, 0x11, 0xd4, 0xfd, 0x5b, 0xcb, 0xf3, 0xf6, 0xfb, 0xe8, 0x0a, 0xda,
  0x4a, 0x57, 0xfa, 0xe2, 0xa2, 0x5b, 0x46, 0x04, 0x81, 0xed, 0x6c, 0xd7, 0xe0,
  0xe3, 0x17, 0xce, 0xee, 0xac, 0xf8, 0xed, 0x24, 0x48, 0x81, 0x98, 0x2f, 0x25,
  0x1a, 0xea, 0x4c, 0x0b, 0x62, 0xef, 0xda, 0x51, 0x7c, 0xeb, 0x81, 0xd5, 0xc6,
  0x96, 0xb0, 0xd8, 0xe5, 0x15, 0xd8, 0x6f, 0x41, 0x77, 0xb0, 0x18, 0xcf, 0xff,
  0xff, 0x81, 0x1d, 0x42, 0xe8, 0x7f, 0x1e, 0x0b, 0x28, 0x2b, 0x36, 0x0f, 0x01,
  0x26, 0xdc, 0x27, 0xee, 0x01, 0x9e, 0xbf, 0xef, 0x0a, 0xf1, 0x81, 0x4a, 0x0b,
  0x10, 0x11, 0x2b, 0x2e, 0xf0, 0xf3, 0xdf, 0xe1, 0xe8, 0x1f, 0xc5, 0x0b, 0x52,
  0xff, 0x06, 0xea, 0xfd, 0x25, 0x2c, 0x07, 0xcd, 0x36, 0x81, 0x21, 0xfd, 0x22,
  0x22, 0x31, 0xe8, 0x0e, 0x1a, 0x0b, 0x0c, 0xdc, 0x04, 0x7f, 0xfc, 0x8c, 0xfd,
  0x45, 0xd4, 0x26, 0xd3, 0x30, 0xd2, 0xb6, 0x24, 0xc5, 0xd1, 0x0e, 0xd7, 0x7f,
  0xc9, 0x99, 0x00, 0x00, 0x00, 0x06, 0xfb, 0xff, 0xff, 0x04, 0x00, 0x00, 0x00,
  0x4b, 0x00, 0x00, 0x00, 0x1c, 0xd7, 0xbc, 0x0f, 0xef, 0x03, 0xe4, 0x05, 0xec,
  0xf0, 0x0a, 0xdb, 0x81, 0x06, 0xf6, 0x2c, 0xc5, 0xdb, 0xb3, 0x81, 0xff, 0xcf,
  0xe7, 0x3d, 0xc0, 0x0c, 0x0f, 0x82, 0x33, 0x8e, 0x6b, 0x20, 0x5c, 0x7f, 0x07,
  0x42, 0x7f, 0xc2, 0xe6, 0x81, 0x30, 0x47, 0x7d, 0x81, 0xbe, 0x7f, 0x7f, 0x7f,
  0xfc, 0x3d, 0xae, 0xd5, 0x81, 0x81, 0x33, 0x7f, 0x7f, 0x63, 0xb3, 0x7f, 0x61,
  0x24, 0x38, 0xf5, 0x23, 0x81, 0xfa, 0x13, 0x8d, 0xf2, 0x51, 0xbc, 0x19, 0xe8,
  0xdb, 0x00, 0x5e, 0xfb, 0xff, 0xff, 0x04, 0x00, 0x00, 0x00, 0x4b, 0x00, 0x00,
  0x00, 0x0b, 0xec, 0xf4, 0xf6, 0xef, 0x08, 0x07, 0xe9, 0xfb, 0xf4, 0x20, 0xfa,
  0x05, 0x42, 0xf2, 0xd8, 0xee, 0x28, 0xb9, 0xe6, 0x6e, 0xf1, 0x4c, 0xd8, 0x2b,
  0x34, 0x7f, 0x04, 0xcc, 0xdb, 0xb8, 0x81, 0x33, 0x22, 0x81, 0x7f, 0x33, 0xda,
  0x81, 0x7f, 0x64, 0x6a, 0x81, 0xe6, 0x81, 0x81, 0xd0, 0x7f, 0x81, 0xd0, 0x1d,
  0x81, 0x81, 0x0b, 0xc7, 0x64, 0xfa, 0xf2, 0x81, 0xd5, 0xde, 0x02, 0x27, 0xe0,
  0xe7, 0x29, 0x10, 0xf5, 0xf4, 0xaf, 0x7f, 0xec, 0x07, 0x12, 0xf1, 0x00, 0xb6,
  0xfb, 0xff, 0xff, 0x04, 0x00, 0x00, 0x00, 0x2c, 0x01, 0x00, 0x00, 0x35, 0xda,
  0xfe, 0xf8, 0xe4, 0xfd, 0xe3, 0xd4, 0x7f, 0x1c, 0x9a, 0xdc, 0xac, 0xf3, 0x1a,
  0x3b, 0x03, 0x11, 0xe7, 0x00, 0xe4, 0x81, 0xe7, 0xd3, 0xb3, 0xcb, 0xa0, 0x2d,
  0xff, 0xf0, 0x18, 0xcf, 0xf4, 0x3b, 0xda, 0xe8, 0x42, 0x2a, 0xe7, 0xf4, 0x34,
  0xfb, 0xf0, 0xf7, 0x10, 0xe9, 0xff, 0x0d, 0x1b, 0x10, 0x98, 0xcc, 0x14, 0xfa,
  0x1e, 0x3a, 0x7f, 0x2c, 0xc2, 0xf5, 0xfb, 0x0c, 0x81, 0x00, 0x04, 0xfe, 0xf4,
  0x0b, 0xf9, 0x0e, 0x11, 0xfe, 0xff, 0x16, 0xd8, 0x12, 0xef, 0xf5, 0x02, 0xfc,
  0xff, 0x12, 0x0b, 0x27, 0x17, 0x23, 0x2b, 0xc9, 0x05, 0x81, 0x0a, 0x43, 0xc1,
  0xec, 0x02, 0xdf, 0x04, 0xf8, 0x36, 0x1e, 0x0d, 0xf2, 0x08, 0xf0, 0xe5, 0x14,
  0xe3, 0x26, 0xe0, 0x43, 0x0d, 0x81, 0xc6, 0xe0, 0x3e, 0x0a, 0x0c, 0xd1, 0xe1,
  0x00, 0x8c, 0x56, 0x32, 0x81, 0xef, 0xfc, 0x1b, 0x1c, 0x17, 0x27, 0x24, 0x0b,
  0x16, 0xf3, 0xd7, 0xdb, 0x0b, 0xe0, 0x0e, 0x17, 0xbf, 0x09, 0xf8, 0x3c, 0xec,
  0xf8, 0x23, 0x7f, 0x41, 0x23, 0x0f, 0xf2, 0xdc, 0x5b, 0x29, 0xce, 0xc6, 0xde,
  0x1d, 0xf2, 0x18, 0x1d, 0xfc, 0x00, 0x0d, 0x02, 0x18, 0xee, 0x22, 0xe3, 0xcd,
  0xee, 0x7f, 0xf3, 0xa7, 0x09, 0x51, 0x12, 0xe7, 0x01, 0xf5, 0x1b, 0xff, 0x12,
  0x4c, 0x0d, 0xe5, 0x44, 0xdb, 0x81, 0xea, 0x36, 0x15, 0x0d, 0xe6, 0x35, 0xe0,
  0x16, 0xf0, 0xfb, 0x34, 0xf1, 0xfd, 0x3e, 0xf7, 0x0e, 0xec, 0xe2, 0xcb, 0x24,
  0x07, 0xe9, 0x81, 0xde, 0x05, 0xf3, 0x32, 0xf8, 0xda, 0xfd, 0xf9, 0xf8, 0x81,
  0x08, 0x03, 0x00, 0xf7, 0x0c, 0x07, 0x08, 0x09, 0xf8, 0x04, 0x0f, 0x06, 0x03,
  0xf5, 0xfb, 0x00, 0xfd, 0xd8, 0x2a, 0x04, 0x01, 0xda, 0xd0, 0xd2, 0xc1, 0xe8,
  0x48, 0xef, 0xc2, 0x7e, 0x29, 0x04, 0x4b, 0xed, 0x33, 0x81, 0xe1, 0x0a, 0xfa,
  0x06, 0xdb, 0xf9, 0xfd, 0xe4, 0xf8, 0x11, 0xf2, 0xf5, 0xed, 0x13, 0x2c, 0x26,
  0xf8, 0x13, 0xb8, 0x04, 0x7f, 0x21, 0xdf, 0x07, 0x10, 0x1e, 0x26, 0xfd, 0x01,
  0x19, 0x04, 0x07, 0xdf, 0x09, 0xf1, 0x3c, 0x1a, 0xb2, 0x81, 0x02, 0x1e, 0xee,
  0xfc, 0xff, 0xff, 0x04, 0x00, 0x00, 0x00, 0x64, 0x00, 0x00, 0x00, 0xfa, 0xf6,
  0x01, 0x7f, 0xe4, 0x03, 0x8c, 0xa9, 0x7f, 0x72, 0xd2, 0xa0, 0x81, 0x2c, 0x30,
  0xfa, 0xa7, 0x9b, 0xcc, 0x9b, 0x81, 0x8b, 0x7f, 0xbd, 0x7f, 0x7f, 0x7f, 0x60,
  0xc6, 0x83, 0x68, 0x7f, 0x39, 0xd8, 0x7f, 0x81, 0x81, 0x81, 0x7f, 0x81, 0xfb,
  0x01, 0x4c, 0xcb, 0x8a, 0x9c, 0xdf, 0x7f, 0xdb, 0xde, 0x46, 0x9e, 0x4d, 0x81,
  0x15, 0x30, 0x53, 0x55, 0xbb, 0xf7, 0xcc, 0x0f, 0x1a, 0xfa, 0xf6, 0xe9, 0xe5,
  0xe9, 0xe7, 0x81, 0x1c, 0xed, 0xc1, 0xba, 0x16, 0x18, 0x15, 0x09, 0xe5, 0x06,
  0xe8, 0x7f, 0x04, 0x04, 0xe1, 0xf8, 0x27, 0xfe, 0x00, 0xf3, 0x81, 0x0a, 0xf4,
  0xd8, 0xe8, 0x4b, 0xe8, 0xea, 0xdc, 0x02, 0x5e, 0xfd, 0xff, 0xff, 0x04, 0x00,
  0x00, 0x00, 0x64, 0x00, 0x00, 0x00, 0xca, 0x15, 0xf5, 0x39, 0x15, 0xf7, 0x16,
  0xe0, 0x34, 0x05, 0x35, 0xcd, 0x1f, 0xa8, 0xee, 0x81, 0x24, 0x0e, 0x7f, 0xf3,
  0x7f, 0x81, 0xb3, 0x81, 0x5d, 0x4d, 0x72, 0xa5, 0x17, 0xa8, 0xa6, 0xc3, 0x27,
  0x81, 0x36, 0x4c, 0x6c, 0xe9, 0x06, 0x13, 0x1d, 0xa0, 0x81, 0x3e, 0x81, 0x81,
  0x7f, 0x0b, 0x81, 0x18, 0x87, 0x7f, 0x6a, 0xc6, 0x81, 0x64, 0xf2, 0x81, 0x47,
  0x8a, 0xc1, 0x08, 0x92, 0xc0, 0xde, 0xd2, 0x0c, 0x7f, 0x19, 0xba, 0x7f, 0x2e,
  0x81, 0x0a, 0x33, 0x40, 0x81, 0x0b, 0xd7, 0x81, 0xdb, 0xf8, 0xdd, 0xe8, 0x2c,
  0xdf, 0xcb, 0xe5, 0x10, 0x7f, 0x3a, 0x2b, 0xbe, 0x24, 0x2a, 0xe3, 0xf2, 0x0b,
  0xe0, 0xfe, 0xce, 0xfd, 0xff, 0xff, 0x04, 0x00, 0x00, 0x00, 0x14, 0x00, 0x00,
  0x00, 0x7f, 0x7f, 0x81, 0x81, 0x81, 0x81, 0x7f, 0x81, 0x7f, 0x81, 0x81, 0x7f,
  0x7f, 0x7f, 0x81, 0x7f, 0x7f, 0x81, 0x7f, 0x7f, 0xee, 0xfd, 0xff, 0xff, 0x04,
  0x00, 0x00, 0x00, 0x07, 0x00, 0x00, 0x00, 0xfe, 0xf0, 0x81, 0x27, 0xfd, 0xfd,
  0x01, 0x00, 0x02, 0xfe, 0xff, 0xff, 0x04, 0x00, 0x00, 0x00, 0x07, 0x00, 0x00,
  0x00, 0xff, 0xf2, 0x31, 0x7f, 0xd3, 0x14, 0xfb, 0x00, 0x16, 0xfe, 0xff, 0xff,
  0x04, 0x00, 0x00, 0x00, 0x20, 0x00, 0x00, 0x00, 0x00, 0x00, 0x00, 0x00, 0x00,
  0x00, 0x00, 0x00, 0x03, 0x00, 0x00, 0x00, 0x03, 0x00, 0x00, 0x00, 0x03, 0x00,
  0x00, 0x00, 0x03, 0x00, 0x00, 0x00, 0x00, 0x00, 0x00, 0x00, 0x00, 0x00, 0x00,
  0x00, 0x42, 0xfe, 0xff, 0xff, 0x04, 0x00, 0x00, 0x00, 0x78, 0x00, 0x00, 0x00,
  0xad, 0xf6, 0xff, 0xff, 0xff, 0xff, 0xff, 0xff, 0x13, 0x01, 0x00, 0x00, 0x00,
  0x00, 0x00, 0x00, 0x77, 0x07, 0x00, 0x00, 0x00, 0x00, 0x00, 0x00, 0xae, 0xa5,
  0xff, 0xff, 0xff, 0xff, 0xff, 0xff, 0x95, 0xf8, 0xff, 0xff, 0xff, 0xff, 0xff,
  0xff, 0x69, 0x20, 0x00, 0x00, 0x00, 0x00, 0x00, 0x00, 0x3d, 0xf6, 0xff, 0xff,
  0xff, 0xff, 0xff, 0xff, 0x69, 0xe0, 0xff, 0xff, 0xff, 0xff, 0xff, 0xff, 0xc6,
  0xeb, 0xff, 0xff, 0xff, 0xff, 0xff, 0xff, 0xbf, 0xfe, 0xff, 0xff, 0xff, 0xff,
  0xff, 0xff, 0x4e, 0x0c, 0x00, 0x00, 0x00, 0x00, 0x00, 0x00, 0xf8, 0xb6, 0xff,
  0xff, 0xff, 0xff, 0xff, 0xff, 0xe4, 0xe4, 0xff, 0xff, 0xff, 0xff, 0xff, 0xff,
  0x9b, 0xe1, 0xff, 0xff, 0xff, 0xff, 0xff, 0xff, 0xe2, 0xf7, 0xff, 0xff, 0xff,
  0xff, 0xff, 0xff, 0xc6, 0xfe, 0xff, 0xff, 0x04, 0x00, 0x00, 0x00, 0x60, 0x00,
  0x00, 0x00, 0xab, 0x43, 0x00, 0x00, 0x00, 0x00, 0x00, 0x00, 0x28, 0x12, 0x00,
  0x00, 0x00, 0x00, 0x00, 0x00, 0xcb, 0xd7, 0xff, 0xff, 0xff, 0xff, 0xff, 0xff,
  0x55, 0x20, 0xff, 0xff, 0xff, 0xff, 0xff, 0xff, 0x18, 0x64, 0xff, 0xff, 0xff,
  0xff, 0xff, 0xff, 0xd4, 0x87, 0x00, 0x00, 0x00, 0x00, 0x00, 0x00, 0xc1, 0x40,
  0x00, 0x00, 0x00, 0x00, 0x00, 0x00, 0x00, 0xa3, 0xff, 0xff, 0xff, 0xff, 0xff,
  0xff, 0xba, 0x45, 0x00, 0x00, 0x00, 0x00, 0x00, 0x00, 0x92, 0x75, 0x00, 0x00,
  0x00, 0x00, 0x00, 0x00, 0x3d, 0xd2, 0xff, 0xff, 0xff, 0xff, 0xff, 0xff, 0xf7,
  0xf0, 0xff, 0xff, 0xff, 0xff, 0xff, 0xff, 0x32, 0xff, 0xff, 0xff, 0x04, 0x00,
  0x00, 0x00, 0x48, 0x00, 0x00, 0x00, 0xb9, 0xb4, 0xff, 0xff, 0xff, 0xff, 0xff,
  0xff, 0x6b, 0x29, 0x01, 0x00, 0x00, 0x00, 0x00, 0x00, 0xf4, 0x60, 0xf6, 0xff,
  0xff, 0xff, 0xff, 0xff, 0x87, 0xc5, 0xfe, 0xff, 0xff, 0xff, 0xff, 0xff, 0x87,
  0xc8, 0x00, 0x00, 0x00, 0x00, 0x00, 0x00, 0x7e, 0x37, 0x00, 0x00, 0x00, 0x00,
  0x00, 0x00, 0x55, 0xaa, 0x01, 0x00, 0x00, 0x00, 0x00, 0x00, 0xf1, 0x97, 0xff,
  0xff, 0xff, 0xff, 0xff, 0xff, 0x3c, 0x83, 0xfe, 0xff, 0xff, 0xff, 0xff, 0xff,
  0x86, 0xff, 0xff, 0xff, 0x04, 0x00, 0x00, 0x00, 0x38, 0x00, 0x00, 0x00, 0x8f,
  0x51, 0x01, 0x00, 0x00, 0x00, 0x00, 0x00, 0x4f, 0x4c, 0x00, 0x00, 0x00, 0x00,
  0x00, 0x00, 0x76, 0xd6, 0xff, 0xff, 0xff, 0xff, 0xff, 0xff, 0x79, 0x0e, 0xef,
  0xff, 0xff, 0xff, 0xff, 0xff, 0x89, 0x3f, 0xf7, 0xff, 0xff, 0xff, 0xff, 0xff,
  0x6a, 0xdd, 0x00, 0x00, 0x00, 0x00, 0x00, 0x00, 0xf1, 0x3e, 0xfd, 0xff, 0xff,
  0xff, 0xff, 0xff, 0xca, 0xff, 0xff, 0xff, 0x04, 0x00, 0x00, 0x00, 0x28, 0x00,
  0x00, 0x00, 0x84, 0xf1, 0xff, 0xff, 0xff, 0xff, 0xff, 0xff, 0xa0, 0xbb, 0xff,
  0xff, 0xff, 0xff, 0xff, 0xff, 0xd6, 0xa3, 0xff, 0xff, 0xff, 0xff, 0xff, 0xff,
  0x3a, 0x29, 0xff, 0xff, 0xff, 0xff, 0xff, 0xff, 0x4d, 0x64, 0xfd, 0xff, 0xff,
  0xff, 0xff, 0xff, 0x00, 0x00, 0x06, 0x00, 0x08, 0x00, 0x04, 0x00, 0x06, 0x00,
  0x00, 0x00, 0x04, 0x00, 0x00, 0x00, 0x28, 0x00, 0x00, 0x00, 0xf8, 0xd0, 0xfe,
  0xff, 0xff, 0xff, 0xff, 0xff, 0xda, 0x1e, 0xfd, 0xff, 0xff, 0xff, 0xff, 0xff,
  0x4d, 0xe3, 0xf9, 0xff, 0xff, 0xff, 0xff, 0xff, 0xc3, 0x6d, 0xfe, 0xff, 0xff,
  0xff, 0xff, 0xff, 0x93, 0x10, 0xff, 0xff, 0xff, 0xff, 0xff, 0xff, 0x58, 0x7d,
  0xff, 0xff, 0x5c, 0x7d, 0xff, 0xff, 0x0f, 0x00, 0x00, 0x00, 0x4d, 0x4c, 0x49,
  0x52, 0x20, 0x43, 0x6f, 0x6e, 0x76, 0x65, 0x72, 0x74, 0x65, 0x64, 0x2e, 0x00,
  0x01, 0x00, 0x00, 0x00, 0x14, 0x00, 0x00, 0x00, 0x00, 0x00, 0x0e, 0x00, 0x18,
  0x00, 0x14, 0x00, 0x10, 0x00, 0x0c, 0x00, 0x08, 0x00, 0x04, 0x00, 0x0e, 0x00,
  0x00, 0x00, 0x14, 0x00, 0x00, 0x00, 0x1c, 0x00, 0x00, 0x00, 0x50, 0x11, 0x00,
  0x00, 0x54, 0x11, 0x00, 0x00, 0x58, 0x11, 0x00, 0x00, 0x04, 0x00, 0x00, 0x00,
  0x6d, 0x61, 0x69, 0x6e, 0x00, 0x00, 0x00, 0x00, 0x42, 0x00, 0x00, 0x00, 0x14,
  0x11, 0x00, 0x00, 0xd8, 0x10, 0x00, 0x00, 0x78, 0x10, 0x00, 0x00, 0x24, 0x10,
  0x00, 0x00, 0xd8, 0x0f, 0x00, 0x00, 0x94, 0x0f, 0x00, 0x00, 0x50, 0x0f, 0x00,
  0x00, 0x00, 0x0f, 0x00, 0x00, 0xbc, 0x0e, 0x00, 0x00, 0x78, 0x0e, 0x00, 0x00,
  0x38, 0x0e, 0x00, 0x00, 0xf4, 0x0d, 0x00, 0x00, 0xb0, 0x0d, 0x00, 0x00, 0x70,
  0x0d, 0x00, 0x00, 0x30, 0x0d, 0x00, 0x00, 0xec, 0x0c, 0x00, 0x00, 0xa8, 0x0c,
  0x00, 0x00, 0x64, 0x0c, 0x00, 0x00, 0x20, 0x0c, 0x00, 0x00, 0xdc, 0x0b, 0x00,
  0x00, 0x9c, 0x0b, 0x00, 0x00, 0x58, 0x0b, 0x00, 0x00, 0x14, 0x0b, 0x00, 0x00,
  0xd4, 0x0a, 0x00, 0x00, 0x9c, 0x0a, 0x00, 0x00, 0x58, 0x0a, 0x00, 0x00, 0x14,
  0x0a, 0x00, 0x00, 0xd0, 0x09, 0x00, 0x00, 0x8c, 0x09, 0x00, 0x00, 0x48, 0x09,
  0x00, 0x00, 0x08, 0x09, 0x00, 0x00, 0xc4, 0x08, 0x00, 0x00, 0x80, 0x08, 0x00,
  0x00, 0x40, 0x08, 0x00, 0x00, 0x08, 0x08, 0x00, 0x00, 0xc4, 0x07, 0x00, 0x00,
  0x80, 0x07, 0x00, 0x00, 0x3c, 0x07, 0x00, 0x00, 0xf8, 0x06, 0x00, 0x00, 0xb4,
  0x06, 0x00, 0x00, 0x74, 0x06, 0x00, 0x00, 0x30, 0x06, 0x00, 0x00, 0xec, 0x05,
  0x00, 0x00, 0xac, 0x05, 0x00, 0x00, 0x74, 0x05, 0x00, 0x00, 0x30, 0x05, 0x00,
  0x00, 0xec, 0x04, 0x00, 0x00, 0xa8, 0x04, 0x00, 0x00, 0x64, 0x04, 0x00, 0x00,
  0x20, 0x04, 0x00, 0x00, 0xe0, 0x03, 0x00, 0x00, 0x9c, 0x03, 0x00, 0x00, 0x58,
  0x03, 0x00, 0x00, 0x18, 0x03, 0x00, 0x00, 0xe0, 0x02, 0x00, 0x00, 0x9c, 0x02,
  0x00, 0x00, 0x58, 0x02, 0x00, 0x00, 0x14, 0x02, 0x00, 0x00, 0xd0, 0x01, 0x00,
  0x00, 0x8c, 0x01, 0x00, 0x00, 0x4c, 0x01, 0x00, 0x00, 0x14, 0x01, 0x00, 0x00,
  0xc0, 0x00, 0x00, 0x00, 0x78, 0x00, 0x00, 0x00, 0x28, 0x00, 0x00, 0x00, 0x04,
  0x00, 0x00, 0x00, 0xfe, 0xef, 0xff, 0xff, 0x0c, 0x00, 0x00, 0x00, 0x10, 0x00,
  0x00, 0x00, 0x05, 0x00, 0x00, 0x00, 0x01, 0x00, 0x00, 0x00, 0x91, 0x00, 0x00,
  0x00, 0x01, 0x00, 0x00, 0x00, 0x8f, 0x00, 0x00, 0x00, 0xb6, 0xf0, 0xff, 0xff,
  0x20, 0x00, 0x00, 0x00, 0x00, 0x00, 0x00, 0x01, 0x28, 0x00, 0x00, 0x00, 0x2c,
  0x00, 0x00, 0x00, 0x02, 0x00, 0x00, 0x00, 0x00, 0x00, 0x0a, 0x00, 0x10, 0x00,
  0x0f, 0x00, 0x08, 0x00, 0x04, 0x00, 0x0a, 0x00, 0x00, 0x00, 0x01, 0x00, 0x00,
  0x00, 0x01, 0x00, 0x00, 0x00, 0x00, 0x00, 0x00, 0x01, 0x01, 0x00, 0x00, 0x00,
  0x8f, 0x00, 0x00, 0x00, 0x03, 0x00, 0x00, 0x00, 0x8e, 0x00, 0x00, 0x00, 0x47,
  0x00, 0x00, 0x00, 0x4f, 0x00, 0x00, 0x00, 0x02, 0xf1, 0xff, 0xff, 0x14, 0x00,
  0x00, 0x00, 0x00, 0x00, 0x00, 0x02, 0x20, 0x00, 0x00, 0x00, 0x24, 0x00, 0x00,
  0x00, 0x01, 0x00, 0x00, 0x00, 0xbc, 0xff, 0xff, 0xff, 0x01, 0x00, 0x00, 0x00,
  0x01, 0x00, 0x00, 0x00, 0x01, 0x00, 0x00, 0x00, 0x00, 0x00, 0x00, 0x01, 0x01,
  0x00, 0x00, 0x00, 0x8e, 0x00, 0x00, 0x00, 0x03, 0x00, 0x00, 0x00, 0x8d, 0x00,
  0x00, 0x00, 0x45, 0x00, 0x00, 0x00, 0x44, 0x00, 0x00, 0x00, 0x46, 0xf1, 0xff,
  0xff, 0x20, 0x00, 0x00, 0x00, 0x00, 0x00, 0x00, 0x02, 0x2c, 0x00, 0x00, 0x00,
  0x30, 0x00, 0x00, 0x00, 0x01, 0x00, 0x00, 0x00, 0x0c, 0x00, 0x14, 0x00, 0x13,
  0x00, 0x0c, 0x00, 0x08, 0x00, 0x04, 0x00, 0x0c, 0x00, 0x00, 0x00, 0x01, 0x00,
  0x00, 0x00, 0x01, 0x00, 0x00, 0x00, 0x01, 0x00, 0x00, 0x00, 0x00, 0x00, 0x00,
  0x01, 0x01, 0x00, 0x00, 0x00, 0x8d, 0x00, 0x00, 0x00, 0x03, 0x00, 0x00, 0x00,
  0x8c, 0x00, 0x00, 0x00, 0x43, 0x00, 0x00, 0x00, 0x44, 0x00, 0x00, 0x00, 0x96,
  0xf1, 0xff, 0xff, 0x14, 0x00, 0x00, 0x00, 0x00, 0x00, 0x00, 0x0b, 0x14, 0x00,
  0x00, 0x00, 0x18, 0x00, 0x00, 0x00, 0x03, 0x00, 0x00, 0x00, 0xa0, 0xf4, 0xff,
  0xff, 0x00, 0x00, 0x00, 0x00, 0x01, 0x00, 0x00, 0x00, 0x8c, 0x00, 0x00, 0x00,
  0x02, 0x00, 0x00, 0x00, 0x85, 0x00, 0x00, 0x00, 0x8b, 0x00, 0x00, 0x00, 0xca,
  0xf1, 0xff, 0xff, 0x14, 0x00, 0x00, 0x00, 0x00, 0x00, 0x00, 0x01, 0x18, 0x00,
  0x00, 0x00, 0x1c, 0x00, 0x00, 0x00, 0x02, 0x00, 0x00, 0x00, 0x52, 0xf2, 0xff,
  0xff, 0x01, 0x00, 0x00, 0x00, 0x01, 0x00, 0x00, 0x00, 0x01, 0x00, 0x00, 0x00,
  0x8b, 0x00, 0x00, 0x00, 0x03, 0x00, 0x00, 0x00, 0x8a, 0x00, 0x00, 0x00, 0x42,
  0x00, 0x00, 0x00, 0x4e, 0x00, 0x00, 0x00, 0x06, 0xf2, 0xff, 0xff, 0x14, 0x00,
  0x00, 0x00, 0x00, 0x00, 0x00, 0x02, 0x1c, 0x00, 0x00, 0x00, 0x20, 0x00, 0x00,
  0x00, 0x01, 0x00, 0x00, 0x00, 0xf8, 0xf1, 0xff, 0xff, 0x01, 0x00, 0x00, 0x00,
  0x01, 0x00, 0x00, 0x00, 0x01, 0x00, 0x00, 0x00, 0x01, 0x00, 0x00, 0x00, 0x8a,
  0x00, 0x00, 0x00, 0x03, 0x00, 0x00, 0x00, 0x89, 0x00, 0x00, 0x00, 0x41, 0x00,
  0x00, 0x00, 0x44, 0x00, 0x00, 0x00, 0x46, 0xf2, 0xff, 0xff, 0x14, 0x00, 0x00,
  0x00, 0x00, 0x00, 0x00, 0x02, 0x1c, 0x00, 0x00, 0x00, 0x20, 0x00, 0x00, 0x00,
  0x01, 0x00, 0x00, 0x00, 0x38, 0xf2, 0xff, 0xff, 0x01, 0x00, 0x00, 0x00, 0x01,
  0x00, 0x00, 0x00, 0x01, 0x00, 0x00, 0x00, 0x01, 0x00, 0x00, 0x00, 0x89, 0x00,
  0x00, 0x00, 0x03, 0x00, 0x00, 0x00, 0x88, 0x00, 0x00, 0x00, 0x40, 0x00, 0x00,
  0x00, 0x44, 0x00, 0x00, 0x00, 0x86, 0xf2, 0xff, 0xff, 0x14, 0x00, 0x00, 0x00,
  0x00, 0x00, 0x00, 0x01, 0x1c, 0x00, 0x00, 0x00, 0x20, 0x00, 0x00, 0x00, 0x02,
  0x00, 0x00, 0x00, 0xdc, 0xf3, 0xff, 0xff, 0x00, 0x00, 0x00, 0x01, 0x01, 0x00,
  0x00, 0x00, 0x01, 0x00, 0x00, 0x00, 0x01, 0x00, 0x00, 0x00, 0x88, 0x00, 0x00,
  0x00, 0x03, 0x00, 0x00, 0x00, 0x87, 0x00, 0x00, 0x00, 0x3f, 0x00, 0x00, 0x00,
  0x01, 0x00, 0x00, 0x00, 0xc6, 0xf2, 0xff, 0xff, 0x14, 0x00, 0x00, 0x00, 0x00,
  0x00, 0x00, 0x02, 0x1c, 0x00, 0x00, 0x00, 0x20, 0x00, 0x00, 0x00, 0x01, 0x00,
  0x00, 0x00, 0xb8, 0xf2, 0xff, 0xff, 0x01, 0x00, 0x00, 0x00, 0x01, 0x00, 0x00,
  0x00, 0x01, 0x00, 0x00, 0x00, 0x01, 0x00, 0x00, 0x00, 0x87, 0x00, 0x00, 0x00,
  0x03, 0x00, 0x00, 0x00, 0x86, 0x00, 0x00, 0x00, 0x3e, 0x00, 0x00, 0x00, 0x44,
  0x00, 0x00, 0x00, 0x06, 0xf3, 0xff, 0xff, 0x14, 0x00, 0x00, 0x00, 0x00, 0x00,
  0x00, 0x02, 0x1c, 0x00, 0x00, 0x00, 0x20, 0x00, 0x00, 0x00, 0x01, 0x00, 0x00,
  0x00, 0xf8, 0xf2, 0xff, 0xff, 0x01, 0x00, 0x00, 0x00, 0x01, 0x00, 0x00, 0x00,
  0x01, 0x00, 0x00, 0x00, 0x01, 0x00, 0x00, 0x00, 0x86, 0x00, 0x00, 0x00, 0x03,
  0x00, 0x00, 0x00, 0x85, 0x00, 0x00, 0x00, 0x3d, 0x00, 0x00, 0x00, 0x44, 0x00,
  0x00, 0x00, 0x46, 0xf3, 0xff, 0xff, 0x14, 0x00, 0x00, 0x00, 0x00, 0x00, 0x00,
  0x0b, 0x14, 0x00, 0x00, 0x00, 0x18, 0x00, 0x00, 0x00, 0x03, 0x00, 0x00, 0x00,
  0x50, 0xf6, 0xff, 0xff, 0x00, 0x00, 0x00, 0x00, 0x01, 0x00, 0x00, 0x00, 0x85,
  0x00, 0x00, 0x00, 0x02, 0x00, 0x00, 0x00, 0x84, 0x00, 0x00, 0x00, 0x81, 0x00,
  0x00, 0x00, 0x7a, 0xf3, 0xff, 0xff, 0x14, 0x00, 0x00, 0x00, 0x00, 0x00, 0x00,
  0x01, 0x18, 0x00, 0x00, 0x00, 0x1c, 0x00, 0x00, 0x00, 0x02, 0x00, 0x00, 0x00,
  0x02, 0xf4, 0xff, 0xff, 0x01, 0x00, 0x00, 0x00, 0x01, 0x00, 0x00, 0x00, 0x01,
  0x00, 0x00, 0x00, 0x84, 0x00, 0x00, 0x00, 0x03, 0x00, 0x00, 0x00, 0x83, 0x00,
  0x00, 0x00, 0x3c, 0x00, 0x00, 0x00, 0x4d, 0x00, 0x00, 0x00, 0xb6, 0xf3, 0xff,
  0xff, 0x14, 0x00, 0x00, 0x00, 0x00, 0x00, 0x00, 0x02, 0x1c, 0x00, 0x00, 0x00,
  0x20, 0x00, 0x00, 0x00, 0x01, 0x00, 0x00, 0x00, 0xa8, 0xf3, 0xff, 0xff, 0x01,
  0x00, 0x00, 0x00, 0x01, 0x00, 0x00, 0x00, 0x01, 0x00, 0x00, 0x00, 0x01, 0x00,
  0x00, 0x00, 0x83, 0x00, 0x00, 0x00, 0x03, 0x00, 0x00, 0x00, 0x82, 0x00, 0x00,
  0x00, 0x3b, 0x00, 0x00, 0x00, 0x3a, 0x00, 0x00, 0x00, 0xf6, 0xf3, 0xff, 0xff,
  0x14, 0x00, 0x00, 0x00, 0x00, 0x00, 0x00, 0x02, 0x1c, 0x00, 0x00, 0x00, 0x20,
  0x00, 0x00, 0x00, 0x01, 0x00, 0x00, 0x00, 0xe8, 0xf3, 0xff, 0xff, 0x01, 0x00,
  0x00, 0x00, 0x01, 0x00, 0x00, 0x00, 0x01, 0x00, 0x00, 0x00, 0x01, 0x00, 0x00,
  0x00, 0x82, 0x00, 0x00, 0x00, 0x03, 0x00, 0x00, 0x00, 0x7b, 0x00, 0x00, 0x00,
  0x39, 0x00, 0x00, 0x00, 0x3a, 0x00, 0x00, 0x00, 0x36, 0xf4, 0xff, 0xff, 0x14,
  0x00, 0x00, 0x00, 0x00, 0x00, 0x00, 0x01, 0x18, 0x00, 0x00, 0x00, 0x1c, 0x00,
  0x00, 0x00, 0x02, 0x00, 0x00, 0x00, 0xbe, 0xf4, 0xff, 0xff, 0x01, 0x00, 0x00,
  0x00, 0x01, 0x00, 0x00, 0x00, 0x01, 0x00, 0x00, 0x00, 0x81, 0x00, 0x00, 0x00,
  0x03, 0x00, 0x00, 0x00, 0x80, 0x00, 0x00, 0x00, 0x38, 0x00, 0x00, 0x00, 0x4d,
  0x00, 0x00, 0x00, 0x72, 0xf4, 0xff, 0xff, 0x14, 0x00, 0x00, 0x00, 0x00, 0x00,
  0x00, 0x02, 0x1c, 0x00, 0x00, 0x00, 0x20, 0x00, 0x00, 0x00, 0x01, 0x00, 0x00,
  0x00, 0x64, 0xf4, 0xff, 0xff, 0x01, 0x00, 0x00, 0x00, 0x01, 0x00, 0x00, 0x00,
  0x01, 0x00, 0x00, 0x00, 0x01, 0x00, 0x00, 0x00, 0x80, 0x00, 0x00, 0x00, 0x03,
  0x00, 0x00, 0x00, 0x7f, 0x00, 0x00, 0x00, 0x37, 0x00, 0x00, 0x00, 0x44, 0x00,
  0x00, 0x00, 0xb2, 0xf4, 0xff, 0xff, 0x14, 0x00, 0x00, 0x00, 0x00, 0x00, 0x00,
  0x02, 0x1c, 0x00, 0x00, 0x00, 0x20, 0x00, 0x00, 0x00, 0x01, 0x00, 0x00, 0x00,
  0xa4, 0xf4, 0xff, 0xff, 0x01, 0x00, 0x00, 0x00, 0x01, 0x00, 0x00, 0x00, 0x01,
  0x00, 0x00, 0x00, 0x01, 0x00, 0x00, 0x00, 0x7f, 0x00, 0x00, 0x00, 0x03, 0x00,
  0x00, 0x00, 0x7e, 0x00, 0x00, 0x00, 0x36, 0x00, 0x00, 0x00, 0x44, 0x00, 0x00,
  0x00, 0xf2, 0xf4, 0xff, 0xff, 0x14, 0x00, 0x00, 0x00, 0x00, 0x00, 0x00, 0x01,
  0x1c, 0x00, 0x00, 0x00, 0x20, 0x00, 0x00, 0x00, 0x02, 0x00, 0x00, 0x00, 0x48,
  0xf6, 0xff, 0xff, 0x00, 0x00, 0x00, 0x01, 0x01, 0x00, 0x00, 0x00, 0x01, 0x00,
  0x00, 0x00, 0x01, 0x00, 0x00, 0x00, 0x7e, 0x00, 0x00, 0x00, 0x03, 0x00, 0x00,
  0x00, 0x7d, 0x00, 0x00, 0x00, 0x35, 0x00, 0x00, 0x00, 0x02, 0x00, 0x00, 0x00,
  0x32, 0xf5, 0xff, 0xff, 0x14, 0x00, 0x00, 0x00, 0x00, 0x00, 0x00, 0x02, 0x1c,
  0x00, 0x00, 0x00, 0x20, 0x00, 0x00, 0x00, 0x01, 0x00, 0x00, 0x00, 0x24, 0xf5,
  0xff, 0xff, 0x01, 0x00, 0x00, 0x00, 0x01, 0x00, 0x00, 0x00, 0x01, 0x00, 0x00,
  0x00, 0x01, 0x00, 0x00, 0x00, 0x7d, 0x00, 0x00, 0x00, 0x03, 0x00, 0x00, 0x00,
  0x7c, 0x00, 0x00, 0x00, 0x34, 0x00, 0x00, 0x00, 0x3a, 0x00, 0x00, 0x00, 0x72,
  0xf5, 0xff, 0xff, 0x14, 0x00, 0x00, 0x00, 0x00, 0x00, 0x00, 0x02, 0x1c, 0x00,
  0x00, 0x00, 0x20, 0x00, 0x00, 0x00, 0x01, 0x00, 0x00, 0x00, 0x64, 0xf5, 0xff,
  0xff, 0x01, 0x00, 0x00, 0x00, 0x01, 0x00, 0x00, 0x00, 0x01, 0x00, 0x00, 0x00,
  0x01, 0x00, 0x00, 0x00, 0x7c, 0x00, 0x00, 0x00, 0x03, 0x00, 0x00, 0x00, 0x7b,
  0x00, 0x00, 0x00, 0x33, 0x00, 0x00, 0x00, 0x3a, 0x00, 0x00, 0x00, 0xb2, 0xf5,
  0xff, 0xff, 0x14, 0x00, 0x00, 0x00, 0x00, 0x00, 0x00, 0x0b, 0x14, 0x00, 0x00,
  0x00, 0x18, 0x00, 0x00, 0x00, 0x03, 0x00, 0x00, 0x00, 0xbc, 0xf8, 0xff, 0xff,
  0x00, 0x00, 0x00, 0x00, 0x01, 0x00, 0x00, 0x00, 0x7b, 0x00, 0x00, 0x00, 0x02,
  0x00, 0x00, 0x00, 0x7a, 0x00, 0x00, 0x00, 0x77, 0x00, 0x00, 0x00, 0xe6, 0xf5,
  0xff, 0xff, 0x14, 0x00, 0x00, 0x00, 0x00, 0x00, 0x00, 0x01, 0x18, 0x00, 0x00,
  0x00, 0x1c, 0x00, 0x00, 0x00, 0x02, 0x00, 0x00, 0x00, 0x6e, 0xf6, 0xff, 0xff,
  0x01, 0x00, 0x00, 0x00, 0x01, 0x00, 0x00, 0x00, 0x01, 0x00, 0x00, 0x00, 0x7a,
  0x00, 0x00, 0x00, 0x03, 0x00, 0x00, 0x00, 0x79, 0x00, 0x00, 0x00, 0x32, 0x00,
  0x00, 0x00, 0x4c, 0x00, 0x00, 0x00, 0x22, 0xf6, 0xff, 0xff, 0x14, 0x00, 0x00,
  0x00, 0x00, 0x00, 0x00, 0x02, 0x1c, 0x00, 0x00, 0x00, 0x20, 0x00, 0x00, 0x00,
  0x01, 0x00, 0x00, 0x00, 0x14, 0xf6, 0xff, 0xff, 0x01, 0x00, 0x00, 0x00, 0x01,
  0x00, 0x00, 0x00, 0x01, 0x00, 0x00, 0x00, 0x01, 0x00, 0x00, 0x00, 0x79, 0x00,
  0x00, 0x00, 0x03, 0x00, 0x00, 0x00, 0x78, 0x00, 0x00, 0x00, 0x31, 0x00, 0x00,
  0x00, 0x30, 0x00, 0x00, 0x00, 0x62, 0xf6, 0xff, 0xff, 0x14, 0x00, 0x00, 0x00,
  0x00, 0x00, 0x00, 0x02, 0x1c, 0x00, 0x00, 0x00, 0x20, 0x00, 0x00, 0x00, 0x01,
  0x00, 0x00, 0x00, 0x54, 0xf6, 0xff, 0xff, 0x01, 0x00, 0x00, 0x00, 0x01, 0x00,
  0x00, 0x00, 0x01, 0x00, 0x00, 0x00, 0x01, 0x00, 0x00, 0x00, 0x78, 0x00, 0x00,
  0x00, 0x03, 0x00, 0x00, 0x00, 0x71, 0x00, 0x00, 0x00, 0x2f, 0x00, 0x00, 0x00,
  0x30, 0x00, 0x00, 0x00, 0xa2, 0xf6, 0xff, 0xff, 0x14, 0x00, 0x00, 0x00, 0x00,
  0x00, 0x00, 0x01, 0x18, 0x00, 0x00, 0x00, 0x1c, 0x00, 0x00, 0x00, 0x02, 0x00,
  0x00, 0x00, 0x2a, 0xf7, 0xff, 0xff, 0x01, 0x00, 0x00, 0x00, 0x01, 0x00, 0x00,
  0x00, 0x01, 0x00, 0x00, 0x00, 0x77, 0x00, 0x00, 0x00, 0x03, 0x00, 0x00, 0x00,
  0x76, 0x00, 0x00, 0x00, 0x2e, 0x00, 0x00, 0x00, 0x4c, 0x00, 0x00, 0x00, 0xde,
  0xf6, 0xff, 0xff, 0x14, 0x00, 0x00, 0x00, 0x00, 0x00, 0x00, 0x02, 0x1c, 0x00,
  0x00, 0x00, 0x20, 0x00, 0x00, 0x00, 0x01, 0x00, 0x00, 0x00, 0xd0, 0xf6, 0xff,
  0xff, 0x01, 0x00, 0x00, 0x00, 0x01, 0x00, 0x00, 0x00, 0x01, 0x00, 0x00, 0x00,
  0x01, 0x00, 0x00, 0x00, 0x76, 0x00, 0x00, 0x00, 0x03, 0x00, 0x00, 0x00, 0x75,
  0x00, 0x00, 0x00, 0x2d, 0x00, 0x00, 0x00, 0x3a, 0x00, 0x00, 0x00, 0x1e, 0xf7,
  0xff, 0xff, 0x14, 0x00, 0x00, 0x00, 0x00, 0x00, 0x00, 0x02, 0x1c, 0x00, 0x00,
  0x00, 0x20, 0x00, 0x00, 0x00, 0x01, 0x00, 0x00, 0x00, 0x10, 0xf7, 0xff, 0xff,
  0x01, 0x00, 0x00, 0x00, 0x01, 0x00, 0x00, 0x00, 0x01, 0x00, 0x00, 0x00, 0x01,
  0x00, 0x00, 0x00, 0x75, 0x00, 0x00, 0x00, 0x03, 0x00, 0x00, 0x00, 0x74, 0x00,
  0x00, 0x00, 0x2c, 0x00, 0x00, 0x00, 0x3a, 0x00, 0x00, 0x00, 0x5e, 0xf7, 0xff,
  0xff, 0x14, 0x00, 0x00, 0x00, 0x00, 0x00, 0x00, 0x01, 0x1c, 0x00, 0x00, 0x00,
  0x20, 0x00, 0x00, 0x00, 0x02, 0x00, 0x00, 0x00, 0xb4, 0xf8, 0xff, 0xff, 0x00,
  0x00, 0x00, 0x01, 0x01, 0x00, 0x00, 0x00, 0x01, 0x00, 0x00, 0x00, 0x01, 0x00,
  0x00, 0x00, 0x74, 0x00, 0x00, 0x00, 0x03, 0x00, 0x00, 0x00, 0x73, 0x00, 0x00,
  0x00, 0x2b, 0x00, 0x00, 0x00, 0x03, 0x00, 0x00, 0x00, 0x9e, 0xf7, 0xff, 0xff,
  0x14, 0x00, 0x00, 0x00, 0x00, 0x00, 0x00, 0x02, 0x1c, 0x00, 0x00, 0x00, 0x20,
  0x00, 0x00, 0x00, 0x01, 0x00, 0x00, 0x00, 0x90, 0xf7, 0xff, 0xff, 0x01, 0x00,
  0x00, 0x00, 0x01, 0x00, 0x00, 0x00, 0x01, 0x00, 0x00, 0x00, 0x01, 0x00, 0x00,
  0x00, 0x73, 0x00, 0x00, 0x00, 0x03, 0x00, 0x00, 0x00, 0x72, 0x00, 0x00, 0x00,
  0x2a, 0x00, 0x00, 0x00, 0x30, 0x00, 0x00, 0x00, 0xde, 0xf7, 0xff, 0xff, 0x14,
  0x00, 0x00, 0x00, 0x00, 0x00, 0x00, 0x02, 0x1c, 0x00, 0x00, 0x00, 0x20, 0x00,
  0x00, 0x00, 0x01, 0x00, 0x00, 0x00, 0xd0, 0xf7, 0xff, 0xff, 0x01, 0x00, 0x00,
  0x00, 0x01, 0x00, 0x00, 0x00, 0x01, 0x00, 0x00, 0x00, 0x01, 0x00, 0x00, 0x00,
  0x72, 0x00, 0x00, 0x00, 0x03, 0x00, 0x00, 0x00, 0x71, 0x00, 0x00, 0x00, 0x29,
  0x00, 0x00, 0x00, 0x30, 0x00, 0x00, 0x00, 0x1e, 0xf8, 0xff, 0xff, 0x14, 0x00,
  0x00, 0x00, 0x00, 0x00, 0x00, 0x0b, 0x14, 0x00, 0x00, 0x00, 0x18, 0x00, 0x00,
  0x00, 0x03, 0x00, 0x00, 0x00, 0x28, 0xfb, 0xff, 0xff, 0x00, 0x00, 0x00, 0x00,
  0x01, 0x00, 0x00, 0x00, 0x71, 0x00, 0x00, 0x00, 0x02, 0x00, 0x00, 0x00, 0x70,
  0x00, 0x00, 0x00, 0x6d, 0x00, 0x00, 0x00, 0x52, 0xf8, 0xff, 0xff, 0x14, 0x00,
  0x00, 0x00, 0x00, 0x00, 0x00, 0x01, 0x18, 0x00, 0x00, 0x00, 0x1c, 0x00, 0x00,
  0x00, 0x02, 0x00, 0x00, 0x00, 0xda, 0xf8, 0xff, 0xff, 0x01, 0x00, 0x00, 0x00,
  0x01, 0x00, 0x00, 0x00, 0x01, 0x00, 0x00, 0x00, 0x70, 0x00, 0x00, 0x00, 0x03,
  0x00, 0x00, 0x00, 0x6f, 0x00, 0x00, 0x00, 0x28, 0x00, 0x00, 0x00, 0x4b, 0x00,
  0x00, 0x00, 0x8e, 0xf8, 0xff, 0xff, 0x14, 0x00, 0x00, 0x00, 0x00, 0x00, 0x00,
  0x02, 0x1c, 0x00, 0x00, 0x00, 0x20, 0x00, 0x00, 0x00, 0x01, 0x00, 0x00, 0x00,
  0x80, 0xf8, 0xff, 0xff, 0x01, 0x00, 0x00, 0x00, 0x01, 0x00, 0x00, 0x00, 0x01,
  0x00, 0x00, 0x00, 0x01, 0x00, 0x00, 0x00, 0x6f, 0x00, 0x00, 0x00, 0x03, 0x00,
  0x00, 0x00, 0x6e, 0x00, 0x00, 0x00, 0x27, 0x00, 0x00, 0x00, 0x26, 0x00, 0x00,
  0x00, 0xce, 0xf8, 0xff, 0xff, 0x14, 0x00, 0x00, 0x00, 0x00, 0x00, 0x00, 0x02,
  0x1c, 0x00, 0x00, 0x00, 0x20, 0x00, 0x00, 0x00, 0x01, 0x00, 0x00, 0x00, 0xc0,
  0xf8, 0xff, 0xff, 0x01, 0x00, 0x00, 0x00, 0x01, 0x00, 0x00, 0x00, 0x01, 0x00,
  0x00, 0x00, 0x01, 0x00, 0x00, 0x00, 0x6e, 0x00, 0x00, 0x00, 0x03, 0x00, 0x00,
  0x00, 0x67, 0x00, 0x00, 0x00, 0x25, 0x00, 0x00, 0x00, 0x26, 0x00, 0x00, 0x00,
  0x0e, 0xf9, 0xff, 0xff, 0x14, 0x00, 0x00, 0x00, 0x00, 0x00, 0x00, 0x01, 0x18,
  0x00, 0x00, 0x00, 0x1c, 0x00, 0x00, 0x00, 0x02, 0x00, 0x00, 0x00, 0x96, 0xf9,
  0xff, 0xff, 0x01, 0x00, 0x00, 0x00, 0x01, 0x00, 0x00, 0x00, 0x01, 0x00, 0x00,
  0x00, 0x6d, 0x00, 0x00, 0x00, 0x03, 0x00, 0x00, 0x00, 0x6c, 0x00, 0x00, 0x00,
  0x24, 0x00, 0x00, 0x00, 0x4b, 0x00, 0x00, 0x00, 0x4a, 0xf9, 0xff, 0xff, 0x14,
  0x00, 0x00, 0x00, 0x00, 0x00, 0x00, 0x02, 0x1c, 0x00, 0x00, 0x00, 0x20, 0x00,
  0x00, 0x00, 0x01, 0x00, 0x00, 0x00, 0x3c, 0xf9, 0xff, 0xff, 0x01, 0x00, 0x00,
  0x00, 0x01, 0x00, 0x00, 0x00, 0x01, 0x00, 0x00, 0x00, 0x01, 0x00, 0x00, 0x00,
  0x6c, 0x00, 0x00, 0x00, 0x03, 0x00, 0x00, 0x00, 0x6b, 0x00, 0x00, 0x00, 0x23,
  0x00, 0x00, 0x00, 0x30, 0x00, 0x00, 0x00, 0x8a, 0xf9, 0xff, 0xff, 0x14, 0x00,
  0x00, 0x00, 0x00, 0x00, 0x00, 0x02, 0x1c, 0x00, 0x00, 0x00, 0x20, 0x00, 0x00,
  0x00, 0x01, 0x00, 0x00, 0x00, 0x7c, 0xf9, 0xff, 0xff, 0x01, 0x00, 0x00, 0x00,
  0x01, 0x00, 0x00, 0x00, 0x01, 0x00, 0x00, 0x00, 0x01, 0x00, 0x00, 0x00, 0x6b,
  0x00, 0x00, 0x00, 0x03, 0x00, 0x00, 0x00, 0x6a, 0x00, 0x00, 0x00, 0x22, 0x00,
  0x00, 0x00, 0x30, 0x00, 0x00, 0x00, 0xca, 0xf9, 0xff, 0xff, 0x14, 0x00, 0x00,
  0x00, 0x00, 0x00, 0x00, 0x01, 0x1c, 0x00, 0x00, 0x00, 0x20, 0x00, 0x00, 0x00,
  0x02, 0x00, 0x00, 0x00, 0x20, 0xfb, 0xff, 0xff, 0x00, 0x00, 0x00, 0x01, 0x01,
  0x00, 0x00, 0x00, 0x01, 0x00, 0x00, 0x00, 0x01, 0x00, 0x00, 0x00, 0x6a, 0x00,
  0x00, 0x00, 0x03, 0x00, 0x00, 0x00, 0x69, 0x00, 0x00, 0x00, 0x21, 0x00, 0x00,
  0x00, 0x04, 0x00, 0x00, 0x00, 0x0a, 0xfa, 0xff, 0xff, 0x14, 0x00, 0x00, 0x00,
  0x00, 0x00, 0x00, 0x02, 0x1c, 0x00, 0x00, 0x00, 0x20, 0x00, 0x00, 0x00, 0x01,
  0x00, 0x00, 0x00, 0xfc, 0xf9, 0xff, 0xff, 0x01, 0x00, 0x00, 0x00, 0x01, 0x00,
  0x00, 0x00, 0x01, 0x00, 0x00, 0x00, 0x01, 0x00, 0x00, 0x00, 0x69, 0x00, 0x00,
  0x00, 0x03, 0x00, 0x00, 0x00, 0x68, 0x00, 0x00, 0x00, 0x20, 0x00, 0x00, 0x00,
  0x26, 0x00, 0x00, 0x00, 0x4a, 0xfa, 0xff, 0xff, 0x14, 0x00, 0x00, 0x00, 0x00,
  0x00, 0x00, 0x02, 0x1c, 0x00, 0x00, 0x00, 0x20, 0x00, 0x00, 0x00, 0x01, 0x00,
  0x00, 0x00, 0x3c, 0xfa, 0xff, 0xff, 0x01, 0x00, 0x00, 0x00, 0x01, 0x00, 0x00,
  0x00, 0x01, 0x00, 0x00, 0x00, 0x01, 0x00, 0x00, 0x00, 0x68, 0x00, 0x00, 0x00,
  0x03, 0x00, 0x00, 0x00, 0x67, 0x00, 0x00, 0x00, 0x1f, 0x00, 0x00, 0x00, 0x26,
  0x00, 0x00, 0x00, 0x8a, 0xfa, 0xff, 0xff, 0x14, 0x00, 0x00, 0x00, 0x00, 0x00,
  0x00, 0x0b, 0x14, 0x00, 0x00, 0x00, 0x18, 0x00, 0x00, 0x00, 0x03, 0x00, 0x00,
  0x00, 0x94, 0xfd, 0xff, 0xff, 0x00, 0x00, 0x00, 0x00, 0x01, 0x00, 0x00, 0x00,
  0x67, 0x00, 0x00, 0x00, 0x02, 0x00, 0x00, 0x00, 0x66, 0x00, 0x00, 0x00, 0x63,
  0x00, 0x00, 0x00, 0xbe, 0xfa, 0xff, 0xff, 0x14, 0x00, 0x00, 0x00, 0x00, 0x00,
  0x00, 0x01, 0x18, 0x00, 0x00, 0x00, 0x1c, 0x00, 0x00, 0x00, 0x02, 0x00, 0x00,
  0x00, 0x46, 0xfb, 0xff, 0xff, 0x01, 0x00, 0x00, 0x00, 0x01, 0x00, 0x00, 0x00,
  0x01, 0x00, 0x00, 0x00, 0x66, 0x00, 0x00, 0x00, 0x03, 0x00, 0x00, 0x00, 0x65,
  0x00, 0x00, 0x00, 0x1e, 0x00, 0x00, 0x00, 0x4a, 0x00, 0x00, 0x00, 0xfa, 0xfa,
  0xff, 0xff, 0x14, 0x00, 0x00, 0x00, 0x00, 0x00, 0x00, 0x02, 0x1c, 0x00, 0x00,
  0x00, 0x20, 0x00, 0x00, 0x00, 0x01, 0x00, 0x00, 0x00, 0xec, 0xfa, 0xff, 0xff,
  0x01, 0x00, 0x00, 0x00, 0x01, 0x00, 0x00, 0x00, 0x01, 0x00, 0x00, 0x00, 0x01,
  0x00, 0x00, 0x00, 0x65, 0x00, 0x00, 0x00, 0x03, 0x00, 0x00, 0x00, 0x64, 0x00,
  0x00, 0x00, 0x1d, 0x00, 0x00, 0x00, 0x1c, 0x00, 0x00, 0x00, 0x3a, 0xfb, 0xff,
  0xff, 0x14, 0x00, 0x00, 0x00, 0x00, 0x00, 0x00, 0x02, 0x1c, 0x00, 0x00, 0x00,
  0x20, 0x00, 0x00, 0x00, 0x01, 0x00, 0x00, 0x00, 0x2c, 0xfb, 0xff, 0xff, 0x01,
  0x00, 0x00, 0x00, 0x01, 0x00, 0x00, 0x00, 0x01, 0x00, 0x00, 0x00, 0x01, 0x00,
  0x00, 0x00, 0x64, 0x00, 0x00, 0x00, 0x03, 0x00, 0x00, 0x00, 0x5d, 0x00, 0x00,
  0x00, 0x1b, 0x00, 0x00, 0x00, 0x1c, 0x00, 0x00, 0x00, 0x7a, 0xfb, 0xff, 0xff,
  0x14, 0x00, 0x00, 0x00, 0x00, 0x00, 0x00, 0x01, 0x18, 0x00, 0x00, 0x00, 0x1c,
  0x00, 0x00, 0x00, 0x02, 0x00, 0x00, 0x00, 0x02, 0xfc, 0xff, 0xff, 0x01, 0x00,
  0x00, 0x00, 0x01, 0x00, 0x00, 0x00, 0x01, 0x00, 0x00, 0x00, 0x63, 0x00, 0x00,
  0x00, 0x03, 0x00, 0x00, 0x00, 0x62, 0x00, 0x00, 0x00, 0x1a, 0x00, 0x00, 0x00,
  0x4a, 0x00, 0x00, 0x00, 0xb6, 0xfb, 0xff, 0xff, 0x14, 0x00, 0x00, 0x00, 0x00,
  0x00, 0x00, 0x02, 0x1c, 0x00, 0x00, 0x00, 0x20, 0x00, 0x00, 0x00, 0x01, 0x00,
  0x00, 0x00, 0xa8, 0xfb, 0xff, 0xff, 0x01, 0x00, 0x00, 0x00, 0x01, 0x00, 0x00,
  0x00, 0x01, 0x00, 0x00, 0x00, 0x01, 0x00, 0x00, 0x00, 0x62, 0x00, 0x00, 0x00,
  0x03, 0x00, 0x00, 0x00, 0x61, 0x00, 0x00, 0x00, 0x19, 0x00, 0x00, 0x00, 0x26,
  0x00, 0x00, 0x00, 0xf6, 0xfb, 0xff, 0xff, 0x14, 0x00, 0x00, 0x00, 0x00, 0x00,
  0x00, 0x02, 0x1c, 0x00, 0x00, 0x00, 0x20, 0x00, 0x00, 0x00, 0x01, 0x00, 0x00,
  0x00, 0xe8, 0xfb, 0xff, 0xff, 0x01, 0x00, 0x00, 0x00, 0x01, 0x00, 0x00, 0x00,
  0x01, 0x00, 0x00, 0x00, 0x01, 0x00, 0x00, 0x00, 0x61, 0x00, 0x00, 0x00, 0x03,
  0x00, 0x00, 0x00, 0x60, 0x00, 0x00, 0x00, 0x18, 0x00, 0x00, 0x00, 0x26, 0x00,
  0x00, 0x00, 0x36, 0xfc, 0xff, 0xff, 0x14, 0x00, 0x00, 0x00, 0x00, 0x00, 0x00,
  0x01, 0x1c, 0x00, 0x00, 0x00, 0x20, 0x00, 0x00, 0x00, 0x02, 0x00, 0x00, 0x00,
  0x8c, 0xfd, 0xff, 0xff, 0x00, 0x00, 0x00, 0x01, 0x01, 0x00, 0x00, 0x00, 0x01,
  0x00, 0x00, 0x00, 0x01, 0x00, 0x00, 0x00, 0x60, 0x00, 0x00, 0x00, 0x03, 0x00,
  0x00, 0x00, 0x5f, 0x00, 0x00, 0x00, 0x17, 0x00, 0x00, 0x00, 0x05, 0x00, 0x00,
  0x00, 0x76, 0xfc, 0xff, 0xff, 0x14, 0x00, 0x00, 0x00, 0x00, 0x00, 0x00, 0x02,
  0x1c, 0x00, 0x00, 0x00, 0x20, 0x00, 0x00, 0x00, 0x01, 0x00, 0x00, 0x00, 0x68,
  0xfc, 0xff, 0xff, 0x01, 0x00, 0x00, 0x00, 0x01, 0x00, 0x00, 0x00, 0x01, 0x00,
  0x00, 0x00, 0x01, 0x00, 0x00, 0x00, 0x5f, 0x00, 0x00, 0x00, 0x03, 0x00, 0x00,
  0x00, 0x5e, 0x00, 0x00, 0x00, 0x16, 0x00, 0x00, 0x00, 0x1c, 0x00, 0x00, 0x00,
  0xb6, 0xfc, 0xff, 0xff, 0x14, 0x00, 0x00, 0x00, 0x00, 0x00, 0x00, 0x02, 0x1c,
  0x00, 0x00, 0x00, 0x20, 0x00, 0x00, 0x00, 0x01, 0x00, 0x00, 0x00, 0xa8, 0xfc,
  0xff, 0xff, 0x01, 0x00, 0x00, 0x00, 0x01, 0x00, 0x00, 0x00, 0x01, 0x00, 0x00,
  0x00, 0x01, 0x00, 0x00, 0x00, 0x5e, 0x00, 0x00, 0x00, 0x03, 0x00, 0x00, 0x00,
  0x5d, 0x00, 0x00, 0x00, 0x15, 0x00, 0x00, 0x00, 0x1c, 0x00, 0x00, 0x00, 0xf6,
  0xfc, 0xff, 0xff, 0x1c, 0x00, 0x00, 0x00, 0x00, 0x00, 0x00, 0x0b, 0x1c, 0x00,
  0x00, 0x00, 0x20, 0x00, 0x00, 0x00, 0x03, 0x00, 0x00, 0x00, 0x08, 0x00, 0x08,
  0x00, 0x00, 0x00, 0x07, 0x00, 0x08, 0x00, 0x00, 0x00, 0x00, 0x00, 0x00, 0x00,
  0x01, 0x00, 0x00, 0x00, 0x5d, 0x00, 0x00, 0x00, 0x02, 0x00, 0x00, 0x00, 0x5c,
  0x00, 0x00, 0x00, 0x59, 0x00, 0x00, 0x00, 0x32, 0xfd, 0xff, 0xff, 0x14, 0x00,
  0x00, 0x00, 0x00, 0x00, 0x00, 0x01, 0x18, 0x00, 0x00, 0x00, 0x1c, 0x00, 0x00,
  0x00, 0x02, 0x00, 0x00, 0x00, 0xba, 0xfd, 0xff, 0xff, 0x01, 0x00, 0x00, 0x00,
  0x01, 0x00, 0x00, 0x00, 0x01, 0x00, 0x00, 0x00, 0x5c, 0x00, 0x00, 0x00, 0x03,
  0x00, 0x00, 0x00, 0x5b, 0x00, 0x00, 0x00, 0x14, 0x00, 0x00, 0x00, 0x49, 0x00,
  0x00, 0x00, 0x6e, 0xfd, 0xff, 0xff, 0x14, 0x00, 0x00, 0x00, 0x00, 0x00, 0x00,
  0x02, 0x1c, 0x00, 0x00, 0x00, 0x20, 0x00, 0x00, 0x00, 0x01, 0x00, 0x00, 0x00,
  0x60, 0xfd, 0xff, 0xff, 0x01, 0x00, 0x00, 0x00, 0x01, 0x00, 0x00, 0x00, 0x01,
  0x00, 0x00, 0x00, 0x01, 0x00, 0x00, 0x00, 0x5b, 0x00, 0x00, 0x00, 0x03, 0x00,
  0x00, 0x00, 0x5a, 0x00, 0x00, 0x00, 0x13, 0x00, 0x00, 0x00, 0x12, 0x00, 0x00,
  0x00, 0xae, 0xfd, 0xff, 0xff, 0x14, 0x00, 0x00, 0x00, 0x00, 0x00, 0x00, 0x02,
  0x1c, 0x00, 0x00, 0x00, 0x20, 0x00, 0x00, 0x00, 0x01, 0x00, 0x00, 0x00, 0xa0,
  0xfd, 0xff, 0xff, 0x01, 0x00, 0x00, 0x00, 0x01, 0x00, 0x00, 0x00, 0x01, 0x00,
  0x00, 0x00, 0x01, 0x00, 0x00, 0x00, 0x5a, 0x00, 0x00, 0x00, 0x03, 0x00, 0x00,
  0x00, 0x53, 0x00, 0x00, 0x00, 0x11, 0x00, 0x00, 0x00, 0x12, 0x00, 0x00, 0x00,
  0xee, 0xfd, 0xff, 0xff, 0x14, 0x00, 0x00, 0x00, 0x00, 0x00, 0x00, 0x01, 0x18,
  0x00, 0x00, 0x00, 0x1c, 0x00, 0x00, 0x00, 0x02, 0x00, 0x00, 0x00, 0x76, 0xfe,
  0xff, 0xff, 0x01, 0x00, 0x00, 0x00, 0x01, 0x00, 0x00, 0x00, 0x01, 0x00, 0x00,
  0x00, 0x59, 0x00, 0x00, 0x00, 0x03, 0x00, 0x00, 0x00, 0x58, 0x00, 0x00, 0x00,
  0x10, 0x00, 0x00, 0x00, 0x49, 0x00, 0x00, 0x00, 0x2a, 0xfe, 0xff, 0xff, 0x14,
  0x00, 0x00, 0x00, 0x00, 0x00, 0x00, 0x02, 0x1c, 0x00, 0x00, 0x00, 0x20, 0x00,
  0x00, 0x00, 0x01, 0x00, 0x00, 0x00, 0x1c, 0xfe, 0xff, 0xff, 0x01, 0x00, 0x00,
  0x00, 0x01, 0x00, 0x00, 0x00, 0x01, 0x00, 0x00, 0x00, 0x01, 0x00, 0x00, 0x00,
  0x58, 0x00, 0x00, 0x00, 0x03, 0x00, 0x00, 0x00, 0x57, 0x00, 0x00, 0x00, 0x0f,
  0x00, 0x00, 0x00, 0x1c, 0x00, 0x00, 0x00, 0x6a, 0xfe, 0xff, 0xff, 0x14, 0x00,
  0x00, 0x00, 0x00, 0x00, 0x00, 0x02, 0x1c, 0x00, 0x00, 0x00, 0x20, 0x00, 0x00,
  0x00, 0x01, 0x00, 0x00, 0x00, 0x5c, 0xfe, 0xff, 0xff, 0x01, 0x00, 0x00, 0x00,
  0x01, 0x00, 0x00, 0x00, 0x01, 0x00, 0x00, 0x00, 0x01, 0x00, 0x00, 0x00, 0x57,
  0x00, 0x00, 0x00, 0x03, 0x00, 0x00, 0x00, 0x56, 0x00, 0x00, 0x00, 0x0e, 0x00,
  0x00, 0x00, 0x1c, 0x00, 0x00, 0x00, 0xaa, 0xfe, 0xff, 0xff, 0x20, 0x00, 0x00,
  0x00, 0x00, 0x00, 0x00, 0x01, 0x28, 0x00, 0x00, 0x00, 0x2c, 0x00, 0x00, 0x00,
  0x02, 0x00, 0x00, 0x00, 0x0c, 0x00, 0x10, 0x00, 0x00, 0x00, 0x0c, 0x00, 0x08,
  0x00, 0x07, 0x00, 0x0c, 0x00, 0x00, 0x00, 0x00, 0x00, 0x00, 0x01, 0x01, 0x00,
  0x00, 0x00, 0x01, 0x00, 0x00, 0x00, 0x01, 0x00, 0x00, 0x00, 0x56, 0x00, 0x00,
  0x00, 0x03, 0x00, 0x00, 0x00, 0x55, 0x00, 0x00, 0x00, 0x0d, 0x00, 0x00, 0x00,
  0x06, 0x00, 0x00, 0x00, 0xf6, 0xfe, 0xff, 0xff, 0x14, 0x00, 0x00, 0x00, 0x00,
  0x00, 0x00, 0x02, 0x1c, 0x00, 0x00, 0x00, 0x20, 0x00, 0x00, 0x00, 0x01, 0x00,
  0x00, 0x00, 0xe8, 0xfe, 0xff, 0xff, 0x01, 0x00, 0x00, 0x00, 0x01, 0x00, 0x00,
  0x00, 0x01, 0x00, 0x00, 0x00, 0x01, 0x00, 0x00, 0x00, 0x55, 0x00, 0x00, 0x00,
  0x03, 0x00, 0x00, 0x00, 0x54, 0x00, 0x00, 0x00, 0x0c, 0x00, 0x00, 0x00, 0x12,
  0x00, 0x00, 0x00, 0x36, 0xff, 0xff, 0xff, 0x14, 0x00, 0x00, 0x00, 0x00, 0x00,
  0x00, 0x02, 0x1c, 0x00, 0x00, 0x00, 0x20, 0x00, 0x00, 0x00, 0x01, 0x00, 0x00,
  0x00, 0x28, 0xff, 0xff, 0xff, 0x01, 0x00, 0x00, 0x00, 0x01, 0x00, 0x00, 0x00,
  0x01, 0x00, 0x00, 0x00, 0x01, 0x00, 0x00, 0x00, 0x54, 0x00, 0x00, 0x00, 0x03,
  0x00, 0x00, 0x00, 0x53, 0x00, 0x00, 0x00, 0x0b, 0x00, 0x00, 0x00, 0x12, 0x00,
  0x00, 0x00, 0x76, 0xff, 0xff, 0xff, 0x20, 0x00, 0x00, 0x00, 0x00, 0x00, 0x00,
  0x01, 0x24, 0x00, 0x00, 0x00, 0x28, 0x00, 0x00, 0x00, 0x02, 0x00, 0x00, 0x00,
  0x00, 0x00, 0x0a, 0x00, 0x0c, 0x00, 0x00, 0x00, 0x08, 0x00, 0x04, 0x00, 0x0a,
  0x00, 0x00, 0x00, 0x01, 0x00, 0x00, 0x00, 0x01, 0x00, 0x00, 0x00, 0x01, 0x00,
  0x00, 0x00, 0x53, 0x00, 0x00, 0x00, 0x03, 0x00, 0x00, 0x00, 0x52, 0x00, 0x00,
  0x00, 0x0a, 0x00, 0x00, 0x00, 0x48, 0x00, 0x00, 0x00, 0xbe, 0xff, 0xff, 0xff,
  0x14, 0x00, 0x00, 0x00, 0x00, 0x00, 0x00, 0x02, 0x1c, 0x00, 0x00, 0x00, 0x20,
  0x00, 0x00, 0x00, 0x01, 0x00, 0x00, 0x00, 0xb0, 0xff, 0xff, 0xff, 0x01, 0x00,
  0x00, 0x00, 0x01, 0x00, 0x00, 0x00, 0x01, 0x00, 0x00, 0x00, 0x01, 0x00, 0x00,
  0x00, 0x52, 0x00, 0x00, 0x00, 0x03, 0x00, 0x00, 0x00, 0x51, 0x00, 0x00, 0x00,
  0x09, 0x00, 0x00, 0x00, 0x46, 0x00, 0x00, 0x00, 0x00, 0x00, 0x0e, 0x00, 0x18,
  0x00, 0x14, 0x00, 0x10, 0x00, 0x0c, 0x00, 0x0b, 0x00, 0x04, 0x00, 0x0e, 0x00,
  0x00, 0x00, 0x20, 0x00, 0x00, 0x00, 0x00, 0x00, 0x00, 0x02, 0x28, 0x00, 0x00,
  0x00, 0x2c, 0x00, 0x00, 0x00, 0x01, 0x00, 0x00, 0x00, 0x0c, 0x00, 0x10, 0x00,
  0x00, 0x00, 0x0c, 0x00, 0x08, 0x00, 0x04, 0x00, 0x0c, 0x00, 0x00, 0x00, 0x01,
  0x00, 0x00, 0x00, 0x01, 0x00, 0x00, 0x00, 0x01, 0x00, 0x00, 0x00, 0x01, 0x00,
  0x00, 0x00, 0x51, 0x00, 0x00, 0x00, 0x03, 0x00, 0x00, 0x00, 0x50, 0x00, 0x00,
  0x00, 0x08, 0x00, 0x00, 0x00, 0x46, 0x00, 0x00, 0x00, 0x00, 0x00, 0x0e, 0x00,
  0x14, 0x00, 0x00, 0x00, 0x10, 0x00, 0x0c, 0x00, 0x0b, 0x00, 0x04, 0x00, 0x0e,
  0x00, 0x00, 0x00, 0x10, 0x00, 0x00, 0x00, 0x00, 0x00, 0x00, 0x16, 0x0c, 0x00,
  0x00, 0x00, 0x10, 0x00, 0x00, 0x00, 0xa4, 0x8e, 0xff, 0xff, 0x01, 0x00, 0x00,
  0x00, 0x50, 0x00, 0x00, 0x00, 0x02, 0x00, 0x00, 0x00, 0x00, 0x00, 0x00, 0x00,
  0x07, 0x00, 0x00, 0x00, 0x00, 0x00, 0x0a, 0x00, 0x10, 0x00, 0x0c, 0x00, 0x08,
  0x00, 0x04, 0x00, 0x0a, 0x00, 0x00, 0x00, 0x0c, 0x00, 0x00, 0x00, 0x10, 0x00,
  0x00, 0x00, 0x04, 0x00, 0x00, 0x00, 0x01, 0x00, 0x00, 0x00, 0x00, 0x00, 0x00,
  0x00, 0x01, 0x00, 0x00, 0x00, 0x90, 0x00, 0x00, 0x00, 0x01, 0x00, 0x00, 0x00,
  0x91, 0x00, 0x00, 0x00, 0x01, 0x00, 0x00, 0x00, 0x90, 0x00, 0x00, 0x00, 0x92,
  0x00, 0x00, 0x00, 0x60, 0x75, 0x00, 0x00, 0xbc, 0x74, 0x00, 0x00, 0x34, 0x74,
  0x00, 0x00, 0x98, 0x73, 0x00, 0x00, 0xe4, 0x72, 0x00, 0x00, 0x08, 0x72, 0x00,
  0x00, 0x0c, 0x71, 0x00, 0x00, 0xd0, 0x70, 0x00, 0x00, 0x3c, 0x70, 0x00, 0x00,
  0xbc, 0x6f, 0x00, 0x00, 0xcc, 0x6d, 0x00, 0x00, 0xd4, 0x6b, 0x00, 0x00, 0xd8,
  0x69, 0x00, 0x00, 0x48, 0x68, 0x00, 0x00, 0xb0, 0x66, 0x00, 0x00, 0x1c, 0x65,
  0x00, 0x00, 0x8c, 0x63, 0x00, 0x00, 0x94, 0x61, 0x00, 0x00, 0x5c, 0x60, 0x00,
  0x00, 0x5c, 0x5e, 0x00, 0x00, 0xcc, 0x5c, 0x00, 0x00, 0x34, 0x5b, 0x00, 0x00,
  0xa0, 0x59, 0x00, 0x00, 0x48, 0x58, 0x00, 0x00, 0xe8, 0x56, 0x00, 0x00, 0x8c,
  0x55, 0x00, 0x00, 0x34, 0x54, 0x00, 0x00, 0x9c, 0x52, 0x00, 0x00, 0x9c, 0x51,
  0x00, 0x00, 0x04, 0x50, 0x00, 0x00, 0xac, 0x4e, 0x00, 0x00, 0x4c, 0x4d, 0x00,
  0x00, 0xf0, 0x4b, 0x00, 0x00, 0xd8, 0x4a, 0x00, 0x00, 0xb8, 0x49, 0x00, 0x00,
  0x94, 0x48, 0x00, 0x00, 0x7c, 0x47, 0x00, 0x00, 0x1c, 0x46, 0x00, 0x00, 0x3c,
  0x45, 0x00, 0x00, 0xdc, 0x43, 0x00, 0x00, 0xc4, 0x42, 0x00, 0x00, 0xa4, 0x41,
  0x00, 0x00, 0x80, 0x40, 0x00, 0x00, 0x90, 0x3f, 0x00, 0x00, 0x98, 0x3e, 0x00,
  0x00, 0x9c, 0x3d, 0x00, 0x00, 0xac, 0x3c, 0x00, 0x00, 0x8c, 0x3b, 0x00, 0x00,
  0xd4, 0x3a, 0x00, 0x00, 0xb4, 0x39, 0x00, 0x00, 0xc4, 0x38, 0x00, 0x00, 0xcc,
  0x37, 0x00, 0x00, 0xd0, 0x36, 0x00, 0x00, 0x08, 0x36, 0x00, 0x00, 0x38, 0x35,
  0x00, 0x00, 0x64, 0x34, 0x00, 0x00, 0x9c, 0x33, 0x00, 0x00, 0xa4, 0x32, 0x00,
  0x00, 0x04, 0x32, 0x00, 0x00, 0x0c, 0x31, 0x00, 0x00, 0x44, 0x30, 0x00, 0x00,
  0x74, 0x2f, 0x00, 0x00, 0xa0, 0x2e, 0x00, 0x00, 0xd8, 0x2d, 0x00, 0x00, 0x08,
  0x2d, 0x00, 0x00, 0x34, 0x2c, 0x00, 0x00, 0x6c, 0x2b, 0x00, 0x00, 0x9c, 0x2a,
  0x00, 0x00, 0x14, 0x2a, 0x00, 0x00, 0x44, 0x29, 0x00, 0x00, 0xec, 0x28, 0x00,
  0x00, 0x70, 0x28, 0x00, 0x00, 0x1c, 0x27, 0x00, 0x00, 0x00, 0x26, 0x00, 0x00,
  0x04, 0x25, 0x00, 0x00, 0x30, 0x24, 0x00, 0x00, 0x6c, 0x23, 0x00, 0x00, 0xc0,
  0x22, 0x00, 0x00, 0x14, 0x22, 0x00, 0x00, 0xa8, 0x21, 0x00, 0x00, 0x34, 0x21,
  0x00, 0x00, 0xb8, 0x20, 0x00, 0x00, 0x3c, 0x20, 0x00, 0x00, 0xa8, 0x1f, 0x00,
  0x00, 0x2c, 0x1f, 0x00, 0x00, 0xb0, 0x1e, 0x00, 0x00, 0x14, 0x1e, 0x00, 0x00,
  0x98, 0x1d, 0x00, 0x00, 0x1c, 0x1d, 0x00, 0x00, 0x80, 0x1c, 0x00, 0x00, 0x04,
  0x1c, 0x00, 0x00, 0x88, 0x1b, 0x00, 0x00, 0xec, 0x1a, 0x00, 0x00, 0x78, 0x1a,
  0x00, 0x00, 0xfc, 0x19, 0x00, 0x00, 0x80, 0x19, 0x00, 0x00, 0xdc, 0x18, 0x00,
  0x00, 0x60, 0x18, 0x00, 0x00, 0xe4, 0x17, 0x00, 0x00, 0x48, 0x17, 0x00, 0x00,
  0xcc, 0x16, 0x00, 0x00, 0x50, 0x16, 0x00, 0x00, 0xb4, 0x15, 0x00, 0x00, 0x40,
  0x15, 0x00, 0x00, 0xc4, 0x14, 0x00, 0x00, 0x48, 0x14, 0x00, 0x00, 0xa4, 0x13,
  0x00, 0x00, 0x28, 0x13, 0x00, 0x00, 0xac, 0x12, 0x00, 0x00, 0x10, 0x12, 0x00,
  0x00, 0x94, 0x11, 0x00, 0x00, 0x18, 0x11, 0x00, 0x00, 0x7c, 0x10, 0x00, 0x00,
  0x08, 0x10, 0x00, 0x00, 0x8c, 0x0f, 0x00, 0x00, 0x10, 0x0f, 0x00, 0x00, 0x6c,
  0x0e, 0x00, 0x00, 0xf0, 0x0d, 0x00, 0x00, 0x74, 0x0d, 0x00, 0x00, 0xd8, 0x0c,
  0x00, 0x00, 0x5c, 0x0c, 0x00, 0x00, 0xe0, 0x0b, 0x00, 0x00, 0x44, 0x0b, 0x00,
  0x00, 0xd0, 0x0a, 0x00, 0x00, 0x54, 0x0a, 0x00, 0x00, 0xd8, 0x09, 0x00, 0x00,
  0x34, 0x09, 0x00, 0x00, 0xb8, 0x08, 0x00, 0x00, 0x3c, 0x08, 0x00, 0x00, 0xa0,
  0x07, 0x00, 0x00, 0x24, 0x07, 0x00, 0x00, 0xa8, 0x06, 0x00, 0x00, 0x0c, 0x06,
  0x00, 0x00, 0x98, 0x05, 0x00, 0x00, 0x1c, 0x05, 0x00, 0x00, 0xa0, 0x04, 0x00,
  0x00, 0xfc, 0x03, 0x00, 0x00, 0x80, 0x03, 0x00, 0x00, 0x04, 0x03, 0x00, 0x00,
  0x68, 0x02, 0x00, 0x00, 0xf4, 0x01, 0x00, 0x00, 0x78, 0x01, 0x00, 0x00, 0xfc,
  0x00, 0x00, 0x00, 0x78, 0x00, 0x00, 0x00, 0x44, 0x00, 0x00, 0x00, 0x04, 0x00,
  0x00, 0x00, 0xd0, 0xff, 0xff, 0xff, 0x08, 0x00, 0x00, 0x00, 0x14, 0x00, 0x00,
  0x00, 0x0a, 0x00, 0x00, 0x00, 0x42, 0x69, 0x61, 0x73, 0x41, 0x64, 0x64, 0x5f,
  0x31, 0x38, 0x00, 0x00, 0x04, 0x00, 0x00, 0x00, 0x01, 0x00, 0x00, 0x00, 0x38,
  0x04, 0x00, 0x00, 0x80, 0x07, 0x00, 0x00, 0x01, 0x00, 0x00, 0x00, 0x0c, 0x00,
  0x0c, 0x00, 0x08, 0x00, 0x00, 0x00, 0x00, 0x00, 0x04, 0x00, 0x0c, 0x00, 0x00,
  0x00, 0x08, 0x00, 0x00, 0x00, 0x14, 0x00, 0x00, 0x00, 0x0b, 0x00, 0x00, 0x00,
  0x50, 0x6c, 0x61, 0x63, 0x65, 0x68, 0x6f, 0x6c, 0x64, 0x65, 0x72, 0x00, 0x04,
  0x00, 0x00, 0x00, 0x01, 0x00, 0x00, 0x00, 0x38, 0x04, 0x00, 0x00, 0x80, 0x07,
  0x00, 0x00, 0x01, 0x00, 0x00, 0x00, 0x62, 0x8d, 0xff, 0xff, 0x14, 0x00, 0x00,
  0x00, 0x4c, 0x00, 0x00, 0x00, 0x90, 0x00, 0x00, 0x00, 0x00, 0x00, 0x00, 0x07,
  0x58, 0x00, 0x00, 0x00, 0x54, 0x8d, 0xff, 0xff, 0x10, 0x00, 0x00, 0x00, 0x1c,
  0x00, 0x00, 0x00, 0x20, 0x00, 0x00, 0x00, 0x24, 0x00, 0x00, 0x00, 0x01, 0x00,
  0x00, 0x00, 0x00, 0x00, 0x00, 0x00, 0x00, 0x00, 0x00, 0x00, 0x00, 0x00, 0x00,
  0x00, 0x01, 0x00, 0x00, 0x00, 0x7a, 0xad, 0xbf, 0x36, 0x01, 0x00, 0x00, 0x00,
  0x10, 0x61, 0x13, 0x3e, 0x01, 0x00, 0x00, 0x00, 0xfb, 0xab, 0x3f, 0xbe, 0x10,
  0x00, 0x00, 0x00, 0x42, 0x69, 0x61, 0x73, 0x41, 0x64, 0x64, 0x5f, 0x31, 0x38,
  0x5f, 0x69, 0x6e, 0x74, 0x31, 0x36, 0x00, 0x00, 0x00, 0x00, 0x04, 0x00, 0x00,
  0x00, 0x01, 0x00, 0x00, 0x00, 0x38, 0x04, 0x00, 0x00, 0x80, 0x07, 0x00, 0x00,
  0x01, 0x00, 0x00, 0x00, 0xe2, 0x8d, 0xff, 0xff, 0x14, 0x00, 0x00, 0x00, 0x48,
  0x00, 0x00, 0x00, 0x8f, 0x00, 0x00, 0x00, 0x00, 0x00, 0x00, 0x07, 0x50, 0x00,
  0x00, 0x00, 0xd4, 0x8d, 0xff, 0xff, 0x10, 0x00, 0x00, 0x00, 0x18, 0x00, 0x00,
  0x00, 0x1c, 0x00, 0x00, 0x00, 0x20, 0x00, 0x00, 0x00, 0x01, 0x00, 0x00, 0x00,
  0x00, 0x00, 0x00, 0x00, 0x00, 0x00, 0x00, 0x00, 0x01, 0x00, 0x00, 0x00, 0xcf,
  0xe8, 0x0a, 0x39, 0x01, 0x00, 0x00, 0x00, 0x50, 0x38, 0x57, 0x40, 0x01, 0x00,
  0x00, 0x00, 0xb9, 0xe7, 0x8a, 0xc0, 0x0d, 0x00, 0x00, 0x00, 0x64, 0x65, 0x70,
  0x74, 0x68, 0x77, 0x69, 0x73, 0x65, 0x5f, 0x33, 0x37, 0x32, 0x00, 0x00, 0x00,
  0x04, 0x00, 0x00, 0x00, 0x01, 0x00, 0x00, 0x00, 0x38, 0x04, 0x00, 0x00, 0x80,
  0x07, 0x00, 0x00, 0x05, 0x00, 0x00, 0x00, 0x5a, 0x8e, 0xff, 0xff, 0x14, 0x00,
  0x00, 0x00, 0x48, 0x00, 0x00, 0x00, 0x8e, 0x00, 0x00, 0x00, 0x00, 0x00, 0x00,
  0x07, 0x50, 0x00, 0x00, 0x00, 0x4c, 0x8e, 0xff, 0xff, 0x10, 0x00, 0x00, 0x00,
  0x18, 0x00, 0x00, 0x00, 0x1c, 0x00, 0x00, 0x00, 0x20, 0x00, 0x00, 0x00, 0x01,
  0x00, 0x00, 0x00, 0x00, 0x00, 0x00, 0x00, 0x00, 0x00, 0x00, 0x00, 0x01, 0x00,
  0x00, 0x00, 0x45, 0x3e, 0x98, 0x39, 0x01, 0x00, 0x00, 0x00, 0x15, 0x3d, 0x18,
  0x41, 0x01, 0x00, 0x00, 0x00, 0xe0, 0x54, 0xda, 0xc0, 0x0d, 0x00, 0x00, 0x00,
  0x64, 0x65, 0x70, 0x74, 0x68, 0x77, 0x69, 0x73, 0x65, 0x5f, 0x33, 0x36, 0x31,
  0x00, 0x00, 0x00, 0x04, 0x00, 0x00, 0x00, 0x01, 0x00, 0x00, 0x00, 0x38, 0x04,
  0x00, 0x00, 0x86, 0x07, 0x00, 0x00, 0x05, 0x00, 0x00, 0x00, 0xd2, 0x8e, 0xff,
  0xff, 0x14, 0x00, 0x00, 0x00, 0x48, 0x00, 0x00, 0x00, 0x8d, 0x00, 0x00, 0x00,
  0x00, 0x00, 0x00, 0x07, 0x48, 0x00, 0x00, 0x00, 0xc4, 0x8e, 0xff, 0xff, 0x10,
  0x00, 0x00, 0x00, 0x18, 0x00, 0x00, 0x00, 0x1c, 0x00, 0x00, 0x00, 0x20, 0x00,
  0x00, 0x00, 0x01, 0x00, 0x00, 0x00, 0x00, 0x00, 0x00, 0x00, 0x00, 0x00, 0x00,
  0x00, 0x01, 0x00, 0x00, 0x00, 0xad, 0xc1, 0x30, 0x3a, 0x01, 0x00, 0x00, 0x00,
  0x01, 0x79, 0xa6, 0x41, 0x01, 0x00, 0x00, 0x00, 0x4b, 0xc0, 0xb0, 0xc1, 0x05,
  0x00, 0x00, 0x00, 0x41, 0x64, 0x64, 0x5f, 0x35, 0x00, 0x00, 0x00, 0x04, 0x00,
  0x00, 0x00, 0x01, 0x00, 0x00, 0x00, 0x3e, 0x04, 0x00, 0x00, 0x86, 0x07, 0x00,
  0x00, 0x05, 0x00, 0x00, 0x00, 0x42, 0x8f, 0xff, 0xff, 0x14, 0x00, 0x00, 0x00,
  0x48, 0x00, 0x00, 0x00, 0x8c, 0x00, 0x00, 0x00, 0x00, 0x00, 0x00, 0x07, 0x70,
  0x00, 0x00, 0x00, 0x34, 0x8f, 0xff, 0xff, 0x10, 0x00, 0x00, 0x00, 0x18, 0x00,
  0x00, 0x00, 0x1c, 0x00, 0x00, 0x00, 0x20, 0x00, 0x00, 0x00, 0x01, 0x00, 0x00,
  0x00, 0x00, 0x00, 0x00, 0x00, 0x00, 0x00, 0x00, 0x00, 0x01, 0x00, 0x00, 0x00,
  0xa8, 0x3e, 0x01, 0x3a, 0x01, 0x00, 0x00, 0x00, 0xa6, 0x3d, 0x81, 0x41, 0x01,
  0x00, 0x00, 0x00, 0x7d, 0x0d, 0x48, 0xc1, 0x2d, 0x00, 0x00, 0x00, 0x42, 0x69,
  0x61, 0x73, 0x41, 0x64, 0x64, 0x5f, 0x31, 0x37, 0x3b, 0x64, 0x65, 0x70, 0x74,
  0x68, 0x77, 0x69, 0x73, 0x65, 0x5f, 0x33, 0x37, 0x3b, 0x43, 0x6f, 0x6e, 0x76,
  0x32, 0x44, 0x5f, 0x31, 0x37, 0x3b, 0x63, 0x6f, 0x6e, 0x76, 0x5f, 0x36, 0x5f,
  0x31, 0x5f, 0x62, 0x31, 0x00, 0x00, 0x00, 0x04, 0x00, 0x00, 0x00, 0x01, 0x00,
  0x00, 0x00, 0x3e, 0x04, 0x00, 0x00, 0x86, 0x07, 0x00, 0x00, 0x05, 0x00, 0x00,
  0x00, 0xda, 0x8f, 0xff, 0xff, 0x14, 0x00, 0x00, 0x00, 0x48, 0x00, 0x00, 0x00,
  0x8b, 0x00, 0x00, 0x00, 0x00, 0x00, 0x00, 0x07, 0x50, 0x00, 0x00, 0x00, 0xcc,
  0x8f, 0xff, 0xff, 0x10, 0x00, 0x00, 0x00, 0x18, 0x00, 0x00, 0x00, 0x1c, 0x00,
  0x00, 0x00, 0x20, 0x00, 0x00, 0x00, 0x01, 0x00, 0x00, 0x00, 0x00, 0x00, 0x00,
  0x00, 0x00, 0x00, 0x00, 0x00, 0x01, 0x00, 0x00, 0x00, 0xc4, 0x74, 0xe3, 0x39,
  0x01, 0x00, 0x00, 0x00, 0x63, 0x2d, 0x4f, 0x41, 0x01, 0x00, 0x00, 0x00, 0xfd,
  0x72, 0x63, 0xc1, 0x0d, 0x00, 0x00, 0x00, 0x64, 0x65, 0x70, 0x74, 0x68, 0x77,
  0x69, 0x73, 0x65, 0x5f, 0x33, 0x35, 0x31, 0x00, 0x00, 0x00, 0x04, 0x00, 0x00,
  0x00, 0x01, 0x00, 0x00, 0x00, 0x3e, 0x04, 0x00, 0x00, 0x86, 0x07, 0x00, 0x00,
  0x05, 0x00, 0x00, 0x00, 0x52, 0x90, 0xff, 0xff, 0x14, 0x00, 0x00, 0x00, 0x48,
  0x00, 0x00, 0x00, 0x8a, 0x00, 0x00, 0x00, 0x00, 0x00, 0x00, 0x07, 0x50, 0x00,
  0x00, 0x00, 0x44, 0x90, 0xff, 0xff, 0x10, 0x00, 0x00, 0x00, 0x18, 0x00, 0x00,
  0x00, 0x1c, 0x00, 0x00, 0x00, 0x20, 0x00, 0x00, 0x00, 0x01, 0x00, 0x00, 0x00,
  0x00, 0x00, 0x00, 0x00, 0x00, 0x00, 0x00, 0x00, 0x01, 0x00, 0x00, 0x00, 0x93,
  0xee, 0xde, 0x39, 0x01, 0x00, 0x00, 0x00, 0x5d, 0x6d, 0x34, 0x41, 0x01, 0x00,
  0x00, 0x00, 0xd5, 0xec, 0x5e, 0xc1, 0x0d, 0x00, 0x00, 0x00, 0x64, 0x65, 0x70,
  0x74, 0x68, 0x77, 0x69, 0x73, 0x65, 0x5f, 0x33, 0x34, 0x31, 0x00, 0x00, 0x00,
  0x04, 0x00, 0x00, 0x00, 0x01, 0x00, 0x00, 0x00, 0x3e, 0x04, 0x00, 0x00, 0x86,
  0x07, 0x00, 0x00, 0x05, 0x00, 0x00, 0x00, 0xca, 0x90, 0xff, 0xff, 0x14, 0x00,
  0x00, 0x00, 0x4c, 0x00, 0x00, 0x00, 0x89, 0x00, 0x00, 0x00, 0x00, 0x00, 0x00,
  0x07, 0x78, 0x00, 0x00, 0x00, 0xbc, 0x90, 0xff, 0xff, 0x10, 0x00, 0x00, 0x00,
  0x1c, 0x00, 0x00, 0x00, 0x20, 0x00, 0x00, 0x00, 0x24, 0x00, 0x00, 0x00, 0x01,
  0x00, 0x00, 0x00, 0x00, 0x00, 0x00, 0x00, 0x00, 0x00, 0x00, 0x00, 0x00, 0x00,
  0x00, 0x00, 0x01, 0x00, 0x00, 0x00, 0xfe, 0x31, 0x1e, 0x3a, 0x01, 0x00, 0x00,
  0x00, 0xc2, 0x30, 0x9e, 0x41, 0x01, 0x00, 0x00, 0x00, 0x00, 0x00, 0x00, 0x00,
  0x33, 0x00, 0x00, 0x00, 0x52, 0x65, 0x6c, 0x75, 0x5f, 0x35, 0x3b, 0x42, 0x69,
  0x61, 0x73, 0x41, 0x64, 0x64, 0x5f, 0x31, 0x36, 0x3b, 0x64, 0x65, 0x70, 0x74,
  0x68, 0x77, 0x69, 0x73, 0x65, 0x5f, 0x33, 0x37, 0x3b, 0x43, 0x6f, 0x6e, 0x76,
  0x32, 0x44, 0x5f, 0x31, 0x36, 0x3b, 0x63, 0x6f, 0x6e, 0x76, 0x5f, 0x36, 0x5f,
  0x30, 0x5f, 0x62, 0x00, 0x04, 0x00, 0x00, 0x00, 0x01, 0x00, 0x00, 0x00, 0x3e,
  0x04, 0x00, 0x00, 0x86, 0x07, 0x00, 0x00, 0x05, 0x00, 0x00, 0x00, 0x6a, 0x91,
  0xff, 0xff, 0x14, 0x00, 0x00, 0x00, 0x48, 0x00, 0x00, 0x00, 0x88, 0x00, 0x00,
  0x00, 0x00, 0x00, 0x00, 0x07, 0x50, 0x00, 0x00, 0x00, 0x5c, 0x91, 0xff, 0xff,
  0x10, 0x00, 0x00, 0x00, 0x18, 0x00, 0x00, 0x00, 0x1c, 0x00, 0x00, 0x00, 0x20,
  0x00, 0x00, 0x00, 0x01, 0x00, 0x00, 0x00, 0x00, 0x00, 0x00, 0x00, 0x00, 0x00,
  0x00, 0x00, 0x01, 0x00, 0x00, 0x00, 0x12, 0x32, 0x2f, 0x3a, 0x01, 0x00, 0x00,
  0x00, 0x30, 0x51, 0x4d, 0x41, 0x01, 0x00, 0x00, 0x00, 0xb4, 0x30, 0xaf, 0xc1,
  0x0d, 0x00, 0x00, 0x00, 0x64, 0x65, 0x70, 0x74, 0x68, 0x77, 0x69, 0x73, 0x65,
  0x5f, 0x33, 0x33, 0x31, 0x00, 0x00, 0x00, 0x04, 0x00, 0x00, 0x00, 0x01, 0x00,
  0x00, 0x00, 0x3e, 0x04, 0x00, 0x00, 0x86, 0x07, 0x00, 0x00, 0x05, 0x00, 0x00,
  0x00, 0xe2, 0x91, 0xff, 0xff, 0x14, 0x00, 0x00, 0x00, 0x48, 0x00, 0x00, 0x00,
  0x87, 0x00, 0x00, 0x00, 0x00, 0x00, 0x00, 0x07, 0x50, 0x00, 0x00, 0x00, 0xd4,
  0x91, 0xff, 0xff, 0x10, 0x00, 0x00, 0x00, 0x18, 0x00, 0x00, 0x00, 0x1c, 0x00,
  0x00, 0x00, 0x20, 0x00, 0x00, 0x00, 0x01, 0x00, 0x00, 0x00, 0x00, 0x00, 0x00,
  0x00, 0x00, 0x00, 0x00, 0x00, 0x01, 0x00, 0x00, 0x00, 0xbe, 0xf4, 0x05, 0x3a,
  0x01, 0x00, 0x00, 0x00, 0xb2, 0xf3, 0x85, 0x41, 0x01, 0x00, 0x00, 0x00, 0x1d,
  0x00, 0x79, 0xc1, 0x0d, 0x00, 0x00, 0x00, 0x64, 0x65, 0x70, 0x74, 0x68, 0x77,
  0x69, 0x73, 0x65, 0x5f, 0x33, 0x32, 0x31, 0x00, 0x00, 0x00, 0x04, 0x00, 0x00,
  0x00, 0x01, 0x00, 0x00, 0x00, 0x3e, 0x04, 0x00, 0x00, 0x86, 0x07, 0x00, 0x00,
  0x05, 0x00, 0x00, 0x00, 0x5a, 0x92, 0xff, 0xff, 0x14, 0x00, 0x00, 0x00, 0x48,
  0x00, 0x00, 0x00, 0x86, 0x00, 0x00, 0x00, 0x00, 0x00, 0x00, 0x07, 0x48, 0x00,
  0x00, 0x00, 0x4c, 0x92, 0xff, 0xff, 0x10, 0x00, 0x00, 0x00, 0x18, 0x00, 0x00,
  0x00, 0x1c, 0x00, 0x00, 0x00, 0x20, 0x00, 0x00, 0x00, 0x01, 0x00, 0x00, 0x00,
  0x00, 0x00, 0x00, 0x00, 0x00, 0x00, 0x00, 0x00, 0x01, 0x00, 0x00, 0x00, 0x4b,
  0x15, 0x27, 0x3a, 0x01, 0x00, 0x00, 0x00, 0xfd, 0x13, 0xa7, 0x41, 0x01, 0x00,
  0x00, 0x00, 0xc4, 0xaa, 0x88, 0xc1, 0x05, 0x00, 0x00, 0x00, 0x41, 0x64, 0x64,
  0x5f, 0x34, 0x00, 0x00, 0x00, 0x04, 0x00, 0x00, 0x00, 0x01, 0x00, 0x00, 0x00,
  0x3e, 0x04, 0x00, 0x00, 0x86, 0x07, 0x00, 0x00, 0x05, 0x00, 0x00, 0x00, 0xca,
  0x92, 0xff, 0xff, 0x14, 0x00, 0x00, 0x00, 0x48, 0x00, 0x00, 0x00, 0x85, 0x00,
  0x00, 0x00, 0x00, 0x00, 0x00, 0x07, 0x70, 0x00, 0x00, 0x00, 0xbc, 0x92, 0xff,
  0xff, 0x10, 0x00, 0x00, 0x00, 0x18, 0x00, 0x00, 0x00, 0x1c, 0x00, 0x00, 0x00,
  0x20, 0x00, 0x00, 0x00, 0x01, 0x00, 0x00, 0x00, 0x00, 0x00, 0x00, 0x00, 0x00,
  0x00, 0x00, 0x00, 0x01, 0x00, 0x00, 0x00, 0x5d, 0xf7, 0xac, 0x39, 0x01, 0x00,
  0x00, 0x00, 0x76, 0xe6, 0x29, 0x41, 0x01, 0x00, 0x00, 0x00, 0x03, 0xf6, 0x2c,
  0xc1, 0x2d, 0x00, 0x00, 0x00, 0x42, 0x69, 0x61, 0x73, 0x41, 0x64, 0x64, 0x5f,
  0x31, 0x35, 0x3b, 0x64, 0x65, 0x70, 0x74, 0x68, 0x77, 0x69, 0x73, 0x65, 0x5f,
  0x33, 0x37, 0x3b, 0x43, 0x6f, 0x6e, 0x76, 0x32, 0x44, 0x5f, 0x31, 0x35, 0x3b,
  0x63, 0x6f, 0x6e, 0x76, 0x5f, 0x35, 0x5f, 0x31, 0x5f, 0x62, 0x31, 0x00, 0x00,
  0x00, 0x04, 0x00, 0x00, 0x00, 0x01, 0x00, 0x00, 0x00, 0x3e, 0x04, 0x00, 0x00,
  0x86, 0x07, 0x00, 0x00, 0x05, 0x00, 0x00, 0x00, 0x62, 0x93, 0xff, 0xff, 0x14,
  0x00, 0x00, 0x00, 0x48, 0x00, 0x00, 0x00, 0x84, 0x00, 0x00, 0x00, 0x00, 0x00,
  0x00, 0x07, 0x50, 0x00, 0x00, 0x00, 0x54, 0x93, 0xff, 0xff, 0x10, 0x00, 0x00,
  0x00, 0x18, 0x00, 0x00, 0x00, 0x1c, 0x00, 0x00, 0x00, 0x20, 0x00, 0x00, 0x00,
  0x01, 0x00, 0x00, 0x00, 0x00, 0x00, 0x00, 0x00, 0x00, 0x00, 0x00, 0x00, 0x01,
  0x00, 0x00, 0x00, 0x77, 0x5a, 0x02, 0x3a, 0x01, 0x00, 0x00, 0x00, 0x7e, 0x3a,
  0x5e, 0x41, 0x01, 0x00, 0x00, 0x00, 0x72, 0x59, 0x82, 0xc1, 0x0d, 0x00, 0x00,
  0x00, 0x64, 0x65, 0x70, 0x74, 0x68, 0x77, 0x69, 0x73, 0x65, 0x5f, 0x33, 0x31,
  0x32, 0x00, 0x00, 0x00, 0x04, 0x00, 0x00, 0x00, 0x01, 0x00, 0x00, 0x00, 0x3e,
  0x04, 0x00, 0x00, 0x86, 0x07, 0x00, 0x00, 0x07, 0x00, 0x00, 0x00, 0xda, 0x93,
  0xff, 0xff, 0x14, 0x00, 0x00, 0x00, 0x48, 0x00, 0x00, 0x00, 0x83, 0x00, 0x00,
  0x00, 0x00, 0x00, 0x00, 0x07, 0x50, 0x00, 0x00, 0x00, 0xcc, 0x93, 0xff, 0xff,
  0x10, 0x00, 0x00, 0x00, 0x18, 0x00, 0x00, 0x00, 0x1c, 0x00, 0x00, 0x00, 0x20,
  0x00, 0x00, 0x00, 0x01, 0x00, 0x00, 0x00, 0x00, 0x00, 0x00, 0x00, 0x00, 0x00,
  0x00, 0x00, 0x01, 0x00, 0x00, 0x00, 0x17, 0x17, 0x3f, 0x3a, 0x01, 0x00, 0x00,
  0x00, 0x99, 0x15, 0xbf, 0x41, 0x01, 0x00, 0x00, 0x00, 0x81, 0xe7, 0xa6, 0xc1,
  0x0d, 0x00, 0x00, 0x00, 0x64, 0x65, 0x70, 0x74, 0x68, 0x77, 0x69, 0x73, 0x65,
  0x5f, 0x33, 0x30, 0x31, 0x00, 0x00, 0x00, 0x04, 0x00, 0x00, 0x00, 0x01, 0x00,
  0x00, 0x00, 0x3e, 0x04, 0x00, 0x00, 0x86, 0x07, 0x00, 0x00, 0x07, 0x00, 0x00,
  0x00, 0x52, 0x94, 0xff, 0xff, 0x14, 0x00, 0x00, 0x00, 0x48, 0x00, 0x00, 0x00,
  0x82, 0x00, 0x00, 0x00, 0x00, 0x00, 0x00, 0x07, 0x70, 0x00, 0x00, 0x00, 0x44,
  0x94, 0xff, 0xff, 0x10, 0x00, 0x00, 0x00, 0x18, 0x00, 0x00, 0x00, 0x1c, 0x00,
  0x00, 0x00, 0x20, 0x00, 0x00, 0x00, 0x01, 0x00, 0x00, 0x00, 0x00, 0x00, 0x00,
  0x00, 0x00, 0x00, 0x00, 0x00, 0x01, 0x00, 0x00, 0x00, 0x31, 0x07, 0x20, 0x3a,
  0x01, 0x00, 0x00, 0x00, 0xf1, 0x05, 0xa0, 0x41, 0x01, 0x00, 0x00, 0x00, 0xef,
  0xcd, 0x8e, 0xc1, 0x2c, 0x00, 0x00, 0x00, 0x42, 0x69, 0x61, 0x73, 0x41, 0x64,
  0x64, 0x5f, 0x31, 0x34, 0x3b, 0x64, 0x65, 0x70, 0x74, 0x68, 0x77, 0x69, 0x73,
  0x65, 0x5f, 0x33, 0x37, 0x3b, 0x43, 0x6f, 0x6e, 0x76, 0x32, 0x44, 0x5f, 0x31,
  0x34, 0x3b, 0x63, 0x6f, 0x6e, 0x76, 0x5f, 0x35, 0x5f, 0x31, 0x5f, 0x62, 0x00,
  0x00, 0x00, 0x00, 0x04, 0x00, 0x00, 0x00, 0x01, 0x00, 0x00, 0x00, 0x3e, 0x04,
  0x00, 0x00, 0x86, 0x07, 0x00, 0x00, 0x05, 0x00, 0x00, 0x00, 0xea, 0x94, 0xff,
  0xff, 0x14, 0x00, 0x00, 0x00, 0x48, 0x00, 0x00, 0x00, 0x81, 0x00, 0x00, 0x00,
  0x00, 0x00, 0x00, 0x07, 0x50, 0x00, 0x00, 0x00, 0xdc, 0x94, 0xff, 0xff, 0x10,
  0x00, 0x00, 0x00, 0x18, 0x00, 0x00, 0x00, 0x1c, 0x00, 0x00, 0x00, 0x20, 0x00,
  0x00, 0x00, 0x01, 0x00, 0x00, 0x00, 0x00, 0x00, 0x00, 0x00, 0x00, 0x00, 0x00,
  0x00, 0x01, 0x00, 0x00, 0x00, 0x84, 0x2b, 0x76, 0x3a, 0x01, 0x00, 0x00, 0x00,
  0x3d, 0x1b, 0x22, 0x41, 0x01, 0x00, 0x00, 0x00, 0x98, 0x29, 0xf6, 0xc1, 0x0d,
  0x00, 0x00, 0x00, 0x64, 0x65, 0x70, 0x74, 0x68, 0x77, 0x69, 0x73, 0x65, 0x5f,
  0x32, 0x39, 0x31, 0x00, 0x00, 0x00, 0x04, 0x00, 0x00, 0x00, 0x01, 0x00, 0x00,
  0x00, 0x3e, 0x04, 0x00, 0x00, 0x86, 0x07, 0x00, 0x00, 0x05, 0x00, 0x00, 0x00,
  0x62, 0x95, 0xff, 0xff, 0x14, 0x00, 0x00, 0x00, 0x48, 0x00, 0x00, 0x00, 0x80,
  0x00, 0x00, 0x00, 0x00, 0x00, 0x00, 0x07, 0x50, 0x00, 0x00, 0x00, 0x54, 0x95,
  0xff, 0xff, 0x10, 0x00, 0x00, 0x00, 0x18, 0x00, 0x00, 0x00, 0x1c, 0x00, 0x00,
  0x00, 0x20, 0x00, 0x00, 0x00, 0x01, 0x00, 0x00, 0x00, 0x00, 0x00, 0x00, 0x00,
  0x00, 0x00, 0x00, 0x00, 0x01, 0x00, 0x00, 0x00, 0xe6, 0x81, 0x64, 0x3a, 0x01,
  0x00, 0x00, 0x00, 0xa7, 0x14, 0x13, 0x41, 0x01, 0x00, 0x00, 0x00, 0x1d, 0x80,
  0xe4, 0xc1, 0x0d, 0x00, 0x00, 0x00, 0x64, 0x65, 0x70, 0x74, 0x68, 0x77, 0x69,
  0x73, 0x65, 0x5f, 0x32, 0x38, 0x31, 0x00, 0x00, 0x00, 0x04, 0x00, 0x00, 0x00,
  0x01, 0x00, 0x00, 0x00, 0x3e, 0x04, 0x00, 0x00, 0x86, 0x07, 0x00, 0x00, 0x05,
  0x00, 0x00, 0x00, 0xda, 0x95, 0xff, 0xff, 0x14, 0x00, 0x00, 0x00, 0x4c, 0x00,
  0x00, 0x00, 0x7f, 0x00, 0x00, 0x00, 0x00, 0x00, 0x00, 0x07, 0x78, 0x00, 0x00,
  0x00, 0xcc, 0x95, 0xff, 0xff, 0x10, 0x00, 0x00, 0x00, 0x1c, 0x00, 0x00, 0x00,
  0x20, 0x00, 0x00, 0x00, 0x24, 0x00, 0x00, 0x00, 0x01, 0x00, 0x00, 0x00, 0x00,
  0x00, 0x00, 0x00, 0x00, 0x00, 0x00, 0x00, 0x00, 0x00, 0x00, 0x00, 0x01, 0x00,
  0x00, 0x00, 0x38, 0x10, 0x92, 0x3a, 0x01, 0x00, 0x00, 0x00, 0x14, 0x0f, 0x12,
  0x42, 0x01, 0x00, 0x00, 0x00, 0x00, 0x00, 0x00, 0x00, 0x33, 0x00, 0x00, 0x00,
  0x52, 0x65, 0x6c, 0x75, 0x5f, 0x34, 0x3b, 0x42, 0x69, 0x61, 0x73, 0x41, 0x64,
  0x64, 0x5f, 0x31, 0x33, 0x3b, 0x64, 0x65, 0x70, 0x74, 0x68, 0x77, 0x69, 0x73,
  0x65, 0x5f, 0x33, 0x37, 0x3b, 0x43, 0x6f, 0x6e, 0x76, 0x32, 0x44, 0x5f, 0x31,
  0x33, 0x3b, 0x63, 0x6f, 0x6e, 0x76, 0x5f, 0x35, 0x5f, 0x30, 0x5f, 0x62, 0x00,
  0x04, 0x00, 0x00, 0x00, 0x01, 0x00, 0x00, 0x00, 0x3e, 0x04, 0x00, 0x00, 0x86,
  0x07, 0x00, 0x00, 0x05, 0x00, 0x00, 0x00, 0x7a, 0x96, 0xff, 0xff, 0x14, 0x00,
  0x00, 0x00, 0x48, 0x00, 0x00, 0x00, 0x7e, 0x00, 0x00, 0x00, 0x00, 0x00, 0x00,
  0x07, 0x50, 0x00, 0x00, 0x00, 0x6c, 0x96, 0xff, 0xff, 0x10, 0x00, 0x00, 0x00,
  0x18, 0x00, 0x00, 0x00, 0x1c, 0x00, 0x00, 0x00, 0x20, 0x00, 0x00, 0x00, 0x01,
  0x00, 0x00, 0x00, 0x00, 0x00, 0x00, 0x00, 0x00, 0x00, 0x00, 0x00, 0x01, 0x00,
  0x00, 0x00, 0xf4, 0x4d, 0xdc, 0x3a, 0x01, 0x00, 0x00, 0x00, 0x9d, 0xe4, 0x9a,
  0x41, 0x01, 0x00, 0x00, 0x00, 0x3b, 0x4c, 0x5c, 0xc2, 0x0d, 0x00, 0x00, 0x00,
  0x64, 0x65, 0x70, 0x74, 0x68, 0x77, 0x69, 0x73, 0x65, 0x5f, 0x32, 0x37, 0x31,
  0x00, 0x00, 0x00, 0x04, 0x00, 0x00, 0x00, 0x01, 0x00, 0x00, 0x00, 0x3e, 0x04,
  0x00, 0x00, 0x86, 0x07, 0x00, 0x00, 0x07, 0x00, 0x00, 0x00, 0xf2, 0x96, 0xff,
  0xff, 0x14, 0x00, 0x00, 0x00, 0x48, 0x00, 0x00, 0x00, 0x7d, 0x00, 0x00, 0x00,
  0x00, 0x00, 0x00, 0x07, 0x50, 0x00, 0x00, 0x00, 0xe4, 0x96, 0xff, 0xff, 0x10,
  0x00, 0x00, 0x00, 0x18, 0x00, 0x00, 0x00, 0x1c, 0x00, 0x00, 0x00, 0x20, 0x00,
  0x00, 0x00, 0x01, 0x00, 0x00, 0x00, 0x00, 0x00, 0x00, 0x00, 0x00, 0x00, 0x00,
  0x00, 0x01, 0x00, 0x00, 0x00, 0xa1, 0xd2, 0x96, 0x3a, 0x01, 0x00, 0x00, 0x00,
  0x04, 0xa4, 0x0b, 0x42, 0x01, 0x00, 0x00, 0x00, 0x73, 0xd1, 0x16, 0xc2, 0x0d,
  0x00, 0x00, 0x00, 0x64, 0x65, 0x70, 0x74, 0x68, 0x77, 0x69, 0x73, 0x65, 0x5f,
  0x32, 0x36, 0x31, 0x00, 0x00, 0x00, 0x04, 0x00, 0x00, 0x00, 0x01, 0x00, 0x00,
  0x00, 0x3e, 0x04, 0x00, 0x00, 0x86, 0x07, 0x00, 0x00, 0x07, 0x00, 0x00, 0x00,
  0x6a, 0x97, 0xff, 0xff, 0x14, 0x00, 0x00, 0x00, 0x48, 0x00, 0x00, 0x00, 0x7c,
  0x00, 0x00, 0x00, 0x00, 0x00, 0x00, 0x07, 0x48, 0x00, 0x00, 0x00, 0x5c, 0x97,
  0xff, 0xff, 0x10, 0x00, 0x00, 0x00, 0x18, 0x00, 0x00, 0x00, 0x1c, 0x00, 0x00,
  0x00, 0x20, 0x00, 0x00, 0x00, 0x01, 0x00, 0x00, 0x00, 0x00, 0x00, 0x00, 0x00,
  0x00, 0x00, 0x00, 0x00, 0x01, 0x00, 0x00, 0x00, 0xe1, 0x8b, 0xa7, 0x3a, 0x01,
  0x00, 0x00, 0x00, 0x92, 0x8a, 0x27, 0x42, 0x01, 0x00, 0x00, 0x00, 0x14, 0x9e,
  0x1d, 0xc2, 0x05, 0x00, 0x00, 0x00, 0x41, 0x64, 0x64, 0x5f, 0x33, 0x00, 0x00,
  0x00, 0x04, 0x00, 0x00, 0x00, 0x01, 0x00, 0x00, 0x00, 0x3e, 0x04, 0x00, 0x00,
  0x86, 0x07, 0x00, 0x00, 0x07, 0x00, 0x00, 0x00, 0xda, 0x97, 0xff, 0xff, 0x14,
  0x00, 0x00, 0x00, 0x48, 0x00, 0x00, 0x00, 0x7b, 0x00, 0x00, 0x00, 0x00, 0x00,
  0x00, 0x07, 0x70, 0x00, 0x00, 0x00, 0xcc, 0x97, 0xff, 0xff, 0x10, 0x00, 0x00,
  0x00, 0x18, 0x00, 0x00, 0x00, 0x1c, 0x00, 0x00, 0x00, 0x20, 0x00, 0x00, 0x00,
  0x01, 0x00, 0x00, 0x00, 0x00, 0x00, 0x00, 0x00, 0x00, 0x00, 0x00, 0x00, 0x01,
  0x00, 0x00, 0x00, 0x99, 0x58, 0xf5, 0x3a, 0x01, 0x00, 0x00, 0x00, 0xae, 0x56,
  0x75, 0x42, 0x01, 0x00, 0x00, 0x00, 0x63, 0xbe, 0x1d, 0xc2, 0x2d, 0x00, 0x00,
  0x00, 0x42, 0x69, 0x61, 0x73, 0x41, 0x64, 0x64, 0x5f, 0x31, 0x32, 0x3b, 0x64,
  0x65, 0x70, 0x74, 0x68, 0x77, 0x69, 0x73, 0x65, 0x5f, 0x33, 0x31, 0x3b, 0x43,
  0x6f, 0x6e, 0x76, 0x32, 0x44, 0x5f, 0x31, 0x32, 0x3b, 0x63, 0x6f, 0x6e, 0x76,
  0x5f, 0x34, 0x5f, 0x31, 0x5f, 0x62, 0x31, 0x00, 0x00, 0x00, 0x04, 0x00, 0x00,
  0x00, 0x01, 0x00, 0x00, 0x00, 0x3e, 0x04, 0x00, 0x00, 0x86, 0x07, 0x00, 0x00,
  0x07, 0x00, 0x00, 0x00, 0x72, 0x98, 0xff, 0xff, 0x14, 0x00, 0x00, 0x00, 0x48,
  0x00, 0x00, 0x00, 0x7a, 0x00, 0x00, 0x00, 0x00, 0x00, 0x00, 0x07, 0x50, 0x00,
  0x00, 0x00, 0x64, 0x98, 0xff, 0xff, 0x10, 0x00, 0x00, 0x00, 0x18, 0x00, 0x00,
  0x00, 0x1c, 0x00, 0x00, 0x00, 0x20, 0x00, 0x00, 0x00, 0x01, 0x00, 0x00, 0x00,
  0x00, 0x00, 0x00, 0x00, 0x00, 0x00, 0x00, 0x00, 0x01, 0x00, 0x00, 0x00, 0x47,
  0x68, 0xc3, 0x3a, 0x01, 0x00, 0x00, 0x00, 0xc0, 0x66, 0x43, 0x42, 0x01, 0x00,
  0x00, 0x00, 0xf7, 0x42, 0x13, 0xc2, 0x0d, 0x00, 0x00, 0x00, 0x64, 0x65, 0x70,
  0x74, 0x68, 0x77, 0x69, 0x73, 0x65, 0x5f, 0x32, 0x35, 0x32, 0x00, 0x00, 0x00,
  0x04, 0x00, 0x00, 0x00, 0x01, 0x00, 0x00, 0x00, 0x3e, 0x04, 0x00, 0x00, 0x86,
  0x07, 0x00, 0x00, 0x09, 0x00, 0x00, 0x00, 0xea, 0x98, 0xff, 0xff, 0x14, 0x00,
  0x00, 0x00, 0x48, 0x00, 0x00, 0x00, 0x79, 0x00, 0x00, 0x00, 0x00, 0x00, 0x00,
  0x07, 0x50, 0x00, 0x00, 0x00, 0xdc, 0x98, 0xff, 0xff, 0x10, 0x00, 0x00, 0x00,
  0x18, 0x00, 0x00, 0x00, 0x1c, 0x00, 0x00, 0x00, 0x20, 0x00, 0x00, 0x00, 0x01,
  0x00, 0x00, 0x00, 0x00, 0x00, 0x00, 0x00, 0x00, 0x00, 0x00, 0x00, 0x01, 0x00,
  0x00, 0x00, 0xb2, 0x2b, 0x02, 0x3b, 0x01, 0x00, 0x00, 0x00, 0xae, 0x2a, 0x82,
  0x42, 0x01, 0x00, 0x00, 0x00, 0xf5, 0xef, 0x24, 0xc2, 0x0d, 0x00, 0x00, 0x00,
  0x64, 0x65, 0x70, 0x74, 0x68, 0x77, 0x69, 0x73, 0x65, 0x5f, 0x32, 0x34, 0x31,
  0x00, 0x00, 0x00, 0x04, 0x00, 0x00, 0x00, 0x01, 0x00, 0x00, 0x00, 0x3e, 0x04,
  0x00, 0x00, 0x86, 0x07, 0x00, 0x00, 0x09, 0x00, 0x00, 0x00, 0x62, 0x99, 0xff,
  0xff, 0x14, 0x00, 0x00, 0x00, 0x48, 0x00, 0x00, 0x00, 0x78, 0x00, 0x00, 0x00,
  0x00, 0x00, 0x00, 0x07, 0x70, 0x00, 0x00, 0x00, 0x54, 0x99, 0xff, 0xff, 0x10,
  0x00, 0x00, 0x00, 0x18, 0x00, 0x00, 0x00, 0x1c, 0x00, 0x00, 0x00, 0x20, 0x00,
  0x00, 0x00, 0x01, 0x00, 0x00, 0x00, 0x00, 0x00, 0x00, 0x00, 0x00, 0x00, 0x00,
  0x00, 0x01, 0x00, 0x00, 0x00, 0x7d, 0xaa, 0x93, 0x3a, 0x01, 0x00, 0x00, 0x00,
  0x56, 0xa9, 0x13, 0x42, 0x01, 0x00, 0x00, 0x00, 0xec, 0xdd, 0x10, 0xc2, 0x2c,
  0x00, 0x00, 0x00, 0x42, 0x69, 0x61, 0x73, 0x41, 0x64, 0x64, 0x5f, 0x31, 0x31,
  0x3b, 0x64, 0x65, 0x70, 0x74, 0x68, 0x77, 0x69, 0x73, 0x65, 0x5f, 0x33, 0x31,
  0x3b, 0x43, 0x6f, 0x6e, 0x76, 0x32, 0x44, 0x5f, 0x31, 0x31, 0x3b, 0x63, 0x6f,
  0x6e, 0x76, 0x5f, 0x34, 0x5f, 0x31, 0x5f, 0x62, 0x00, 0x00, 0x00, 0x00, 0x04,
  0x00, 0x00, 0x00, 0x01, 0x00, 0x00, 0x00, 0x3e, 0x04, 0x00, 0x00, 0x86, 0x07,
  0x00, 0x00, 0x07, 0x00, 0x00, 0x00, 0xfa, 0x99, 0xff, 0xff, 0x14, 0x00, 0x00,
  0x00, 0x48, 0x00, 0x00, 0x00, 0x77, 0x00, 0x00, 0x00, 0x00, 0x00, 0x00, 0x07,
  0x50, 0x00, 0x00, 0x00, 0xec, 0x99, 0xff, 0xff, 0x10, 0x00, 0x00, 0x00, 0x18,
  0x00, 0x00, 0x00, 0x1c, 0x00, 0x00, 0x00, 0x20, 0x00, 0x00, 0x00, 0x01, 0x00,
  0x00, 0x00, 0x00, 0x00, 0x00, 0x00, 0x00, 0x00, 0x00, 0x00, 0x01, 0x00, 0x00,
  0x00, 0x8f, 0x78, 0x32, 0x3a, 0x01, 0x00, 0x00, 0x00, 0x08, 0xb9, 0x9d, 0x41,
  0x01, 0x00, 0x00, 0x00, 0x2a, 0x77, 0xb2, 0xc1, 0x0d, 0x00, 0x00, 0x00, 0x64,
  0x65, 0x70, 0x74, 0x68, 0x77, 0x69, 0x73, 0x65, 0x5f, 0x32, 0x33, 0x31, 0x00,
  0x00, 0x00, 0x04, 0x00, 0x00, 0x00, 0x01, 0x00, 0x00, 0x00, 0x3e, 0x04, 0x00,
  0x00, 0x86, 0x07, 0x00, 0x00, 0x07, 0x00, 0x00, 0x00, 0x72, 0x9a, 0xff, 0xff,
  0x14, 0x00, 0x00, 0x00, 0x48, 0x00, 0x00, 0x00, 0x76, 0x00, 0x00, 0x00, 0x00,
  0x00, 0x00, 0x07, 0x50, 0x00, 0x00, 0x00, 0x64, 0x9a, 0xff, 0xff, 0x10, 0x00,
  0x00, 0x00, 0x18, 0x00, 0x00, 0x00, 0x1c, 0x00, 0x00, 0x00, 0x20, 0x00, 0x00,
  0x00, 0x01, 0x00, 0x00, 0x00, 0x00, 0x00, 0x00, 0x00, 0x00, 0x00, 0x00, 0x00,
  0x01, 0x00, 0x00, 0x00, 0x01, 0x8f, 0xe4, 0x3a, 0x01, 0x00, 0x00, 0x00, 0x38,
  0x8d, 0x64, 0x42, 0x01, 0x00, 0x00, 0x00, 0x51, 0x0a, 0xe4, 0xc1, 0x0d, 0x00,
  0x00, 0x00, 0x64, 0x65, 0x70, 0x74, 0x68, 0x77, 0x69, 0x73, 0x65, 0x5f, 0x32,
  0x32, 0x31, 0x00, 0x00, 0x00, 0x04, 0x00, 0x00, 0x00, 0x01, 0x00, 0x00, 0x00,
  0x3e, 0x04, 0x00, 0x00, 0x86, 0x07, 0x00, 0x00, 0x07, 0x00, 0x00, 0x00, 0xea,
  0x9a, 0xff, 0xff, 0x14, 0x00, 0x00, 0x00, 0x4c, 0x00, 0x00, 0x00, 0x75, 0x00,
  0x00, 0x00, 0x00, 0x00, 0x00, 0x07, 0x78, 0x00, 0x00, 0x00, 0xdc, 0x9a, 0xff,
  0xff, 0x10, 0x00, 0x00, 0x00, 0x1c, 0x00, 0x00, 0x00, 0x20, 0x00, 0x00, 0x00,
  0x24, 0x00, 0x00, 0x00, 0x01, 0x00, 0x00, 0x00, 0x00, 0x00, 0x00, 0x00, 0x00,
