const unsigned char sr3by2_2_tflite[] = {
  0x20, 0x00, 0x00, 0x00, 0x54, 0x46, 0x4c, 0x33, 0x00, 0x00, 0x00, 0x00, 0x00,
  0x00, 0x12, 0x00, 0x1c, 0x00, 0x18, 0x00, 0x14, 0x00, 0x10, 0x00, 0x0c, 0x00,
  0x08, 0x00, 0x00, 0x00, 0x04, 0x00, 0x12, 0x00, 0x00, 0x00, 0x18, 0x00, 0x00,
  0x00, 0x48, 0x00, 0x00, 0x00, 0x34, 0x1d, 0x00, 0x00, 0x44, 0x1d, 0x00, 0x00,
  0xb4, 0xa4, 0x00, 0x00, 0x03, 0x00, 0x00, 0x00, 0x01, 0x00, 0x00, 0x00, 0x0c,
  0x00, 0x00, 0x00, 0x08, 0x00, 0x0c, 0x00, 0x08, 0x00, 0x04, 0x00, 0x08, 0x00,
  0x00, 0x00, 0x91, 0x00, 0x00, 0x00, 0x04, 0x00, 0x00, 0x00, 0x13, 0x00, 0x00,
  0x00, 0x6d, 0x69, 0x6e, 0x5f, 0x72, 0x75, 0x6e, 0x74, 0x69, 0x6d, 0x65, 0x5f,
  0x76, 0x65, 0x72, 0x73, 0x69, 0x6f, 0x6e, 0x00, 0x92, 0x00, 0x00, 0x00, 0xe8,
  0x1c, 0x00, 0x00, 0xe0, 0x1c, 0x00, 0x00, 0xa8, 0x1c, 0x00, 0x00, 0x68, 0x1c,
  0x00, 0x00, 0x20, 0x1c, 0x00, 0x00, 0xc8, 0x1b, 0x00, 0x00, 0x58, 0x1b, 0x00,
  0x00, 0xd0, 0x1a, 0x00, 0x00, 0xa0, 0x1a, 0x00, 0x00, 0x88, 0x1a, 0x00, 0x00,
  0x70, 0x1a, 0x00, 0x00, 0x4c, 0x1a, 0x00, 0x00, 0xd8, 0x19, 0x00, 0x00, 0x64,
  0x19, 0x00, 0x00, 0x28, 0x18, 0x00, 0x00, 0xcc, 0x17, 0x00, 0x00, 0x70, 0x17,
  0x00, 0x00, 0x7c, 0x16, 0x00, 0x00, 0x08, 0x16, 0x00, 0x00, 0x58, 0x15, 0x00,
  0x00, 0xe4, 0x14, 0x00, 0x00, 0xa8, 0x13, 0x00, 0x00, 0x4c, 0x13, 0x00, 0x00,
  0xf0, 0x12, 0x00, 0x00, 0x2c, 0x12, 0x00, 0x00, 0xe0, 0x11, 0x00, 0x00, 0x94,
  0x11, 0x00, 0x00, 0xf4, 0x10, 0x00, 0x00, 0x98, 0x10, 0x00, 0x00, 0x10, 0x10,
  0x00, 0x00, 0xb4, 0x0f, 0x00, 0x00, 0xf0, 0x0e, 0x00, 0x00, 0xa4, 0x0e, 0x00,
  0x00, 0x58, 0x0e, 0x00, 0x00, 0xdc, 0x0d, 0x00, 0x00, 0x9c, 0x0d, 0x00, 0x00,
  0x5c, 0x0d, 0x00, 0x00, 0xf8, 0x0c, 0x00, 0x00, 0xac, 0x0c, 0x00, 0x00, 0x3c,
  0x0c, 0x00, 0x00, 0xf0, 0x0b, 0x00, 0x00, 0x74, 0x0b, 0x00, 0x00, 0x34, 0x0b,
  0x00, 0x00, 0xf4, 0x0a, 0x00, 0x00, 0xa4, 0x0a, 0x00, 0x00, 0x70, 0x0a, 0x00,
  0x00, 0x3c, 0x0a, 0x00, 0x00, 0xf8, 0x09, 0x00, 0x00, 0xb8, 0x09, 0x00, 0x00,
  0x60, 0x09, 0x00, 0x00, 0x20, 0x09, 0x00, 0x00, 0xd0, 0x08, 0x00, 0x00, 0x9c,
  0x08, 0x00, 0x00, 0x68, 0x08, 0x00, 0x00, 0x34, 0x08, 0x00, 0x00, 0x08, 0x08,
  0x00, 0x00, 0xdc, 0x07, 0x00, 0x00, 0xb0, 0x07, 0x00, 0x00, 0x7c, 0x07, 0x00,
  0x00, 0x34, 0x07, 0x00, 0x00, 0x00, 0x07, 0x00, 0x00, 0xcc, 0x06, 0x00, 0x00,
  0xa0, 0x06, 0x00, 0x00, 0x74, 0x06, 0x00, 0x00, 0x48, 0x06, 0x00, 0x00, 0x1c,
  0x06, 0x00, 0x00, 0xf0, 0x05, 0x00, 0x00, 0xc4, 0x05, 0x00, 0x00, 0x90, 0x05,
  0x00, 0x00, 0x58, 0x05, 0x00, 0x00, 0x24, 0x05, 0x00, 0x00, 0x0c, 0x05, 0x00,
  0x00, 0xf4, 0x04, 0x00, 0x00, 0x44, 0x04, 0x00, 0x00, 0xbc, 0x03, 0x00, 0x00,
  0x4c, 0x03, 0x00, 0x00, 0xf4, 0x02, 0x00, 0x00, 0xac, 0x02, 0x00, 0x00, 0x74,
  0x02, 0x00, 0x00, 0x3c, 0x02, 0x00, 0x00, 0x24, 0x02, 0x00, 0x00, 0x1c, 0x02,
  0x00, 0x00, 0x14, 0x02, 0x00, 0x00, 0x0c, 0x02, 0x00, 0x00, 0x04, 0x02, 0x00,
  0x00, 0xfc, 0x01, 0x00, 0x00, 0xf4, 0x01, 0x00, 0x00, 0xec, 0x01, 0x00, 0x00,
  0xe4, 0x01, 0x00, 0x00, 0xdc, 0x01, 0x00, 0x00, 0xd4, 0x01, 0x00, 0x00, 0xcc,
  0x01, 0x00, 0x00, 0xc4, 0x01, 0x00, 0x00, 0xbc, 0x01, 0x00, 0x00, 0xb4, 0x01,
  0x00, 0x00, 0xac, 0x01, 0x00, 0x00, 0xa4, 0x01, 0x00, 0x00, 0x9c, 0x01, 0x00,
  0x00, 0x94, 0x01, 0x00, 0x00, 0x8c, 0x01, 0x00, 0x00, 0x84, 0x01, 0x00, 0x00,
  0x7c, 0x01, 0x00, 0x00, 0x74, 0x01, 0x00, 0x00, 0x6c, 0x01, 0x00, 0x00, 0x64,
  0x01, 0x00, 0x00, 0x5c, 0x01, 0x00, 0x00, 0x54, 0x01, 0x00, 0x00, 0x4c, 0x01,
  0x00, 0x00, 0x44, 0x01, 0x00, 0x00, 0x3c, 0x01, 0x00, 0x00, 0x34, 0x01, 0x00,
  0x00, 0x2c, 0x01, 0x00, 0x00, 0x24, 0x01, 0x00, 0x00, 0x1c, 0x01, 0x00, 0x00,
  0x14, 0x01, 0x00, 0x00, 0x0c, 0x01, 0x00, 0x00, 0x04, 0x01, 0x00, 0x00, 0xfc,
  0x00, 0x00, 0x00, 0xf4, 0x00, 0x00, 0x00, 0xec, 0x00, 0x00, 0x00, 0xe4, 0x00,
  0x00, 0x00, 0xdc, 0x00, 0x00, 0x00, 0xd4, 0x00, 0x00, 0x00, 0xcc, 0x00, 0x00,
  0x00, 0xc4, 0x00, 0x00, 0x00, 0xbc, 0x00, 0x00, 0x00, 0xb4, 0x00, 0x00, 0x00,
  0xac, 0x00, 0x00, 0x00, 0xa4, 0x00, 0x00, 0x00, 0x9c, 0x00, 0x00, 0x00, 0x94,
  0x00, 0x00, 0x00, 0x8c, 0x00, 0x00, 0x00, 0x84, 0x00, 0x00, 0x00, 0x7c, 0x00,
  0x00, 0x00, 0x74, 0x00, 0x00, 0x00, 0x6c, 0x00, 0x00, 0x00, 0x64, 0x00, 0x00,
  0x00, 0x5c, 0x00, 0x00, 0x00, 0x54, 0x00, 0x00, 0x00, 0x4c, 0x00, 0x00, 0x00,
  0x44, 0x00, 0x00, 0x00, 0x3c, 0x00, 0x00, 0x00, 0x34, 0x00, 0x00, 0x00, 0x2c,
  0x00, 0x00, 0x00, 0x24, 0x00, 0x00, 0x00, 0x04, 0x00, 0x00, 0x00, 0x9e, 0xe5,
  0xff, 0xff, 0x04, 0x00, 0x00, 0x00, 0x10, 0x00, 0x00, 0x00, 0x31, 0x2e, 0x35,
  0x2e, 0x30, 0x00, 0x00, 0x00, 0x00, 0x00, 0x00, 0x00, 0x00, 0x00, 0x00, 0x00,
  0xd8, 0x62, 0xff, 0xff, 0xdc, 0x62, 0xff, 0xff, 0xe0, 0x62, 0xff, 0xff, 0xe4,
  0x62, 0xff, 0xff, 0xe8, 0x62, 0xff, 0xff, 0xec, 0x62, 0xff, 0xff, 0xf0, 0x62,
  0xff, 0xff, 0xf4, 0x62, 0xff, 0xff, 0xf8, 0x62, 0xff, 0xff, 0xfc, 0x62, 0xff,
  0xff, 0x00, 0x63, 0xff, 0xff, 0x04, 0x63, 0xff, 0xff, 0x08, 0x63, 0xff, 0xff,
  0x0c, 0x63, 0xff, 0xff, 0x10, 0x63, 0xff, 0xff, 0x14, 0x63, 0xff, 0xff, 0x18,
  0x63, 0xff, 0xff, 0x1c, 0x63, 0xff, 0xff, 0x20, 0x63, 0xff, 0xff, 0x24, 0x63,
  0xff, 0xff, 0x28, 0x63, 0xff, 0xff, 0x2c, 0x63, 0xff, 0xff, 0x30, 0x63, 0xff,
  0xff, 0x34, 0x63, 0xff, 0xff, 0x38, 0x63, 0xff, 0xff, 0x3c, 0x63, 0xff, 0xff,
  0x40, 0x63, 0xff, 0xff, 0x44, 0x63, 0xff, 0xff, 0x48, 0x63, 0xff, 0xff, 0x4c,
  0x63, 0xff, 0xff, 0x50, 0x63, 0xff, 0xff, 0x54, 0x63, 0xff, 0xff, 0x58, 0x63,
  0xff, 0xff, 0x5c, 0x63, 0xff, 0xff, 0x60, 0x63, 0xff, 0xff, 0x64, 0x63, 0xff,
  0xff, 0x68, 0x63, 0xff, 0xff, 0x6c, 0x63, 0xff, 0xff, 0x70, 0x63, 0xff, 0xff,
  0x74, 0x63, 0xff, 0xff, 0x78, 0x63, 0xff, 0xff, 0x7c, 0x63, 0xff, 0xff, 0x80,
  0x63, 0xff, 0xff, 0x84, 0x63, 0xff, 0xff, 0x88, 0x63, 0xff, 0xff, 0x8c, 0x63,
  0xff, 0xff, 0x90, 0x63, 0xff, 0xff, 0x94, 0x63, 0xff, 0xff, 0x98, 0x63, 0xff,
  0xff, 0x9c, 0x63, 0xff, 0xff, 0xa0, 0x63, 0xff, 0xff, 0xa4, 0x63, 0xff, 0xff,
  0xa8, 0x63, 0xff, 0xff, 0xac, 0x63, 0xff, 0xff, 0xb0, 0x63, 0xff, 0xff, 0xb4,
  0x63, 0xff, 0xff, 0xb8, 0x63, 0xff, 0xff, 0xbc, 0x63, 0xff, 0xff, 0xc0, 0x63,
  0xff, 0xff, 0xc4, 0x63, 0xff, 0xff, 0xc8, 0x63, 0xff, 0xff, 0xcc, 0x63, 0xff,
  0xff, 0xd0, 0x63, 0xff, 0xff, 0xd4, 0x63, 0xff, 0xff, 0xba, 0xe6, 0xff, 0xff,
  0x04, 0x00, 0x00, 0x00, 0x08, 0x00, 0x00, 0x00, 0xfe, 0xed, 0xff, 0xff, 0xff,
  0xff, 0xff, 0xff, 0xce, 0xe6, 0xff, 0xff, 0x04, 0x00, 0x00, 0x00, 0x28, 0x00,
  0x00, 0x00, 0x6b, 0x40, 0x00, 0x00, 0x00, 0x00, 0x00, 0x00, 0x99, 0xe1, 0xff,
  0xff, 0xff, 0xff, 0xff, 0xff, 0xf0, 0x8b, 0xff, 0xff, 0xff, 0xff, 0xff, 0xff,
  0xe3, 0x16, 0x00, 0x00, 0x00, 0x00, 0x00, 0x00, 0xe6, 0x8e, 0x00, 0x00, 0x00,
  0x00, 0x00, 0x00, 0x02, 0xe7, 0xff, 0xff, 0x04, 0x00, 0x00, 0x00, 0x28, 0x00,
  0x00, 0x00, 0x89, 0x21, 0x00, 0x00, 0x00, 0x00, 0x00, 0x00, 0xfd, 0x15, 0x00,
  0x00, 0x00, 0x00, 0x00, 0x00, 0xc2, 0x66, 0x00, 0x00, 0x00, 0x00, 0x00, 0x00,
  0xc5, 0xf8, 0xff, 0xff, 0xff, 0xff, 0xff, 0xff, 0x83, 0x4b, 0x00, 0x00, 0x00,
  0x00, 0x00, 0x00, 0x36, 0xe7, 0xff, 0xff, 0x04, 0x00, 0x00, 0x00, 0x38, 0x00,
  0x00, 0x00, 0x14, 0x5b, 0xff, 0xff, 0xff, 0xff, 0xff, 0xff, 0xf0, 0xf6, 0xff,
  0xff, 0xff, 0xff, 0xff, 0xff, 0x2f, 0xf6, 0xff, 0xff, 0xff, 0xff, 0xff, 0xff,
  0x3d, 0x05, 0x00, 0x00, 0x00, 0x00, 0x00, 0x00, 0xa9, 0xd1, 0xff, 0xff, 0xff,
  0xff, 0xff, 0xff, 0x7e, 0x16, 0x00, 0x00, 0x00, 0x00, 0x00, 0x00, 0x0f, 0x83,
  0xff, 0xff, 0xff, 0xff, 0xff, 0xff, 0x7a, 0xe7, 0xff, 0xff, 0x04, 0x00, 0x00,
  0x00, 0x48, 0x00, 0x00, 0x00, 0x80, 0x96, 0xff, 0xff, 0xff, 0xff, 0xff, 0xff,
  0x53, 0x18, 0x00, 0x00, 0x00, 0x00, 0x00, 0x00, 0x5f, 0xfe, 0xff, 0xff, 0xff,
  0xff, 0xff, 0xff, 0x67, 0x10, 0x00, 0x00, 0x00, 0x00, 0x00, 0x00, 0xb0, 0xcf,
  0xff, 0xff, 0xff, 0xff, 0xff, 0xff, 0x40, 0x80, 0xff, 0xff, 0xff, 0xff, 0xff,
  0xff, 0xb2, 0x0b, 0x00, 0x00, 0x00, 0x00, 0x00, 0x00, 0x16, 0x18, 0x00, 0x00,
  0x00, 0x00, 0x00, 0x00, 0xcb, 0x53, 0x00, 0x00, 0x00, 0x00, 0x00, 0x00, 0xce,
  0xe7, 0xff, 0xff, 0x04, 0x00, 0x00, 0x00, 0x60, 0x00, 0x00, 0x00, 0xf5, 0x2e,
  0x00, 0x00, 0x00, 0x00, 0x00, 0x00, 0xcf, 0xf2, 0xff, 0xff, 0xff, 0xff, 0xff,
  0xff, 0x64, 0x17, 0x00, 0x00, 0x00, 0x00, 0x00, 0x00, 0xa7, 0x21, 0x00, 0x00,
  0x00, 0x00, 0x00, 0x00, 0x9e, 0x95, 0xff, 0xff, 0xff, 0xff, 0xff, 0xff, 0xd5,
  0x44, 0xff, 0xff, 0xff, 0xff, 0xff, 0xff, 0xb4, 0xdb, 0xff, 0xff, 0xff, 0xff,
  0xff, 0xff, 0x36, 0x3e, 0x00, 0x00, 0x00, 0x00, 0x00, 0x00, 0x56, 0x20, 0x00,
  0x00, 0x00, 0x00, 0x00, 0x00, 0x8b, 0x14, 0x00, 0x00, 0x00, 0x00, 0x00, 0x00,
  0x78, 0x21, 0x00, 0x00, 0x00, 0x00, 0x00, 0x00, 0xb5, 0x48, 0x00, 0x00, 0x00,
  0x00, 0x00, 0x00, 0x3a, 0xe8, 0xff, 0xff, 0x04, 0x00, 0x00, 0x00, 0x78, 0x00,
  0x00, 0x00, 0x56, 0x01, 0x00, 0x00, 0x00, 0x00, 0x00, 0x00, 0x82, 0x33, 0x00,
  0x00, 0x00, 0x00, 0x00, 0x00, 0xcb, 0xd8, 0xff, 0xff, 0xff, 0xff, 0xff, 0xff,
  0x49, 0x42, 0x00, 0x00, 0x00, 0x00, 0x00, 0x00, 0x4a, 0x08, 0x00, 0x00, 0x00,
  0x00, 0x00, 0x00, 0xd0, 0x38, 0x00, 0x00, 0x00, 0x00, 0x00, 0x00, 0x01, 0x03,
  0x00, 0x00, 0x00, 0x00, 0x00, 0x00, 0xff, 0x15, 0x00, 0x00, 0x00, 0x00, 0x00,
  0x00, 0x31, 0xde, 0xff, 0xff, 0xff, 0xff, 0xff, 0xff, 0xa7, 0x04, 0x00, 0x00,
  0x00, 0x00, 0x00, 0x00, 0x6d, 0x41, 0x00, 0x00, 0x00, 0x00, 0x00, 0x00, 0x14,
  0xef, 0xff, 0xff, 0xff, 0xff, 0xff, 0xff, 0xda, 0x13, 0x00, 0x00, 0x00, 0x00,
  0x00, 0x00, 0x1b, 0xf0, 0xff, 0xff, 0xff, 0xff, 0xff, 0xff, 0x8b, 0xe7, 0xff,
  0xff, 0xff, 0xff, 0xff, 0xff, 0xbe, 0xe8, 0xff, 0xff, 0x04, 0x00, 0x00, 0x00,
  0xa0, 0x00, 0x00, 0x00, 0x8c, 0xaa, 0xfe, 0xff, 0xff, 0xff, 0xff, 0xff, 0x83,
  0x82, 0xff, 0xff, 0xff, 0xff, 0xff, 0xff, 0xcb, 0x3c, 0x00, 0x00, 0x00, 0x00,
  0x00, 0x00, 0xd0, 0x7e, 0xff, 0xff, 0xff, 0xff, 0xff, 0xff, 0xaf, 0xe1, 0xf0,
  0xff, 0xff, 0xff, 0xff, 0xff, 0x38, 0xd3, 0xfd, 0xff, 0xff, 0xff, 0xff, 0xff,
  0x50, 0x9d, 0x19, 0x02, 0x00, 0x00, 0x00, 0x00, 0xa8, 0xae, 0xfb, 0xff, 0xff,
  0xff, 0xff, 0xff, 0xf2, 0x93, 0x15, 0xff, 0xff, 0xff, 0xff, 0xff, 0xdc, 0xcd,
  0xfd, 0xff, 0xff, 0xff, 0xff, 0xff, 0x0d, 0x63, 0xfc, 0xff, 0xff, 0xff, 0xff,
  0xff, 0x48, 0x9e, 0xff, 0xff, 0xff, 0xff, 0xff, 0xff, 0x7f, 0xea, 0x07, 0x00,
  0x00, 0x00, 0x00, 0x00, 0x28, 0xf5, 0xfe, 0xff, 0xff, 0xff, 0xff, 0xff, 0x19,
  0x5a, 0x03, 0x00, 0x00, 0x00, 0x00, 0x00, 0xfe, 0xe3, 0x03, 0x00, 0x00, 0x00,
  0x00, 0x00, 0xbe, 0x2f, 0x03, 0x00, 0x00, 0x00, 0x00, 0x00, 0xfc, 0x45, 0x01,
  0x00, 0x00, 0x00, 0x00, 0x00, 0x4f, 0x45, 0xfe, 0xff, 0xff, 0xff, 0xff, 0xff,
  0x35, 0x83, 0x1a, 0x00, 0x00, 0x00, 0x00, 0x00, 0x6a, 0xe9, 0xff, 0xff, 0x04,
  0x00, 0x00, 0x00, 0x05, 0x00, 0x00, 0x00, 0xbf, 0xb6, 0x49, 0xc4, 0x81, 0x00,
  0x00, 0x00, 0x7e, 0xe9, 0xff, 0xff, 0x04, 0x00, 0x00, 0x00, 0x08, 0x00, 0x00,
  0x00, 0x00, 0x00, 0x00, 0x00, 0x00, 0x00, 0x00, 0x00, 0x92, 0xe9, 0xff, 0xff,
  0x04, 0x00, 0x00, 0x00, 0x23, 0x00, 0x00, 0x00, 0xfb, 0xee, 0x1b, 0xef, 0xff,
  0xcc, 0x1c, 0xd1, 0x37, 0x03, 0x60, 0xac, 0xfc, 0x17, 0xfb, 0x81, 0x7f, 0x46,
  0x81, 0x12, 0x25, 0x93, 0x81, 0xd5, 0xc7, 0xd4, 0x92, 0x38, 0x21, 0x7f, 0xb1,
  0x90, 0xce, 0xff, 0x3c, 0x00, 0xc2, 0xe9, 0xff, 0xff, 0x04, 0x00, 0x00, 0x00,
  0x28, 0x00, 0x00, 0x00, 0x00, 0x00, 0x00, 0x00, 0x00, 0x00, 0x00, 0x00, 0x00,
  0x00, 0x00, 0x00, 0x00, 0x00, 0x00, 0x00, 0x00, 0x00, 0x00, 0x00, 0x00, 0x00,
  0x00, 0x00, 0x00, 0x00, 0x00, 0x00, 0x00, 0x00, 0x00, 0x00, 0x00, 0x00, 0x00,
  0x00, 0x00, 0x00, 0x00, 0x00, 0xf6, 0xe9, 0xff, 0xff, 0x04, 0x00, 0x00, 0x00,
  0x23, 0x00, 0x00, 0x00, 0x03, 0xf8, 0xf1, 0xe9, 0x06, 0x03, 0x41, 0xfc, 0x0a,
  0x0a, 0x15, 0xc4, 0x6d, 0x0c, 0x03, 0x04, 0x7f, 0x7f, 0xd8, 0x7f, 0x7f, 0xfb,
  0x25, 0x9f, 0xe0, 0x2d, 0x0d, 0x0e, 0x81, 0xe5, 0xf6, 0x0b, 0x15, 0xa5, 0x08,
  0x00, 0x26, 0xea, 0xff, 0xff, 0x04, 0x00, 0x00, 0x00, 0x19, 0x00, 0x00, 0x00,
  0xf8, 0xc7, 0xd6, 0x14, 0x7f, 0x0f, 0x7f, 0x3a, 0x00, 0x81, 0x63, 0x2a, 0xd1,
  0x7f, 0xd5, 0x81, 0xd7, 0xf5, 0xe7, 0x08, 0x13, 0xea, 0xae, 0x8c, 0x81, 0x00,
  0x00, 0x00, 0x4e, 0xea, 0xff, 0xff, 0x04, 0x00, 0x00, 0x00, 0x19, 0x00, 0x00,
  0x00, 0x24, 0x61, 0xe4, 0xf1, 0x29, 0x7e, 0x7f, 0x81, 0x7f, 0x24, 0x7f, 0x6d,
  0xd0, 0xa4, 0xaa, 0x69, 0xdd, 0x1e, 0x48, 0x99, 0x14, 0x2c, 0xe1, 0x92, 0x7f,
  0x00, 0x00, 0x00, 0x76, 0xea, 0xff, 0xff, 0x04, 0x00, 0x00, 0x00, 0x19, 0x00,
  0x00, 0x00, 0xa6, 0xfb, 0xfd, 0x08, 0x59, 0x81, 0xca, 0xd7, 0xb9, 0x7f, 0x69,
  0xf8, 0x1b, 0x81, 0x0b, 0xd2, 0x7f, 0x71, 0x40, 0xaa, 0x2a, 0xb1, 0x81, 0xf5,
  0x5d, 0x00, 0x00, 0x00, 0x9e, 0xea, 0xff, 0xff, 0x04, 0x00, 0x00, 0x00, 0x19,
  0x00, 0x00, 0x00, 0x81, 0xe0, 0xdb, 0xdb, 0x4a, 0xfd, 0x7f, 0x08, 0x4b, 0x51,
  0x07, 0x24, 0x32, 0x11, 0x81, 0xe1, 0x21, 0x81, 0xf9, 0xf5, 0x4c, 0xfb, 0x7f,
  0x3e, 0xec, 0x00, 0x00, 0x00, 0xc6, 0xea, 0xff, 0xff, 0x04, 0x00, 0x00, 0x00,
  0x19, 0x00, 0x00, 0x00, 0xed, 0x19, 0xe8, 0x81, 0x13, 0x10, 0x0f, 0x81, 0x01,
  0xe9, 0xf0, 0x7f, 0xed, 0xd4, 0x19, 0xc0, 0x78, 0xd4, 0x89, 0x7f, 0x81, 0x40,
  0xf5, 0x2a, 0x3e, 0x00, 0x00, 0x00, 0xee, 0xea, 0xff, 0xff, 0x04, 0x00, 0x00,
  0x00, 0x19, 0x00, 0x00, 0x00, 0xfb, 0xbb, 0x0a, 0xc3, 0x6b, 0x27, 0x81, 0xcf,
  0x81, 0x1c, 0x02, 0xc8, 0x7f, 0xeb, 0x7f, 0x32, 0xed, 0x3d, 0x06, 0x0c, 0x7f,
  0xd3, 0x13, 0x0d, 0xc3, 0x00, 0x00, 0x00, 0x16, 0xeb, 0xff, 0xff, 0x04, 0x00,
  0x00, 0x00, 0x23, 0x00, 0x00, 0x00, 0x40, 0xf2, 0x81, 0xf7, 0xf9, 0xfb, 0x7d,
  0x1d, 0xc0, 0x7f, 0xd1, 0x0c, 0x01, 0x36, 0x38, 0x7f, 0x9b, 0xce, 0xfd, 0x44,
  0xd7, 0x81, 0x6d, 0x36, 0x71, 0x13, 0xe9, 0xfb, 0x16, 0xe7, 0x31, 0x1b, 0x69,
  0x81, 0x22, 0x00, 0x46, 0xeb, 0xff, 0xff, 0x04, 0x00, 0x00, 0x00, 0x23, 0x00,
  0x00, 0x00, 0x4a, 0x4f, 0xfd, 0xf7, 0x14, 0x14, 0x7f, 0xfc, 0xd5, 0x02, 0x01,
  0x4c, 0x55, 0xed, 0x73, 0x45, 0x7f, 0xc0, 0x7f, 0x7f, 0x52, 0x4e, 0x37, 0x77,
  0x81, 0xff, 0xf3, 0xb4, 0x81, 0x7f, 0xe7, 0xb1, 0xf5, 0x01, 0xcc, 0x00, 0x76,
  0xeb, 0xff, 0xff, 0x04, 0x00, 0x00, 0x00, 0x38, 0x00, 0x00, 0x00, 0x00, 0x00,
  0x00, 0x00, 0x00, 0x00, 0x00, 0x00, 0x00, 0x00, 0x00, 0x00, 0x00, 0x00, 0x00,
  0x00, 0x00, 0x00, 0x00, 0x00, 0x00, 0x00, 0x00, 0x00, 0x00, 0x00, 0x00, 0x00,
  0x00, 0x00, 0x00, 0x00, 0x00, 0x00, 0x00, 0x00, 0x00, 0x00, 0x00, 0x00, 0x00,
  0x00, 0x00, 0x00, 0x00, 0x00, 0x00, 0x00, 0x00, 0x00, 0x00, 0x00, 0x00, 0x00,
  0x00, 0x00, 0xba, 0xeb, 0xff, 0xff, 0x04, 0x00, 0x00, 0x00, 0x23, 0x00, 0x00,
  0x00, 0x29, 0xcb, 0xff, 0x7f, 0xf2, 0x22, 0xea, 0xb3, 0xa4, 0x3d, 0x12, 0x1c,
  0xa2, 0x27, 0xe3, 0x30, 0x81, 0x62, 0x23, 0x50, 0x31, 0x81, 0x7f, 0xfd, 0x9c,
  0x2a, 0x32, 0x7f, 0x20, 0xff, 0xc7, 0xa7, 0x81, 0x81, 0x1c, 0x00, 0xea, 0xeb,
  0xff, 0xff, 0x04, 0x00, 0x00, 0x00, 0x19, 0x00, 0x00, 0x00, 0xeb, 0x0a, 0x7f,
  0x13, 0xeb, 0x0e, 0xfa, 0x70, 0x7f, 0x01, 0x10, 0xb0, 0xb6, 0x33, 0x81, 0x16,
  0x7f, 0x13, 0x0a, 0xf9, 0x81, 0xf3, 0xea, 0x6d, 0x38, 0x00, 0x00, 0x00, 0x12,
  0xec, 0xff, 0xff, 0x04, 0x00, 0x00, 0x00, 0x19, 0x00, 0x00, 0x00, 0x04, 0x13,
  0x49, 0x19, 0xda, 0xed, 0xe9, 0x94, 0x5b, 0x7f, 0x81, 0x7f, 0xde, 0x7f, 0xd7,
  0xe4, 0x4a, 0x7f, 0x51, 0xd1, 0x12, 0x76, 0xca, 0x20, 0x17, 0x00, 0x00, 0x00,
  0x3a, 0xec, 0xff, 0xff, 0x04, 0x00, 0x00, 0x00, 0x19, 0x00, 0x00, 0x00, 0x9f,
  0xb2, 0x09, 0x81, 0x1c, 0x7f, 0x7f, 0x81, 0x2d, 0xd0, 0xb3, 0xe4, 0xa4, 0x3a,
  0x7f, 0x3f, 0xcc, 0xf6, 0x96, 0x7d, 0xff, 0x25, 0xef, 0x45, 0x17, 0x00, 0x00,
  0x00, 0x62, 0xec, 0xff, 0xff, 0x04, 0x00, 0x00, 0x00, 0x23, 0x00, 0x00, 0x00,
  0x03, 0xd8, 0x7f, 0x96, 0x5c, 0x08, 0x09, 0xad, 0x6f, 0x81, 0xed, 0x3a, 0xff,
  0x9b, 0xc3, 0xa3, 0x36, 0x14, 0xed, 0xd9, 0x7f, 0xc6, 0x3f, 0x11, 0x81, 0x64,
  0x56, 0xe7, 0x81, 0xbb, 0x5d, 0xff, 0xbb, 0xca, 0x06, 0x00, 0x92, 0xec, 0xff,
  0xff, 0x04, 0x00, 0x00, 0x00, 0x23, 0x00, 0x00, 0x00, 0xfe, 0xf9, 0xb9, 0xed,
  0x4a, 0xe3, 0xf6, 0x36, 0x5f, 0xfd, 0x7f, 0x67, 0x1b, 0x29, 0x44, 0x43, 0x93,
  0x5d, 0x4c, 0x7f, 0x4a, 0x16, 0x7f, 0x81, 0x20, 0x7f, 0x7a, 0x81, 0x7f, 0xf4,
  0xfa, 0x10, 0x16, 0xb4, 0x4c, 0x00, 0xc2, 0xec, 0xff, 0xff, 0x04, 0x00, 0x00,
  0x00, 0x23, 0x00, 0x00, 0x00, 0xe3, 0x36, 0xfe, 0xd2, 0x26, 0x17, 0x05, 0x16,
  0xea, 0xf5, 0x62, 0x24, 0xb0, 0x04, 0xf2, 0x7d, 0xfd, 0x92, 0xdf, 0x7f, 0xea,
  0x81, 0x11, 0xf4, 0x7f, 0x1f, 0xba, 0x7f, 0xca, 0x7f, 0x81, 0xde, 0x7f, 0x6c,
  0x3c, 0x00, 0xf2, 0xec, 0xff, 0xff, 0x04, 0x00, 0x00, 0x00, 0x3f, 0x00, 0x00,
  0x00, 0x46, 0x47, 0xeb, 0x94, 0x81, 0x9b, 0xe7, 0x5d, 0x0a, 0x51, 0x47, 0x3d,
  0xa1, 0x7f, 0xc7, 0xb8, 0x84, 0x5f, 0xe0, 0xda, 0xb9, 0x33, 0x53, 0xd0, 0x7f,
  0x09, 0x71, 0xf5, 0x81, 0xdf, 0x20, 0x6c, 0x15, 0xf1, 0x57, 0x35, 0xba, 0x35,
  0xce, 0xe5, 0xf6, 0x81, 0xfa, 0x28, 0xf9, 0xb1, 0xf2, 0x0c, 0x4b, 0xfa, 0x08,
  0x54, 0x53, 0x7f, 0x1e, 0x2c, 0x7f, 0xb2, 0xd5, 0xc8, 0xe7, 0x09, 0xf5, 0x00,
  0x3e, 0xed, 0xff, 0xff, 0x04, 0x00, 0x00, 0x00, 0x2d, 0x00, 0x00, 0x00, 0xd0,
  0x81, 0xfb, 0x24, 0x7f, 0xd3, 0xf5, 0x8f, 0x85, 0x7f, 0xa5, 0x67, 0x7f, 0xdb,
  0x7f, 0x73, 0x5e, 0x7f, 0xbe, 0x1b, 0x7f, 0x1e, 0x4e, 0x0c, 0x7f, 0xa4, 0x26,
  0x0c, 0x00, 0xb2, 0xf3, 0x1c, 0xfd, 0xc4, 0x81, 0xfc, 0xfd, 0xfa, 0x45, 0xef,
  0x06, 0xff, 0xfd, 0xe0, 0x9d, 0x00, 0x00, 0x00, 0x7a, 0xed, 0xff, 0xff, 0x04,
  0x00, 0x00, 0x00, 0x48, 0x00, 0x00, 0x00, 0x00, 0x00, 0x00, 0x00, 0x00, 0x00,
  0x00, 0x00, 0x00, 0x00, 0x00, 0x00, 0x00, 0x00, 0x00, 0x00, 0x00, 0x00, 0x00,
  0x00, 0x00, 0x00, 0x00, 0x00, 0x00, 0x00, 0x00, 0x00, 0x00, 0x00, 0x00, 0x00,
  0x00, 0x00, 0x00, 0x00, 0x00, 0x00, 0x00, 0x00, 0x00, 0x00, 0x00, 0x00, 0x00,
  0x00, 0x00, 0x00, 0x00, 0x00, 0x00, 0x00, 0x00, 0x00, 0x00, 0x00, 0x00, 0x00,
  0x00, 0x00, 0x00, 0x00, 0x00, 0x00, 0x00, 0x00, 0x00, 0x00, 0x00, 0x00, 0x00,
  0x00, 0xce, 0xed, 0xff, 0xff, 0x04, 0x00, 0x00, 0x00, 0x2d, 0x00, 0x00, 0x00,
  0xdc, 0xdb, 0x39, 0xef, 0xbe, 0xf7, 0x72, 0xf1, 0x09, 0xe1, 0x2b, 0xb2, 0xce,
  0x16, 0xea, 0x25, 0xf5, 0x2b, 0x7a, 0x17, 0x7f, 0xc2, 0x51, 0x00, 0x7f, 0xfb,
  0x60, 0x7f, 0x81, 0x66, 0xe2, 0xff, 0x81, 0x62, 0xc6, 0x7f, 0x91, 0xa5, 0xcd,
  0x7f, 0x81, 0x12, 0xe9, 0x81, 0x34, 0x00, 0x00, 0x00, 0x0a, 0xee, 0xff, 0xff,
  0x04, 0x00, 0x00, 0x00, 0x31, 0x00, 0x00, 0x00, 0x2d, 0x6e, 0xf5, 0x3f, 0x7f,
  0x1f, 0x1d, 0x00, 0xeb, 0x81, 0x12, 0xe5, 0xfd, 0x28, 0xa5, 0xb9, 0xc3, 0xe5,
  0xf1, 0x34, 0x7f, 0xc0, 0xb5, 0x57, 0x3a, 0x17, 0x7f, 0x0d, 0x62, 0x24, 0x2e,
  0x7f, 0xfd, 0x52, 0xfa, 0xd6, 0xda, 0x2e, 0xeb, 0xab, 0x7f, 0x31, 0x4b, 0x7d,
  0x9a, 0x2b, 0x7f, 0xfe, 0x0b, 0x00, 0x00, 0x00, 0x4a, 0xee, 0xff, 0xff, 0x04,
  0x00, 0x00, 0x00, 0x23, 0x00, 0x00, 0x00, 0xde, 0x7f, 0xee, 0xe9, 0x37, 0xf3,
  0x0f, 0x81, 0x40, 0x9a, 0x81, 0xbe, 0x7f, 0x81, 0x14, 0xcb, 0xa9, 0xc7, 0xeb,
  0x1c, 0xf1, 0xf1, 0xb7, 0x7f, 0x01, 0x7f, 0xec, 0x2e, 0xf5, 0xc7, 0xc5, 0xe9,
  0x13, 0xfa, 0xe6, 0x00, 0x7a, 0xee, 0xff, 0xff, 0x04, 0x00, 0x00, 0x00, 0x23,
  0x00, 0x00, 0x00, 0xe2, 0x0b, 0xcf, 0xe2, 0xfb, 0xda, 0xb4, 0x81, 0x7f, 0x2b,
  0x81, 0x6b, 0x81, 0x2b, 0x10, 0x31, 0x35, 0x9b, 0x7f, 0x84, 0x81, 0xf5, 0xc0,
  0x81, 0xc1, 0xdd, 0x2e, 0xd7, 0x0c, 0x1b, 0x54, 0xe2, 0x0a, 0x28, 0x40, 0x00,
  0xaa, 0xee, 0xff, 0xff, 0x04, 0x00, 0x00, 0x00, 0x3f, 0x00, 0x00, 0x00, 0xb5,
  0x99, 0x4b, 0xf9, 0x7f, 0xbd, 0x07, 0x18, 0xde, 0xd3, 0x05, 0x76, 0x42, 0x15,
  0xd4, 0x81, 0xf2, 0xdf, 0x7f, 0x35, 0xfe, 0xac, 0x21, 0x0c, 0x01, 0xf1, 0x00,
  0x69, 0x28, 0xf1, 0xe9, 0xdc, 0x40, 0xcd, 0x7f, 0xc5, 0xe0, 0xf1, 0xcf, 0x3f,
  0xe4, 0xd6, 0x7f, 0x41, 0x6b, 0xb9, 0x81, 0xfb, 0x9b, 0xe6, 0xca, 0xdf, 0x2c,
  0x03, 0x7f, 0x71, 0xfa, 0xa2, 0xd0, 0x50, 0x16, 0x19, 0xf6, 0x00, 0xf6, 0xee,
  0xff, 0xff, 0x04, 0x00, 0x00, 0x00, 0x2d, 0x00, 0x00, 0x00, 0x08, 0x29, 0x43,
  0xd3, 0xe3, 0x0f, 0x75, 0x32, 0x81, 0x22, 0x45, 0x7f, 0x81, 0xc8, 0xf7, 0xe5,
  0x60, 0x97, 0x7f, 0x7f, 0x2c, 0xe8, 0x81, 0x81, 0x7f, 0x7f, 0xca, 0xf2, 0xe4,
  0xc5, 0xd4, 0x01, 0x9c, 0x5e, 0x5a, 0x19, 0x12, 0x2a, 0xfd, 0xfd, 0xdf, 0xed,
  0x0c, 0x0b, 0xee, 0x00, 0x00, 0x00, 0x32, 0xef, 0xff, 0xff, 0x04, 0x00, 0x00,
  0x00, 0x2d, 0x00, 0x00, 0x00, 0xf0, 0xf3, 0xfd, 0xd2, 0x07, 0x7f, 0xf6, 0xfa,
  0xfc, 0xcf, 0x1e, 0x1c, 0x15, 0x19, 0xeb, 0xe0, 0x2a, 0xfb, 0xee, 0xf3, 0x12,
  0x8a, 0x61, 0x55, 0xca, 0x7f, 0xe1, 0x7f, 0x7f, 0x5b, 0x6f, 0xca, 0x2e, 0x81,
  0xa5, 0x81, 0x8e, 0x62, 0x7f, 0x81, 0x81, 0x06, 0x9e, 0x5e, 0x91, 0x00, 0x00,
  0x00, 0x6e, 0xef, 0xff, 0xff, 0x04, 0x00, 0x00, 0x00, 0x6c, 0x00, 0x00, 0x00,
  0x81, 0x09, 0xf7, 0x24, 0x01, 0x09, 0x04, 0x07, 0xb3, 0xa5, 0xe4, 0xcd, 0x3c,
  0x16, 0x0a, 0xfa, 0xf1, 0x1f, 0xdd, 0x02, 0x10, 0x4f, 0x7f, 0x0a, 0xd8, 0x77,
  0xf3, 0x81, 0xd2, 0x43, 0x52, 0x17, 0xf2, 0x6d, 0xf9, 0x02, 0x43, 0x07, 0xba,
  0x16, 0x52, 0x81, 0xba, 0xd0, 0x25, 0xed, 0x5c, 0x0e, 0x7f, 0xfa, 0x18, 0x04,
  0xeb, 0x1f, 0x18, 0x0c, 0x07, 0xfe, 0x44, 0x4b, 0x12, 0x52, 0x33, 0x9c, 0xfd,
  0x3d, 0xcd, 0x81, 0x66, 0x09, 0xe8, 0x37, 0x06, 0xb6, 0x15, 0x7f, 0xdb, 0x06,
  0x39, 0xc5, 0xca, 0x99, 0x13, 0x16, 0xea, 0x47, 0x81, 0xb3, 0xe6, 0xb7, 0x25,
  0xbd, 0x1c, 0x01, 0xe2, 0xbb, 0xfd, 0x1b, 0xff, 0x06, 0x81, 0x04, 0x5d, 0x21,
  0xe0, 0x05, 0x32, 0x13, 0xe6, 0xef, 0xff, 0xff, 0x04, 0x00, 0x00, 0x00, 0x3c,
  0x00, 0x00, 0x00, 0xdb, 0xe2, 0x34, 0xf4, 0x0c, 0x81, 0x26, 0x01, 0x1f, 0x1c,
  0xf5, 0x11, 0x7f, 0x81, 0xc8, 0x81, 0x9c, 0x55, 0x39, 0x7f, 0x7f, 0x6b, 0x33,
  0x30, 0x1b, 0xb9, 0x7f, 0xc8, 0xb6, 0xb7, 0xda, 0xb1, 0x34, 0x7f, 0x7f, 0x7f,
  0xe0, 0xe9, 0xee, 0xe6, 0x7f, 0xda, 0xbe, 0xf5, 0xe5, 0x39, 0x1b, 0x03, 0xfc,
  0xed, 0x19, 0x03, 0xd0, 0x39, 0x7f, 0xff, 0x1a, 0x11, 0x05, 0x15, 0x2e, 0xf0,
  0xff, 0xff, 0x04, 0x00, 0x00, 0x00, 0x60, 0x00, 0x00, 0x00, 0x00, 0x00, 0x00,
  0x00, 0x00, 0x00, 0x00, 0x00, 0x00, 0x00, 0x00, 0x00, 0x00, 0x00, 0x00, 0x00,
  0x00, 0x00, 0x00, 0x00, 0x00, 0x00, 0x00, 0x00, 0x00, 0x00, 0x00, 0x00, 0x00,
  0x00, 0x00, 0x00, 0x00, 0x00, 0x00, 0x00, 0x00, 0x00, 0x00, 0x00, 0x00, 0x00,
  0x00, 0x00, 0x00, 0x00, 0x00, 0x00, 0x00, 0x00, 0x00, 0x00, 0x00, 0x00, 0x00,
  0x00, 0x00, 0x00, 0x00, 0x00, 0x00, 0x00, 0x00, 0x00, 0x00, 0x00, 0x00, 0x00,
  0x00, 0x00, 0x00, 0x00, 0x00, 0x00, 0x00, 0x00, 0x00, 0x00, 0x00, 0x00, 0x00,
  0x00, 0x00, 0x00, 0x00, 0x00, 0x00, 0x00, 0x00, 0x00, 0x00, 0x00, 0x00, 0x00,
  0x00, 0x00, 0x9a, 0xf0, 0xff, 0xff, 0x04, 0x00, 0x00, 0x00, 0x3c, 0x00, 0x00,
  0x00, 0xfd, 0x11, 0xcb, 0x58, 0x00, 0xe9, 0xd2, 0x7f, 0xea, 0xba, 0x04, 0xc6,
  0xbe, 0xf1, 0x81, 0x81, 0xd7, 0xbd, 0x0e, 0x8d, 0xa2, 0xd2, 0x67, 0xab, 0xe1,
  0x0a, 0xcf, 0x07, 0x71, 0x7f, 0x81, 0xf5, 0x81, 0x83, 0x97, 0x81, 0x81, 0x81,
  0xdf, 0xd3, 0x7f, 0x4c, 0xb0, 0x2f, 0xff, 0x81, 0xb4, 0xdf, 0x0c, 0xce, 0x31,
  0x14, 0xe5, 0xa5, 0x99, 0xff, 0xd6, 0xfe, 0x81, 0x11, 0xe2, 0xf0, 0xff, 0xff,
  0x04, 0x00, 0x00, 0x00, 0x51, 0x00, 0x00, 0x00, 0xe1, 0x1d, 0xf5, 0xfb, 0x2f,
  0xbe, 0xca, 0x7f, 0xf7, 0xdb, 0xba, 0x03, 0x63, 0x07, 0x81, 0x47, 0xb2, 0x20,
  0xd0, 0x81, 0x39, 0x5f, 0x16, 0x4a, 0x28, 0x28, 0x33, 0x3c, 0x3e, 0xea, 0x73,
  0x2d, 0x81, 0x9d, 0xf5, 0x96, 0xa0, 0x30, 0xfd, 0x1d, 0x1d, 0x81, 0x0b, 0xb7,
  0x0e, 0xfc, 0x7f, 0x4e, 0x16, 0x16, 0x1f, 0x17, 0x2f, 0x28, 0x1f, 0xfa, 0xb2,
  0xc6, 0x7f, 0x0d, 0xd7, 0x07, 0xcc, 0x96, 0xde, 0x15, 0x33, 0x81, 0x1b, 0xf8,
  0xd5, 0xaa, 0xda, 0x86, 0x4f, 0xf3, 0x1d, 0xdb, 0xdd, 0xeb, 0x81, 0x00, 0x00,
  0x00, 0x42, 0xf1, 0xff, 0xff, 0x04, 0x00, 0x00, 0x00, 0x2d, 0x00, 0x00, 0x00,
  0x03, 0xee, 0x27, 0xf5, 0x28, 0xfb, 0x40, 0x03, 0xed, 0x3c, 0x46, 0x76, 0x7f,
  0x55, 0xed, 0x81, 0x98, 0x0e, 0x59, 0x7f, 0x7f, 0x51, 0x7f, 0xee, 0xb2, 0x81,
  0x7f, 0x7f, 0xb1, 0x1d, 0xb2, 0x48, 0xb4, 0x12, 0xab, 0x13, 0xf8, 0xf8, 0xea,
  0x09, 0x23, 0x81, 0x05, 0xdc, 0x16, 0x00, 0x00, 0x00, 0x7e, 0xf1, 0xff, 0xff,
  0x04, 0x00, 0x00, 0x00, 0x2d, 0x00, 0x00, 0x00, 0x11, 0xec, 0x05, 0x2f, 0x05,
  0xf8, 0x0a, 0xde, 0x21, 0x21, 0xf8, 0xe5, 0x12, 0xe1, 0x00, 0x7f, 0xc4, 0x9e,
  0xb4, 0x7f, 0x81, 0x81, 0x81, 0xca, 0xd2, 0x7f, 0x81, 0x12, 0x13, 0xca, 0xba,
  0x82, 0x81, 0xd6, 0x4b, 0x53, 0x7f, 0x0c, 0xd1, 0x0f, 0x84, 0x9c, 0x48, 0x01,
  0xfc, 0x00, 0x00, 0x00, 0xba, 0xf1, 0xff, 0xff, 0x04, 0x00, 0x00, 0x00, 0x6c,
  0x00, 0x00, 0x00, 0x06, 0x9a, 0x1b, 0xe2, 0xac, 0x81, 0xd3, 0x05, 0xd9, 0x33,
  0xe4, 0xe9, 0x21, 0xbc, 0x58, 0x18, 0x33, 0x16, 0xc2, 0x50, 0x81, 0x07, 0x41,
  0x51, 0x38, 0xa3, 0x30, 0x81, 0x26, 0x3f, 0xcb, 0xf5, 0xa0, 0xb9, 0xbc, 0x19,
  0x2d, 0x0a, 0xf3, 0xec, 0xdf, 0xae, 0x2a, 0x7a, 0xeb, 0xdd, 0x7f, 0xe2, 0x3e,
  0xbc, 0x3e, 0x7f, 0x2a, 0x20, 0xa2, 0x06, 0xaf, 0x20, 0x33, 0xc2, 0x0b, 0xb2,
  0x7f, 0x09, 0x3c, 0xb4, 0xb8, 0xa6, 0x01, 0x14, 0xda, 0x9f, 0x7f, 0x0b, 0xdc,
  0xf6, 0xdc, 0xc2, 0xc7, 0xf0, 0x06, 0x89, 0x2e, 0xed, 0x01, 0x0d, 0xe6, 0x04,
  0x7f, 0xdf, 0x08, 0xf4, 0x09, 0xfd, 0x56, 0xe8, 0x0f, 0xce, 0xfc, 0x25, 0x0f,
  0x00, 0xdc, 0x94, 0xd7, 0x03, 0x3f, 0x7f, 0x32, 0xf2, 0xff, 0xff, 0x04, 0x00,
  0x00, 0x00, 0x3c, 0x00, 0x00, 0x00, 0xd8, 0x81, 0xed, 0xb4, 0xf6, 0x1b, 0xed,
  0x5e, 0x30, 0xd6, 0x09, 0x44, 0x2f, 0xf7, 0x7f, 0x7f, 0xa6, 0x7f, 0xeb, 0x7f,
  0x81, 0xc7, 0x27, 0x7f, 0x81, 0xfb, 0x76, 0xf2, 0x81, 0x68, 0x0d, 0x2a, 0x1c,
  0x8d, 0x81, 0x94, 0xbf, 0x05, 0x4e, 0x28, 0xd1, 0x1f, 0x7f, 0x2a, 0x09, 0x81,
  0xe5, 0x01, 0xac, 0x0e, 0xf7, 0xe1, 0x04, 0x18, 0xdd, 0x48, 0x01, 0xd6, 0xf0,
  0xcf, 0x7a, 0xf2, 0xff, 0xff, 0x04, 0x00, 0x00, 0x00, 0x3c, 0x00, 0x00, 0x00,
  0x7f, 0x12, 0x04, 0xe6, 0x1c, 0xc1, 0x14, 0xec, 0xd7, 0xe5, 0xe4, 0xfc, 0x49,
  0x4a, 0x1e, 0x7f, 0xc3, 0xe2, 0x7e, 0xb7, 0xe0, 0x81, 0x81, 0xc8, 0x02, 0x7f,
  0x7f, 0x52, 0x47, 0xbd, 0x7f, 0x81, 0x73, 0xae, 0x77, 0x1f, 0xf7, 0x09, 0xe0,
  0x0b, 0x81, 0x25, 0xa0, 0xbe, 0x7f, 0xc6, 0x5c, 0x7f, 0xea, 0x41, 0xc6, 0xfb,
  0xc9, 0x7f, 0x07, 0xcf, 0xff, 0x13, 0x16, 0x12, 0xc2, 0xf2, 0xff, 0xff, 0x04,
  0x00, 0x00, 0x00, 0xb4, 0x00, 0x00, 0x00, 0x59, 0xc8, 0x42, 0x7f, 0xa4, 0x08,
  0xfc, 0x21, 0x41, 0xb2, 0x21, 0xc8, 0xaf, 0x1f, 0x02, 0x1d, 0x81, 0xf0, 0x10,
  0xfb, 0x1c, 0x1e, 0xce, 0xc9, 0x10, 0x28, 0xf8, 0x15, 0xab, 0x04, 0x0c, 0xb8,
  0x17, 0xe4, 0x1b, 0x06, 0x2a, 0x76, 0x7f, 0xd0, 0x1a, 0xef, 0xd4, 0xe6, 0xcc,
  0x7f, 0x40, 0x26, 0x1b, 0x9c, 0x1d, 0x06, 0x2f, 0xd8, 0x46, 0xa9, 0xbe, 0xec,
  0xe1, 0xd7, 0xcc, 0x4c, 0x1c, 0x0a, 0xc5, 0x3a, 0xe0, 0xf7, 0x54, 0xd8, 0x19,
  0xe6, 0x81, 0x5a, 0x20, 0xff, 0x81, 0x04, 0xb9, 0xfc, 0x41, 0x4e, 0x1f, 0xf4,
  0x01, 0xf4, 0x01, 0x51, 0xf7, 0xdc, 0xd3, 0x57, 0xef, 0xb9, 0x2c, 0x3e, 0x58,
  0x7f, 0x4e, 0x02, 0x91, 0x42, 0xf3, 0xe2, 0x31, 0xf4, 0xf6, 0x81, 0xc8, 0x17,
  0x3b, 0xf1, 0x20, 0xf1, 0xfd, 0x18, 0x48, 0xf2, 0xeb, 0x38, 0xed, 0x46, 0x2f,
  0x81, 0xf9, 0x40, 0x35, 0x0c, 0x31, 0x9d, 0x44, 0x43, 0x2e, 0xfb, 0x68, 0x11,
  0x6a, 0x7c, 0x13, 0x6a, 0x92, 0x82, 0x1b, 0xef, 0xe0, 0xb6, 0x51, 0x1b, 0xb3,
  0x7f, 0xd4, 0x9d, 0xcc, 0x43, 0xa4, 0xaf, 0x2e, 0x07, 0x4e, 0xd4, 0x5d, 0xc4,
  0x81, 0x58, 0xfa, 0xd4, 0xd8, 0xf0, 0xf0, 0x2b, 0xe6, 0xed, 0x81, 0xf3, 0x0b,
  0x43, 0xdb, 0xed, 0xcf, 0xe7, 0x82, 0xf3, 0xff, 0xff, 0x04, 0x00, 0x00, 0x00,
  0x4b, 0x00, 0x00, 0x00, 0x81, 0xf3, 0xf6, 0x24, 0x58, 0x06, 0x9c, 0xd3, 0x0a,
  0x18, 0x85, 0xf0, 0x7f, 0xe4, 0x3f, 0xce, 0x70, 0x30, 0x02, 0xeb, 0x4b, 0x7f,
  0x7f, 0x5b, 0x72, 0x81, 0x81, 0x28, 0x7f, 0x7f, 0x3d, 0x81, 0x81, 0x7f, 0x81,
  0x81, 0xa4, 0x74, 0x7f, 0x7f, 0xb8, 0xeb, 0x74, 0x4e, 0xff, 0xf0, 0x50, 0xdf,
  0x15, 0x08, 0x27, 0xf5, 0x08, 0x4a, 0x0c, 0x89, 0xdd, 0x68, 0xbf, 0x35, 0xe8,
  0xe4, 0xf0, 0x11, 0xf4, 0x02, 0xeb, 0xdd, 0xcb, 0xe9, 0x1f, 0xf6, 0x14, 0xeb,
  0x12, 0x00, 0xda, 0xf3, 0xff, 0xff, 0x04, 0x00, 0x00, 0x00, 0x78, 0x00, 0x00,
  0x00, 0x00, 0x00, 0x00, 0x00, 0x00, 0x00, 0x00, 0x00, 0x00, 0x00, 0x00, 0x00,
  0x00, 0x00, 0x00, 0x00, 0x00, 0x00, 0x00, 0x00, 0x00, 0x00, 0x00, 0x00, 0x00,
  0x00, 0x00, 0x00, 0x00, 0x00, 0x00, 0x00, 0x00, 0x00, 0x00, 0x00, 0x00, 0x00,
  0x00, 0x00, 0x00, 0x00, 0x00, 0x00, 0x00, 0x00, 0x00, 0x00, 0x00, 0x00, 0x00,
  0x00, 0x00, 0x00, 0x00, 0x00, 0x00, 0x00, 0x00, 0x00, 0x00, 0x00, 0x00, 0x00,
  0x00, 0x00, 0x00, 0x00, 0x00, 0x00, 0x00, 0x00, 0x00, 0x00, 0x00, 0x00, 0x00,
  0x00, 0x00, 0x00, 0x00, 0x00, 0x00, 0x00, 0x00, 0x00, 0x00, 0x00, 0x00, 0x00,
  0x00, 0x00, 0x00, 0x00, 0x00, 0x00, 0x00, 0x00, 0x00, 0x00, 0x00, 0x00, 0x00,
  0x00, 0x00, 0x00, 0x00, 0x00, 0x00, 0x00, 0x00, 0x00, 0x00, 0x00, 0x00, 0x00,
  0x00, 0x00, 0x00, 0x00, 0x5e, 0xf4, 0xff, 0xff, 0x04, 0x00, 0x00, 0x00, 0x4b,
  0x00, 0x00, 0x00, 0x7f, 0xff, 0x47, 0xf8, 0xb0, 0x07, 0x96, 0x02, 0x15, 0x7f,
  0x81, 0xdb, 0x7f, 0x08, 0x0f, 0x68, 0x81, 0x08, 0xd9, 0x4b, 0x07, 0x9b, 0x81,
  0x7f, 0xa2, 0x52, 0x6f, 0x40, 0xfd, 0x7f, 0x2f, 0xdf, 0x81, 0x51, 0x81, 0x90,
  0x81, 0xd7, 0xe4, 0x93, 0x6e, 0xc7, 0x64, 0x81, 0xaf, 0x40, 0x10, 0x74, 0x7f,
  0xa0, 0x7f, 0xb2, 0xeb, 0x19, 0x04, 0xbe, 0x7f, 0xcd, 0x25, 0xdd, 0x17, 0xfb,
  0x4f, 0x0f, 0xd3, 0xf8, 0x00, 0xf3, 0x08, 0xbb, 0xe5, 0x1f, 0xd6, 0x01, 0x2c,
  0x00, 0xb6, 0xf4, 0xff, 0xff, 0x04, 0x00, 0x00, 0x00, 0x90, 0x00, 0x00, 0x00,
  0x4a, 0xd5, 0xd8, 0x6e, 0x1c, 0xe5, 0x2c, 0x26, 0x7f, 0x3d, 0xdb, 0x3a, 0xf2,
  0x7f, 0xe1, 0x47, 0x0e, 0x3b, 0xc1, 0x30, 0xd2, 0x4e, 0xd2, 0xf6, 0xda, 0x5f,
  0xcf, 0x22, 0x1e, 0xc3, 0xe4, 0xe1, 0x0c, 0x43, 0x75, 0x81, 0x81, 0x10, 0x44,
  0xc7, 0xf5, 0x66, 0xf0, 0x2b, 0x5f, 0xb8, 0xb7, 0xf1, 0x55, 0x06, 0xdd, 0x11,
  0x4a, 0xc9, 0x5b, 0x0b, 0x0d, 0x7f, 0x46, 0xf3, 0xbb, 0x07, 0x16, 0xc0, 0x98,
  0x5c, 0x81, 0xfe, 0xad, 0xaa, 0xe8, 0x88, 0x8a, 0x6f, 0xba, 0xf4, 0x0d, 0x14,
  0xef, 0xb3, 0x33, 0xb1, 0x7f, 0x92, 0x1b, 0xe9, 0x81, 0x0d, 0xaa, 0x21, 0x24,
  0xe3, 0xd3, 0x01, 0xcb, 0xf5, 0xce, 0x63, 0xe6, 0x2a, 0x0a, 0x8a, 0xf4, 0x81,
  0x02, 0x38, 0x4f, 0x18, 0x05, 0xe8, 0x13, 0x0a, 0x27, 0x81, 0x0d, 0xd4, 0x5a,
  0xe9, 0xe9, 0x4e, 0x67, 0xe6, 0xd3, 0x7f, 0x58, 0xc0, 0x57, 0x02, 0x28, 0x3a,
  0x09, 0x14, 0x7f, 0xaf, 0x18, 0x25, 0x1a, 0xb2, 0x59, 0x2a, 0x01, 0xf6, 0xfa,
  0x52, 0x52, 0xf5, 0xff, 0xff, 0x04, 0x00, 0x00, 0x00, 0x3c, 0x00, 0x00, 0x00,
  0x1f, 0xf2, 0xf9, 0xe9, 0xee, 0x9d, 0x39, 0x0b, 0x47, 0xaa, 0xd6, 0x3f, 0x86,
  0x81, 0x3c, 0x86, 0xd8, 0xae, 0x3a, 0x12, 0x7f, 0x6b, 0x81, 0x3d, 0x81, 0xa7,
  0x7f, 0x9a, 0xbd, 0x95, 0x7f, 0x81, 0x28, 0x81, 0x85, 0x7f, 0xd8, 0x5a, 0x2b,
  0x81, 0x81, 0x81, 0x29, 0x89, 0x1c, 0xc1, 0x01, 0x61, 0x16, 0x1d, 0x2e, 0x04,
  0xbb, 0xdd, 0x1a, 0xf8, 0x33, 0x4a, 0x0d, 0x71, 0x9a, 0xf5, 0xff, 0xff, 0x04,
  0x00, 0x00, 0x00, 0x3c, 0x00, 0x00, 0x00, 0x1f, 0x1a, 0x07, 0x12, 0x09, 0x2e,
  0xef, 0x3b, 0x03, 0xcf, 0xde, 0xd5, 0x01, 0x81, 0x0a, 0x60, 0x27, 0x2a, 0xa8,
  0x81, 0x1f, 0x24, 0x7f, 0x81, 0x81, 0x03, 0x1d, 0x3b, 0x62, 0x5c, 0x81, 0xfe,
  0x57, 0x4d, 0x61, 0xa0, 0xfa, 0xbb, 0x7f, 0x81, 0x7f, 0x3f, 0x91, 0x9c, 0x3b,
  0x7f, 0x6a, 0xa7, 0x0e, 0xf9, 0x2a, 0x9f, 0x58, 0x7f, 0xf9, 0x31, 0x7f, 0x0c,
  0x50, 0xc2, 0xe2, 0xf5, 0xff, 0xff, 0x04, 0x00, 0x00, 0x00, 0xb4, 0x00, 0x00,
  0x00, 0x07, 0xe9, 0xfb, 0x98, 0x33, 0xf5, 0x45, 0xe4, 0xf5, 0xdb, 0x0e, 0x7f,
  0x47, 0x17, 0x42, 0xcc, 0x18, 0x00, 0x35, 0x13, 0xec, 0xeb, 0x81, 0xd7, 0x00,
  0xe9, 0xf7, 0x4c, 0xaa, 0x23, 0xf2, 0xa8, 0x37, 0xc6, 0xed, 0x2f, 0x7f, 0x56,
  0x38, 0x49, 0x2f, 0x5d, 0xc4, 0xcf, 0xde, 0x9e, 0x01, 0xcb, 0xc3, 0x5f, 0xdc,
  0x25, 0xb3, 0x81, 0xd9, 0x54, 0x00, 0x38, 0x4d, 0xc9, 0x0f, 0x68, 0xe1, 0xe6,
  0x4c, 0xfa, 0x7b, 0xa8, 0xda, 0xaf, 0xbb, 0x81, 0xe7, 0x74, 0x37, 0x02, 0x04,
  0x27, 0xf4, 0x17, 0x1d, 0x38, 0xe8, 0x90, 0x0f, 0xf9, 0x81, 0xa7, 0x11, 0x57,
  0x26, 0xb6, 0x06, 0xb7, 0xe0, 0xf5, 0x4d, 0xf4, 0x2d, 0xb3, 0x7f, 0x30, 0xec,
  0xe7, 0x12, 0x81, 0xf1, 0x16, 0x29, 0xa1, 0xdb, 0x1c, 0x11, 0x41, 0x55, 0xff,
  0x1a, 0xe0, 0xc6, 0xfc, 0x54, 0xe6, 0x82, 0x4a, 0xf7, 0xfe, 0x0e, 0x44, 0xed,
  0x81, 0x59, 0x08, 0x71, 0xc9, 0x92, 0xdd, 0xdc, 0x1a, 0xdb, 0x35, 0x7f, 0x0c,
  0x27, 0x26, 0xeb, 0x15, 0x2b, 0x17, 0xf3, 0x2d, 0xeb, 0x3a, 0xe5, 0x27, 0xda,
  0xf9, 0x0f, 0x81, 0xf5, 0xfb, 0x06, 0xef, 0x41, 0xbe, 0x29, 0xef, 0x0e, 0x81,
  0xe0, 0x0f, 0xff, 0x16, 0x00, 0xea, 0x18, 0xc9, 0x0a, 0x0c, 0x4a, 0x21, 0xa2,
  0xf6, 0xff, 0xff, 0x04, 0x00, 0x00, 0x00, 0x4b, 0x00, 0x00, 0x00, 0xb6, 0xd7,
  0x2c, 0xf3, 0x15, 0x81, 0x3e, 0x24, 0x0b, 0x00, 0xfb, 0xed, 0xd3, 0x0f, 0x81,
  0x81, 0x7f, 0x7f, 0x17, 0x7f, 0x05, 0x58, 0x81, 0x98, 0x81, 0x7f, 0x81, 0xa7,
  0x81, 0xeb, 0xe9, 0x0e, 0x35, 0x7f, 0x16, 0xfa, 0x81, 0x29, 0x81, 0x8f, 0x32,
  0x91, 0x81, 0x94, 0x05, 0xe0, 0x15, 0x0a, 0x31, 0x1c, 0x7a, 0xcd, 0x23, 0xd6,
  0xbd, 0x0c, 0x16, 0x17, 0xf2, 0x13, 0xdd, 0x21, 0xf0, 0x14, 0xfe, 0x24, 0xf4,
  0x10, 0xf8, 0xeb, 0xfa, 0xf1, 0x14, 0xff, 0xf3, 0x00, 0xfa, 0xf6, 0xff, 0xff,
  0x04, 0x00, 0x00, 0x00, 0x4b, 0x00, 0x00, 0x00, 0x6b, 0x87, 0xea, 0x81, 0x03,
  0x5f, 0x47, 0x67, 0xea, 0x81, 0x7f, 0x7f, 0x81, 0x17, 0xf0, 0x7f, 0xc3, 0xad,
  0x5c, 0x81, 0x7f, 0x7f, 0x7f, 0x7f, 0x16, 0x94, 0x0e, 0xb4, 0xa6, 0x7f, 0x01,
  0x7f, 0xec, 0xd7, 0xc3, 0x59, 0x56, 0x54, 0xda, 0x19, 0xc3, 0x1e, 0xe3, 0x81,
  0x2e, 0xe6, 0xce, 0x3a, 0xcc, 0xf4, 0xf6, 0x1c, 0xf3, 0xe7, 0x05, 0xa5, 0x4f,
  0x01, 0x1e, 0xcf, 0xf7, 0xf8, 0x81, 0x14, 0xf4, 0x10, 0x0c, 0x14, 0x0c, 0x05,
  0x26, 0x03, 0x3b, 0xd1, 0x28, 0x00, 0x52, 0xf7, 0xff, 0xff, 0x04, 0x00, 0x00,
  0x00, 0x2c, 0x01, 0x00, 0x00, 0xff, 0x7b, 0xfc, 0x55, 0x2d, 0x00, 0xda, 0x50,
  0x31, 0x7f, 0x52, 0x20, 0xf7, 0x06, 0xf3, 0x3c, 0xf7, 0xfd, 0x11, 0x05, 0xda,
  0xf8, 0xe1, 0xfd, 0x17, 0x07, 0x01, 0xe6, 0x28, 0x0d, 0x3d, 0x94, 0x7f, 0xef,
  0xd2, 0x5e, 0x0b, 0xb7, 0x52, 0x1d, 0x56, 0x0f, 0xd2, 0x2a, 0x7f, 0x1f, 0x06,
  0x49, 0xf6, 0x12, 0xf9, 0x1e, 0x90, 0xff, 0x2c, 0xf3, 0x3e, 0xef, 0xee, 0x18,
  0xda, 0x29, 0xfb, 0x36, 0x7f, 0x16, 0xe8, 0xf6, 0x5a, 0x54, 0xbe, 0xbd, 0xa7,
  0x2e, 0xb2, 0xdf, 0x9f, 0x0f, 0x0a, 0xab, 0x1e, 0xe5, 0x3d, 0x7f, 0xe6, 0x0c,
  0xf2, 0xbd, 0x18, 0x4c, 0xae, 0x1e, 0x6c, 0xc0, 0xe2, 0xeb, 0x15, 0x1c, 0x0e,
  0x18, 0xfe, 0x7f, 0x29, 0xd3, 0xf7, 0x1c, 0xd5, 0xb4, 0x36, 0x2b, 0x64, 0xf0,
  0xe7, 0x3e, 0xed, 0x5c, 0xd5, 0xdd, 0xf8, 0x7d, 0xf0, 0x6b, 0x0c, 0x10, 0xf9,
  0xef, 0xf2, 0xcd, 0x26, 0x3b, 0x47, 0x81, 0xdd, 0xf9, 0xde, 0x40, 0x00, 0x01,
  0xee, 0x30, 0x0b, 0xc8, 0x23, 0x1b, 0xcb, 0xce, 0x13, 0x39, 0xf0, 0xf8, 0xfb,
  0x22, 0xff, 0xe7, 0x07, 0xd7, 0xf7, 0x7f, 0x29, 0x2c, 0x7f, 0x21, 0x62, 0x51,
  0x66, 0x1d, 0xf8, 0x53, 0x1c, 0xe3, 0x39, 0x56, 0x02, 0xa6, 0x51, 0xad, 0xd4,
  0x1c, 0xef, 0x5c, 0xd3, 0xd5, 0xf2, 0xb3, 0x81, 0xc6, 0x1d, 0xa3, 0xdd, 0xbe,
  0xe4, 0xdd, 0xc5, 0x0e, 0xff, 0xfa, 0x4a, 0x7e, 0xfe, 0xd5, 0xe7, 0x82, 0x1b,
  0xd5, 0xf0, 0x09, 0xcb, 0x81, 0x58, 0x1c, 0xde, 0x28, 0x59, 0x0f, 0x8b, 0xb5,
  0x37, 0x2e, 0x18, 0xaf, 0x22, 0x32, 0x8e, 0x2d, 0xe2, 0x04, 0xf1, 0x2c, 0x0e,
  0xa5, 0x81, 0xad, 0x4b, 0x10, 0x06, 0x37, 0xfa, 0xb5, 0xca, 0x03, 0x6d, 0xd4,
  0x19, 0xf2, 0xc3, 0xaa, 0x01, 0x1c, 0x28, 0xee, 0xf2, 0xfc, 0x2e, 0x81, 0x25,
  0xb3, 0xc4, 0x10, 0xd5, 0x06, 0x96, 0x18, 0x1b, 0xee, 0xdd, 0xff, 0x0e, 0x06,
  0xfa, 0xef, 0xeb, 0xc1, 0x7f, 0xed, 0xc2, 0x29, 0xa3, 0xe8, 0x0c, 0x2c, 0xfb,
  0x16, 0x0c, 0x22, 0x81, 0x2c, 0xf0, 0xf2, 0x2a, 0x3f, 0xb2, 0xd9, 0xfe, 0xc4,
  0xd1, 0xff, 0xea, 0x0f, 0x0a, 0x27, 0x8a, 0xf8, 0xff, 0xff, 0x04, 0x00, 0x00,
  0x00, 0x64, 0x00, 0x00, 0x00, 0x38, 0xf6, 0x7f, 0xbd, 0xce, 0x81, 0x7f, 0x02,
  0x5c, 0xc0, 0xfb, 0xce, 0x2e, 0x29, 0x00, 0x44, 0xf5, 0xf5, 0x5c, 0x81, 0x3e,
  0x99, 0x7a, 0x0d, 0x7f, 0xd5, 0x4d, 0x7f, 0xdb, 0xc0, 0xed, 0x81, 0x36, 0xa9,
  0x7f, 0x7f, 0x7f, 0x81, 0x8f, 0x4c, 0x81, 0x7f, 0x55, 0x7f, 0xf7, 0x1a, 0xd6,
  0xd7, 0xcf, 0x81, 0x7f, 0xdf, 0x81, 0x7f, 0xac, 0x11, 0x2b, 0x47, 0xab, 0xb7,
  0x1d, 0x96, 0x1b, 0xd0, 0x29, 0x03, 0xdd, 0xd5, 0x51, 0xe1, 0xfe, 0x00, 0x03,
  0xcc, 0xff, 0x4e, 0xf9, 0xe4, 0x81, 0xf3, 0xea, 0x36, 0x1b, 0x0a, 0xa4, 0x71,
  0x81, 0xe3, 0x81, 0x02, 0xb1, 0xda, 0xe3, 0xe9, 0x04, 0xf9, 0x12, 0xec, 0x39,
  0x22, 0xfa, 0xf8, 0xff, 0xff, 0x04, 0x00, 0x00, 0x00, 0xa0, 0x00, 0x00, 0x00,
  0x00, 0x00, 0x00, 0x00, 0x00, 0x00, 0x00, 0x00, 0x00, 0x00, 0x00, 0x00, 0x00,
  0x00, 0x00, 0x00, 0x00, 0x00, 0x00, 0x00, 0x00, 0x00, 0x00, 0x00, 0x00, 0x00,
  0x00, 0x00, 0x00, 0x00, 0x00, 0x00, 0x00, 0x00, 0x00, 0x00, 0x00, 0x00, 0x00,
  0x00, 0x00, 0x00, 0x00, 0x00, 0x00, 0x00, 0x00, 0x00, 0x00, 0x00, 0x00, 0x00,
  0x00, 0x00, 0x00, 0x00, 0x00, 0x00, 0x00, 0x00, 0x00, 0x00, 0x00, 0x00, 0x00,
  0x00, 0x00, 0x00, 0x00, 0x00, 0x00, 0x00, 0x00, 0x00, 0x00, 0x00, 0x00, 0x00,
  0x00, 0x00, 0x00, 0x00, 0x00, 0x00, 0x00, 0x00, 0x00, 0x00, 0x00, 0x00, 0x00,
  0x00, 0x00, 0x00, 0x00, 0x00, 0x00, 0x00, 0x00, 0x00, 0x00, 0x00, 0x00, 0x00,
  0x00, 0x00, 0x00, 0x00, 0x00, 0x00, 0x00, 0x00, 0x00, 0x00, 0x00, 0x00, 0x00,
  0x00, 0x00, 0x00, 0x00, 0x00, 0x00, 0x00, 0x00, 0x00, 0x00, 0x00, 0x00, 0x00,
  0x00, 0x00, 0x00, 0x00, 0x00, 0x00, 0x00, 0x00, 0x00, 0x00, 0x00, 0x00, 0x00,
  0x00, 0x00, 0x00, 0x00, 0x00, 0x00, 0x00, 0x00, 0x00, 0x00, 0x00, 0x00, 0x00,
  0x00, 0x00, 0x00, 0x00, 0xa6, 0xf9, 0xff, 0xff, 0x04, 0x00, 0x00, 0x00, 0x64,
  0x00, 0x00, 0x00, 0xdd, 0x50, 0x19, 0x8d, 0x7f, 0x9d, 0x6a, 0x1a, 0x7f, 0x7f,
  0xd5, 0x5e, 0xb0, 0x7f, 0xa7, 0xd0, 0x7f, 0x35, 0xd3, 0x12, 0x3c, 0xb8, 0xf5,
  0x81, 0x51, 0xe1, 0x75, 0x31, 0x71, 0x3b, 0x78, 0x81, 0x92, 0x7e, 0x81, 0x2d,
  0xac, 0x36, 0x58, 0x5b, 0x7f, 0x81, 0x81, 0x4f, 0x4e, 0x8f, 0x7f, 0x3c, 0x60,
  0xc1, 0x40, 0xba, 0xdc, 0x66, 0x84, 0x7f, 0x1e, 0x81, 0x7f, 0x7f, 0xf1, 0x58,
  0x42, 0x33, 0x3a, 0x81, 0x44, 0x81, 0x5d, 0xfa, 0x81, 0x7e, 0x6a, 0x87, 0xbf,
  0x90, 0xb9, 0xa0, 0x60, 0x3c, 0x01, 0xed, 0xfa, 0x00, 0x64, 0xd1, 0x1e, 0x13,
  0x13, 0x95, 0x08, 0xe3, 0x7f, 0x51, 0x32, 0xe5, 0x0a, 0x54, 0x2e, 0xb1, 0x16,
  0xfa, 0xff, 0xff, 0x04, 0x00, 0x00, 0x00, 0xe1, 0x00, 0x00, 0x00, 0xfb, 0xb1,
  0xe4, 0x81, 0xdd, 0x09, 0x1d, 0x06, 0x1d, 0xf4, 0xeb, 0xf3, 0xd4, 0xf7, 0xd3,
  0x26, 0x91, 0xa2, 0x7f, 0x42, 0x01, 0x58, 0x99, 0x84, 0xcc, 0x38, 0x52, 0xb0,
  0x64, 0x95, 0xdb, 0x32, 0xd4, 0x3b, 0x47, 0x04, 0x6a, 0x81, 0xd1, 0x03, 0x36,
  0x4a, 0xdc, 0x2b, 0x59, 0x7f, 0xf0, 0x5c, 0x64, 0xd2, 0x12, 0xe8, 0x0c, 0xfd,
  0xd8, 0xb3, 0x29, 0xfb, 0xdc, 0x11, 0x06, 0xba, 0x10, 0xe7, 0x3c, 0xea, 0x2d,
  0xef, 0x56, 0xff, 0xaa, 0x81, 0x3a, 0xc1, 0x3d, 0x55, 0xf1, 0xff, 0x08, 0x37,
  0x0d, 0x09, 0x10, 0x21, 0x2f, 0xf4, 0xb3, 0x18, 0xf0, 0x81, 0xf1, 0x39, 0xe5,
  0xff, 0xbb, 0x01, 0x96, 0x7f, 0x10, 0x09, 0x29, 0xa9, 0xf5, 0x51, 0xdc, 0xcc,
  0xfd, 0x62, 0xf2, 0xa9, 0x81, 0xe4, 0x11, 0x59, 0x74, 0x9f, 0xe2, 0xf9, 0xe7,
  0x0c, 0xf5, 0xdb, 0xf8, 0xb1, 0xdb, 0x4c, 0x05, 0xff, 0x1a, 0x37, 0xf4, 0x1f,
  0xec, 0x0c, 0x7f, 0x12, 0x2a, 0x22, 0x16, 0x7f, 0x26, 0xd5, 0x1b, 0xf8, 0xdc,
  0xff, 0xfa, 0xeb, 0xf8, 0x1c, 0x3d, 0x67, 0x65, 0xb2, 0x2d, 0xc8, 0x81, 0x6a,
  0x6c, 0xc4, 0xa9, 0xcd, 0xd7, 0xd2, 0xf6, 0xf5, 0xe7, 0xe0, 0x7f, 0xf6, 0xf5,
  0xf0, 0x14, 0xd1, 0xde, 0x38, 0xea, 0x0a, 0xef, 0xc2, 0x61, 0xbd, 0x62, 0x81,
  0x14, 0x1a, 0xfe, 0xf1, 0xf7, 0xfc, 0xe0, 0x1c, 0x27, 0xd5, 0x78, 0x2e, 0xf0,
  0x16, 0x7f, 0xd5, 0xee, 0xfd, 0x07, 0xe4, 0xf9, 0x02, 0xe7, 0x1e, 0xb3, 0x03,
  0x0b, 0xf8, 0x16, 0x7f, 0x17, 0x0f, 0xd2, 0x2f, 0x0c, 0xf4, 0x0d, 0xf9, 0x8c,
  0xf8, 0xd5, 0x00, 0x00, 0x00, 0x06, 0xfb, 0xff, 0xff, 0x04, 0x00, 0x00, 0x00,
  0x4b, 0x00, 0x00, 0x00, 0xe4, 0x06, 0xfa, 0xf8, 0xf1, 0xc0, 0x01, 0x01, 0xeb,
  0x23, 0x0c, 0xf5, 0x20, 0x13, 0xf7, 0x34, 0xf3, 0x7f, 0xf9, 0x22, 0x32, 0x32,
  0xbf, 0xfc, 0xa2, 0xfb, 0xa7, 0x1c, 0x81, 0xf8, 0x7f, 0x81, 0x1b, 0x0f, 0x87,
  0x7f, 0x7f, 0x81, 0xe5, 0x05, 0x7f, 0x81, 0x46, 0xdf, 0x81, 0xcb, 0x1f, 0xfe,
  0x81, 0x7f, 0xed, 0xf3, 0xfa, 0x81, 0x81, 0xc2, 0x0a, 0x7f, 0xb3, 0x5b, 0xf5,
  0xf9, 0xfa, 0x43, 0xd2, 0xc8, 0x09, 0xf9, 0xea, 0x56, 0x2b, 0x0e, 0x00, 0x34,
  0xd7, 0x00, 0x5e, 0xfb, 0xff, 0xff, 0x04, 0x00, 0x00, 0x00, 0x4b, 0x00, 0x00,
  0x00, 0x26, 0x30, 0x38, 0x0f, 0xce, 0xcf, 0xe2, 0x22, 0x34, 0xc8, 0x3c, 0x81,
  0xf7, 0x9e, 0x81, 0xec, 0x50, 0x14, 0x7f, 0xa1, 0x7f, 0x81, 0x6c, 0xd5, 0x44,
  0x7f, 0x66, 0xaf, 0xf5, 0x06, 0xef, 0x81, 0xd8, 0xdf, 0x7f, 0xf1, 0x2c, 0xd0,
  0xe1, 0x7f, 0x3c, 0x21, 0xd2, 0xfe, 0x0e, 0x3f, 0x23, 0x7f, 0xeb, 0x91, 0xdc,
  0x7d, 0x81, 0x7f, 0x88, 0xb5, 0xe0, 0x81, 0x7f, 0x0a, 0x81, 0x07, 0xfe, 0xfc,
  0x24, 0xfd, 0xe8, 0x19, 0xb2, 0x1d, 0x58, 0x10, 0xff, 0xf2, 0xf6, 0x00, 0xb6,
  0xfb, 0xff, 0xff, 0x04, 0x00, 0x00, 0x00, 0x2c, 0x01, 0x00, 0x00, 0xe7, 0x04,
  0xf8, 0xb7, 0x11, 0xe6, 0x43, 0xc8, 0x1e, 0xf3, 0xfc, 0xbf, 0xbe, 0x2f, 0x7f,
  0x06, 0x0c, 0xfd, 0xed, 0xf9, 0x64, 0x09, 0xde, 0xee, 0x5c, 0x0d, 0x0e, 0x49,
  0xe3, 0xf5, 0xe7, 0x7f, 0x95, 0x42, 0x50, 0xdb, 0x0a, 0x2e, 0x42, 0x94, 0xf4,
  0xe5, 0xae, 0xd8, 0xf9, 0xf8, 0x0b, 0x00, 0x15, 0xe5, 0xb7, 0x5f, 0x2f, 0x0d,
  0xdf, 0x16, 0x02, 0x0e, 0x81, 0xcb, 0x00, 0xff, 0xdc, 0x02, 0x9b, 0xf7, 0x2f,
  0xe5, 0xba, 0x35, 0x11, 0x2b, 0x23, 0x04, 0xfd, 0x07, 0xee, 0xf6, 0x18, 0x81,
  0xd9, 0xfa, 0x08, 0x19, 0x81, 0x0e, 0x9c, 0x02, 0x88, 0x25, 0x1b, 0xdd, 0x1e,
  0xf0, 0x01, 0x4d, 0xf2, 0xcd, 0xf1, 0xa9, 0xe8, 0xf0, 0x52, 0x1f, 0x7f, 0x21,
  0xe0, 0x20, 0xec, 0xea, 0xa7, 0xe4, 0xcc, 0x1d, 0x30, 0x18, 0xe7, 0xfd, 0x0b,
  0x4c, 0x54, 0x30, 0x38, 0x1a, 0x38, 0x4b, 0x3f, 0x72, 0x0b, 0x1d, 0xe8, 0x15,
  0xc0, 0xe8, 0x06, 0x7f, 0x0d, 0x15, 0xf8, 0xc2, 0x53, 0x3c, 0x58, 0x3e, 0x2a,
  0x5a, 0x37, 0x7f, 0xe4, 0x14, 0xde, 0x13, 0x8c, 0xe7, 0x09, 0x48, 0x07, 0xf0,
  0xec, 0xdc, 0x40, 0xf5, 0x51, 0xec, 0xaf, 0x30, 0x05, 0x28, 0x3a, 0x81, 0x1e,
  0x27, 0x20, 0xbc, 0x1c, 0x3b, 0x0a, 0xe5, 0xe5, 0xfc, 0x34, 0x08, 0xf4, 0x28,
  0xa3, 0xcb, 0x2a, 0xef, 0x1d, 0xbe, 0x4d, 0xf5, 0xe6, 0x1b, 0x4c, 0xa3, 0x7f,
  0x26, 0xc5, 0xb8, 0x9f, 0x3f, 0xe9, 0x17, 0xfd, 0x31, 0x00, 0xe0, 0x17, 0x8f,
  0x97, 0xe6, 0xa3, 0x06, 0x62, 0xb8, 0x0d, 0x7f, 0xdc, 0x42, 0x1a, 0xd8, 0xe9,
  0xf5, 0x40, 0x45, 0x81, 0x08, 0x37, 0xeb, 0xe6, 0x25, 0xd0, 0xea, 0x06, 0xd9,
  0x00, 0xfe, 0xb9, 0x43, 0xe9, 0x51, 0xe9, 0xfd, 0x0f, 0x32, 0xf7, 0xf7, 0xf9,
  0xd8, 0x0d, 0xce, 0x0c, 0x15, 0x05, 0x0b, 0x81, 0x9f, 0xc3, 0x09, 0xee, 0xfa,
  0x37, 0xa1, 0xfb, 0x1d, 0xec, 0xf4, 0xe7, 0x81, 0x1d, 0xef, 0xdf, 0xb3, 0x08,
  0xfc, 0x5f, 0xa0, 0x34, 0x6f, 0x16, 0xfd, 0xc5, 0x02, 0x06, 0xe2, 0xd9, 0xd2,
  0xe3, 0x18, 0x8c, 0x7f, 0xd1, 0xf5, 0x0b, 0x0f, 0xf0, 0xc4, 0xdf, 0x02, 0xee,
  0xfc, 0xff, 0xff, 0x04, 0x00, 0x00, 0x00, 0x64, 0x00, 0x00, 0x00, 0xe9, 0xcc,
  0xe0, 0xf1, 0x58, 0xfd, 0x7f, 0xe4, 0x81, 0x81, 0x2c, 0x2a, 0x6c, 0x81, 0x10,
  0xea, 0xe4, 0xbd, 0x81, 0x86, 0x7f, 0x3d, 0x7f, 0x81, 0x7f, 0xa8, 0x66, 0x81,
  0xf8, 0x39, 0x81, 0x7f, 0x7f, 0xe5, 0x7f, 0x7f, 0x96, 0x38, 0x3a, 0x81, 0xc4,
  0xc5, 0x41, 0x0a, 0x65, 0x7f, 0x43, 0x04, 0xdd, 0x16, 0x3d, 0x1d, 0x9b, 0xbd,
  0x19, 0xd1, 0xbd, 0x81, 0x1f, 0x3d, 0x2d, 0x7f, 0xe8, 0xf7, 0x09, 0xf6, 0x57,
  0xf4, 0xdb, 0xd0, 0xe5, 0x00, 0xd7, 0x23, 0x18, 0x4e, 0x7f, 0x38, 0xe1, 0xf2,
  0xfd, 0xb2, 0x43, 0xea, 0x05, 0xdd, 0x61, 0x0e, 0xaa, 0x05, 0x02, 0x08, 0xcb,
  0x74, 0x0c, 0xf2, 0x0e, 0xee, 0x48, 0xf5, 0x5e, 0xfd, 0xff, 0xff, 0x04, 0x00,
  0x00, 0x00, 0x64, 0x00, 0x00, 0x00, 0x07, 0x25, 0xf2, 0x7f, 0xff, 0x25, 0x81,
  0x04, 0x40, 0x51, 0x02, 0xed, 0x39, 0x5a, 0xa0, 0xa2, 0x0f, 0x3e, 0x48, 0x9a,
  0x7f, 0x07, 0x81, 0x85, 0xd4, 0x21, 0x1b, 0x81, 0x20, 0x7f, 0xbd, 0x60, 0xf0,
  0x39, 0x49, 0xcc, 0x32, 0x81, 0xc2, 0x93, 0xfb, 0xfe, 0x75, 0xfb, 0xd5, 0x81,
  0x36, 0x5b, 0x44, 0x3c, 0xd1, 0xcb, 0x2b, 0x81, 0x81, 0x7f, 0x7f, 0xca, 0xbf,
  0x00, 0xf5, 0x5f, 0x3a, 0x36, 0x81, 0xae, 0xf2, 0x1b, 0x7f, 0x0b, 0x81, 0x4c,
  0x81, 0x0a, 0x6b, 0x19, 0xe5, 0xef, 0x7b, 0xfe, 0xb1, 0x81, 0xa0, 0xde, 0xc7,
  0x6b, 0x2f, 0xeb, 0x42, 0x24, 0x9c, 0x81, 0xdc, 0x0e, 0xfe, 0xe4, 0x00, 0x5d,
  0x81, 0x81, 0xce, 0xfd, 0xff, 0xff, 0x04, 0x00, 0x00, 0x00, 0x14, 0x00, 0x00,
  0x00, 0x7f, 0x81, 0x81, 0x7f, 0x7f, 0x81, 0x81, 0x7f, 0x81, 0x7f, 0x7f, 0x7f,
  0x81, 0x7f, 0x81, 0x81, 0x81, 0x7f, 0x81, 0x81, 0xee, 0xfd, 0xff, 0xff, 0x04,
  0x00, 0x00, 0x00, 0x07, 0x00, 0x00, 0x00, 0x02, 0x00, 0xfb, 0x17, 0x81, 0x00,
  0x0c, 0x00, 0x02, 0xfe, 0xff, 0xff, 0x04, 0x00, 0x00, 0x00, 0x07, 0x00, 0x00,
  0x00, 0x27, 0x81, 0xf7, 0x06, 0xfe, 0x00, 0x00, 0x00, 0x16, 0xfe, 0xff, 0xff,
  0x04, 0x00, 0x00, 0x00, 0x20, 0x00, 0x00, 0x00, 0x00, 0x00, 0x00, 0x00, 0x00,
  0x00, 0x00, 0x00, 0x03, 0x00, 0x00, 0x00, 0x03, 0x00, 0x00, 0x00, 0x03, 0x00,
  0x00, 0x00, 0x03, 0x00, 0x00, 0x00, 0x00, 0x00, 0x00, 0x00, 0x00, 0x00, 0x00,
  0x00, 0x42, 0xfe, 0xff, 0xff, 0x04, 0x00, 0x00, 0x00, 0x78, 0x00, 0x00, 0x00,
  0x9f, 0x37, 0x00, 0x00, 0x00, 0x00, 0x00, 0x00, 0xf1, 0xc9, 0xfe, 0xff, 0xff,
  0xff, 0xff, 0xff, 0x41, 0x6e, 0xff, 0xff, 0xff, 0xff, 0xff, 0xff, 0x13, 0xcd,
  0xfe, 0xff, 0xff, 0xff, 0xff, 0xff, 0xe8, 0x76, 0xfe, 0xff, 0xff, 0xff, 0xff,
  0xff, 0xe1, 0xb5, 0xff, 0xff, 0xff, 0xff, 0xff, 0xff, 0x38, 0x17, 0x00, 0x00,
  0x00, 0x00, 0x00, 0x00, 0x7e, 0x97, 0xff, 0xff, 0xff, 0xff, 0xff, 0xff, 0x2b,
  0x48, 0x00, 0x00, 0x00, 0x00, 0x00, 0x00, 0xa0, 0x92, 0x00, 0x00, 0x00, 0x00,
  0x00, 0x00, 0xb0, 0xba, 0xff, 0xff, 0xff, 0xff, 0xff, 0xff, 0xc6, 0x28, 0x01,
  0x00, 0x00, 0x00, 0x00, 0x00, 0x7f, 0x5e, 0xff, 0xff, 0xff, 0xff, 0xff, 0xff,
  0xb3, 0x8d, 0x00, 0x00, 0x00, 0x00, 0x00, 0x00, 0xd4, 0xfa, 0xff, 0xff, 0xff,
  0xff, 0xff, 0xff, 0xc6, 0xfe, 0xff, 0xff, 0x04, 0x00, 0x00, 0x00, 0x60, 0x00,
  0x00, 0x00, 0x4a, 0x65, 0x00, 0x00, 0x00, 0x00, 0x00, 0x00, 0xe9, 0x95, 0x00,
  0x00, 0x00, 0x00, 0x00, 0x00, 0x77, 0x18, 0x00, 0x00, 0x00, 0x00, 0x00, 0x00,
  0x0b, 0x99, 0xff, 0xff, 0xff, 0xff, 0xff, 0xff, 0x65, 0xda, 0xff, 0xff, 0xff,
  0xff, 0xff, 0xff, 0xef, 0x12, 0x00, 0x00, 0x00, 0x00, 0x00, 0x00, 0x21, 0x13,
  0x00, 0x00, 0x00, 0x00, 0x00, 0x00, 0x6d, 0x0d, 0x00, 0x00, 0x00, 0x00, 0x00,
  0x00, 0xc4, 0xd1, 0xff, 0xff, 0xff, 0xff, 0xff, 0xff, 0xc4, 0x16, 0x00, 0x00,
  0x00, 0x00, 0x00, 0x00, 0xc3, 0x84, 0xff, 0xff, 0xff, 0xff, 0xff, 0xff, 0x3e,
  0xef, 0xff, 0xff, 0xff, 0xff, 0xff, 0xff, 0x32, 0xff, 0xff, 0xff, 0x04, 0x00,
  0x00, 0x00, 0x48, 0x00, 0x00, 0x00, 0x9c, 0x34, 0x00, 0x00, 0x00, 0x00, 0x00,
  0x00, 0x65, 0xdb, 0x01, 0x00, 0x00, 0x00, 0x00, 0x00, 0x0b, 0x1c, 0x00, 0x00,
  0x00, 0x00, 0x00, 0x00, 0x87, 0xbc, 0xfe, 0xff, 0xff, 0xff, 0xff, 0xff, 0xd8,
  0xed, 0xff, 0xff, 0xff, 0xff, 0xff, 0xff, 0x3d, 0xe3, 0xff, 0xff, 0xff, 0xff,
  0xff, 0xff, 0x06, 0xba, 0xff, 0xff, 0xff, 0xff, 0xff, 0xff, 0xa6, 0xbd, 0xfe,
  0xff, 0xff, 0xff, 0xff, 0xff, 0x9c, 0xfa, 0xff, 0xff, 0xff, 0xff, 0xff, 0xff,
  0x86, 0xff, 0xff, 0xff, 0x04, 0x00, 0x00, 0x00, 0x38, 0x00, 0x00, 0x00, 0x4b,
  0xb8, 0xfe, 0xff, 0xff, 0xff, 0xff, 0xff, 0xd4, 0x07, 0x00, 0x00, 0x00, 0x00,
  0x00, 0x00, 0xee, 0x0d, 0xff, 0xff, 0xff, 0xff, 0xff, 0xff, 0x28, 0xe8, 0x00,
  0x00, 0x00, 0x00, 0x00, 0x00, 0x93, 0x5e, 0x00, 0x00, 0x00, 0x00, 0x00, 0x00,
  0xa1, 0x5d, 0xfd, 0xff, 0xff, 0xff, 0xff, 0xff, 0x5c, 0x9c, 0xff, 0xff, 0xff,
  0xff, 0xff, 0xff, 0xca, 0xff, 0xff, 0xff, 0x04, 0x00, 0x00, 0x00, 0x28, 0x00,
  0x00, 0x00, 0xf1, 0xac, 0xf9, 0xff, 0xff, 0xff, 0xff, 0xff, 0x1a, 0x90, 0xf9,
  0xff, 0xff, 0xff, 0xff, 0xff, 0x28, 0xd3, 0xfb, 0xff, 0xff, 0xff, 0xff, 0xff,
  0x66, 0x21, 0x00, 0x00, 0x00, 0x00, 0x00, 0x00, 0xa6, 0x05, 0x00, 0x00, 0x00,
  0x00, 0x00, 0x00, 0x00, 0x00, 0x06, 0x00, 0x08, 0x00, 0x04, 0x00, 0x06, 0x00,
  0x00, 0x00, 0x04, 0x00, 0x00, 0x00, 0x28, 0x00, 0x00, 0x00, 0x1c, 0xc7, 0xff,
  0xff, 0xff, 0xff, 0xff, 0xff, 0x83, 0xdd, 0xfd, 0xff, 0xff, 0xff, 0xff, 0xff,
  0xe5, 0xab, 0xfa, 0xff, 0xff, 0xff, 0xff, 0xff, 0x85, 0xa8, 0x02, 0x00, 0x00,
  0x00, 0x00, 0x00, 0x84, 0x1a, 0xf3, 0xff, 0xff, 0xff, 0xff, 0xff, 0x58, 0x7d,
  0xff, 0xff, 0x5c, 0x7d, 0xff, 0xff, 0x0f, 0x00, 0x00, 0x00, 0x4d, 0x4c, 0x49,
  0x52, 0x20, 0x43, 0x6f, 0x6e, 0x76, 0x65, 0x72, 0x74, 0x65, 0x64, 0x2e, 0x00,
  0x01, 0x00, 0x00, 0x00, 0x14, 0x00, 0x00, 0x00, 0x00, 0x00, 0x0e, 0x00, 0x18,
  0x00, 0x14, 0x00, 0x10, 0x00, 0x0c, 0x00, 0x08, 0x00, 0x04, 0x00, 0x0e, 0x00,
  0x00, 0x00, 0x14, 0x00, 0x00, 0x00, 0x1c, 0x00, 0x00, 0x00, 0x50, 0x11, 0x00,
  0x00, 0x54, 0x11, 0x00, 0x00, 0x58, 0x11, 0x00, 0x00, 0x04, 0x00, 0x00, 0x00,
  0x6d, 0x61, 0x69, 0x6e, 0x00, 0x00, 0x00, 0x00, 0x42, 0x00, 0x00, 0x00, 0x14,
  0x11, 0x00, 0x00, 0xd8, 0x10, 0x00, 0x00, 0x78, 0x10, 0x00, 0x00, 0x24, 0x10,
  0x00, 0x00, 0xd8, 0x0f, 0x00, 0x00, 0x94, 0x0f, 0x00, 0x00, 0x50, 0x0f, 0x00,
  0x00, 0x00, 0x0f, 0x00, 0x00, 0xbc, 0x0e, 0x00, 0x00, 0x78, 0x0e, 0x00, 0x00,
  0x38, 0x0e, 0x00, 0x00, 0xf4, 0x0d, 0x00, 0x00, 0xb0, 0x0d, 0x00, 0x00, 0x70,
  0x0d, 0x00, 0x00, 0x30, 0x0d, 0x00, 0x00, 0xec, 0x0c, 0x00, 0x00, 0xa8, 0x0c,
  0x00, 0x00, 0x64, 0x0c, 0x00, 0x00, 0x20, 0x0c, 0x00, 0x00, 0xdc, 0x0b, 0x00,
  0x00, 0x9c, 0x0b, 0x00, 0x00, 0x58, 0x0b, 0x00, 0x00, 0x14, 0x0b, 0x00, 0x00,
  0xd4, 0x0a, 0x00, 0x00, 0x9c, 0x0a, 0x00, 0x00, 0x58, 0x0a, 0x00, 0x00, 0x14,
  0x0a, 0x00, 0x00, 0xd0, 0x09, 0x00, 0x00, 0x8c, 0x09, 0x00, 0x00, 0x48, 0x09,
  0x00, 0x00, 0x08, 0x09, 0x00, 0x00, 0xc4, 0x08, 0x00, 0x00, 0x80, 0x08, 0x00,
  0x00, 0x40, 0x08, 0x00, 0x00, 0x08, 0x08, 0x00, 0x00, 0xc4, 0x07, 0x00, 0x00,
  0x80, 0x07, 0x00, 0x00, 0x3c, 0x07, 0x00, 0x00, 0xf8, 0x06, 0x00, 0x00, 0xb4,
  0x06, 0x00, 0x00, 0x74, 0x06, 0x00, 0x00, 0x30, 0x06, 0x00, 0x00, 0xec, 0x05,
  0x00, 0x00, 0xac, 0x05, 0x00, 0x00, 0x74, 0x05, 0x00, 0x00, 0x30, 0x05, 0x00,
  0x00, 0xec, 0x04, 0x00, 0x00, 0xa8, 0x04, 0x00, 0x00, 0x64, 0x04, 0x00, 0x00,
  0x20, 0x04, 0x00, 0x00, 0xe0, 0x03, 0x00, 0x00, 0x9c, 0x03, 0x00, 0x00, 0x58,
  0x03, 0x00, 0x00, 0x18, 0x03, 0x00, 0x00, 0xe0, 0x02, 0x00, 0x00, 0x9c, 0x02,
  0x00, 0x00, 0x58, 0x02, 0x00, 0x00, 0x14, 0x02, 0x00, 0x00, 0xd0, 0x01, 0x00,
  0x00, 0x8c, 0x01, 0x00, 0x00, 0x4c, 0x01, 0x00, 0x00, 0x14, 0x01, 0x00, 0x00,
  0xc0, 0x00, 0x00, 0x00, 0x78, 0x00, 0x00, 0x00, 0x28, 0x00, 0x00, 0x00, 0x04,
  0x00, 0x00, 0x00, 0xfe, 0xef, 0xff, 0xff, 0x0c, 0x00, 0x00, 0x00, 0x10, 0x00,
  0x00, 0x00, 0x05, 0x00, 0x00, 0x00, 0x01, 0x00, 0x00, 0x00, 0x91, 0x00, 0x00,
  0x00, 0x01, 0x00, 0x00, 0x00, 0x8f, 0x00, 0x00, 0x00, 0xb6, 0xf0, 0xff, 0xff,
  0x20, 0x00, 0x00, 0x00, 0x00, 0x00, 0x00, 0x01, 0x28, 0x00, 0x00, 0x00, 0x2c,
  0x00, 0x00, 0x00, 0x02, 0x00, 0x00, 0x00, 0x00, 0x00, 0x0a, 0x00, 0x10, 0x00,
  0x0f, 0x00, 0x08, 0x00, 0x04, 0x00, 0x0a, 0x00, 0x00, 0x00, 0x01, 0x00, 0x00,
  0x00, 0x01, 0x00, 0x00, 0x00, 0x00, 0x00, 0x00, 0x01, 0x01, 0x00, 0x00, 0x00,
  0x8f, 0x00, 0x00, 0x00, 0x03, 0x00, 0x00, 0x00, 0x8e, 0x00, 0x00, 0x00, 0x47,
  0x00, 0x00, 0x00, 0x4f, 0x00, 0x00, 0x00, 0x02, 0xf1, 0xff, 0xff, 0x14, 0x00,
  0x00, 0x00, 0x00, 0x00, 0x00, 0x02, 0x20, 0x00, 0x00, 0x00, 0x24, 0x00, 0x00,
  0x00, 0x01, 0x00, 0x00, 0x00, 0xbc, 0xff, 0xff, 0xff, 0x01, 0x00, 0x00, 0x00,
  0x01, 0x00, 0x00, 0x00, 0x01, 0x00, 0x00, 0x00, 0x00, 0x00, 0x00, 0x01, 0x01,
  0x00, 0x00, 0x00, 0x8e, 0x00, 0x00, 0x00, 0x03, 0x00, 0x00, 0x00, 0x8d, 0x00,
  0x00, 0x00, 0x45, 0x00, 0x00, 0x00, 0x44, 0x00, 0x00, 0x00, 0x46, 0xf1, 0xff,
  0xff, 0x20, 0x00, 0x00, 0x00, 0x00, 0x00, 0x00, 0x02, 0x2c, 0x00, 0x00, 0x00,
  0x30, 0x00, 0x00, 0x00, 0x01, 0x00, 0x00, 0x00, 0x0c, 0x00, 0x14, 0x00, 0x13,
  0x00, 0x0c, 0x00, 0x08, 0x00, 0x04, 0x00, 0x0c, 0x00, 0x00, 0x00, 0x01, 0x00,
  0x00, 0x00, 0x01, 0x00, 0x00, 0x00, 0x01, 0x00, 0x00, 0x00, 0x00, 0x00, 0x00,
  0x01, 0x01, 0x00, 0x00, 0x00, 0x8d, 0x00, 0x00, 0x00, 0x03, 0x00, 0x00, 0x00,
  0x8c, 0x00, 0x00, 0x00, 0x43, 0x00, 0x00, 0x00, 0x44, 0x00, 0x00, 0x00, 0x96,
  0xf1, 0xff, 0xff, 0x14, 0x00, 0x00, 0x00, 0x00, 0x00, 0x00, 0x0b, 0x14, 0x00,
  0x00, 0x00, 0x18, 0x00, 0x00, 0x00, 0x03, 0x00, 0x00, 0x00, 0xa0, 0xf4, 0xff,
  0xff, 0x00, 0x00, 0x00, 0x00, 0x01, 0x00, 0x00, 0x00, 0x8c, 0x00, 0x00, 0x00,
  0x02, 0x00, 0x00, 0x00, 0x85, 0x00, 0x00, 0x00, 0x8b, 0x00, 0x00, 0x00, 0xca,
  0xf1, 0xff, 0xff, 0x14, 0x00, 0x00, 0x00, 0x00, 0x00, 0x00, 0x01, 0x18, 0x00,
  0x00, 0x00, 0x1c, 0x00, 0x00, 0x00, 0x02, 0x00, 0x00, 0x00, 0x52, 0xf2, 0xff,
  0xff, 0x01, 0x00, 0x00, 0x00, 0x01, 0x00, 0x00, 0x00, 0x01, 0x00, 0x00, 0x00,
  0x8b, 0x00, 0x00, 0x00, 0x03, 0x00, 0x00, 0x00, 0x8a, 0x00, 0x00, 0x00, 0x42,
  0x00, 0x00, 0x00, 0x4e, 0x00, 0x00, 0x00, 0x06, 0xf2, 0xff, 0xff, 0x14, 0x00,
  0x00, 0x00, 0x00, 0x00, 0x00, 0x02, 0x1c, 0x00, 0x00, 0x00, 0x20, 0x00, 0x00,
  0x00, 0x01, 0x00, 0x00, 0x00, 0xf8, 0xf1, 0xff, 0xff, 0x01, 0x00, 0x00, 0x00,
  0x01, 0x00, 0x00, 0x00, 0x01, 0x00, 0x00, 0x00, 0x01, 0x00, 0x00, 0x00, 0x8a,
  0x00, 0x00, 0x00, 0x03, 0x00, 0x00, 0x00, 0x89, 0x00, 0x00, 0x00, 0x41, 0x00,
  0x00, 0x00, 0x44, 0x00, 0x00, 0x00, 0x46, 0xf2, 0xff, 0xff, 0x14, 0x00, 0x00,
  0x00, 0x00, 0x00, 0x00, 0x02, 0x1c, 0x00, 0x00, 0x00, 0x20, 0x00, 0x00, 0x00,
  0x01, 0x00, 0x00, 0x00, 0x38, 0xf2, 0xff, 0xff, 0x01, 0x00, 0x00, 0x00, 0x01,
  0x00, 0x00, 0x00, 0x01, 0x00, 0x00, 0x00, 0x01, 0x00, 0x00, 0x00, 0x89, 0x00,
  0x00, 0x00, 0x03, 0x00, 0x00, 0x00, 0x88, 0x00, 0x00, 0x00, 0x40, 0x00, 0x00,
  0x00, 0x44, 0x00, 0x00, 0x00, 0x86, 0xf2, 0xff, 0xff, 0x14, 0x00, 0x00, 0x00,
  0x00, 0x00, 0x00, 0x01, 0x1c, 0x00, 0x00, 0x00, 0x20, 0x00, 0x00, 0x00, 0x02,
  0x00, 0x00, 0x00, 0xdc, 0xf3, 0xff, 0xff, 0x00, 0x00, 0x00, 0x01, 0x01, 0x00,
  0x00, 0x00, 0x01, 0x00, 0x00, 0x00, 0x01, 0x00, 0x00, 0x00, 0x88, 0x00, 0x00,
  0x00, 0x03, 0x00, 0x00, 0x00, 0x87, 0x00, 0x00, 0x00, 0x3f, 0x00, 0x00, 0x00,
  0x01, 0x00, 0x00, 0x00, 0xc6, 0xf2, 0xff, 0xff, 0x14, 0x00, 0x00, 0x00, 0x00,
  0x00, 0x00, 0x02, 0x1c, 0x00, 0x00, 0x00, 0x20, 0x00, 0x00, 0x00, 0x01, 0x00,
  0x00, 0x00, 0xb8, 0xf2, 0xff, 0xff, 0x01, 0x00, 0x00, 0x00, 0x01, 0x00, 0x00,
  0x00, 0x01, 0x00, 0x00, 0x00, 0x01, 0x00, 0x00, 0x00, 0x87, 0x00, 0x00, 0x00,
  0x03, 0x00, 0x00, 0x00, 0x86, 0x00, 0x00, 0x00, 0x3e, 0x00, 0x00, 0x00, 0x44,
  0x00, 0x00, 0x00, 0x06, 0xf3, 0xff, 0xff, 0x14, 0x00, 0x00, 0x00, 0x00, 0x00,
  0x00, 0x02, 0x1c, 0x00, 0x00, 0x00, 0x20, 0x00, 0x00, 0x00, 0x01, 0x00, 0x00,
  0x00, 0xf8, 0xf2, 0xff, 0xff, 0x01, 0x00, 0x00, 0x00, 0x01, 0x00, 0x00, 0x00,
  0x01, 0x00, 0x00, 0x00, 0x01, 0x00, 0x00, 0x00, 0x86, 0x00, 0x00, 0x00, 0x03,
  0x00, 0x00, 0x00, 0x85, 0x00, 0x00, 0x00, 0x3d, 0x00, 0x00, 0x00, 0x44, 0x00,
  0x00, 0x00, 0x46, 0xf3, 0xff, 0xff, 0x14, 0x00, 0x00, 0x00, 0x00, 0x00, 0x00,
  0x0b, 0x14, 0x00, 0x00, 0x00, 0x18, 0x00, 0x00, 0x00, 0x03, 0x00, 0x00, 0x00,
  0x50, 0xf6, 0xff, 0xff, 0x00, 0x00, 0x00, 0x00, 0x01, 0x00, 0x00, 0x00, 0x85,
  0x00, 0x00, 0x00, 0x02, 0x00, 0x00, 0x00, 0x84, 0x00, 0x00, 0x00, 0x81, 0x00,
  0x00, 0x00, 0x7a, 0xf3, 0xff, 0xff, 0x14, 0x00, 0x00, 0x00, 0x00, 0x00, 0x00,
  0x01, 0x18, 0x00, 0x00, 0x00, 0x1c, 0x00, 0x00, 0x00, 0x02, 0x00, 0x00, 0x00,
  0x02, 0xf4, 0xff, 0xff, 0x01, 0x00, 0x00, 0x00, 0x01, 0x00, 0x00, 0x00, 0x01,
  0x00, 0x00, 0x00, 0x84, 0x00, 0x00, 0x00, 0x03, 0x00, 0x00, 0x00, 0x83, 0x00,
  0x00, 0x00, 0x3c, 0x00, 0x00, 0x00, 0x4d, 0x00, 0x00, 0x00, 0xb6, 0xf3, 0xff,
  0xff, 0x14, 0x00, 0x00, 0x00, 0x00, 0x00, 0x00, 0x02, 0x1c, 0x00, 0x00, 0x00,
  0x20, 0x00, 0x00, 0x00, 0x01, 0x00, 0x00, 0x00, 0xa8, 0xf3, 0xff, 0xff, 0x01,
  0x00, 0x00, 0x00, 0x01, 0x00, 0x00, 0x00, 0x01, 0x00, 0x00, 0x00, 0x01, 0x00,
  0x00, 0x00, 0x83, 0x00, 0x00, 0x00, 0x03, 0x00, 0x00, 0x00, 0x82, 0x00, 0x00,
  0x00, 0x3b, 0x00, 0x00, 0x00, 0x3a, 0x00, 0x00, 0x00, 0xf6, 0xf3, 0xff, 0xff,
  0x14, 0x00, 0x00, 0x00, 0x00, 0x00, 0x00, 0x02, 0x1c, 0x00, 0x00, 0x00, 0x20,
  0x00, 0x00, 0x00, 0x01, 0x00, 0x00, 0x00, 0xe8, 0xf3, 0xff, 0xff, 0x01, 0x00,
  0x00, 0x00, 0x01, 0x00, 0x00, 0x00, 0x01, 0x00, 0x00, 0x00, 0x01, 0x00, 0x00,
  0x00, 0x82, 0x00, 0x00, 0x00, 0x03, 0x00, 0x00, 0x00, 0x7b, 0x00, 0x00, 0x00,
  0x39, 0x00, 0x00, 0x00, 0x3a, 0x00, 0x00, 0x00, 0x36, 0xf4, 0xff, 0xff, 0x14,
  0x00, 0x00, 0x00, 0x00, 0x00, 0x00, 0x01, 0x18, 0x00, 0x00, 0x00, 0x1c, 0x00,
  0x00, 0x00, 0x02, 0x00, 0x00, 0x00, 0xbe, 0xf4, 0xff, 0xff, 0x01, 0x00, 0x00,
  0x00, 0x01, 0x00, 0x00, 0x00, 0x01, 0x00, 0x00, 0x00, 0x81, 0x00, 0x00, 0x00,
  0x03, 0x00, 0x00, 0x00, 0x80, 0x00, 0x00, 0x00, 0x38, 0x00, 0x00, 0x00, 0x4d,
  0x00, 0x00, 0x00, 0x72, 0xf4, 0xff, 0xff, 0x14, 0x00, 0x00, 0x00, 0x00, 0x00,
  0x00, 0x02, 0x1c, 0x00, 0x00, 0x00, 0x20, 0x00, 0x00, 0x00, 0x01, 0x00, 0x00,
  0x00, 0x64, 0xf4, 0xff, 0xff, 0x01, 0x00, 0x00, 0x00, 0x01, 0x00, 0x00, 0x00,
  0x01, 0x00, 0x00, 0x00, 0x01, 0x00, 0x00, 0x00, 0x80, 0x00, 0x00, 0x00, 0x03,
  0x00, 0x00, 0x00, 0x7f, 0x00, 0x00, 0x00, 0x37, 0x00, 0x00, 0x00, 0x44, 0x00,
  0x00, 0x00, 0xb2, 0xf4, 0xff, 0xff, 0x14, 0x00, 0x00, 0x00, 0x00, 0x00, 0x00,
  0x02, 0x1c, 0x00, 0x00, 0x00, 0x20, 0x00, 0x00, 0x00, 0x01, 0x00, 0x00, 0x00,
  0xa4, 0xf4, 0xff, 0xff, 0x01, 0x00, 0x00, 0x00, 0x01, 0x00, 0x00, 0x00, 0x01,
  0x00, 0x00, 0x00, 0x01, 0x00, 0x00, 0x00, 0x7f, 0x00, 0x00, 0x00, 0x03, 0x00,
  0x00, 0x00, 0x7e, 0x00, 0x00, 0x00, 0x36, 0x00, 0x00, 0x00, 0x44, 0x00, 0x00,
  0x00, 0xf2, 0xf4, 0xff, 0xff, 0x14, 0x00, 0x00, 0x00, 0x00, 0x00, 0x00, 0x01,
  0x1c, 0x00, 0x00, 0x00, 0x20, 0x00, 0x00, 0x00, 0x02, 0x00, 0x00, 0x00, 0x48,
  0xf6, 0xff, 0xff, 0x00, 0x00, 0x00, 0x01, 0x01, 0x00, 0x00, 0x00, 0x01, 0x00,
  0x00, 0x00, 0x01, 0x00, 0x00, 0x00, 0x7e, 0x00, 0x00, 0x00, 0x03, 0x00, 0x00,
  0x00, 0x7d, 0x00, 0x00, 0x00, 0x35, 0x00, 0x00, 0x00, 0x02, 0x00, 0x00, 0x00,
  0x32, 0xf5, 0xff, 0xff, 0x14, 0x00, 0x00, 0x00, 0x00, 0x00, 0x00, 0x02, 0x1c,
  0x00, 0x00, 0x00, 0x20, 0x00, 0x00, 0x00, 0x01, 0x00, 0x00, 0x00, 0x24, 0xf5,
  0xff, 0xff, 0x01, 0x00, 0x00, 0x00, 0x01, 0x00, 0x00, 0x00, 0x01, 0x00, 0x00,
  0x00, 0x01, 0x00, 0x00, 0x00, 0x7d, 0x00, 0x00, 0x00, 0x03, 0x00, 0x00, 0x00,
  0x7c, 0x00, 0x00, 0x00, 0x34, 0x00, 0x00, 0x00, 0x3a, 0x00, 0x00, 0x00, 0x72,
  0xf5, 0xff, 0xff, 0x14, 0x00, 0x00, 0x00, 0x00, 0x00, 0x00, 0x02, 0x1c, 0x00,
  0x00, 0x00, 0x20, 0x00, 0x00, 0x00, 0x01, 0x00, 0x00, 0x00, 0x64, 0xf5, 0xff,
  0xff, 0x01, 0x00, 0x00, 0x00, 0x01, 0x00, 0x00, 0x00, 0x01, 0x00, 0x00, 0x00,
  0x01, 0x00, 0x00, 0x00, 0x7c, 0x00, 0x00, 0x00, 0x03, 0x00, 0x00, 0x00, 0x7b,
  0x00, 0x00, 0x00, 0x33, 0x00, 0x00, 0x00, 0x3a, 0x00, 0x00, 0x00, 0xb2, 0xf5,
  0xff, 0xff, 0x14, 0x00, 0x00, 0x00, 0x00, 0x00, 0x00, 0x0b, 0x14, 0x00, 0x00,
  0x00, 0x18, 0x00, 0x00, 0x00, 0x03, 0x00, 0x00, 0x00, 0xbc, 0xf8, 0xff, 0xff,
  0x00, 0x00, 0x00, 0x00, 0x01, 0x00, 0x00, 0x00, 0x7b, 0x00, 0x00, 0x00, 0x02,
  0x00, 0x00, 0x00, 0x7a, 0x00, 0x00, 0x00, 0x77, 0x00, 0x00, 0x00, 0xe6, 0xf5,
  0xff, 0xff, 0x14, 0x00, 0x00, 0x00, 0x00, 0x00, 0x00, 0x01, 0x18, 0x00, 0x00,
  0x00, 0x1c, 0x00, 0x00, 0x00, 0x02, 0x00, 0x00, 0x00, 0x6e, 0xf6, 0xff, 0xff,
  0x01, 0x00, 0x00, 0x00, 0x01, 0x00, 0x00, 0x00, 0x01, 0x00, 0x00, 0x00, 0x7a,
  0x00, 0x00, 0x00, 0x03, 0x00, 0x00, 0x00, 0x79, 0x00, 0x00, 0x00, 0x32, 0x00,
  0x00, 0x00, 0x4c, 0x00, 0x00, 0x00, 0x22, 0xf6, 0xff, 0xff, 0x14, 0x00, 0x00,
  0x00, 0x00, 0x00, 0x00, 0x02, 0x1c, 0x00, 0x00, 0x00, 0x20, 0x00, 0x00, 0x00,
  0x01, 0x00, 0x00, 0x00, 0x14, 0xf6, 0xff, 0xff, 0x01, 0x00, 0x00, 0x00, 0x01,
  0x00, 0x00, 0x00, 0x01, 0x00, 0x00, 0x00, 0x01, 0x00, 0x00, 0x00, 0x79, 0x00,
  0x00, 0x00, 0x03, 0x00, 0x00, 0x00, 0x78, 0x00, 0x00, 0x00, 0x31, 0x00, 0x00,
  0x00, 0x30, 0x00, 0x00, 0x00, 0x62, 0xf6, 0xff, 0xff, 0x14, 0x00, 0x00, 0x00,
  0x00, 0x00, 0x00, 0x02, 0x1c, 0x00, 0x00, 0x00, 0x20, 0x00, 0x00, 0x00, 0x01,
  0x00, 0x00, 0x00, 0x54, 0xf6, 0xff, 0xff, 0x01, 0x00, 0x00, 0x00, 0x01, 0x00,
  0x00, 0x00, 0x01, 0x00, 0x00, 0x00, 0x01, 0x00, 0x00, 0x00, 0x78, 0x00, 0x00,
  0x00, 0x03, 0x00, 0x00, 0x00, 0x71, 0x00, 0x00, 0x00, 0x2f, 0x00, 0x00, 0x00,
  0x30, 0x00, 0x00, 0x00, 0xa2, 0xf6, 0xff, 0xff, 0x14, 0x00, 0x00, 0x00, 0x00,
  0x00, 0x00, 0x01, 0x18, 0x00, 0x00, 0x00, 0x1c, 0x00, 0x00, 0x00, 0x02, 0x00,
  0x00, 0x00, 0x2a, 0xf7, 0xff, 0xff, 0x01, 0x00, 0x00, 0x00, 0x01, 0x00, 0x00,
  0x00, 0x01, 0x00, 0x00, 0x00, 0x77, 0x00, 0x00, 0x00, 0x03, 0x00, 0x00, 0x00,
  0x76, 0x00, 0x00, 0x00, 0x2e, 0x00, 0x00, 0x00, 0x4c, 0x00, 0x00, 0x00, 0xde,
  0xf6, 0xff, 0xff, 0x14, 0x00, 0x00, 0x00, 0x00, 0x00, 0x00, 0x02, 0x1c, 0x00,
  0x00, 0x00, 0x20, 0x00, 0x00, 0x00, 0x01, 0x00, 0x00, 0x00, 0xd0, 0xf6, 0xff,
  0xff, 0x01, 0x00, 0x00, 0x00, 0x01, 0x00, 0x00, 0x00, 0x01, 0x00, 0x00, 0x00,
  0x01, 0x00, 0x00, 0x00, 0x76, 0x00, 0x00, 0x00, 0x03, 0x00, 0x00, 0x00, 0x75,
  0x00, 0x00, 0x00, 0x2d, 0x00, 0x00, 0x00, 0x3a, 0x00, 0x00, 0x00, 0x1e, 0xf7,
  0xff, 0xff, 0x14, 0x00, 0x00, 0x00, 0x00, 0x00, 0x00, 0x02, 0x1c, 0x00, 0x00,
  0x00, 0x20, 0x00, 0x00, 0x00, 0x01, 0x00, 0x00, 0x00, 0x10, 0xf7, 0xff, 0xff,
  0x01, 0x00, 0x00, 0x00, 0x01, 0x00, 0x00, 0x00, 0x01, 0x00, 0x00, 0x00, 0x01,
  0x00, 0x00, 0x00, 0x75, 0x00, 0x00, 0x00, 0x03, 0x00, 0x00, 0x00, 0x74, 0x00,
  0x00, 0x00, 0x2c, 0x00, 0x00, 0x00, 0x3a, 0x00, 0x00, 0x00, 0x5e, 0xf7, 0xff,
  0xff, 0x14, 0x00, 0x00, 0x00, 0x00, 0x00, 0x00, 0x01, 0x1c, 0x00, 0x00, 0x00,
  0x20, 0x00, 0x00, 0x00, 0x02, 0x00, 0x00, 0x00, 0xb4, 0xf8, 0xff, 0xff, 0x00,
  0x00, 0x00, 0x01, 0x01, 0x00, 0x00, 0x00, 0x01, 0x00, 0x00, 0x00, 0x01, 0x00,
  0x00, 0x00, 0x74, 0x00, 0x00, 0x00, 0x03, 0x00, 0x00, 0x00, 0x73, 0x00, 0x00,
  0x00, 0x2b, 0x00, 0x00, 0x00, 0x03, 0x00, 0x00, 0x00, 0x9e, 0xf7, 0xff, 0xff,
  0x14, 0x00, 0x00, 0x00, 0x00, 0x00, 0x00, 0x02, 0x1c, 0x00, 0x00, 0x00, 0x20,
  0x00, 0x00, 0x00, 0x01, 0x00, 0x00, 0x00, 0x90, 0xf7, 0xff, 0xff, 0x01, 0x00,
  0x00, 0x00, 0x01, 0x00, 0x00, 0x00, 0x01, 0x00, 0x00, 0x00, 0x01, 0x00, 0x00,
  0x00, 0x73, 0x00, 0x00, 0x00, 0x03, 0x00, 0x00, 0x00, 0x72, 0x00, 0x00, 0x00,
  0x2a, 0x00, 0x00, 0x00, 0x30, 0x00, 0x00, 0x00, 0xde, 0xf7, 0xff, 0xff, 0x14,
  0x00, 0x00, 0x00, 0x00, 0x00, 0x00, 0x02, 0x1c, 0x00, 0x00, 0x00, 0x20, 0x00,
  0x00, 0x00, 0x01, 0x00, 0x00, 0x00, 0xd0, 0xf7, 0xff, 0xff, 0x01, 0x00, 0x00,
  0x00, 0x01, 0x00, 0x00, 0x00, 0x01, 0x00, 0x00, 0x00, 0x01, 0x00, 0x00, 0x00,
  0x72, 0x00, 0x00, 0x00, 0x03, 0x00, 0x00, 0x00, 0x71, 0x00, 0x00, 0x00, 0x29,
  0x00, 0x00, 0x00, 0x30, 0x00, 0x00, 0x00, 0x1e, 0xf8, 0xff, 0xff, 0x14, 0x00,
  0x00, 0x00, 0x00, 0x00, 0x00, 0x0b, 0x14, 0x00, 0x00, 0x00, 0x18, 0x00, 0x00,
  0x00, 0x03, 0x00, 0x00, 0x00, 0x28, 0xfb, 0xff, 0xff, 0x00, 0x00, 0x00, 0x00,
  0x01, 0x00, 0x00, 0x00, 0x71, 0x00, 0x00, 0x00, 0x02, 0x00, 0x00, 0x00, 0x70,
  0x00, 0x00, 0x00, 0x6d, 0x00, 0x00, 0x00, 0x52, 0xf8, 0xff, 0xff, 0x14, 0x00,
  0x00, 0x00, 0x00, 0x00, 0x00, 0x01, 0x18, 0x00, 0x00, 0x00, 0x1c, 0x00, 0x00,
  0x00, 0x02, 0x00, 0x00, 0x00, 0xda, 0xf8, 0xff, 0xff, 0x01, 0x00, 0x00, 0x00,
  0x01, 0x00, 0x00, 0x00, 0x01, 0x00, 0x00, 0x00, 0x70, 0x00, 0x00, 0x00, 0x03,
  0x00, 0x00, 0x00, 0x6f, 0x00, 0x00, 0x00, 0x28, 0x00, 0x00, 0x00, 0x4b, 0x00,
  0x00, 0x00, 0x8e, 0xf8, 0xff, 0xff, 0x14, 0x00, 0x00, 0x00, 0x00, 0x00, 0x00,
  0x02, 0x1c, 0x00, 0x00, 0x00, 0x20, 0x00, 0x00, 0x00, 0x01, 0x00, 0x00, 0x00,
  0x80, 0xf8, 0xff, 0xff, 0x01, 0x00, 0x00, 0x00, 0x01, 0x00, 0x00, 0x00, 0x01,
  0x00, 0x00, 0x00, 0x01, 0x00, 0x00, 0x00, 0x6f, 0x00, 0x00, 0x00, 0x03, 0x00,
  0x00, 0x00, 0x6e, 0x00, 0x00, 0x00, 0x27, 0x00, 0x00, 0x00, 0x26, 0x00, 0x00,
  0x00, 0xce, 0xf8, 0xff, 0xff, 0x14, 0x00, 0x00, 0x00, 0x00, 0x00, 0x00, 0x02,
  0x1c, 0x00, 0x00, 0x00, 0x20, 0x00, 0x00, 0x00, 0x01, 0x00, 0x00, 0x00, 0xc0,
  0xf8, 0xff, 0xff, 0x01, 0x00, 0x00, 0x00, 0x01, 0x00, 0x00, 0x00, 0x01, 0x00,
  0x00, 0x00, 0x01, 0x00, 0x00, 0x00, 0x6e, 0x00, 0x00, 0x00, 0x03, 0x00, 0x00,
  0x00, 0x67, 0x00, 0x00, 0x00, 0x25, 0x00, 0x00, 0x00, 0x26, 0x00, 0x00, 0x00,
  0x0e, 0xf9, 0xff, 0xff, 0x14, 0x00, 0x00, 0x00, 0x00, 0x00, 0x00, 0x01, 0x18,
  0x00, 0x00, 0x00, 0x1c, 0x00, 0x00, 0x00, 0x02, 0x00, 0x00, 0x00, 0x96, 0xf9,
  0xff, 0xff, 0x01, 0x00, 0x00, 0x00, 0x01, 0x00, 0x00, 0x00, 0x01, 0x00, 0x00,
  0x00, 0x6d, 0x00, 0x00, 0x00, 0x03, 0x00, 0x00, 0x00, 0x6c, 0x00, 0x00, 0x00,
  0x24, 0x00, 0x00, 0x00, 0x4b, 0x00, 0x00, 0x00, 0x4a, 0xf9, 0xff, 0xff, 0x14,
  0x00, 0x00, 0x00, 0x00, 0x00, 0x00, 0x02, 0x1c, 0x00, 0x00, 0x00, 0x20, 0x00,
  0x00, 0x00, 0x01, 0x00, 0x00, 0x00, 0x3c, 0xf9, 0xff, 0xff, 0x01, 0x00, 0x00,
  0x00, 0x01, 0x00, 0x00, 0x00, 0x01, 0x00, 0x00, 0x00, 0x01, 0x00, 0x00, 0x00,
  0x6c, 0x00, 0x00, 0x00, 0x03, 0x00, 0x00, 0x00, 0x6b, 0x00, 0x00, 0x00, 0x23,
  0x00, 0x00, 0x00, 0x30, 0x00, 0x00, 0x00, 0x8a, 0xf9, 0xff, 0xff, 0x14, 0x00,
  0x00, 0x00, 0x00, 0x00, 0x00, 0x02, 0x1c, 0x00, 0x00, 0x00, 0x20, 0x00, 0x00,
  0x00, 0x01, 0x00, 0x00, 0x00, 0x7c, 0xf9, 0xff, 0xff, 0x01, 0x00, 0x00, 0x00,
  0x01, 0x00, 0x00, 0x00, 0x01, 0x00, 0x00, 0x00, 0x01, 0x00, 0x00, 0x00, 0x6b,
  0x00, 0x00, 0x00, 0x03, 0x00, 0x00, 0x00, 0x6a, 0x00, 0x00, 0x00, 0x22, 0x00,
  0x00, 0x00, 0x30, 0x00, 0x00, 0x00, 0xca, 0xf9, 0xff, 0xff, 0x14, 0x00, 0x00,
  0x00, 0x00, 0x00, 0x00, 0x01, 0x1c, 0x00, 0x00, 0x00, 0x20, 0x00, 0x00, 0x00,
  0x02, 0x00, 0x00, 0x00, 0x20, 0xfb, 0xff, 0xff, 0x00, 0x00, 0x00, 0x01, 0x01,
  0x00, 0x00, 0x00, 0x01, 0x00, 0x00, 0x00, 0x01, 0x00, 0x00, 0x00, 0x6a, 0x00,
  0x00, 0x00, 0x03, 0x00, 0x00, 0x00, 0x69, 0x00, 0x00, 0x00, 0x21, 0x00, 0x00,
  0x00, 0x04, 0x00, 0x00, 0x00, 0x0a, 0xfa, 0xff, 0xff, 0x14, 0x00, 0x00, 0x00,
  0x00, 0x00, 0x00, 0x02, 0x1c, 0x00, 0x00, 0x00, 0x20, 0x00, 0x00, 0x00, 0x01,
  0x00, 0x00, 0x00, 0xfc, 0xf9, 0xff, 0xff, 0x01, 0x00, 0x00, 0x00, 0x01, 0x00,
  0x00, 0x00, 0x01, 0x00, 0x00, 0x00, 0x01, 0x00, 0x00, 0x00, 0x69, 0x00, 0x00,
  0x00, 0x03, 0x00, 0x00, 0x00, 0x68, 0x00, 0x00, 0x00, 0x20, 0x00, 0x00, 0x00,
  0x26, 0x00, 0x00, 0x00, 0x4a, 0xfa, 0xff, 0xff, 0x14, 0x00, 0x00, 0x00, 0x00,
  0x00, 0x00, 0x02, 0x1c, 0x00, 0x00, 0x00, 0x20, 0x00, 0x00, 0x00, 0x01, 0x00,
  0x00, 0x00, 0x3c, 0xfa, 0xff, 0xff, 0x01, 0x00, 0x00, 0x00, 0x01, 0x00, 0x00,
  0x00, 0x01, 0x00, 0x00, 0x00, 0x01, 0x00, 0x00, 0x00, 0x68, 0x00, 0x00, 0x00,
  0x03, 0x00, 0x00, 0x00, 0x67, 0x00, 0x00, 0x00, 0x1f, 0x00, 0x00, 0x00, 0x26,
  0x00, 0x00, 0x00, 0x8a, 0xfa, 0xff, 0xff, 0x14, 0x00, 0x00, 0x00, 0x00, 0x00,
  0x00, 0x0b, 0x14, 0x00, 0x00, 0x00, 0x18, 0x00, 0x00, 0x00, 0x03, 0x00, 0x00,
  0x00, 0x94, 0xfd, 0xff, 0xff, 0x00, 0x00, 0x00, 0x00, 0x01, 0x00, 0x00, 0x00,
  0x67, 0x00, 0x00, 0x00, 0x02, 0x00, 0x00, 0x00, 0x66, 0x00, 0x00, 0x00, 0x63,
  0x00, 0x00, 0x00, 0xbe, 0xfa, 0xff, 0xff, 0x14, 0x00, 0x00, 0x00, 0x00, 0x00,
  0x00, 0x01, 0x18, 0x00, 0x00, 0x00, 0x1c, 0x00, 0x00, 0x00, 0x02, 0x00, 0x00,
  0x00, 0x46, 0xfb, 0xff, 0xff, 0x01, 0x00, 0x00, 0x00, 0x01, 0x00, 0x00, 0x00,
  0x01, 0x00, 0x00, 0x00, 0x66, 0x00, 0x00, 0x00, 0x03, 0x00, 0x00, 0x00, 0x65,
  0x00, 0x00, 0x00, 0x1e, 0x00, 0x00, 0x00, 0x4a, 0x00, 0x00, 0x00, 0xfa, 0xfa,
  0xff, 0xff, 0x14, 0x00, 0x00, 0x00, 0x00, 0x00, 0x00, 0x02, 0x1c, 0x00, 0x00,
  0x00, 0x20, 0x00, 0x00, 0x00, 0x01, 0x00, 0x00, 0x00, 0xec, 0xfa, 0xff, 0xff,
  0x01, 0x00, 0x00, 0x00, 0x01, 0x00, 0x00, 0x00, 0x01, 0x00, 0x00, 0x00, 0x01,
  0x00, 0x00, 0x00, 0x65, 0x00, 0x00, 0x00, 0x03, 0x00, 0x00, 0x00, 0x64, 0x00,
  0x00, 0x00, 0x1d, 0x00, 0x00, 0x00, 0x1c, 0x00, 0x00, 0x00, 0x3a, 0xfb, 0xff,
  0xff, 0x14, 0x00, 0x00, 0x00, 0x00, 0x00, 0x00, 0x02, 0x1c, 0x00, 0x00, 0x00,
  0x20, 0x00, 0x00, 0x00, 0x01, 0x00, 0x00, 0x00, 0x2c, 0xfb, 0xff, 0xff, 0x01,
  0x00, 0x00, 0x00, 0x01, 0x00, 0x00, 0x00, 0x01, 0x00, 0x00, 0x00, 0x01, 0x00,
  0x00, 0x00, 0x64, 0x00, 0x00, 0x00, 0x03, 0x00, 0x00, 0x00, 0x5d, 0x00, 0x00,
  0x00, 0x1b, 0x00, 0x00, 0x00, 0x1c, 0x00, 0x00, 0x00, 0x7a, 0xfb, 0xff, 0xff,
  0x14, 0x00, 0x00, 0x00, 0x00, 0x00, 0x00, 0x01, 0x18, 0x00, 0x00, 0x00, 0x1c,
  0x00, 0x00, 0x00, 0x02, 0x00, 0x00, 0x00, 0x02, 0xfc, 0xff, 0xff, 0x01, 0x00,
  0x00, 0x00, 0x01, 0x00, 0x00, 0x00, 0x01, 0x00, 0x00, 0x00, 0x63, 0x00, 0x00,
  0x00, 0x03, 0x00, 0x00, 0x00, 0x62, 0x00, 0x00, 0x00, 0x1a, 0x00, 0x00, 0x00,
  0x4a, 0x00, 0x00, 0x00, 0xb6, 0xfb, 0xff, 0xff, 0x14, 0x00, 0x00, 0x00, 0x00,
  0x00, 0x00, 0x02, 0x1c, 0x00, 0x00, 0x00, 0x20, 0x00, 0x00, 0x00, 0x01, 0x00,
  0x00, 0x00, 0xa8, 0xfb, 0xff, 0xff, 0x01, 0x00, 0x00, 0x00, 0x01, 0x00, 0x00,
  0x00, 0x01, 0x00, 0x00, 0x00, 0x01, 0x00, 0x00, 0x00, 0x62, 0x00, 0x00, 0x00,
  0x03, 0x00, 0x00, 0x00, 0x61, 0x00, 0x00, 0x00, 0x19, 0x00, 0x00, 0x00, 0x26,
  0x00, 0x00, 0x00, 0xf6, 0xfb, 0xff, 0xff, 0x14, 0x00, 0x00, 0x00, 0x00, 0x00,
  0x00, 0x02, 0x1c, 0x00, 0x00, 0x00, 0x20, 0x00, 0x00, 0x00, 0x01, 0x00, 0x00,
  0x00, 0xe8, 0xfb, 0xff, 0xff, 0x01, 0x00, 0x00, 0x00, 0x01, 0x00, 0x00, 0x00,
  0x01, 0x00, 0x00, 0x00, 0x01, 0x00, 0x00, 0x00, 0x61, 0x00, 0x00, 0x00, 0x03,
  0x00, 0x00, 0x00, 0x60, 0x00, 0x00, 0x00, 0x18, 0x00, 0x00, 0x00, 0x26, 0x00,
  0x00, 0x00, 0x36, 0xfc, 0xff, 0xff, 0x14, 0x00, 0x00, 0x00, 0x00, 0x00, 0x00,
  0x01, 0x1c, 0x00, 0x00, 0x00, 0x20, 0x00, 0x00, 0x00, 0x02, 0x00, 0x00, 0x00,
  0x8c, 0xfd, 0xff, 0xff, 0x00, 0x00, 0x00, 0x01, 0x01, 0x00, 0x00, 0x00, 0x01,
  0x00, 0x00, 0x00, 0x01, 0x00, 0x00, 0x00, 0x60, 0x00, 0x00, 0x00, 0x03, 0x00,
  0x00, 0x00, 0x5f, 0x00, 0x00, 0x00, 0x17, 0x00, 0x00, 0x00, 0x05, 0x00, 0x00,
  0x00, 0x76, 0xfc, 0xff, 0xff, 0x14, 0x00, 0x00, 0x00, 0x00, 0x00, 0x00, 0x02,
  0x1c, 0x00, 0x00, 0x00, 0x20, 0x00, 0x00, 0x00, 0x01, 0x00, 0x00, 0x00, 0x68,
  0xfc, 0xff, 0xff, 0x01, 0x00, 0x00, 0x00, 0x01, 0x00, 0x00, 0x00, 0x01, 0x00,
  0x00, 0x00, 0x01, 0x00, 0x00, 0x00, 0x5f, 0x00, 0x00, 0x00, 0x03, 0x00, 0x00,
  0x00, 0x5e, 0x00, 0x00, 0x00, 0x16, 0x00, 0x00, 0x00, 0x1c, 0x00, 0x00, 0x00,
  0xb6, 0xfc, 0xff, 0xff, 0x14, 0x00, 0x00, 0x00, 0x00, 0x00, 0x00, 0x02, 0x1c,
  0x00, 0x00, 0x00, 0x20, 0x00, 0x00, 0x00, 0x01, 0x00, 0x00, 0x00, 0xa8, 0xfc,
  0xff, 0xff, 0x01, 0x00, 0x00, 0x00, 0x01, 0x00, 0x00, 0x00, 0x01, 0x00, 0x00,
  0x00, 0x01, 0x00, 0x00, 0x00, 0x5e, 0x00, 0x00, 0x00, 0x03, 0x00, 0x00, 0x00,
  0x5d, 0x00, 0x00, 0x00, 0x15, 0x00, 0x00, 0x00, 0x1c, 0x00, 0x00, 0x00, 0xf6,
  0xfc, 0xff, 0xff, 0x1c, 0x00, 0x00, 0x00, 0x00, 0x00, 0x00, 0x0b, 0x1c, 0x00,
  0x00, 0x00, 0x20, 0x00, 0x00, 0x00, 0x03, 0x00, 0x00, 0x00, 0x08, 0x00, 0x08,
  0x00, 0x00, 0x00, 0x07, 0x00, 0x08, 0x00, 0x00, 0x00, 0x00, 0x00, 0x00, 0x00,
  0x01, 0x00, 0x00, 0x00, 0x5d, 0x00, 0x00, 0x00, 0x02, 0x00, 0x00, 0x00, 0x5c,
  0x00, 0x00, 0x00, 0x59, 0x00, 0x00, 0x00, 0x32, 0xfd, 0xff, 0xff, 0x14, 0x00,
  0x00, 0x00, 0x00, 0x00, 0x00, 0x01, 0x18, 0x00, 0x00, 0x00, 0x1c, 0x00, 0x00,
  0x00, 0x02, 0x00, 0x00, 0x00, 0xba, 0xfd, 0xff, 0xff, 0x01, 0x00, 0x00, 0x00,
  0x01, 0x00, 0x00, 0x00, 0x01, 0x00, 0x00, 0x00, 0x5c, 0x00, 0x00, 0x00, 0x03,
  0x00, 0x00, 0x00, 0x5b, 0x00, 0x00, 0x00, 0x14, 0x00, 0x00, 0x00, 0x49, 0x00,
  0x00, 0x00, 0x6e, 0xfd, 0xff, 0xff, 0x14, 0x00, 0x00, 0x00, 0x00, 0x00, 0x00,
  0x02, 0x1c, 0x00, 0x00, 0x00, 0x20, 0x00, 0x00, 0x00, 0x01, 0x00, 0x00, 0x00,
  0x60, 0xfd, 0xff, 0xff, 0x01, 0x00, 0x00, 0x00, 0x01, 0x00, 0x00, 0x00, 0x01,
  0x00, 0x00, 0x00, 0x01, 0x00, 0x00, 0x00, 0x5b, 0x00, 0x00, 0x00, 0x03, 0x00,
  0x00, 0x00, 0x5a, 0x00, 0x00, 0x00, 0x13, 0x00, 0x00, 0x00, 0x12, 0x00, 0x00,
  0x00, 0xae, 0xfd, 0xff, 0xff, 0x14, 0x00, 0x00, 0x00, 0x00, 0x00, 0x00, 0x02,
  0x1c, 0x00, 0x00, 0x00, 0x20, 0x00, 0x00, 0x00, 0x01, 0x00, 0x00, 0x00, 0xa0,
  0xfd, 0xff, 0xff, 0x01, 0x00, 0x00, 0x00, 0x01, 0x00, 0x00, 0x00, 0x01, 0x00,
  0x00, 0x00, 0x01, 0x00, 0x00, 0x00, 0x5a, 0x00, 0x00, 0x00, 0x03, 0x00, 0x00,
  0x00, 0x53, 0x00, 0x00, 0x00, 0x11, 0x00, 0x00, 0x00, 0x12, 0x00, 0x00, 0x00,
  0xee, 0xfd, 0xff, 0xff, 0x14, 0x00, 0x00, 0x00, 0x00, 0x00, 0x00, 0x01, 0x18,
  0x00, 0x00, 0x00, 0x1c, 0x00, 0x00, 0x00, 0x02, 0x00, 0x00, 0x00, 0x76, 0xfe,
  0xff, 0xff, 0x01, 0x00, 0x00, 0x00, 0x01, 0x00, 0x00, 0x00, 0x01, 0x00, 0x00,
  0x00, 0x59, 0x00, 0x00, 0x00, 0x03, 0x00, 0x00, 0x00, 0x58, 0x00, 0x00, 0x00,
  0x10, 0x00, 0x00, 0x00, 0x49, 0x00, 0x00, 0x00, 0x2a, 0xfe, 0xff, 0xff, 0x14,
  0x00, 0x00, 0x00, 0x00, 0x00, 0x00, 0x02, 0x1c, 0x00, 0x00, 0x00, 0x20, 0x00,
  0x00, 0x00, 0x01, 0x00, 0x00, 0x00, 0x1c, 0xfe, 0xff, 0xff, 0x01, 0x00, 0x00,
  0x00, 0x01, 0x00, 0x00, 0x00, 0x01, 0x00, 0x00, 0x00, 0x01, 0x00, 0x00, 0x00,
  0x58, 0x00, 0x00, 0x00, 0x03, 0x00, 0x00, 0x00, 0x57, 0x00, 0x00, 0x00, 0x0f,
  0x00, 0x00, 0x00, 0x1c, 0x00, 0x00, 0x00, 0x6a, 0xfe, 0xff, 0xff, 0x14, 0x00,
  0x00, 0x00, 0x00, 0x00, 0x00, 0x02, 0x1c, 0x00, 0x00, 0x00, 0x20, 0x00, 0x00,
  0x00, 0x01, 0x00, 0x00, 0x00, 0x5c, 0xfe, 0xff, 0xff, 0x01, 0x00, 0x00, 0x00,
  0x01, 0x00, 0x00, 0x00, 0x01, 0x00, 0x00, 0x00, 0x01, 0x00, 0x00, 0x00, 0x57,
  0x00, 0x00, 0x00, 0x03, 0x00, 0x00, 0x00, 0x56, 0x00, 0x00, 0x00, 0x0e, 0x00,
  0x00, 0x00, 0x1c, 0x00, 0x00, 0x00, 0xaa, 0xfe, 0xff, 0xff, 0x20, 0x00, 0x00,
  0x00, 0x00, 0x00, 0x00, 0x01, 0x28, 0x00, 0x00, 0x00, 0x2c, 0x00, 0x00, 0x00,
  0x02, 0x00, 0x00, 0x00, 0x0c, 0x00, 0x10, 0x00, 0x00, 0x00, 0x0c, 0x00, 0x08,
  0x00, 0x07, 0x00, 0x0c, 0x00, 0x00, 0x00, 0x00, 0x00, 0x00, 0x01, 0x01, 0x00,
  0x00, 0x00, 0x01, 0x00, 0x00, 0x00, 0x01, 0x00, 0x00, 0x00, 0x56, 0x00, 0x00,
  0x00, 0x03, 0x00, 0x00, 0x00, 0x55, 0x00, 0x00, 0x00, 0x0d, 0x00, 0x00, 0x00,
  0x06, 0x00, 0x00, 0x00, 0xf6, 0xfe, 0xff, 0xff, 0x14, 0x00, 0x00, 0x00, 0x00,
  0x00, 0x00, 0x02, 0x1c, 0x00, 0x00, 0x00, 0x20, 0x00, 0x00, 0x00, 0x01, 0x00,
  0x00, 0x00, 0xe8, 0xfe, 0xff, 0xff, 0x01, 0x00, 0x00, 0x00, 0x01, 0x00, 0x00,
  0x00, 0x01, 0x00, 0x00, 0x00, 0x01, 0x00, 0x00, 0x00, 0x55, 0x00, 0x00, 0x00,
  0x03, 0x00, 0x00, 0x00, 0x54, 0x00, 0x00, 0x00, 0x0c, 0x00, 0x00, 0x00, 0x12,
  0x00, 0x00, 0x00, 0x36, 0xff, 0xff, 0xff, 0x14, 0x00, 0x00, 0x00, 0x00, 0x00,
  0x00, 0x02, 0x1c, 0x00, 0x00, 0x00, 0x20, 0x00, 0x00, 0x00, 0x01, 0x00, 0x00,
  0x00, 0x28, 0xff, 0xff, 0xff, 0x01, 0x00, 0x00, 0x00, 0x01, 0x00, 0x00, 0x00,
  0x01, 0x00, 0x00, 0x00, 0x01, 0x00, 0x00, 0x00, 0x54, 0x00, 0x00, 0x00, 0x03,
  0x00, 0x00, 0x00, 0x53, 0x00, 0x00, 0x00, 0x0b, 0x00, 0x00, 0x00, 0x12, 0x00,
  0x00, 0x00, 0x76, 0xff, 0xff, 0xff, 0x20, 0x00, 0x00, 0x00, 0x00, 0x00, 0x00,
  0x01, 0x24, 0x00, 0x00, 0x00, 0x28, 0x00, 0x00, 0x00, 0x02, 0x00, 0x00, 0x00,
  0x00, 0x00, 0x0a, 0x00, 0x0c, 0x00, 0x00, 0x00, 0x08, 0x00, 0x04, 0x00, 0x0a,
  0x00, 0x00, 0x00, 0x01, 0x00, 0x00, 0x00, 0x01, 0x00, 0x00, 0x00, 0x01, 0x00,
  0x00, 0x00, 0x53, 0x00, 0x00, 0x00, 0x03, 0x00, 0x00, 0x00, 0x52, 0x00, 0x00,
  0x00, 0x0a, 0x00, 0x00, 0x00, 0x48, 0x00, 0x00, 0x00, 0xbe, 0xff, 0xff, 0xff,
  0x14, 0x00, 0x00, 0x00, 0x00, 0x00, 0x00, 0x02, 0x1c, 0x00, 0x00, 0x00, 0x20,
  0x00, 0x00, 0x00, 0x01, 0x00, 0x00, 0x00, 0xb0, 0xff, 0xff, 0xff, 0x01, 0x00,
  0x00, 0x00, 0x01, 0x00, 0x00, 0x00, 0x01, 0x00, 0x00, 0x00, 0x01, 0x00, 0x00,
  0x00, 0x52, 0x00, 0x00, 0x00, 0x03, 0x00, 0x00, 0x00, 0x51, 0x00, 0x00, 0x00,
  0x09, 0x00, 0x00, 0x00, 0x46, 0x00, 0x00, 0x00, 0x00, 0x00, 0x0e, 0x00, 0x18,
  0x00, 0x14, 0x00, 0x10, 0x00, 0x0c, 0x00, 0x0b, 0x00, 0x04, 0x00, 0x0e, 0x00,
  0x00, 0x00, 0x20, 0x00, 0x00, 0x00, 0x00, 0x00, 0x00, 0x02, 0x28, 0x00, 0x00,
  0x00, 0x2c, 0x00, 0x00, 0x00, 0x01, 0x00, 0x00, 0x00, 0x0c, 0x00, 0x10, 0x00,
  0x00, 0x00, 0x0c, 0x00, 0x08, 0x00, 0x04, 0x00, 0x0c, 0x00, 0x00, 0x00, 0x01,
  0x00, 0x00, 0x00, 0x01, 0x00, 0x00, 0x00, 0x01, 0x00, 0x00, 0x00, 0x01, 0x00,
  0x00, 0x00, 0x51, 0x00, 0x00, 0x00, 0x03, 0x00, 0x00, 0x00, 0x50, 0x00, 0x00,
  0x00, 0x08, 0x00, 0x00, 0x00, 0x46, 0x00, 0x00, 0x00, 0x00, 0x00, 0x0e, 0x00,
  0x14, 0x00, 0x00, 0x00, 0x10, 0x00, 0x0c, 0x00, 0x0b, 0x00, 0x04, 0x00, 0x0e,
  0x00, 0x00, 0x00, 0x10, 0x00, 0x00, 0x00, 0x00, 0x00, 0x00, 0x16, 0x0c, 0x00,
  0x00, 0x00, 0x10, 0x00, 0x00, 0x00, 0xa4, 0x8e, 0xff, 0xff, 0x01, 0x00, 0x00,
  0x00, 0x50, 0x00, 0x00, 0x00, 0x02, 0x00, 0x00, 0x00, 0x00, 0x00, 0x00, 0x00,
  0x07, 0x00, 0x00, 0x00, 0x00, 0x00, 0x0a, 0x00, 0x10, 0x00, 0x0c, 0x00, 0x08,
  0x00, 0x04, 0x00, 0x0a, 0x00, 0x00, 0x00, 0x0c, 0x00, 0x00, 0x00, 0x10, 0x00,
  0x00, 0x00, 0x04, 0x00, 0x00, 0x00, 0x01, 0x00, 0x00, 0x00, 0x00, 0x00, 0x00,
  0x00, 0x01, 0x00, 0x00, 0x00, 0x90, 0x00, 0x00, 0x00, 0x01, 0x00, 0x00, 0x00,
  0x91, 0x00, 0x00, 0x00, 0x01, 0x00, 0x00, 0x00, 0x90, 0x00, 0x00, 0x00, 0x92,
  0x00, 0x00, 0x00, 0x60, 0x75, 0x00, 0x00, 0xbc, 0x74, 0x00, 0x00, 0x34, 0x74,
  0x00, 0x00, 0x98, 0x73, 0x00, 0x00, 0xe4, 0x72, 0x00, 0x00, 0x08, 0x72, 0x00,
  0x00, 0x0c, 0x71, 0x00, 0x00, 0xd0, 0x70, 0x00, 0x00, 0x3c, 0x70, 0x00, 0x00,
  0xbc, 0x6f, 0x00, 0x00, 0xcc, 0x6d, 0x00, 0x00, 0xd4, 0x6b, 0x00, 0x00, 0xd8,
  0x69, 0x00, 0x00, 0x48, 0x68, 0x00, 0x00, 0xb0, 0x66, 0x00, 0x00, 0x1c, 0x65,
  0x00, 0x00, 0x8c, 0x63, 0x00, 0x00, 0x94, 0x61, 0x00, 0x00, 0x5c, 0x60, 0x00,
  0x00, 0x5c, 0x5e, 0x00, 0x00, 0xcc, 0x5c, 0x00, 0x00, 0x34, 0x5b, 0x00, 0x00,
  0xa0, 0x59, 0x00, 0x00, 0x48, 0x58, 0x00, 0x00, 0xe8, 0x56, 0x00, 0x00, 0x8c,
  0x55, 0x00, 0x00, 0x34, 0x54, 0x00, 0x00, 0x9c, 0x52, 0x00, 0x00, 0x9c, 0x51,
  0x00, 0x00, 0x04, 0x50, 0x00, 0x00, 0xac, 0x4e, 0x00, 0x00, 0x4c, 0x4d, 0x00,
  0x00, 0xf0, 0x4b, 0x00, 0x00, 0xd8, 0x4a, 0x00, 0x00, 0xb8, 0x49, 0x00, 0x00,
  0x94, 0x48, 0x00, 0x00, 0x7c, 0x47, 0x00, 0x00, 0x1c, 0x46, 0x00, 0x00, 0x3c,
  0x45, 0x00, 0x00, 0xdc, 0x43, 0x00, 0x00, 0xc4, 0x42, 0x00, 0x00, 0xa4, 0x41,
  0x00, 0x00, 0x80, 0x40, 0x00, 0x00, 0x90, 0x3f, 0x00, 0x00, 0x98, 0x3e, 0x00,
  0x00, 0x9c, 0x3d, 0x00, 0x00, 0xac, 0x3c, 0x00, 0x00, 0x8c, 0x3b, 0x00, 0x00,
  0xd4, 0x3a, 0x00, 0x00, 0xb4, 0x39, 0x00, 0x00, 0xc4, 0x38, 0x00, 0x00, 0xcc,
  0x37, 0x00, 0x00, 0xd0, 0x36, 0x00, 0x00, 0x08, 0x36, 0x00, 0x00, 0x38, 0x35,
  0x00, 0x00, 0x64, 0x34, 0x00, 0x00, 0x9c, 0x33, 0x00, 0x00, 0xa4, 0x32, 0x00,
  0x00, 0x04, 0x32, 0x00, 0x00, 0x0c, 0x31, 0x00, 0x00, 0x44, 0x30, 0x00, 0x00,
  0x74, 0x2f, 0x00, 0x00, 0xa0, 0x2e, 0x00, 0x00, 0xd8, 0x2d, 0x00, 0x00, 0x08,
  0x2d, 0x00, 0x00, 0x34, 0x2c, 0x00, 0x00, 0x6c, 0x2b, 0x00, 0x00, 0x9c, 0x2a,
  0x00, 0x00, 0x14, 0x2a, 0x00, 0x00, 0x44, 0x29, 0x00, 0x00, 0xec, 0x28, 0x00,
  0x00, 0x70, 0x28, 0x00, 0x00, 0x1c, 0x27, 0x00, 0x00, 0x00, 0x26, 0x00, 0x00,
  0x04, 0x25, 0x00, 0x00, 0x30, 0x24, 0x00, 0x00, 0x6c, 0x23, 0x00, 0x00, 0xc0,
  0x22, 0x00, 0x00, 0x14, 0x22, 0x00, 0x00, 0xa8, 0x21, 0x00, 0x00, 0x34, 0x21,
  0x00, 0x00, 0xb8, 0x20, 0x00, 0x00, 0x3c, 0x20, 0x00, 0x00, 0xa8, 0x1f, 0x00,
  0x00, 0x2c, 0x1f, 0x00, 0x00, 0xb0, 0x1e, 0x00, 0x00, 0x14, 0x1e, 0x00, 0x00,
  0x98, 0x1d, 0x00, 0x00, 0x1c, 0x1d, 0x00, 0x00, 0x80, 0x1c, 0x00, 0x00, 0x04,
  0x1c, 0x00, 0x00, 0x88, 0x1b, 0x00, 0x00, 0xec, 0x1a, 0x00, 0x00, 0x78, 0x1a,
  0x00, 0x00, 0xfc, 0x19, 0x00, 0x00, 0x80, 0x19, 0x00, 0x00, 0xdc, 0x18, 0x00,
  0x00, 0x60, 0x18, 0x00, 0x00, 0xe4, 0x17, 0x00, 0x00, 0x48, 0x17, 0x00, 0x00,
  0xcc, 0x16, 0x00, 0x00, 0x50, 0x16, 0x00, 0x00, 0xb4, 0x15, 0x00, 0x00, 0x40,
  0x15, 0x00, 0x00, 0xc4, 0x14, 0x00, 0x00, 0x48, 0x14, 0x00, 0x00, 0xa4, 0x13,
  0x00, 0x00, 0x28, 0x13, 0x00, 0x00, 0xac, 0x12, 0x00, 0x00, 0x10, 0x12, 0x00,
  0x00, 0x94, 0x11, 0x00, 0x00, 0x18, 0x11, 0x00, 0x00, 0x7c, 0x10, 0x00, 0x00,
  0x08, 0x10, 0x00, 0x00, 0x8c, 0x0f, 0x00, 0x00, 0x10, 0x0f, 0x00, 0x00, 0x6c,
  0x0e, 0x00, 0x00, 0xf0, 0x0d, 0x00, 0x00, 0x74, 0x0d, 0x00, 0x00, 0xd8, 0x0c,
  0x00, 0x00, 0x5c, 0x0c, 0x00, 0x00, 0xe0, 0x0b, 0x00, 0x00, 0x44, 0x0b, 0x00,
  0x00, 0xd0, 0x0a, 0x00, 0x00, 0x54, 0x0a, 0x00, 0x00, 0xd8, 0x09, 0x00, 0x00,
  0x34, 0x09, 0x00, 0x00, 0xb8, 0x08, 0x00, 0x00, 0x3c, 0x08, 0x00, 0x00, 0xa0,
  0x07, 0x00, 0x00, 0x24, 0x07, 0x00, 0x00, 0xa8, 0x06, 0x00, 0x00, 0x0c, 0x06,
  0x00, 0x00, 0x98, 0x05, 0x00, 0x00, 0x1c, 0x05, 0x00, 0x00, 0xa0, 0x04, 0x00,
  0x00, 0xfc, 0x03, 0x00, 0x00, 0x80, 0x03, 0x00, 0x00, 0x04, 0x03, 0x00, 0x00,
  0x68, 0x02, 0x00, 0x00, 0xf4, 0x01, 0x00, 0x00, 0x78, 0x01, 0x00, 0x00, 0xfc,
  0x00, 0x00, 0x00, 0x78, 0x00, 0x00, 0x00, 0x44, 0x00, 0x00, 0x00, 0x04, 0x00,
  0x00, 0x00, 0xd0, 0xff, 0xff, 0xff, 0x08, 0x00, 0x00, 0x00, 0x14, 0x00, 0x00,
  0x00, 0x0a, 0x00, 0x00, 0x00, 0x42, 0x69, 0x61, 0x73, 0x41, 0x64, 0x64, 0x5f,
  0x31, 0x38, 0x00, 0x00, 0x04, 0x00, 0x00, 0x00, 0x01, 0x00, 0x00, 0x00, 0x38,
  0x04, 0x00, 0x00, 0x80, 0x07, 0x00, 0x00, 0x01, 0x00, 0x00, 0x00, 0x0c, 0x00,
  0x0c, 0x00, 0x08, 0x00, 0x00, 0x00, 0x00, 0x00, 0x04, 0x00, 0x0c, 0x00, 0x00,
  0x00, 0x08, 0x00, 0x00, 0x00, 0x14, 0x00, 0x00, 0x00, 0x0b, 0x00, 0x00, 0x00,
  0x50, 0x6c, 0x61, 0x63, 0x65, 0x68, 0x6f, 0x6c, 0x64, 0x65, 0x72, 0x00, 0x04,
  0x00, 0x00, 0x00, 0x01, 0x00, 0x00, 0x00, 0x38, 0x04, 0x00, 0x00, 0x80, 0x07,
  0x00, 0x00, 0x01, 0x00, 0x00, 0x00, 0x62, 0x8d, 0xff, 0xff, 0x14, 0x00, 0x00,
  0x00, 0x4c, 0x00, 0x00, 0x00, 0x90, 0x00, 0x00, 0x00, 0x00, 0x00, 0x00, 0x07,
  0x58, 0x00, 0x00, 0x00, 0x54, 0x8d, 0xff, 0xff, 0x10, 0x00, 0x00, 0x00, 0x1c,
  0x00, 0x00, 0x00, 0x20, 0x00, 0x00, 0x00, 0x24, 0x00, 0x00, 0x00, 0x01, 0x00,
  0x00, 0x00, 0x00, 0x00, 0x00, 0x00, 0x00, 0x00, 0x00, 0x00, 0x00, 0x00, 0x00,
  0x00, 0x01, 0x00, 0x00, 0x00, 0x7a, 0xa8, 0xb9, 0x36, 0x01, 0x00, 0x00, 0x00,
  0x07, 0xa7, 0x39, 0x3e, 0x01, 0x00, 0x00, 0x00, 0xd3, 0x51, 0x17, 0xbe, 0x10,
  0x00, 0x00, 0x00, 0x42, 0x69, 0x61, 0x73, 0x41, 0x64, 0x64, 0x5f, 0x31, 0x38,
  0x5f, 0x69, 0x6e, 0x74, 0x31, 0x36, 0x00, 0x00, 0x00, 0x00, 0x04, 0x00, 0x00,
  0x00, 0x01, 0x00, 0x00, 0x00, 0x38, 0x04, 0x00, 0x00, 0x80, 0x07, 0x00, 0x00,
  0x01, 0x00, 0x00, 0x00, 0xe2, 0x8d, 0xff, 0xff, 0x14, 0x00, 0x00, 0x00, 0x48,
  0x00, 0x00, 0x00, 0x8f, 0x00, 0x00, 0x00, 0x00, 0x00, 0x00, 0x07, 0x50, 0x00,
  0x00, 0x00, 0xd4, 0x8d, 0xff, 0xff, 0x10, 0x00, 0x00, 0x00, 0x18, 0x00, 0x00,
  0x00, 0x1c, 0x00, 0x00, 0x00, 0x20, 0x00, 0x00, 0x00, 0x01, 0x00, 0x00, 0x00,
  0x00, 0x00, 0x00, 0x00, 0x00, 0x00, 0x00, 0x00, 0x01, 0x00, 0x00, 0x00, 0x5b,
  0x49, 0xdf, 0x38, 0x01, 0x00, 0x00, 0x00, 0x9c, 0x47, 0x5f, 0x40, 0x01, 0x00,
  0x00, 0x00, 0x89, 0x58, 0x19, 0xc0, 0x0d, 0x00, 0x00, 0x00, 0x64, 0x65, 0x70,
  0x74, 0x68, 0x77, 0x69, 0x73, 0x65, 0x5f, 0x33, 0x37, 0x32, 0x00, 0x00, 0x00,
  0x04, 0x00, 0x00, 0x00, 0x01, 0x00, 0x00, 0x00, 0x38, 0x04, 0x00, 0x00, 0x80,
  0x07, 0x00, 0x00, 0x05, 0x00, 0x00, 0x00, 0x5a, 0x8e, 0xff, 0xff, 0x14, 0x00,
  0x00, 0x00, 0x48, 0x00, 0x00, 0x00, 0x8e, 0x00, 0x00, 0x00, 0x00, 0x00, 0x00,
  0x07, 0x50, 0x00, 0x00, 0x00, 0x4c, 0x8e, 0xff, 0xff, 0x10, 0x00, 0x00, 0x00,
  0x18, 0x00, 0x00, 0x00, 0x1c, 0x00, 0x00, 0x00, 0x20, 0x00, 0x00, 0x00, 0x01,
  0x00, 0x00, 0x00, 0x00, 0x00, 0x00, 0x00, 0x00, 0x00, 0x00, 0x00, 0x01, 0x00,
  0x00, 0x00, 0xdd, 0x16, 0xb9, 0x39, 0x01, 0x00, 0x00, 0x00, 0x58, 0x1c, 0x0b,
  0x41, 0x01, 0x00, 0x00, 0x00, 0x6b, 0x15, 0x39, 0xc1, 0x0d, 0x00, 0x00, 0x00,
  0x64, 0x65, 0x70, 0x74, 0x68, 0x77, 0x69, 0x73, 0x65, 0x5f, 0x33, 0x36, 0x31,
  0x00, 0x00, 0x00, 0x04, 0x00, 0x00, 0x00, 0x01, 0x00, 0x00, 0x00, 0x38, 0x04,
  0x00, 0x00, 0x86, 0x07, 0x00, 0x00, 0x05, 0x00, 0x00, 0x00, 0xd2, 0x8e, 0xff,
  0xff, 0x14, 0x00, 0x00, 0x00, 0x48, 0x00, 0x00, 0x00, 0x8d, 0x00, 0x00, 0x00,
  0x00, 0x00, 0x00, 0x07, 0x48, 0x00, 0x00, 0x00, 0xc4, 0x8e, 0xff, 0xff, 0x10,
  0x00, 0x00, 0x00, 0x18, 0x00, 0x00, 0x00, 0x1c, 0x00, 0x00, 0x00, 0x20, 0x00,
  0x00, 0x00, 0x01, 0x00, 0x00, 0x00, 0x00, 0x00, 0x00, 0x00, 0x00, 0x00, 0x00,
  0x00, 0x01, 0x00, 0x00, 0x00, 0xc9, 0x12, 0x38, 0x3a, 0x01, 0x00, 0x00, 0x00,
  0xc0, 0x32, 0x94, 0x41, 0x01, 0x00, 0x00, 0x00, 0x59, 0x11, 0xb8, 0xc1, 0x05,
  0x00, 0x00, 0x00, 0x41, 0x64, 0x64, 0x5f, 0x35, 0x00, 0x00, 0x00, 0x04, 0x00,
  0x00, 0x00, 0x01, 0x00, 0x00, 0x00, 0x3e, 0x04, 0x00, 0x00, 0x86, 0x07, 0x00,
  0x00, 0x05, 0x00, 0x00, 0x00, 0x42, 0x8f, 0xff, 0xff, 0x14, 0x00, 0x00, 0x00,
  0x48, 0x00, 0x00, 0x00, 0x8c, 0x00, 0x00, 0x00, 0x00, 0x00, 0x00, 0x07, 0x70,
  0x00, 0x00, 0x00, 0x34, 0x8f, 0xff, 0xff, 0x10, 0x00, 0x00, 0x00, 0x18, 0x00,
  0x00, 0x00, 0x1c, 0x00, 0x00, 0x00, 0x20, 0x00, 0x00, 0x00, 0x01, 0x00, 0x00,
  0x00, 0x00, 0x00, 0x00, 0x00, 0x00, 0x00, 0x00, 0x00, 0x01, 0x00, 0x00, 0x00,
  0x8b, 0x99, 0x48, 0x3a, 0x01, 0x00, 0x00, 0x00, 0xfa, 0x97, 0xc8, 0x41, 0x01,
  0x00, 0x00, 0x00, 0x86, 0x77, 0x87, 0xc1, 0x2d, 0x00, 0x00, 0x00, 0x42, 0x69,
  0x61, 0x73, 0x41, 0x64, 0x64, 0x5f, 0x31, 0x37, 0x3b, 0x64, 0x65, 0x70, 0x74,
  0x68, 0x77, 0x69, 0x73, 0x65, 0x5f, 0x33, 0x37, 0x3b, 0x43, 0x6f, 0x6e, 0x76,
  0x32, 0x44, 0x5f, 0x31, 0x37, 0x3b, 0x63, 0x6f, 0x6e, 0x76, 0x5f, 0x36, 0x5f,
  0x31, 0x5f, 0x62, 0x31, 0x00, 0x00, 0x00, 0x04, 0x00, 0x00, 0x00, 0x01, 0x00,
  0x00, 0x00, 0x3e, 0x04, 0x00, 0x00, 0x86, 0x07, 0x00, 0x00, 0x05, 0x00, 0x00,
  0x00, 0xda, 0x8f, 0xff, 0xff, 0x14, 0x00, 0x00, 0x00, 0x48, 0x00, 0x00, 0x00,
  0x8b, 0x00, 0x00, 0x00, 0x00, 0x00, 0x00, 0x07, 0x50, 0x00, 0x00, 0x00, 0xcc,
  0x8f, 0xff, 0xff, 0x10, 0x00, 0x00, 0x00, 0x18, 0x00, 0x00, 0x00, 0x1c, 0x00,
  0x00, 0x00, 0x20, 0x00, 0x00, 0x00, 0x01, 0x00, 0x00, 0x00, 0x00, 0x00, 0x00,
  0x00, 0x00, 0x00, 0x00, 0x00, 0x01, 0x00, 0x00, 0x00, 0x3c, 0xc4, 0x95, 0x39,
  0x01, 0x00, 0x00, 0x00, 0x10, 0xc3, 0x15, 0x41, 0x01, 0x00, 0x00, 0x00, 0x0f,
  0x57, 0x15, 0xc1, 0x0d, 0x00, 0x00, 0x00, 0x64, 0x65, 0x70, 0x74, 0x68, 0x77,
  0x69, 0x73, 0x65, 0x5f, 0x33, 0x35, 0x31, 0x00, 0x00, 0x00, 0x04, 0x00, 0x00,
  0x00, 0x01, 0x00, 0x00, 0x00, 0x3e, 0x04, 0x00, 0x00, 0x86, 0x07, 0x00, 0x00,
  0x05, 0x00, 0x00, 0x00, 0x52, 0x90, 0xff, 0xff, 0x14, 0x00, 0x00, 0x00, 0x48,
  0x00, 0x00, 0x00, 0x8a, 0x00, 0x00, 0x00, 0x00, 0x00, 0x00, 0x07, 0x50, 0x00,
  0x00, 0x00, 0x44, 0x90, 0xff, 0xff, 0x10, 0x00, 0x00, 0x00, 0x18, 0x00, 0x00,
  0x00, 0x1c, 0x00, 0x00, 0x00, 0x20, 0x00, 0x00, 0x00, 0x01, 0x00, 0x00, 0x00,
  0x00, 0x00, 0x00, 0x00, 0x00, 0x00, 0x00, 0x00, 0x01, 0x00, 0x00, 0x00, 0x04,
  0x25, 0x92, 0x39, 0x01, 0x00, 0x00, 0x00, 0xe0, 0x23, 0x12, 0x41, 0x01, 0x00,
  0x00, 0x00, 0xdd, 0xea, 0xd1, 0xc0, 0x0d, 0x00, 0x00, 0x00, 0x64, 0x65, 0x70,
  0x74, 0x68, 0x77, 0x69, 0x73, 0x65, 0x5f, 0x33, 0x34, 0x31, 0x00, 0x00, 0x00,
  0x04, 0x00, 0x00, 0x00, 0x01, 0x00, 0x00, 0x00, 0x3e, 0x04, 0x00, 0x00, 0x86,
  0x07, 0x00, 0x00, 0x05, 0x00, 0x00, 0x00, 0xca, 0x90, 0xff, 0xff, 0x14, 0x00,
  0x00, 0x00, 0x4c, 0x00, 0x00, 0x00, 0x89, 0x00, 0x00, 0x00, 0x00, 0x00, 0x00,
  0x07, 0x78, 0x00, 0x00, 0x00, 0xbc, 0x90, 0xff, 0xff, 0x10, 0x00, 0x00, 0x00,
  0x1c, 0x00, 0x00, 0x00, 0x20, 0x00, 0x00, 0x00, 0x24, 0x00, 0x00, 0x00, 0x01,
  0x00, 0x00, 0x00, 0x00, 0x00, 0x00, 0x00, 0x00, 0x00, 0x00, 0x00, 0x00, 0x00,
  0x00, 0x00, 0x01, 0x00, 0x00, 0x00, 0xbc, 0xd6, 0x9e, 0x39, 0x01, 0x00, 0x00,
  0x00, 0x7e, 0xd5, 0x1e, 0x41, 0x01, 0x00, 0x00, 0x00, 0x00, 0x00, 0x00, 0x00,
  0x33, 0x00, 0x00, 0x00, 0x52, 0x65, 0x6c, 0x75, 0x5f, 0x35, 0x3b, 0x42, 0x69,
  0x61, 0x73, 0x41, 0x64, 0x64, 0x5f, 0x31, 0x36, 0x3b, 0x64, 0x65, 0x70, 0x74,
  0x68, 0x77, 0x69, 0x73, 0x65, 0x5f, 0x33, 0x37, 0x3b, 0x43, 0x6f, 0x6e, 0x76,
  0x32, 0x44, 0x5f, 0x31, 0x36, 0x3b, 0x63, 0x6f, 0x6e, 0x76, 0x5f, 0x36, 0x5f,
  0x30, 0x5f, 0x62, 0x00, 0x04, 0x00, 0x00, 0x00, 0x01, 0x00, 0x00, 0x00, 0x3e,
  0x04, 0x00, 0x00, 0x86, 0x07, 0x00, 0x00, 0x05, 0x00, 0x00, 0x00, 0x6a, 0x91,
  0xff, 0xff, 0x14, 0x00, 0x00, 0x00, 0x48, 0x00, 0x00, 0x00, 0x88, 0x00, 0x00,
  0x00, 0x00, 0x00, 0x00, 0x07, 0x50, 0x00, 0x00, 0x00, 0x5c, 0x91, 0xff, 0xff,
  0x10, 0x00, 0x00, 0x00, 0x18, 0x00, 0x00, 0x00, 0x1c, 0x00, 0x00, 0x00, 0x20,
  0x00, 0x00, 0x00, 0x01, 0x00, 0x00, 0x00, 0x00, 0x00, 0x00, 0x00, 0x00, 0x00,
  0x00, 0x00, 0x01, 0x00, 0x00, 0x00, 0xfc, 0x94, 0xd7, 0x39, 0x01, 0x00, 0x00,
  0x00, 0x4d, 0x93, 0x57, 0x41, 0x01, 0x00, 0x00, 0x00, 0x81, 0x51, 0x33, 0xc1,
  0x0d, 0x00, 0x00, 0x00, 0x64, 0x65, 0x70, 0x74, 0x68, 0x77, 0x69, 0x73, 0x65,
  0x5f, 0x33, 0x33, 0x31, 0x00, 0x00, 0x00, 0x04, 0x00, 0x00, 0x00, 0x01, 0x00,
  0x00, 0x00, 0x3e, 0x04, 0x00, 0x00, 0x86, 0x07, 0x00, 0x00, 0x05, 0x00, 0x00,
  0x00, 0xe2, 0x91, 0xff, 0xff, 0x14, 0x00, 0x00, 0x00, 0x48, 0x00, 0x00, 0x00,
  0x87, 0x00, 0x00, 0x00, 0x00, 0x00, 0x00, 0x07, 0x50, 0x00, 0x00, 0x00, 0xd4,
  0x91, 0xff, 0xff, 0x10, 0x00, 0x00, 0x00, 0x18, 0x00, 0x00, 0x00, 0x1c, 0x00,
  0x00, 0x00, 0x20, 0x00, 0x00, 0x00, 0x01, 0x00, 0x00, 0x00, 0x00, 0x00, 0x00,
  0x00, 0x00, 0x00, 0x00, 0x00, 0x01, 0x00, 0x00, 0x00, 0x66, 0x77, 0xf5, 0x39,
  0x01, 0x00, 0x00, 0x00, 0x7b, 0x75, 0x75, 0x41, 0x01, 0x00, 0x00, 0x00, 0x4f,
  0x3b, 0x6d, 0xc1, 0x0d, 0x00, 0x00, 0x00, 0x64, 0x65, 0x70, 0x74, 0x68, 0x77,
  0x69, 0x73, 0x65, 0x5f, 0x33, 0x32, 0x31, 0x00, 0x00, 0x00, 0x04, 0x00, 0x00,
  0x00, 0x01, 0x00, 0x00, 0x00, 0x3e, 0x04, 0x00, 0x00, 0x86, 0x07, 0x00, 0x00,
  0x05, 0x00, 0x00, 0x00, 0x5a, 0x92, 0xff, 0xff, 0x14, 0x00, 0x00, 0x00, 0x48,
  0x00, 0x00, 0x00, 0x86, 0x00, 0x00, 0x00, 0x00, 0x00, 0x00, 0x07, 0x48, 0x00,
  0x00, 0x00, 0x4c, 0x92, 0xff, 0xff, 0x10, 0x00, 0x00, 0x00, 0x18, 0x00, 0x00,
  0x00, 0x1c, 0x00, 0x00, 0x00, 0x20, 0x00, 0x00, 0x00, 0x01, 0x00, 0x00, 0x00,
  0x00, 0x00, 0x00, 0x00, 0x00, 0x00, 0x00, 0x00, 0x01, 0x00, 0x00, 0x00, 0x23,
  0x19, 0x2e, 0x3a, 0x01, 0x00, 0x00, 0x00, 0xf1, 0xd1, 0x86, 0x41, 0x01, 0x00,
  0x00, 0x00, 0xc7, 0x17, 0xae, 0xc1, 0x05, 0x00, 0x00, 0x00, 0x41, 0x64, 0x64,
  0x5f, 0x34, 0x00, 0x00, 0x00, 0x04, 0x00, 0x00, 0x00, 0x01, 0x00, 0x00, 0x00,
  0x3e, 0x04, 0x00, 0x00, 0x86, 0x07, 0x00, 0x00, 0x05, 0x00, 0x00, 0x00, 0xca,
  0x92, 0xff, 0xff, 0x14, 0x00, 0x00, 0x00, 0x48, 0x00, 0x00, 0x00, 0x85, 0x00,
  0x00, 0x00, 0x00, 0x00, 0x00, 0x07, 0x70, 0x00, 0x00, 0x00, 0xbc, 0x92, 0xff,
  0xff, 0x10, 0x00, 0x00, 0x00, 0x18, 0x00, 0x00, 0x00, 0x1c, 0x00, 0x00, 0x00,
  0x20, 0x00, 0x00, 0x00, 0x01, 0x00, 0x00, 0x00, 0x00, 0x00, 0x00, 0x00, 0x00,
  0x00, 0x00, 0x00, 0x01, 0x00, 0x00, 0x00, 0xe0, 0x62, 0xc7, 0x39, 0x01, 0x00,
  0x00, 0x00, 0xb4, 0xfa, 0x0b, 0x41, 0x01, 0x00, 0x00, 0x00, 0x51, 0x61, 0x47,
  0xc1, 0x2d, 0x00, 0x00, 0x00, 0x42, 0x69, 0x61, 0x73, 0x41, 0x64, 0x64, 0x5f,
  0x31, 0x35, 0x3b, 0x64, 0x65, 0x70, 0x74, 0x68, 0x77, 0x69, 0x73, 0x65, 0x5f,
  0x33, 0x37, 0x3b, 0x43, 0x6f, 0x6e, 0x76, 0x32, 0x44, 0x5f, 0x31, 0x35, 0x3b,
  0x63, 0x6f, 0x6e, 0x76, 0x5f, 0x35, 0x5f, 0x31, 0x5f, 0x62, 0x31, 0x00, 0x00,
  0x00, 0x04, 0x00, 0x00, 0x00, 0x01, 0x00, 0x00, 0x00, 0x3e, 0x04, 0x00, 0x00,
  0x86, 0x07, 0x00, 0x00, 0x05, 0x00, 0x00, 0x00, 0x62, 0x93, 0xff, 0xff, 0x14,
  0x00, 0x00, 0x00, 0x48, 0x00, 0x00, 0x00, 0x84, 0x00, 0x00, 0x00, 0x00, 0x00,
  0x00, 0x07, 0x50, 0x00, 0x00, 0x00, 0x54, 0x93, 0xff, 0xff, 0x10, 0x00, 0x00,
  0x00, 0x18, 0x00, 0x00, 0x00, 0x1c, 0x00, 0x00, 0x00, 0x20, 0x00, 0x00, 0x00,
  0x01, 0x00, 0x00, 0x00, 0x00, 0x00, 0x00, 0x00, 0x00, 0x00, 0x00, 0x00, 0x01,
  0x00, 0x00, 0x00, 0x25, 0x18, 0x24, 0x3a, 0x01, 0x00, 0x00, 0x00, 0x7b, 0xd8,
  0x9d, 0x41, 0x01, 0x00, 0x00, 0x00, 0xdd, 0x16, 0xa4, 0xc1, 0x0d, 0x00, 0x00,
  0x00, 0x64, 0x65, 0x70, 0x74, 0x68, 0x77, 0x69, 0x73, 0x65, 0x5f, 0x33, 0x31,
  0x32, 0x00, 0x00, 0x00, 0x04, 0x00, 0x00, 0x00, 0x01, 0x00, 0x00, 0x00, 0x3e,
  0x04, 0x00, 0x00, 0x86, 0x07, 0x00, 0x00, 0x07, 0x00, 0x00, 0x00, 0xda, 0x93,
  0xff, 0xff, 0x14, 0x00, 0x00, 0x00, 0x48, 0x00, 0x00, 0x00, 0x83, 0x00, 0x00,
  0x00, 0x00, 0x00, 0x00, 0x07, 0x50, 0x00, 0x00, 0x00, 0xcc, 0x93, 0xff, 0xff,
  0x10, 0x00, 0x00, 0x00, 0x18, 0x00, 0x00, 0x00, 0x1c, 0x00, 0x00, 0x00, 0x20,
  0x00, 0x00, 0x00, 0x01, 0x00, 0x00, 0x00, 0x00, 0x00, 0x00, 0x00, 0x00, 0x00,
  0x00, 0x00, 0x01, 0x00, 0x00, 0x00, 0x0c, 0xdb, 0xa0, 0x3a, 0x01, 0x00, 0x00,
  0x00, 0xca, 0xd9, 0x20, 0x42, 0x01, 0x00, 0x00, 0x00, 0xd4, 0x59, 0x18, 0xc2,
  0x0d, 0x00, 0x00, 0x00, 0x64, 0x65, 0x70, 0x74, 0x68, 0x77, 0x69, 0x73, 0x65,
  0x5f, 0x33, 0x30, 0x31, 0x00, 0x00, 0x00, 0x04, 0x00, 0x00, 0x00, 0x01, 0x00,
  0x00, 0x00, 0x3e, 0x04, 0x00, 0x00, 0x86, 0x07, 0x00, 0x00, 0x07, 0x00, 0x00,
  0x00, 0x52, 0x94, 0xff, 0xff, 0x14, 0x00, 0x00, 0x00, 0x48, 0x00, 0x00, 0x00,
  0x82, 0x00, 0x00, 0x00, 0x00, 0x00, 0x00, 0x07, 0x70, 0x00, 0x00, 0x00, 0x44,
  0x94, 0xff, 0xff, 0x10, 0x00, 0x00, 0x00, 0x18, 0x00, 0x00, 0x00, 0x1c, 0x00,
  0x00, 0x00, 0x20, 0x00, 0x00, 0x00, 0x01, 0x00, 0x00, 0x00, 0x00, 0x00, 0x00,
  0x00, 0x00, 0x00, 0x00, 0x00, 0x01, 0x00, 0x00, 0x00, 0xf5, 0xb7, 0x3a, 0x3a,
  0x01, 0x00, 0x00, 0x00, 0xcf, 0x7d, 0x90, 0x41, 0x01, 0x00, 0x00, 0x00, 0x80,
  0xb6, 0xba, 0xc1, 0x2c, 0x00, 0x00, 0x00, 0x42, 0x69, 0x61, 0x73, 0x41, 0x64,
  0x64, 0x5f, 0x31, 0x34, 0x3b, 0x64, 0x65, 0x70, 0x74, 0x68, 0x77, 0x69, 0x73,
  0x65, 0x5f, 0x33, 0x37, 0x3b, 0x43, 0x6f, 0x6e, 0x76, 0x32, 0x44, 0x5f, 0x31,
  0x34, 0x3b, 0x63, 0x6f, 0x6e, 0x76, 0x5f, 0x35, 0x5f, 0x31, 0x5f, 0x62, 0x00,
  0x00, 0x00, 0x00, 0x04, 0x00, 0x00, 0x00, 0x01, 0x00, 0x00, 0x00, 0x3e, 0x04,
  0x00, 0x00, 0x86, 0x07, 0x00, 0x00, 0x05, 0x00, 0x00, 0x00, 0xea, 0x94, 0xff,
  0xff, 0x14, 0x00, 0x00, 0x00, 0x48, 0x00, 0x00, 0x00, 0x81, 0x00, 0x00, 0x00,
  0x00, 0x00, 0x00, 0x07, 0x50, 0x00, 0x00, 0x00, 0xdc, 0x94, 0xff, 0xff, 0x10,
  0x00, 0x00, 0x00, 0x18, 0x00, 0x00, 0x00, 0x1c, 0x00, 0x00, 0x00, 0x20, 0x00,
  0x00, 0x00, 0x01, 0x00, 0x00, 0x00, 0x00, 0x00, 0x00, 0x00, 0x00, 0x00, 0x00,
  0x00, 0x01, 0x00, 0x00, 0x00, 0xed, 0x9a, 0x27, 0x3a, 0x01, 0x00, 0x00, 0x00,
  0x9e, 0x99, 0xa7, 0x41, 0x01, 0x00, 0x00, 0x00, 0x39, 0xbd, 0x67, 0xc1, 0x0d,
  0x00, 0x00, 0x00, 0x64, 0x65, 0x70, 0x74, 0x68, 0x77, 0x69, 0x73, 0x65, 0x5f,
  0x32, 0x39, 0x31, 0x00, 0x00, 0x00, 0x04, 0x00, 0x00, 0x00, 0x01, 0x00, 0x00,
  0x00, 0x3e, 0x04, 0x00, 0x00, 0x86, 0x07, 0x00, 0x00, 0x05, 0x00, 0x00, 0x00,
  0x62, 0x95, 0xff, 0xff, 0x14, 0x00, 0x00, 0x00, 0x48, 0x00, 0x00, 0x00, 0x80,
  0x00, 0x00, 0x00, 0x00, 0x00, 0x00, 0x07, 0x50, 0x00, 0x00, 0x00, 0x54, 0x95,
  0xff, 0xff, 0x10, 0x00, 0x00, 0x00, 0x18, 0x00, 0x00, 0x00, 0x1c, 0x00, 0x00,
  0x00, 0x20, 0x00, 0x00, 0x00, 0x01, 0x00, 0x00, 0x00, 0x00, 0x00, 0x00, 0x00,
  0x00, 0x00, 0x00, 0x00, 0x01, 0x00, 0x00, 0x00, 0x49, 0xac, 0xa2, 0x3a, 0x01,
  0x00, 0x00, 0x00, 0x04, 0xab, 0x22, 0x42, 0x01, 0x00, 0x00, 0x00, 0xc9, 0x3f,
  0xa3, 0xc1, 0x0d, 0x00, 0x00, 0x00, 0x64, 0x65, 0x70, 0x74, 0x68, 0x77, 0x69,
  0x73, 0x65, 0x5f, 0x32, 0x38, 0x31, 0x00, 0x00, 0x00, 0x04, 0x00, 0x00, 0x00,
  0x01, 0x00, 0x00, 0x00, 0x3e, 0x04, 0x00, 0x00, 0x86, 0x07, 0x00, 0x00, 0x05,
  0x00, 0x00, 0x00, 0xda, 0x95, 0xff, 0xff, 0x14, 0x00, 0x00, 0x00, 0x4c, 0x00,
  0x00, 0x00, 0x7f, 0x00, 0x00, 0x00, 0x00, 0x00, 0x00, 0x07, 0x78, 0x00, 0x00,
  0x00, 0xcc, 0x95, 0xff, 0xff, 0x10, 0x00, 0x00, 0x00, 0x1c, 0x00, 0x00, 0x00,
  0x20, 0x00, 0x00, 0x00, 0x24, 0x00, 0x00, 0x00, 0x01, 0x00, 0x00, 0x00, 0x00,
  0x00, 0x00, 0x00, 0x00, 0x00, 0x00, 0x00, 0x00, 0x00, 0x00, 0x00, 0x01, 0x00,
  0x00, 0x00, 0x15, 0xbb, 0xdd, 0x3a, 0x01, 0x00, 0x00, 0x00, 0x5a, 0xb9, 0x5d,
  0x42, 0x01, 0x00, 0x00, 0x00, 0x00, 0x00, 0x00, 0x00, 0x33, 0x00, 0x00, 0x00,
  0x52, 0x65, 0x6c, 0x75, 0x5f, 0x34, 0x3b, 0x42, 0x69, 0x61, 0x73, 0x41, 0x64,
  0x64, 0x5f, 0x31, 0x33, 0x3b, 0x64, 0x65, 0x70, 0x74, 0x68, 0x77, 0x69, 0x73,
  0x65, 0x5f, 0x33, 0x37, 0x3b, 0x43, 0x6f, 0x6e, 0x76, 0x32, 0x44, 0x5f, 0x31,
  0x33, 0x3b, 0x63, 0x6f, 0x6e, 0x76, 0x5f, 0x35, 0x5f, 0x30, 0x5f, 0x62, 0x00,
  0x04, 0x00, 0x00, 0x00, 0x01, 0x00, 0x00, 0x00, 0x3e, 0x04, 0x00, 0x00, 0x86,
  0x07, 0x00, 0x00, 0x05, 0x00, 0x00, 0x00, 0x7a, 0x96, 0xff, 0xff, 0x14, 0x00,
  0x00, 0x00, 0x48, 0x00, 0x00, 0x00, 0x7e, 0x00, 0x00, 0x00, 0x00, 0x00, 0x00,
  0x07, 0x50, 0x00, 0x00, 0x00, 0x6c, 0x96, 0xff, 0xff, 0x10, 0x00, 0x00, 0x00,
  0x18, 0x00, 0x00, 0x00, 0x1c, 0x00, 0x00, 0x00, 0x20, 0x00, 0x00, 0x00, 0x01,
  0x00, 0x00, 0x00, 0x00, 0x00, 0x00, 0x00, 0x00, 0x00, 0x00, 0x00, 0x01, 0x00,
  0x00, 0x00, 0x05, 0xa6, 0xab, 0x3a, 0x01, 0x00, 0x00, 0x00, 0x3f, 0x3d, 0x01,
  0x42, 0x01, 0x00, 0x00, 0x00, 0xae, 0xa4, 0x2b, 0xc2, 0x0d, 0x00, 0x00, 0x00,
  0x64, 0x65, 0x70, 0x74, 0x68, 0x77, 0x69, 0x73, 0x65, 0x5f, 0x32, 0x37, 0x31,
  0x00, 0x00, 0x00, 0x04, 0x00, 0x00, 0x00, 0x01, 0x00, 0x00, 0x00, 0x3e, 0x04,
  0x00, 0x00, 0x86, 0x07, 0x00, 0x00, 0x07, 0x00, 0x00, 0x00, 0xf2, 0x96, 0xff,
  0xff, 0x14, 0x00, 0x00, 0x00, 0x48, 0x00, 0x00, 0x00, 0x7d, 0x00, 0x00, 0x00,
  0x00, 0x00, 0x00, 0x07, 0x50, 0x00, 0x00, 0x00, 0xe4, 0x96, 0xff, 0xff, 0x10,
  0x00, 0x00, 0x00, 0x18, 0x00, 0x00, 0x00, 0x1c, 0x00, 0x00, 0x00, 0x20, 0x00,
  0x00, 0x00, 0x01, 0x00, 0x00, 0x00, 0x00, 0x00, 0x00, 0x00, 0x00, 0x00, 0x00,
  0x00, 0x01, 0x00, 0x00, 0x00, 0xd0, 0xa1, 0xb7, 0x3a, 0x01, 0x00, 0x00, 0x00,
  0x61, 0xa0, 0x37, 0x42, 0x01, 0x00, 0x00, 0x00, 0x98, 0x2c, 0x1c, 0xc2, 0x0d,
  0x00, 0x00, 0x00, 0x64, 0x65, 0x70, 0x74, 0x68, 0x77, 0x69, 0x73, 0x65, 0x5f,
  0x32, 0x36, 0x31, 0x00, 0x00, 0x00, 0x04, 0x00, 0x00, 0x00, 0x01, 0x00, 0x00,
  0x00, 0x3e, 0x04, 0x00, 0x00, 0x86, 0x07, 0x00, 0x00, 0x07, 0x00, 0x00, 0x00,
  0x6a, 0x97, 0xff, 0xff, 0x14, 0x00, 0x00, 0x00, 0x48, 0x00, 0x00, 0x00, 0x7c,
  0x00, 0x00, 0x00, 0x00, 0x00, 0x00, 0x07, 0x48, 0x00, 0x00, 0x00, 0x5c, 0x97,
  0xff, 0xff, 0x10, 0x00, 0x00, 0x00, 0x18, 0x00, 0x00, 0x00, 0x1c, 0x00, 0x00,
  0x00, 0x20, 0x00, 0x00, 0x00, 0x01, 0x00, 0x00, 0x00, 0x00, 0x00, 0x00, 0x00,
  0x00, 0x00, 0x00, 0x00, 0x01, 0x00, 0x00, 0x00, 0x2a, 0x0b, 0x28, 0x3b, 0x01,
  0x00, 0x00, 0x00, 0xda, 0x09, 0xa8, 0x42, 0x01, 0x00, 0x00, 0x00, 0xbe, 0x8c,
  0xa7, 0xc2, 0x05, 0x00, 0x00, 0x00, 0x41, 0x64, 0x64, 0x5f, 0x33, 0x00, 0x00,
  0x00, 0x04, 0x00, 0x00, 0x00, 0x01, 0x00, 0x00, 0x00, 0x3e, 0x04, 0x00, 0x00,
  0x86, 0x07, 0x00, 0x00, 0x07, 0x00, 0x00, 0x00, 0xda, 0x97, 0xff, 0xff, 0x14,
  0x00, 0x00, 0x00, 0x48, 0x00, 0x00, 0x00, 0x7b, 0x00, 0x00, 0x00, 0x00, 0x00,
  0x00, 0x07, 0x70, 0x00, 0x00, 0x00, 0xcc, 0x97, 0xff, 0xff, 0x10, 0x00, 0x00,
  0x00, 0x18, 0x00, 0x00, 0x00, 0x1c, 0x00, 0x00, 0x00, 0x20, 0x00, 0x00, 0x00,
  0x01, 0x00, 0x00, 0x00, 0x00, 0x00, 0x00, 0x00, 0x00, 0x00, 0x00, 0x00, 0x01,
  0x00, 0x00, 0x00, 0x0e, 0x91, 0x1d, 0x3b, 0x01, 0x00, 0x00, 0x00, 0x96, 0x3c,
  0x9c, 0x42, 0x01, 0x00, 0x00, 0x00, 0xd3, 0x8f, 0x9d, 0xc2, 0x2d, 0x00, 0x00,
  0x00, 0x42, 0x69, 0x61, 0x73, 0x41, 0x64, 0x64, 0x5f, 0x31, 0x32, 0x3b, 0x64,
  0x65, 0x70, 0x74, 0x68, 0x77, 0x69, 0x73, 0x65, 0x5f, 0x33, 0x31, 0x3b, 0x43,
  0x6f, 0x6e, 0x76, 0x32, 0x44, 0x5f, 0x31, 0x32, 0x3b, 0x63, 0x6f, 0x6e, 0x76,
  0x5f, 0x34, 0x5f, 0x31, 0x5f, 0x62, 0x31, 0x00, 0x00, 0x00, 0x04, 0x00, 0x00,
  0x00, 0x01, 0x00, 0x00, 0x00, 0x3e, 0x04, 0x00, 0x00, 0x86, 0x07, 0x00, 0x00,
  0x07, 0x00, 0x00, 0x00, 0x72, 0x98, 0xff, 0xff, 0x14, 0x00, 0x00, 0x00, 0x48,
  0x00, 0x00, 0x00, 0x7a, 0x00, 0x00, 0x00, 0x00, 0x00, 0x00, 0x07, 0x50, 0x00,
  0x00, 0x00, 0x64, 0x98, 0xff, 0xff, 0x10, 0x00, 0x00, 0x00, 0x18, 0x00, 0x00,
  0x00, 0x1c, 0x00, 0x00, 0x00, 0x20, 0x00, 0x00, 0x00, 0x01, 0x00, 0x00, 0x00,
  0x00, 0x00, 0x00, 0x00, 0x00, 0x00, 0x00, 0x00, 0x01, 0x00, 0x00, 0x00, 0x3d,
  0x79, 0x2c, 0x3b, 0x01, 0x00, 0x00, 0x00, 0xe4, 0x77, 0xac, 0x42, 0x01, 0x00,
  0x00, 0x00, 0x7a, 0x17, 0x93, 0xc2, 0x0d, 0x00, 0x00, 0x00, 0x64, 0x65, 0x70,
  0x74, 0x68, 0x77, 0x69, 0x73, 0x65, 0x5f, 0x32, 0x35, 0x32, 0x00, 0x00, 0x00,
  0x04, 0x00, 0x00, 0x00, 0x01, 0x00, 0x00, 0x00, 0x3e, 0x04, 0x00, 0x00, 0x86,
  0x07, 0x00, 0x00, 0x09, 0x00, 0x00, 0x00, 0xea, 0x98, 0xff, 0xff, 0x14, 0x00,
  0x00, 0x00, 0x48, 0x00, 0x00, 0x00, 0x79, 0x00, 0x00, 0x00, 0x00, 0x00, 0x00,
  0x07, 0x50, 0x00, 0x00, 0x00, 0xdc, 0x98, 0xff, 0xff, 0x10, 0x00, 0x00, 0x00,
  0x18, 0x00, 0x00, 0x00, 0x1c, 0x00, 0x00, 0x00, 0x20, 0x00, 0x00, 0x00, 0x01,
  0x00, 0x00, 0x00, 0x00, 0x00, 0x00, 0x00, 0x00, 0x00, 0x00, 0x00, 0x01, 0x00,
  0x00, 0x00, 0x01, 0x6c, 0x80, 0x3b, 0x01, 0x00, 0x00, 0x00, 0x70, 0xc2, 0xc0,
  0x42, 0x01, 0x00, 0x00, 0x00, 0x00, 0x6b, 0x00, 0xc3, 0x0d, 0x00, 0x00, 0x00,
  0x64, 0x65, 0x70, 0x74, 0x68, 0x77, 0x69, 0x73, 0x65, 0x5f, 0x32, 0x34, 0x31,
  0x00, 0x00, 0x00, 0x04, 0x00, 0x00, 0x00, 0x01, 0x00, 0x00, 0x00, 0x3e, 0x04,
  0x00, 0x00, 0x86, 0x07, 0x00, 0x00, 0x09, 0x00, 0x00, 0x00, 0x62, 0x99, 0xff,
  0xff, 0x14, 0x00, 0x00, 0x00, 0x48, 0x00, 0x00, 0x00, 0x78, 0x00, 0x00, 0x00,
  0x00, 0x00, 0x00, 0x07, 0x70, 0x00, 0x00, 0x00, 0x54, 0x99, 0xff, 0xff, 0x10,
  0x00, 0x00, 0x00, 0x18, 0x00, 0x00, 0x00, 0x1c, 0x00, 0x00, 0x00, 0x20, 0x00,
  0x00, 0x00, 0x01, 0x00, 0x00, 0x00, 0x00, 0x00, 0x00, 0x00, 0x00, 0x00, 0x00,
  0x00, 0x01, 0x00, 0x00, 0x00, 0xd3, 0x2d, 0x40, 0x3b, 0x01, 0x00, 0x00, 0x00,
  0x53, 0x2c, 0xc0, 0x42, 0x01, 0x00, 0x00, 0x00, 0x7b, 0x3a, 0xb2, 0xc2, 0x2c,
  0x00, 0x00, 0x00, 0x42, 0x69, 0x61, 0x73, 0x41, 0x64, 0x64, 0x5f, 0x31, 0x31,
  0x3b, 0x64, 0x65, 0x70, 0x74, 0x68, 0x77, 0x69, 0x73, 0x65, 0x5f, 0x33, 0x31,
  0x3b, 0x43, 0x6f, 0x6e, 0x76, 0x32, 0x44, 0x5f, 0x31, 0x31, 0x3b, 0x63, 0x6f,
  0x6e, 0x76, 0x5f, 0x34, 0x5f, 0x31, 0x5f, 0x62, 0x00, 0x00, 0x00, 0x00, 0x04,
  0x00, 0x00, 0x00, 0x01, 0x00, 0x00, 0x00, 0x3e, 0x04, 0x00, 0x00, 0x86, 0x07,
  0x00, 0x00, 0x07, 0x00, 0x00, 0x00, 0xfa, 0x99, 0xff, 0xff, 0x14, 0x00, 0x00,
  0x00, 0x48, 0x00, 0x00, 0x00, 0x77, 0x00, 0x00, 0x00, 0x00, 0x00, 0x00, 0x07,
  0x50, 0x00, 0x00, 0x00, 0xec, 0x99, 0xff, 0xff, 0x10, 0x00, 0x00, 0x00, 0x18,
  0x00, 0x00, 0x00, 0x1c, 0x00, 0x00, 0x00, 0x20, 0x00, 0x00, 0x00, 0x01, 0x00,
  0x00, 0x00, 0x00, 0x00, 0x00, 0x00, 0x00, 0x00, 0x00, 0x00, 0x01, 0x00, 0x00,
  0x00, 0xe8, 0x93, 0x58, 0x3b, 0x01, 0x00, 0x00, 0x00, 0x37, 0x92, 0xd8, 0x42,
  0x01, 0x00, 0x00, 0x00, 0xba, 0x34, 0x4c, 0xc2, 0x0d, 0x00, 0x00, 0x00, 0x64,
  0x65, 0x70, 0x74, 0x68, 0x77, 0x69, 0x73, 0x65, 0x5f, 0x32, 0x33, 0x31, 0x00,
  0x00, 0x00, 0x04, 0x00, 0x00, 0x00, 0x01, 0x00, 0x00, 0x00, 0x3e, 0x04, 0x00,
  0x00, 0x86, 0x07, 0x00, 0x00, 0x07, 0x00, 0x00, 0x00, 0x72, 0x9a, 0xff, 0xff,
  0x14, 0x00, 0x00, 0x00, 0x48, 0x00, 0x00, 0x00, 0x76, 0x00, 0x00, 0x00, 0x00,
  0x00, 0x00, 0x07, 0x50, 0x00, 0x00, 0x00, 0x64, 0x9a, 0xff, 0xff, 0x10, 0x00,
  0x00, 0x00, 0x18, 0x00, 0x00, 0x00, 0x1c, 0x00, 0x00, 0x00, 0x20, 0x00, 0x00,
  0x00, 0x01, 0x00, 0x00, 0x00, 0x00, 0x00, 0x00, 0x00, 0x00, 0x00, 0x00, 0x00,
  0x01, 0x00, 0x00, 0x00, 0x74, 0xcc, 0x89, 0x3b, 0x01, 0x00, 0x00, 0x00, 0x60,
  0xcb, 0x09, 0x43, 0x01, 0x00, 0x00, 0x00, 0x09, 0x5b, 0x93, 0xc2, 0x0d, 0x00,
  0x00, 0x00, 0x64, 0x65, 0x70, 0x74, 0x68, 0x77, 0x69, 0x73, 0x65, 0x5f, 0x32,
  0x32, 0x31, 0x00, 0x00, 0x00, 0x04, 0x00, 0x00, 0x00, 0x01, 0x00, 0x00, 0x00,
  0x3e, 0x04, 0x00, 0x00, 0x86, 0x07, 0x00, 0x00, 0x07, 0x00, 0x00, 0x00, 0xea,
  0x9a, 0xff, 0xff, 0x14, 0x00, 0x00, 0x00, 0x4c, 0x00, 0x00, 0x00, 0x75, 0x00,
  0x00, 0x00, 0x00, 0x00, 0x00, 0x07, 0x78, 0x00, 0x00, 0x00, 0xdc, 0x9a, 0xff,
  0xff, 0x10, 0x00, 0x00, 0x00, 0x1c, 0x00, 0x00, 0x00, 0x20, 0x00, 0x00, 0x00,
  0x24, 0x00, 0x00, 0x00, 0x01, 0x00, 0x00, 0x00, 0x00, 0x00, 0x00, 0x00, 0x00,
