const unsigned char sr4by3_3_tflite[] = {
  0x20, 0x00, 0x00, 0x00, 0x54, 0x46, 0x4c, 0x33, 0x00, 0x00, 0x00, 0x00, 0x00,
  0x00, 0x12, 0x00, 0x1c, 0x00, 0x18, 0x00, 0x14, 0x00, 0x10, 0x00, 0x0c, 0x00,
  0x08, 0x00, 0x00, 0x00, 0x04, 0x00, 0x12, 0x00, 0x00, 0x00, 0x18, 0x00, 0x00,
  0x00, 0x48, 0x00, 0x00, 0x00, 0x34, 0x1d, 0x00, 0x00, 0x44, 0x1d, 0x00, 0x00,
  0xb4, 0xa4, 0x00, 0x00, 0x03, 0x00, 0x00, 0x00, 0x01, 0x00, 0x00, 0x00, 0x0c,
  0x00, 0x00, 0x00, 0x08, 0x00, 0x0c, 0x00, 0x08, 0x00, 0x04, 0x00, 0x08, 0x00,
  0x00, 0x00, 0x91, 0x00, 0x00, 0x00, 0x04, 0x00, 0x00, 0x00, 0x13, 0x00, 0x00,
  0x00, 0x6d, 0x69, 0x6e, 0x5f, 0x72, 0x75, 0x6e, 0x74, 0x69, 0x6d, 0x65, 0x5f,
  0x76, 0x65, 0x72, 0x73, 0x69, 0x6f, 0x6e, 0x00, 0x92, 0x00, 0x00, 0x00, 0xe8,
  0x1c, 0x00, 0x00, 0xe0, 0x1c, 0x00, 0x00, 0xa8, 0x1c, 0x00, 0x00, 0x68, 0x1c,
  0x00, 0x00, 0x20, 0x1c, 0x00, 0x00, 0xc8, 0x1b, 0x00, 0x00, 0x58, 0x1b, 0x00,
  0x00, 0xd0, 0x1a, 0x00, 0x00, 0xa0, 0x1a, 0x00, 0x00, 0x88, 0x1a, 0x00, 0x00,
  0x70, 0x1a, 0x00, 0x00, 0x4c, 0x1a, 0x00, 0x00, 0xd8, 0x19, 0x00, 0x00, 0x64,
  0x19, 0x00, 0x00, 0x28, 0x18, 0x00, 0x00, 0xcc, 0x17, 0x00, 0x00, 0x70, 0x17,
  0x00, 0x00, 0x7c, 0x16, 0x00, 0x00, 0x08, 0x16, 0x00, 0x00, 0x58, 0x15, 0x00,
  0x00, 0xe4, 0x14, 0x00, 0x00, 0xa8, 0x13, 0x00, 0x00, 0x4c, 0x13, 0x00, 0x00,
  0xf0, 0x12, 0x00, 0x00, 0x2c, 0x12, 0x00, 0x00, 0xe0, 0x11, 0x00, 0x00, 0x94,
  0x11, 0x00, 0x00, 0xf4, 0x10, 0x00, 0x00, 0x98, 0x10, 0x00, 0x00, 0x10, 0x10,
  0x00, 0x00, 0xb4, 0x0f, 0x00, 0x00, 0xf0, 0x0e, 0x00, 0x00, 0xa4, 0x0e, 0x00,
  0x00, 0x58, 0x0e, 0x00, 0x00, 0xdc, 0x0d, 0x00, 0x00, 0x9c, 0x0d, 0x00, 0x00,
  0x5c, 0x0d, 0x00, 0x00, 0xf8, 0x0c, 0x00, 0x00, 0xac, 0x0c, 0x00, 0x00, 0x3c,
  0x0c, 0x00, 0x00, 0xf0, 0x0b, 0x00, 0x00, 0x74, 0x0b, 0x00, 0x00, 0x34, 0x0b,
  0x00, 0x00, 0xf4, 0x0a, 0x00, 0x00, 0xa4, 0x0a, 0x00, 0x00, 0x70, 0x0a, 0x00,
  0x00, 0x3c, 0x0a, 0x00, 0x00, 0xf8, 0x09, 0x00, 0x00, 0xb8, 0x09, 0x00, 0x00,
  0x60, 0x09, 0x00, 0x00, 0x20, 0x09, 0x00, 0x00, 0xd0, 0x08, 0x00, 0x00, 0x9c,
  0x08, 0x00, 0x00, 0x68, 0x08, 0x00, 0x00, 0x34, 0x08, 0x00, 0x00, 0x08, 0x08,
  0x00, 0x00, 0xdc, 0x07, 0x00, 0x00, 0xb0, 0x07, 0x00, 0x00, 0x7c, 0x07, 0x00,
  0x00, 0x34, 0x07, 0x00, 0x00, 0x00, 0x07, 0x00, 0x00, 0xcc, 0x06, 0x00, 0x00,
  0xa0, 0x06, 0x00, 0x00, 0x74, 0x06, 0x00, 0x00, 0x48, 0x06, 0x00, 0x00, 0x1c,
  0x06, 0x00, 0x00, 0xf0, 0x05, 0x00, 0x00, 0xc4, 0x05, 0x00, 0x00, 0x90, 0x05,
  0x00, 0x00, 0x58, 0x05, 0x00, 0x00, 0x24, 0x05, 0x00, 0x00, 0x0c, 0x05, 0x00,
  0x00, 0xf4, 0x04, 0x00, 0x00, 0x44, 0x04, 0x00, 0x00, 0xbc, 0x03, 0x00, 0x00,
  0x4c, 0x03, 0x00, 0x00, 0xf4, 0x02, 0x00, 0x00, 0xac, 0x02, 0x00, 0x00, 0x74,
  0x02, 0x00, 0x00, 0x3c, 0x02, 0x00, 0x00, 0x24, 0x02, 0x00, 0x00, 0x1c, 0x02,
  0x00, 0x00, 0x14, 0x02, 0x00, 0x00, 0x0c, 0x02, 0x00, 0x00, 0x04, 0x02, 0x00,
  0x00, 0xfc, 0x01, 0x00, 0x00, 0xf4, 0x01, 0x00, 0x00, 0xec, 0x01, 0x00, 0x00,
  0xe4, 0x01, 0x00, 0x00, 0xdc, 0x01, 0x00, 0x00, 0xd4, 0x01, 0x00, 0x00, 0xcc,
  0x01, 0x00, 0x00, 0xc4, 0x01, 0x00, 0x00, 0xbc, 0x01, 0x00, 0x00, 0xb4, 0x01,
  0x00, 0x00, 0xac, 0x01, 0x00, 0x00, 0xa4, 0x01, 0x00, 0x00, 0x9c, 0x01, 0x00,
  0x00, 0x94, 0x01, 0x00, 0x00, 0x8c, 0x01, 0x00, 0x00, 0x84, 0x01, 0x00, 0x00,
  0x7c, 0x01, 0x00, 0x00, 0x74, 0x01, 0x00, 0x00, 0x6c, 0x01, 0x00, 0x00, 0x64,
  0x01, 0x00, 0x00, 0x5c, 0x01, 0x00, 0x00, 0x54, 0x01, 0x00, 0x00, 0x4c, 0x01,
  0x00, 0x00, 0x44, 0x01, 0x00, 0x00, 0x3c, 0x01, 0x00, 0x00, 0x34, 0x01, 0x00,
  0x00, 0x2c, 0x01, 0x00, 0x00, 0x24, 0x01, 0x00, 0x00, 0x1c, 0x01, 0x00, 0x00,
  0x14, 0x01, 0x00, 0x00, 0x0c, 0x01, 0x00, 0x00, 0x04, 0x01, 0x00, 0x00, 0xfc,
  0x00, 0x00, 0x00, 0xf4, 0x00, 0x00, 0x00, 0xec, 0x00, 0x00, 0x00, 0xe4, 0x00,
  0x00, 0x00, 0xdc, 0x00, 0x00, 0x00, 0xd4, 0x00, 0x00, 0x00, 0xcc, 0x00, 0x00,
  0x00, 0xc4, 0x00, 0x00, 0x00, 0xbc, 0x00, 0x00, 0x00, 0xb4, 0x00, 0x00, 0x00,
  0xac, 0x00, 0x00, 0x00, 0xa4, 0x00, 0x00, 0x00, 0x9c, 0x00, 0x00, 0x00, 0x94,
  0x00, 0x00, 0x00, 0x8c, 0x00, 0x00, 0x00, 0x84, 0x00, 0x00, 0x00, 0x7c, 0x00,
  0x00, 0x00, 0x74, 0x00, 0x00, 0x00, 0x6c, 0x00, 0x00, 0x00, 0x64, 0x00, 0x00,
  0x00, 0x5c, 0x00, 0x00, 0x00, 0x54, 0x00, 0x00, 0x00, 0x4c, 0x00, 0x00, 0x00,
  0x44, 0x00, 0x00, 0x00, 0x3c, 0x00, 0x00, 0x00, 0x34, 0x00, 0x00, 0x00, 0x2c,
  0x00, 0x00, 0x00, 0x24, 0x00, 0x00, 0x00, 0x04, 0x00, 0x00, 0x00, 0x9e, 0xe5,
  0xff, 0xff, 0x04, 0x00, 0x00, 0x00, 0x10, 0x00, 0x00, 0x00, 0x31, 0x2e, 0x35,
  0x2e, 0x30, 0x00, 0x00, 0x00, 0x00, 0x00, 0x00, 0x00, 0x00, 0x00, 0x00, 0x00,
  0xd8, 0x62, 0xff, 0xff, 0xdc, 0x62, 0xff, 0xff, 0xe0, 0x62, 0xff, 0xff, 0xe4,
  0x62, 0xff, 0xff, 0xe8, 0x62, 0xff, 0xff, 0xec, 0x62, 0xff, 0xff, 0xf0, 0x62,
  0xff, 0xff, 0xf4, 0x62, 0xff, 0xff, 0xf8, 0x62, 0xff, 0xff, 0xfc, 0x62, 0xff,
  0xff, 0x00, 0x63, 0xff, 0xff, 0x04, 0x63, 0xff, 0xff, 0x08, 0x63, 0xff, 0xff,
  0x0c, 0x63, 0xff, 0xff, 0x10, 0x63, 0xff, 0xff, 0x14, 0x63, 0xff, 0xff, 0x18,
  0x63, 0xff, 0xff, 0x1c, 0x63, 0xff, 0xff, 0x20, 0x63, 0xff, 0xff, 0x24, 0x63,
  0xff, 0xff, 0x28, 0x63, 0xff, 0xff, 0x2c, 0x63, 0xff, 0xff, 0x30, 0x63, 0xff,
  0xff, 0x34, 0x63, 0xff, 0xff, 0x38, 0x63, 0xff, 0xff, 0x3c, 0x63, 0xff, 0xff,
  0x40, 0x63, 0xff, 0xff, 0x44, 0x63, 0xff, 0xff, 0x48, 0x63, 0xff, 0xff, 0x4c,
  0x63, 0xff, 0xff, 0x50, 0x63, 0xff, 0xff, 0x54, 0x63, 0xff, 0xff, 0x58, 0x63,
  0xff, 0xff, 0x5c, 0x63, 0xff, 0xff, 0x60, 0x63, 0xff, 0xff, 0x64, 0x63, 0xff,
  0xff, 0x68, 0x63, 0xff, 0xff, 0x6c, 0x63, 0xff, 0xff, 0x70, 0x63, 0xff, 0xff,
  0x74, 0x63, 0xff, 0xff, 0x78, 0x63, 0xff, 0xff, 0x7c, 0x63, 0xff, 0xff, 0x80,
  0x63, 0xff, 0xff, 0x84, 0x63, 0xff, 0xff, 0x88, 0x63, 0xff, 0xff, 0x8c, 0x63,
  0xff, 0xff, 0x90, 0x63, 0xff, 0xff, 0x94, 0x63, 0xff, 0xff, 0x98, 0x63, 0xff,
  0xff, 0x9c, 0x63, 0xff, 0xff, 0xa0, 0x63, 0xff, 0xff, 0xa4, 0x63, 0xff, 0xff,
  0xa8, 0x63, 0xff, 0xff, 0xac, 0x63, 0xff, 0xff, 0xb0, 0x63, 0xff, 0xff, 0xb4,
  0x63, 0xff, 0xff, 0xb8, 0x63, 0xff, 0xff, 0xbc, 0x63, 0xff, 0xff, 0xc0, 0x63,
  0xff, 0xff, 0xc4, 0x63, 0xff, 0xff, 0xc8, 0x63, 0xff, 0xff, 0xcc, 0x63, 0xff,
  0xff, 0xd0, 0x63, 0xff, 0xff, 0xd4, 0x63, 0xff, 0xff, 0xba, 0xe6, 0xff, 0xff,
  0x04, 0x00, 0x00, 0x00, 0x08, 0x00, 0x00, 0x00, 0x0f, 0x9d, 0xff, 0xff, 0xff,
  0xff, 0xff, 0xff, 0xce, 0xe6, 0xff, 0xff, 0x04, 0x00, 0x00, 0x00, 0x28, 0x00,
  0x00, 0x00, 0xbe, 0x70, 0x00, 0x00, 0x00, 0x00, 0x00, 0x00, 0x7e, 0xb9, 0xff,
  0xff, 0xff, 0xff, 0xff, 0xff, 0xff, 0x94, 0xff, 0xff, 0xff, 0xff, 0xff, 0xff,
  0x14, 0x1d, 0x00, 0x00, 0x00, 0x00, 0x00, 0x00, 0xd9, 0xc5, 0x03, 0x00, 0x00,
  0x00, 0x00, 0x00, 0x02, 0xe7, 0xff, 0xff, 0x04, 0x00, 0x00, 0x00, 0x28, 0x00,
  0x00, 0x00, 0xd2, 0xb7, 0xff, 0xff, 0xff, 0xff, 0xff, 0xff, 0x65, 0xa0, 0xff,
  0xff, 0xff, 0xff, 0xff, 0xff, 0xe3, 0x9d, 0xff, 0xff, 0xff, 0xff, 0xff, 0xff,
  0x20, 0xf1, 0x00, 0x00, 0x00, 0x00, 0x00, 0x00, 0xcd, 0x70, 0xff, 0xff, 0xff,
  0xff, 0xff, 0xff, 0x36, 0xe7, 0xff, 0xff, 0x04, 0x00, 0x00, 0x00, 0x38, 0x00,
  0x00, 0x00, 0x14, 0x03, 0x00, 0x00, 0x00, 0x00, 0x00, 0x00, 0x88, 0xf8, 0xff,
  0xff, 0xff, 0xff, 0xff, 0xff, 0x2f, 0xfc, 0xff, 0xff, 0xff, 0xff, 0xff, 0xff,
  0x1c, 0x13, 0x00, 0x00, 0x00, 0x00, 0x00, 0x00, 0xf0, 0x16, 0x00, 0x00, 0x00,
  0x00, 0x00, 0x00, 0x49, 0x5c, 0x00, 0x00, 0x00, 0x00, 0x00, 0x00, 0x85, 0x99,
  0x00, 0x00, 0x00, 0x00, 0x00, 0x00, 0x7a, 0xe7, 0xff, 0xff, 0x04, 0x00, 0x00,
  0x00, 0x48, 0x00, 0x00, 0x00, 0xaf, 0x04, 0x00, 0x00, 0x00, 0x00, 0x00, 0x00,
  0xe6, 0x4a, 0x00, 0x00, 0x00, 0x00, 0x00, 0x00, 0xea, 0xf5, 0xff, 0xff, 0xff,
  0xff, 0xff, 0xff, 0x81, 0x09, 0x00, 0x00, 0x00, 0x00, 0x00, 0x00, 0x06, 0x12,
  0x00, 0x00, 0x00, 0x00, 0x00, 0x00, 0x69, 0x3b, 0x00, 0x00, 0x00, 0x00, 0x00,
  0x00, 0x5e, 0xf5, 0xff, 0xff, 0xff, 0xff, 0xff, 0xff, 0x1f, 0xff, 0xff, 0xff,
  0xff, 0xff, 0xff, 0xff, 0x99, 0xfa, 0xff, 0xff, 0xff, 0xff, 0xff, 0xff, 0xce,
  0xe7, 0xff, 0xff, 0x04, 0x00, 0x00, 0x00, 0x60, 0x00, 0x00, 0x00, 0x82, 0xc1,
  0xff, 0xff, 0xff, 0xff, 0xff, 0xff, 0x2c, 0x0a, 0x00, 0x00, 0x00, 0x00, 0x00,
  0x00, 0x00, 0x3b, 0x00, 0x00, 0x00, 0x00, 0x00, 0x00, 0x3c, 0xec, 0xff, 0xff,
  0xff, 0xff, 0xff, 0xff, 0xce, 0x46, 0x00, 0x00, 0x00, 0x00, 0x00, 0x00, 0xeb,
  0xff, 0xff, 0xff, 0xff, 0xff, 0xff, 0xff, 0xf8, 0x81, 0xff, 0xff, 0xff, 0xff,
  0xff, 0xff, 0x8f, 0x3a, 0x00, 0x00, 0x00, 0x00, 0x00, 0x00, 0x29, 0xd9, 0xff,
  0xff, 0xff, 0xff, 0xff, 0xff, 0x39, 0xfe, 0xff, 0xff, 0xff, 0xff, 0xff, 0xff,
  0x23, 0x10, 0x00, 0x00, 0x00, 0x00, 0x00, 0x00, 0x64, 0xdd, 0xff, 0xff, 0xff,
  0xff, 0xff, 0xff, 0x3a, 0xe8, 0xff, 0xff, 0x04, 0x00, 0x00, 0x00, 0x78, 0x00,
  0x00, 0x00, 0x87, 0x05, 0x00, 0x00, 0x00, 0x00, 0x00, 0x00, 0x77, 0xeb, 0xff,
  0xff, 0xff, 0xff, 0xff, 0xff, 0x8d, 0xef, 0xff, 0xff, 0xff, 0xff, 0xff, 0xff,
  0x59, 0xf5, 0xff, 0xff, 0xff, 0xff, 0xff, 0xff, 0x72, 0xf5, 0xff, 0xff, 0xff,
  0xff, 0xff, 0xff, 0x11, 0x0e, 0x00, 0x00, 0x00, 0x00, 0x00, 0x00, 0x79, 0xf1,
  0xff, 0xff, 0xff, 0xff, 0xff, 0xff, 0x33, 0x09, 0x00, 0x00, 0x00, 0x00, 0x00,
  0x00, 0xea, 0xfe, 0xff, 0xff, 0xff, 0xff, 0xff, 0xff, 0x63, 0xfa, 0xff, 0xff,
  0xff, 0xff, 0xff, 0xff, 0x7c, 0x06, 0x00, 0x00, 0x00, 0x00, 0x00, 0x00, 0x49,
  0x04, 0x00, 0x00, 0x00, 0x00, 0x00, 0x00, 0xab, 0x1e, 0x00, 0x00, 0x00, 0x00,
  0x00, 0x00, 0x79, 0xf9, 0xff, 0xff, 0xff, 0xff, 0xff, 0xff, 0xfa, 0x21, 0x00,
  0x00, 0x00, 0x00, 0x00, 0x00, 0xbe, 0xe8, 0xff, 0xff, 0x04, 0x00, 0x00, 0x00,
  0xa0, 0x00, 0x00, 0x00, 0x9b, 0x81, 0xd5, 0xff, 0xff, 0xff, 0xff, 0xff, 0xb1,
  0x9d, 0x06, 0x00, 0x00, 0x00, 0x00, 0x00, 0xb0, 0xf3, 0xff, 0xff, 0xff, 0xff,
  0xff, 0xff, 0x8b, 0xb0, 0xfe, 0xff, 0xff, 0xff, 0xff, 0xff, 0x63, 0x64, 0xfa,
  0xff, 0xff, 0xff, 0xff, 0xff, 0x4b, 0x3e, 0x53, 0x00, 0x00, 0x00, 0x00, 0x00,
  0xe1, 0x21, 0x00, 0x00, 0x00, 0x00, 0x00, 0x00, 0x7c, 0x42, 0x00, 0x00, 0x00,
  0x00, 0x00, 0x00, 0xf4, 0x1f, 0xfe, 0xff, 0xff, 0xff, 0xff, 0xff, 0x34, 0xbe,
  0xff, 0xff, 0xff, 0xff, 0xff, 0xff, 0xf3, 0x4c, 0x00, 0x00, 0x00, 0x00, 0x00,
  0x00, 0xe9, 0xa1, 0xfe, 0xff, 0xff, 0xff, 0xff, 0xff, 0x87, 0xd9, 0xff, 0xff,
  0xff, 0xff, 0xff, 0xff, 0xae, 0x44, 0xfe, 0xff, 0xff, 0xff, 0xff, 0xff, 0x05,
  0xe1, 0xfe, 0xff, 0xff, 0xff, 0xff, 0xff, 0x72, 0xa6, 0x00, 0x00, 0x00, 0x00,
  0x00, 0x00, 0xdc, 0x36, 0x00, 0x00, 0x00, 0x00, 0x00, 0x00, 0xee, 0xcb, 0xff,
  0xff, 0xff, 0xff, 0xff, 0xff, 0xf6, 0x9b, 0x01, 0x00, 0x00, 0x00, 0x00, 0x00,
  0x29, 0x65, 0x00, 0x00, 0x00, 0x00, 0x00, 0x00, 0x6a, 0xe9, 0xff, 0xff, 0x04,
  0x00, 0x00, 0x00, 0x05, 0x00, 0x00, 0x00, 0xab, 0x34, 0x7b, 0x81, 0xaf, 0x00,
  0x00, 0x00, 0x7e, 0xe9, 0xff, 0xff, 0x04, 0x00, 0x00, 0x00, 0x08, 0x00, 0x00,
  0x00, 0x00, 0x00, 0x00, 0x00, 0x00, 0x00, 0x00, 0x00, 0x92, 0xe9, 0xff, 0xff,
  0x04, 0x00, 0x00, 0x00, 0x23, 0x00, 0x00, 0x00, 0x06, 0x0b, 0x02, 0x10, 0xea,
  0xdf, 0x1d, 0x3f, 0x0a, 0x28, 0xed, 0x7f, 0x81, 0x31, 0x7f, 0x2b, 0x55, 0x12,
  0x7f, 0x4a, 0x7f, 0x3c, 0xfd, 0x13, 0x01, 0xee, 0x0a, 0xfb, 0x0a, 0x06, 0xdd,
  0x1c, 0xff, 0x03, 0x03, 0x00, 0xc2, 0xe9, 0xff, 0xff, 0x04, 0x00, 0x00, 0x00,
  0x28, 0x00, 0x00, 0x00, 0x00, 0x00, 0x00, 0x00, 0x00, 0x00, 0x00, 0x00, 0x00,
  0x00, 0x00, 0x00, 0x00, 0x00, 0x00, 0x00, 0x00, 0x00, 0x00, 0x00, 0x00, 0x00,
  0x00, 0x00, 0x00, 0x00, 0x00, 0x00, 0x00, 0x00, 0x00, 0x00, 0x00, 0x00, 0x00,
  0x00, 0x00, 0x00, 0x00, 0x00, 0xf6, 0xe9, 0xff, 0xff, 0x04, 0x00, 0x00, 0x00,
  0x23, 0x00, 0x00, 0x00, 0x0e, 0x9a, 0xf9, 0x16, 0x04, 0x29, 0xef, 0x02, 0x46,
  0x54, 0x4b, 0x39, 0x2b, 0x7f, 0x7f, 0x2a, 0x7f, 0x7f, 0x83, 0x8f, 0x7f, 0x60,
  0x23, 0x48, 0xfa, 0x32, 0xf1, 0x02, 0xf5, 0x2e, 0x12, 0xdd, 0x04, 0xf5, 0x1b,
  0x00, 0x26, 0xea, 0xff, 0xff, 0x04, 0x00, 0x00, 0x00, 0x19, 0x00, 0x00, 0x00,
  0x54, 0xb0, 0xd9, 0x7f, 0xf7, 0x81, 0xc0, 0x1e, 0xa5, 0xf3, 0xe4, 0xec, 0x18,
  0xf4, 0x81, 0x71, 0x7f, 0x93, 0xc8, 0x20, 0xd0, 0x45, 0x7f, 0x37, 0x38, 0x00,
  0x00, 0x00, 0x4e, 0xea, 0xff, 0xff, 0x04, 0x00, 0x00, 0x00, 0x19, 0x00, 0x00,
  0x00, 0xbb, 0x06, 0x7f, 0x58, 0x05, 0x81, 0xa9, 0x77, 0x7f, 0x0b, 0xf2, 0x81,
  0x67, 0x97, 0x81, 0xa1, 0xa5, 0x4f, 0x47, 0x15, 0x09, 0xc8, 0xf1, 0xeb, 0x02,
  0x00, 0x00, 0x00, 0x76, 0xea, 0xff, 0xff, 0x04, 0x00, 0x00, 0x00, 0x19, 0x00,
  0x00, 0x00, 0x54, 0xcd, 0xe4, 0x0e, 0xfb, 0x7f, 0x5e, 0x81, 0x12, 0xf5, 0xb9,
  0xa5, 0x27, 0x81, 0x1a, 0xf6, 0x7f, 0xf4, 0x45, 0x81, 0x1c, 0xb5, 0x07, 0xe9,
  0x17, 0x00, 0x00, 0x00, 0x9e, 0xea, 0xff, 0xff, 0x04, 0x00, 0x00, 0x00, 0x19,
  0x00, 0x00, 0x00, 0x7f, 0xa5, 0xb4, 0x56, 0x49, 0xf4, 0x81, 0xdb, 0x31, 0x60,
  0xe8, 0x57, 0x12, 0x81, 0x56, 0x7f, 0x00, 0x6d, 0xea, 0x06, 0x22, 0x10, 0x81,
  0xee, 0x3b, 0x00, 0x00, 0x00, 0xc6, 0xea, 0xff, 0xff, 0x04, 0x00, 0x00, 0x00,
  0x19, 0x00, 0x00, 0x00, 0xe5, 0x3f, 0xc6, 0xe1, 0x5f, 0xfa, 0x11, 0x7f, 0xc0,
  0x78, 0x7f, 0x7f, 0xe2, 0x81, 0x7f, 0x09, 0x01, 0x5b, 0x82, 0x5a, 0x31, 0x2b,
  0xca, 0x29, 0x7d, 0x00, 0x00, 0x00, 0xee, 0xea, 0xff, 0xff, 0x04, 0x00, 0x00,
  0x00, 0x19, 0x00, 0x00, 0x00, 0x41, 0x2f, 0xd5, 0x01, 0x46, 0xab, 0x81, 0x81,
  0xd2, 0x6c, 0x7f, 0x40, 0xd7, 0x81, 0x7f, 0x24, 0xd7, 0xe4, 0x72, 0x38, 0x17,
  0x5f, 0xed, 0xa9, 0x2f, 0x00, 0x00, 0x00, 0x16, 0xeb, 0xff, 0xff, 0x04, 0x00,
  0x00, 0x00, 0x23, 0x00, 0x00, 0x00, 0x0f, 0xb9, 0xb3, 0xb8, 0x42, 0x81, 0x33,
  0x81, 0x02, 0x53, 0x75, 0x1e, 0xcd, 0xea, 0x04, 0xf9, 0xfd, 0xf3, 0x81, 0x24,
  0x00, 0xed, 0x81, 0x53, 0x18, 0x06, 0x3c, 0xd0, 0x19, 0x05, 0x0e, 0xe5, 0x60,
  0x47, 0x81, 0x00, 0x46, 0xeb, 0xff, 0xff, 0x04, 0x00, 0x00, 0x00, 0x23, 0x00,
  0x00, 0x00, 0x21, 0x50, 0xe0, 0xb7, 0xe3, 0x29, 0xf3, 0xd5, 0xee, 0x81, 0x89,
  0xac, 0x81, 0x1b, 0xe9, 0x9b, 0x25, 0xd5, 0x81, 0x6f, 0xc3, 0x7f, 0x81, 0xe2,
  0xdb, 0x2a, 0x36, 0x7f, 0x69, 0x1a, 0xc4, 0x7f, 0x0f, 0xe8, 0x1b, 0x00, 0x76,
  0xeb, 0xff, 0xff, 0x04, 0x00, 0x00, 0x00, 0x38, 0x00, 0x00, 0x00, 0x00, 0x00,
  0x00, 0x00, 0x00, 0x00, 0x00, 0x00, 0x00, 0x00, 0x00, 0x00, 0x00, 0x00, 0x00,
  0x00, 0x00, 0x00, 0x00, 0x00, 0x00, 0x00, 0x00, 0x00, 0x00, 0x00, 0x00, 0x00,
  0x00, 0x00, 0x00, 0x00, 0x00, 0x00, 0x00, 0x00, 0x00, 0x00, 0x00, 0x00, 0x00,
  0x00, 0x00, 0x00, 0x00, 0x00, 0x00, 0x00, 0x00, 0x00, 0x00, 0x00, 0x00, 0x00,
  0x00, 0x00, 0xba, 0xeb, 0xff, 0xff, 0x04, 0x00, 0x00, 0x00, 0x23, 0x00, 0x00,
  0x00, 0xd8, 0x03, 0xb8, 0xd4, 0xfb, 0xd8, 0xac, 0xc5, 0x3d, 0x81, 0x81, 0x7e,
  0x49, 0x7f, 0x7f, 0x7f, 0x1c, 0x91, 0x7f, 0x81, 0xe0, 0x45, 0x69, 0xc4, 0xe0,
  0x35, 0x38, 0xf8, 0xef, 0x1b, 0x98, 0x16, 0x13, 0xed, 0x0f, 0x00, 0xea, 0xeb,
  0xff, 0xff, 0x04, 0x00, 0x00, 0x00, 0x19, 0x00, 0x00, 0x00, 0xe8, 0x52, 0xf8,
  0x7f, 0x76, 0x0c, 0xa8, 0x16, 0x7f, 0xa7, 0x7f, 0xcf, 0x0a, 0x5c, 0x1a, 0xd0,
  0x30, 0xcb, 0xf9, 0x7f, 0x92, 0x35, 0x7f, 0xf9, 0x18, 0x00, 0x00, 0x00, 0x12,
  0xec, 0xff, 0xff, 0x04, 0x00, 0x00, 0x00, 0x19, 0x00, 0x00, 0x00, 0xd5, 0xf5,
  0xb7, 0x49, 0x4b, 0x95, 0xa7, 0x16, 0xf5, 0x6d, 0xfa, 0x81, 0xc7, 0x81, 0x9a,
  0x81, 0xe7, 0x38, 0x50, 0x7f, 0x0f, 0x09, 0x81, 0x26, 0x41, 0x00, 0x00, 0x00,
  0x3a, 0xec, 0xff, 0xff, 0x04, 0x00, 0x00, 0x00, 0x19, 0x00, 0x00, 0x00, 0x1d,
  0x2a, 0x81, 0xfe, 0x48, 0x81, 0x2f, 0xd6, 0x06, 0x34, 0xaf, 0x7f, 0x82, 0x81,
  0x7f, 0x01, 0x1d, 0xc0, 0x21, 0x47, 0x10, 0xe1, 0xd1, 0x0d, 0xd9, 0x00, 0x00,
  0x00, 0x62, 0xec, 0xff, 0xff, 0x04, 0x00, 0x00, 0x00, 0x23, 0x00, 0x00, 0x00,
  0x70, 0x31, 0xdc, 0xdc, 0x7f, 0xba, 0x04, 0x81, 0xe4, 0x0d, 0x68, 0x36, 0xfa,
  0xc1, 0xbd, 0xac, 0x81, 0x0a, 0x01, 0x29, 0xa7, 0xb6, 0xce, 0x01, 0xf4, 0x41,
  0x72, 0x81, 0x97, 0xe1, 0x1d, 0x9f, 0x7f, 0x10, 0xc7, 0x00, 0x92, 0xec, 0xff,
  0xff, 0x04, 0x00, 0x00, 0x00, 0x23, 0x00, 0x00, 0x00, 0xff, 0x37, 0xc0, 0x1c,
  0x34, 0xf2, 0xfb, 0xf5, 0x46, 0x81, 0xeb, 0x7f, 0x31, 0x40, 0xb6, 0xe9, 0xa6,
  0xf5, 0x75, 0x8b, 0x2c, 0x81, 0x7f, 0xa9, 0x81, 0x5b, 0x7f, 0x7f, 0xd5, 0x2b,
  0x91, 0x10, 0xc1, 0xe9, 0x6c, 0x00, 0xc2, 0xec, 0xff, 0xff, 0x04, 0x00, 0x00,
  0x00, 0x23, 0x00, 0x00, 0x00, 0x7f, 0xdc, 0xf3, 0xa5, 0xec, 0xa8, 0x7f, 0x69,
  0x81, 0x7f, 0xb5, 0xa0, 0x81, 0x5e, 0x5c, 0xa9, 0xad, 0x33, 0x81, 0x34, 0x4a,
  0xfb, 0xee, 0xf6, 0x81, 0x95, 0xf6, 0x16, 0x00, 0xf5, 0x21, 0xc5, 0xcf, 0x06,
  0x0b, 0x00, 0xf2, 0xec, 0xff, 0xff, 0x04, 0x00, 0x00, 0x00, 0x3f, 0x00, 0x00,
  0x00, 0xcc, 0x36, 0xfb, 0xf6, 0xa2, 0x26, 0xd2, 0x03, 0x7f, 0x7f, 0xf0, 0x3b,
  0x77, 0x29, 0x15, 0xf3, 0x15, 0xdf, 0x3c, 0x4a, 0xf2, 0x9d, 0xdd, 0x81, 0xc7,
  0x20, 0xfd, 0x27, 0x50, 0x81, 0x47, 0x55, 0xb6, 0x97, 0x24, 0x0f, 0x3a, 0x1b,
  0xda, 0x1b, 0x05, 0x17, 0xeb, 0x7f, 0xed, 0xbc, 0xee, 0x08, 0x81, 0x03, 0x34,
  0xd2, 0xf5, 0x02, 0x1d, 0xce, 0x81, 0x64, 0x85, 0x2e, 0x8c, 0x08, 0xfa, 0x00,
  0x3e, 0xed, 0xff, 0xff, 0x04, 0x00, 0x00, 0x00, 0x2d, 0x00, 0x00, 0x00, 0x05,
  0x3d, 0x07, 0x16, 0xa4, 0x53, 0xfc, 0xe4, 0x39, 0x70, 0x7f, 0x81, 0x81, 0x7f,
  0x81, 0x81, 0x46, 0x6d, 0x7f, 0xa1, 0xf6, 0xbf, 0xfc, 0x6d, 0x23, 0x81, 0x81,
  0x13, 0x2a, 0x0f, 0x4c, 0xf2, 0x08, 0xe9, 0xeb, 0x3e, 0x38, 0xdf, 0xf0, 0x10,
  0x07, 0xff, 0x02, 0xf6, 0xcd, 0x00, 0x00, 0x00, 0x7a, 0xed, 0xff, 0xff, 0x04,
  0x00, 0x00, 0x00, 0x48, 0x00, 0x00, 0x00, 0x00, 0x00, 0x00, 0x00, 0x00, 0x00,
  0x00, 0x00, 0x00, 0x00, 0x00, 0x00, 0x00, 0x00, 0x00, 0x00, 0x00, 0x00, 0x00,
  0x00, 0x00, 0x00, 0x00, 0x00, 0x00, 0x00, 0x00, 0x00, 0x00, 0x00, 0x00, 0x00,
  0x00, 0x00, 0x00, 0x00, 0x00, 0x00, 0x00, 0x00, 0x00, 0x00, 0x00, 0x00, 0x00,
  0x00, 0x00, 0x00, 0x00, 0x00, 0x00, 0x00, 0x00, 0x00, 0x00, 0x00, 0x00, 0x00,
  0x00, 0x00, 0x00, 0x00, 0x00, 0x00, 0x00, 0x00, 0x00, 0x00, 0x00, 0x00, 0x00,
  0x00, 0xce, 0xed, 0xff, 0xff, 0x04, 0x00, 0x00, 0x00, 0x2d, 0x00, 0x00, 0x00,
  0xde, 0xcc, 0xfa, 0x07, 0x0b, 0xfc, 0x0a, 0x49, 0xdb, 0x43, 0x7f, 0xa8, 0x42,
  0xc9, 0x7f, 0x39, 0x81, 0xe0, 0x81, 0x6d, 0x0e, 0x7f, 0x67, 0x14, 0x7f, 0x03,
  0x81, 0x25, 0xf1, 0x81, 0x44, 0x81, 0x7d, 0x4a, 0x2c, 0x08, 0xd4, 0xe2, 0x1e,
  0x1c, 0x84, 0x44, 0x26, 0xef, 0xfc, 0x00, 0x00, 0x00, 0x0a, 0xee, 0xff, 0xff,
  0x04, 0x00, 0x00, 0x00, 0x31, 0x00, 0x00, 0x00, 0xd3, 0x01, 0x4c, 0xe3, 0x31,
  0x02, 0x7f, 0xa5, 0xf7, 0xbf, 0x53, 0x91, 0x98, 0x7f, 0x1c, 0xf6, 0x38, 0xef,
  0x7f, 0x2c, 0xe2, 0xe9, 0x07, 0xb8, 0x7f, 0x04, 0xf6, 0x24, 0xec, 0x81, 0x05,
  0xac, 0xec, 0x05, 0xe9, 0x7f, 0xfc, 0x47, 0x08, 0xfd, 0xd0, 0xfe, 0x00, 0xf4,
  0xce, 0x13, 0x64, 0x54, 0x7f, 0x00, 0x00, 0x00, 0x4a, 0xee, 0xff, 0xff, 0x04,
  0x00, 0x00, 0x00, 0x23, 0x00, 0x00, 0x00, 0xfb, 0x0e, 0x27, 0x0f, 0xe8, 0x7f,
  0x2c, 0xd5, 0x11, 0x7f, 0x00, 0x7f, 0x33, 0x8a, 0x81, 0xd8, 0x06, 0xde, 0x0b,
  0xe7, 0xbd, 0xce, 0x5e, 0xb6, 0x81, 0x47, 0x6e, 0x7f, 0x16, 0x7f, 0xf8, 0xca,
  0xec, 0x48, 0xe0, 0x00, 0x7a, 0xee, 0xff, 0xff, 0x04, 0x00, 0x00, 0x00, 0x23,
  0x00, 0x00, 0x00, 0x1f, 0x42, 0x21, 0xda, 0x6b, 0xeb, 0xff, 0x81, 0x81, 0xcd,
  0x35, 0xbe, 0x81, 0x10, 0x4f, 0x07, 0x14, 0x81, 0x7f, 0xe0, 0xee, 0x30, 0x4a,
  0x7f, 0xf7, 0x66, 0xa9, 0x7f, 0xe7, 0xeb, 0x5f, 0x14, 0x21, 0xa5, 0xc8, 0x00,
  0xaa, 0xee, 0xff, 0xff, 0x04, 0x00, 0x00, 0x00, 0x3f, 0x00, 0x00, 0x00, 0xff,
  0x76, 0x07, 0x00, 0x14, 0x7f, 0xae, 0xa1, 0x5b, 0x01, 0x81, 0x0e, 0x13, 0xfc,
  0xb0, 0x06, 0x40, 0xc7, 0x81, 0xf8, 0x63, 0xfc, 0xff, 0xf9, 0x39, 0xf9, 0x85,
  0xe0, 0x20, 0x40, 0x12, 0x81, 0x04, 0x34, 0xc9, 0x50, 0x81, 0x47, 0xee, 0x5a,
  0xfd, 0x4e, 0xea, 0x15, 0x7a, 0x09, 0x25, 0x05, 0x81, 0x13, 0x10, 0x05, 0xe4,
  0x4d, 0xdb, 0xce, 0x81, 0xe0, 0x54, 0x40, 0xa1, 0x08, 0xd0, 0x00, 0xf6, 0xee,
  0xff, 0xff, 0x04, 0x00, 0x00, 0x00, 0x2d, 0x00, 0x00, 0x00, 0x81, 0x91, 0xe0,
  0xe2, 0x12, 0xb8, 0xf6, 0x0a, 0xf0, 0xd5, 0x81, 0x09, 0x1f, 0xe0, 0x81, 0xbb,
  0x7f, 0x7f, 0xd0, 0xf2, 0x81, 0x81, 0x9a, 0xd9, 0x81, 0x29, 0xd3, 0x11, 0xfd,
  0x06, 0x50, 0x11, 0xec, 0x0e, 0xfa, 0x10, 0x1d, 0xec, 0xed, 0xd7, 0x7f, 0xe7,
  0x18, 0x03, 0x04, 0x00, 0x00, 0x00, 0x32, 0xef, 0xff, 0xff, 0x04, 0x00, 0x00,
  0x00, 0x2d, 0x00, 0x00, 0x00, 0x9e, 0x70, 0x39, 0x81, 0x81, 0x57, 0x24, 0x7f,
  0x7f, 0x05, 0x7f, 0x7f, 0x7e, 0x8f, 0x33, 0x7f, 0xb8, 0x5f, 0x81, 0xd1, 0x64,
  0x22, 0xf1, 0x7f, 0xd3, 0x1e, 0x66, 0xc4, 0xbd, 0xed, 0xfb, 0x00, 0xfe, 0x48,
  0x53, 0xa6, 0xdf, 0x08, 0x11, 0x46, 0xd5, 0x23, 0xf9, 0x0b, 0x38, 0x00, 0x00,
  0x00, 0x6e, 0xef, 0xff, 0xff, 0x04, 0x00, 0x00, 0x00, 0x6c, 0x00, 0x00, 0x00,
  0xd5, 0x46, 0xc8, 0x81, 0x68, 0x54, 0x4a, 0x8c, 0xcc, 0xbf, 0x39, 0x32, 0x81,
  0x41, 0xc3, 0xd9, 0xea, 0x3d, 0x05, 0x44, 0xe7, 0x3e, 0x48, 0xd2, 0x11, 0x07,
  0x31, 0x03, 0x15, 0xf2, 0x56, 0xe3, 0x81, 0x06, 0xf1, 0xe7, 0xe1, 0xc2, 0x7f,
  0xa5, 0x2d, 0x35, 0x08, 0x12, 0x31, 0x26, 0x4b, 0x3a, 0x7f, 0xca, 0xe1, 0x0c,
  0xfd, 0xaa, 0x8f, 0x23, 0x4a, 0x53, 0x0c, 0x0e, 0xd8, 0xb0, 0xcf, 0x3a, 0xb6,
  0x34, 0x08, 0x31, 0x12, 0xeb, 0xd2, 0x7f, 0x5d, 0xb4, 0xfe, 0x5a, 0x22, 0x22,
  0x64, 0x37, 0xb0, 0xd0, 0x00, 0x7f, 0x97, 0x18, 0x20, 0x59, 0xf7, 0x68, 0xf1,
  0xbe, 0x02, 0x7f, 0xc1, 0x9a, 0xc3, 0x43, 0xf8, 0xe1, 0x81, 0x1d, 0xf0, 0x40,
  0x0d, 0x24, 0x3b, 0x07, 0xe6, 0xef, 0xff, 0xff, 0x04, 0x00, 0x00, 0x00, 0x3c,
  0x00, 0x00, 0x00, 0xfb, 0xf0, 0xa6, 0x27, 0xce, 0x05, 0x7f, 0xf2, 0xf6, 0x56,
  0x1b, 0xf8, 0xfe, 0x7f, 0x7f, 0xd2, 0xba, 0x08, 0x63, 0x12, 0x81, 0x7f, 0x19,
  0x1c, 0x81, 0x32, 0x62, 0x7f, 0xf6, 0x81, 0xaa, 0x81, 0x1e, 0x11, 0x67, 0x7f,
  0xfc, 0x62, 0x1c, 0x25, 0xb0, 0x01, 0xa3, 0x1f, 0x0b, 0x1e, 0x7f, 0x74, 0xf6,
  0x2b, 0xf2, 0x11, 0x81, 0xf1, 0xe2, 0xed, 0x10, 0xda, 0xf0, 0xd7, 0x2e, 0xf0,
  0xff, 0xff, 0x04, 0x00, 0x00, 0x00, 0x60, 0x00, 0x00, 0x00, 0x00, 0x00, 0x00,
  0x00, 0x00, 0x00, 0x00, 0x00, 0x00, 0x00, 0x00, 0x00, 0x00, 0x00, 0x00, 0x00,
  0x00, 0x00, 0x00, 0x00, 0x00, 0x00, 0x00, 0x00, 0x00, 0x00, 0x00, 0x00, 0x00,
  0x00, 0x00, 0x00, 0x00, 0x00, 0x00, 0x00, 0x00, 0x00, 0x00, 0x00, 0x00, 0x00,
  0x00, 0x00, 0x00, 0x00, 0x00, 0x00, 0x00, 0x00, 0x00, 0x00, 0x00, 0x00, 0x00,
  0x00, 0x00, 0x00, 0x00, 0x00, 0x00, 0x00, 0x00, 0x00, 0x00, 0x00, 0x00, 0x00,
  0x00, 0x00, 0x00, 0x00, 0x00, 0x00, 0x00, 0x00, 0x00, 0x00, 0x00, 0x00, 0x00,
  0x00, 0x00, 0x00, 0x00, 0x00, 0x00, 0x00, 0x00, 0x00, 0x00, 0x00, 0x00, 0x00,
  0x00, 0x00, 0x9a, 0xf0, 0xff, 0xff, 0x04, 0x00, 0x00, 0x00, 0x3c, 0x00, 0x00,
  0x00, 0x12, 0x01, 0x00, 0x81, 0x03, 0xf9, 0x15, 0x0d, 0x08, 0x5f, 0xf5, 0x81,
  0x02, 0x7f, 0x3c, 0x81, 0xea, 0xfc, 0x7f, 0x7f, 0x81, 0xce, 0x33, 0x3f, 0x81,
  0x5b, 0x7f, 0x7b, 0x81, 0x81, 0x6b, 0xe1, 0x31, 0x81, 0x7f, 0x1d, 0xf1, 0xf8,
  0x84, 0x20, 0xd6, 0x16, 0x3b, 0xe7, 0xf3, 0xc9, 0x09, 0xd2, 0xde, 0x1b, 0x79,
  0xd5, 0xcf, 0xdb, 0xfb, 0x12, 0x00, 0xe7, 0xec, 0xe4, 0xe2, 0xf0, 0xff, 0xff,
  0x04, 0x00, 0x00, 0x00, 0x51, 0x00, 0x00, 0x00, 0x81, 0x6c, 0x5c, 0xe5, 0xde,
  0xe9, 0xda, 0x74, 0xe7, 0x07, 0x16, 0x1f, 0x1a, 0xc8, 0xc1, 0x0b, 0xe9, 0x81,
  0x43, 0x45, 0x7f, 0xe4, 0xf2, 0xcb, 0xe1, 0x44, 0x2b, 0x1d, 0xde, 0xe6, 0x4b,
  0x35, 0x56, 0xd0, 0x5f, 0x7f, 0xa9, 0x22, 0x81, 0x40, 0xfc, 0xc8, 0x14, 0x15,
  0x1f, 0xf1, 0xd7, 0xec, 0x70, 0x7f, 0x35, 0x28, 0x8e, 0x71, 0x22, 0xd0, 0x24,
  0x70, 0x41, 0x15, 0xcd, 0x11, 0x7f, 0xe4, 0x2d, 0x2a, 0xa2, 0xc1, 0xcb, 0xf2,
  0x04, 0x81, 0xe9, 0xe6, 0xfc, 0x1c, 0xf9, 0x2b, 0x7f, 0xf9, 0x0a, 0x00, 0x00,
  0x00, 0x42, 0xf1, 0xff, 0xff, 0x04, 0x00, 0x00, 0x00, 0x2d, 0x00, 0x00, 0x00,
  0xf8, 0xf6, 0x1c, 0xe5, 0xed, 0x0e, 0xd4, 0xf1, 0x16, 0xe5, 0x04, 0x34, 0xef,
  0x03, 0x07, 0xea, 0xc0, 0x2a, 0x81, 0x32, 0x7d, 0xb3, 0x2f, 0x7f, 0xb7, 0xac,
  0x7d, 0xfd, 0x7f, 0x7f, 0x96, 0x81, 0x3d, 0x81, 0x81, 0x7f, 0xf9, 0x13, 0x31,
  0x81, 0xb4, 0xf7, 0x31, 0xc1, 0x33, 0x00, 0x00, 0x00, 0x7e, 0xf1, 0xff, 0xff,
  0x04, 0x00, 0x00, 0x00, 0x2d, 0x00, 0x00, 0x00, 0xe9, 0x01, 0x30, 0x24, 0xf5,
  0x00, 0x1e, 0x39, 0xd5, 0x19, 0x7f, 0x6a, 0xf2, 0xeb, 0xfb, 0xe6, 0xdd, 0x81,
  0x7f, 0x2c, 0x7f, 0x7a, 0x81, 0x7f, 0xdf, 0x7f, 0xbc, 0x1e, 0x04, 0xe6, 0x7f,
  0xf4, 0x1d, 0x81, 0x4e, 0x1f, 0xfa, 0xfe, 0x1e, 0xd7, 0x0d, 0xe4, 0xfb, 0xed,
  0x12, 0x00, 0x00, 0x00, 0xba, 0xf1, 0xff, 0xff, 0x04, 0x00, 0x00, 0x00, 0x6c,
  0x00, 0x00, 0x00, 0x2e, 0x2f, 0x2e, 0x7e, 0x20, 0x0f, 0x81, 0xe4, 0x0a, 0xf5,
  0xe5, 0x86, 0x17, 0xcc, 0xd9, 0xe5, 0xee, 0x3f, 0xeb, 0x08, 0x81, 0xec, 0x2f,
  0x65, 0xfb, 0x00, 0xe4, 0xd0, 0xe3, 0x45, 0x2b, 0x2d, 0x7f, 0xc4, 0xfc, 0xc0,
  0x3f, 0x5c, 0x31, 0x06, 0x12, 0xf5, 0xb5, 0x35, 0xed, 0x81, 0xc6, 0xea, 0x7f,
  0xf9, 0x47, 0x19, 0x15, 0xff, 0xea, 0xca, 0xfa, 0xe1, 0x2c, 0xe7, 0x07, 0xdc,
  0x97, 0x7f, 0x0d, 0xff, 0xb7, 0xc3, 0x03, 0x51, 0xed, 0xe9, 0xf6, 0xbb, 0xee,
  0x1a, 0x81, 0xe1, 0x0e, 0x1b, 0x16, 0x13, 0x0e, 0xd9, 0xd5, 0x32, 0x04, 0xe9,
  0xad, 0x00, 0xf1, 0xfd, 0xfe, 0x7f, 0xba, 0x09, 0x0e, 0xf3, 0xac, 0xfa, 0xd8,
  0x7f, 0x50, 0x2d, 0xd9, 0xe5, 0x3f, 0x2e, 0x32, 0xf2, 0xff, 0xff, 0x04, 0x00,
  0x00, 0x00, 0x3c, 0x00, 0x00, 0x00, 0x94, 0x7f, 0xf4, 0xe6, 0x1e, 0x81, 0x3e,
  0x55, 0xeb, 0x81, 0x06, 0x3e, 0xb6, 0x29, 0x25, 0xab, 0x7f, 0xd6, 0x48, 0x7f,
  0x81, 0xff, 0xba, 0xfb, 0x81, 0x19, 0x5d, 0x81, 0x2e, 0xcb, 0x7f, 0xf9, 0xcb,
  0x08, 0x81, 0x7f, 0xe0, 0x28, 0x7f, 0x15, 0x4e, 0x0a, 0xc2, 0xe3, 0x03, 0x06,
  0xed, 0x3e, 0xf9, 0x0d, 0x45, 0xe1, 0x26, 0x05, 0x03, 0x0a, 0xfc, 0xd4, 0xeb,
  0x07, 0x7a, 0xf2, 0xff, 0xff, 0x04, 0x00, 0x00, 0x00, 0x3c, 0x00, 0x00, 0x00,
  0x48, 0x7f, 0x43, 0x29, 0x28, 0x02, 0x03, 0x81, 0xfb, 0x83, 0xe3, 0x81, 0x53,
  0xde, 0x7f, 0x7f, 0x87, 0x43, 0x81, 0x1b, 0xc8, 0x81, 0x7f, 0xa1, 0x81, 0xfe,
  0x49, 0xd5, 0x81, 0x7f, 0xec, 0x7e, 0x81, 0x27, 0x61, 0x12, 0xba, 0x50, 0x06,
  0x06, 0xc2, 0xf9, 0xea, 0x48, 0xcd, 0xdb, 0x3c, 0xfe, 0xb4, 0x30, 0x2e, 0xf5,
  0xee, 0x26, 0x27, 0x34, 0xe7, 0xb8, 0x10, 0xe7, 0xc2, 0xf2, 0xff, 0xff, 0x04,
  0x00, 0x00, 0x00, 0xb4, 0x00, 0x00, 0x00, 0x20, 0x81, 0x2c, 0xdb, 0xd3, 0x3c,
  0xb4, 0xad, 0xed, 0xbe, 0xd9, 0xde, 0xe8, 0x24, 0xfb, 0x54, 0x3d, 0x7f, 0x0e,
  0x04, 0x09, 0x20, 0x22, 0xe1, 0x00, 0xd1, 0x20, 0xf0, 0x15, 0x3f, 0x3c, 0xce,
  0x63, 0xaf, 0xfd, 0xb9, 0x0b, 0x00, 0x81, 0xe5, 0xdb, 0x2d, 0xd4, 0xcf, 0x20,
  0x1d, 0xf7, 0x20, 0x02, 0x2d, 0xf8, 0xc0, 0xb9, 0xf9, 0xcb, 0x81, 0x3c, 0xb3,
  0xd5, 0xc3, 0x3b, 0x81, 0xf4, 0x3b, 0x87, 0x1e, 0x5e, 0xf9, 0xf4, 0xb1, 0xcb,
  0x4c, 0x46, 0x09, 0x47, 0x17, 0xdc, 0x15, 0xcc, 0xe2, 0x0f, 0xc8, 0x0c, 0x02,
  0xfa, 0xc0, 0xb3, 0x81, 0xde, 0x22, 0x30, 0x0a, 0xf4, 0x2f, 0x7f, 0x20, 0x27,
  0x03, 0x91, 0xda, 0xfa, 0x2d, 0x28, 0xaf, 0x31, 0xff, 0x05, 0xfc, 0xe0, 0x21,
  0x81, 0xbb, 0xa5, 0x27, 0x0a, 0xcf, 0x06, 0xe1, 0x1b, 0x96, 0x0e, 0xf6, 0x08,
  0xff, 0x49, 0xfd, 0x7f, 0xe2, 0x3d, 0xd3, 0xd9, 0x40, 0x4e, 0x16, 0x27, 0x7f,
  0x1d, 0xcd, 0x52, 0x73, 0xdc, 0xd0, 0xd3, 0x04, 0x9e, 0xdb, 0xf4, 0x62, 0xff,
  0xbb, 0xe4, 0x05, 0xf2, 0x06, 0xcf, 0xe2, 0xd9, 0xd9, 0xf9, 0xcc, 0xc5, 0x11,
  0x7f, 0xda, 0xb1, 0xd4, 0x7f, 0xa8, 0xef, 0x29, 0x12, 0x03, 0x18, 0xf9, 0xe6,
  0x03, 0xf6, 0xb6, 0x5a, 0x08, 0x82, 0xf3, 0xff, 0xff, 0x04, 0x00, 0x00, 0x00,
  0x4b, 0x00, 0x00, 0x00, 0x2b, 0xd4, 0x2a, 0xd9, 0xf0, 0x30, 0xf6, 0x17, 0x32,
  0x3f, 0xe0, 0x0b, 0xfc, 0x0f, 0x1d, 0x98, 0x7f, 0xb9, 0xf2, 0xdc, 0x7f, 0x47,
  0x81, 0x27, 0xc1, 0x7f, 0x08, 0x12, 0x7f, 0xd2, 0x81, 0xf2, 0x81, 0x81, 0x7f,
  0x58, 0x81, 0xd9, 0x70, 0x81, 0x7c, 0x7f, 0x81, 0x23, 0x7f, 0xdb, 0xfd, 0xb2,
  0x1b, 0x29, 0xfe, 0xfa, 0xcf, 0x7f, 0xa1, 0x8a, 0xa2, 0x2e, 0xf7, 0xf7, 0x32,
  0x05, 0xe7, 0x08, 0xf0, 0xe4, 0x03, 0xbd, 0xec, 0xef, 0xc4, 0xcf, 0x4c, 0xe5,
  0xd4, 0x00, 0xda, 0xf3, 0xff, 0xff, 0x04, 0x00, 0x00, 0x00, 0x78, 0x00, 0x00,
  0x00, 0x00, 0x00, 0x00, 0x00, 0x00, 0x00, 0x00, 0x00, 0x00, 0x00, 0x00, 0x00,
  0x00, 0x00, 0x00, 0x00, 0x00, 0x00, 0x00, 0x00, 0x00, 0x00, 0x00, 0x00, 0x00,
  0x00, 0x00, 0x00, 0x00, 0x00, 0x00, 0x00, 0x00, 0x00, 0x00, 0x00, 0x00, 0x00,
  0x00, 0x00, 0x00, 0x00, 0x00, 0x00, 0x00, 0x00, 0x00, 0x00, 0x00, 0x00, 0x00,
  0x00, 0x00, 0x00, 0x00, 0x00, 0x00, 0x00, 0x00, 0x00, 0x00, 0x00, 0x00, 0x00,
  0x00, 0x00, 0x00, 0x00, 0x00, 0x00, 0x00, 0x00, 0x00, 0x00, 0x00, 0x00, 0x00,
  0x00, 0x00, 0x00, 0x00, 0x00, 0x00, 0x00, 0x00, 0x00, 0x00, 0x00, 0x00, 0x00,
  0x00, 0x00, 0x00, 0x00, 0x00, 0x00, 0x00, 0x00, 0x00, 0x00, 0x00, 0x00, 0x00,
  0x00, 0x00, 0x00, 0x00, 0x00, 0x00, 0x00, 0x00, 0x00, 0x00, 0x00, 0x00, 0x00,
  0x00, 0x00, 0x00, 0x00, 0x5e, 0xf4, 0xff, 0xff, 0x04, 0x00, 0x00, 0x00, 0x4b,
  0x00, 0x00, 0x00, 0xe9, 0x22, 0xb8, 0x7f, 0x7f, 0x81, 0x9e, 0xd4, 0x9a, 0xe7,
  0xf2, 0x7c, 0x95, 0x4a, 0xcf, 0xf3, 0xf6, 0x04, 0x30, 0xef, 0x9c, 0x7f, 0x81,
  0x8a, 0x26, 0xb5, 0x7f, 0x81, 0x7f, 0x81, 0x81, 0x7f, 0x60, 0x1b, 0x4f, 0xb1,
  0x28, 0xca, 0x7f, 0x7f, 0x81, 0x35, 0xf5, 0xe4, 0xca, 0x0b, 0xcf, 0xbc, 0xdd,
  0xf0, 0xc4, 0xfe, 0x29, 0xf1, 0xad, 0xb2, 0xe5, 0x0e, 0xda, 0x06, 0xdd, 0x0c,
  0x81, 0xd7, 0xfe, 0xfa, 0x05, 0xee, 0xf3, 0x25, 0xf6, 0xe6, 0xf0, 0x02, 0xf7,
  0x00, 0xb6, 0xf4, 0xff, 0xff, 0x04, 0x00, 0x00, 0x00, 0x90, 0x00, 0x00, 0x00,
  0xe2, 0xbf, 0x67, 0x72, 0xff, 0x02, 0x15, 0x2d, 0x5e, 0x48, 0x81, 0xe9, 0xb6,
  0x06, 0x6e, 0x2c, 0xab, 0x59, 0x81, 0xd7, 0x3d, 0x3f, 0xfc, 0x20, 0x81, 0xfb,
  0x1d, 0x2b, 0xaa, 0x6b, 0xde, 0x4f, 0x3c, 0xfe, 0x49, 0xbc, 0xa4, 0xf7, 0xcd,
  0x44, 0x0b, 0x7c, 0x21, 0x81, 0xe4, 0xf0, 0x3b, 0xbd, 0x14, 0xa3, 0xfb, 0x5e,
  0xc3, 0x30, 0xe9, 0xdd, 0xbb, 0x57, 0x81, 0xbe, 0xae, 0xe4, 0x05, 0x27, 0xe7,
  0xf7, 0xe9, 0x7f, 0x08, 0xf4, 0xee, 0x03, 0xd5, 0x02, 0x2b, 0x98, 0xfb, 0x6d,
  0xb3, 0x9e, 0x81, 0xd0, 0xf4, 0xbc, 0x05, 0xbe, 0x97, 0x61, 0x89, 0xe1, 0x7f,
  0xcc, 0xf1, 0x4c, 0x5e, 0xf5, 0x8f, 0x0a, 0x3e, 0x1d, 0xcc, 0x16, 0x01, 0xbf,
  0x81, 0xf3, 0xa2, 0xf1, 0x11, 0xc7, 0xdc, 0xfd, 0xfd, 0xf4, 0x1a, 0xf6, 0xcf,
  0xe9, 0x7f, 0xef, 0xfc, 0xfb, 0xd1, 0x7f, 0x21, 0x29, 0x54, 0x0a, 0x28, 0x72,
  0x29, 0xd5, 0xf2, 0x65, 0x06, 0xaf, 0x7f, 0xa5, 0xbb, 0x04, 0x5f, 0xaf, 0x23,
  0x7a, 0x52, 0xf5, 0xff, 0xff, 0x04, 0x00, 0x00, 0x00, 0x3c, 0x00, 0x00, 0x00,
  0x93, 0x40, 0x02, 0xef, 0x21, 0xf4, 0x29, 0xd9, 0x39, 0x39, 0x3b, 0xcb, 0xae,
  0x11, 0xaf, 0x7f, 0x31, 0x81, 0x46, 0xf3, 0x55, 0x7f, 0x7f, 0x81, 0x81, 0x3a,
  0x91, 0x0e, 0x7f, 0x95, 0x7f, 0xa8, 0x7f, 0x74, 0x5f, 0xda, 0xe2, 0x12, 0x81,
  0xec, 0x2a, 0x03, 0x01, 0xe2, 0x36, 0x53, 0x36, 0xf0, 0xb8, 0x7f, 0xe5, 0xe4,
  0xf8, 0xdd, 0x43, 0x7f, 0x39, 0x01, 0x5d, 0xe7, 0x9a, 0xf5, 0xff, 0xff, 0x04,
  0x00, 0x00, 0x00, 0x3c, 0x00, 0x00, 0x00, 0x33, 0xbb, 0x74, 0xf7, 0x02, 0xf9,
  0x42, 0xcf, 0x3b, 0x7f, 0xc5, 0xfe, 0x49, 0xad, 0x81, 0x81, 0x1b, 0x7f, 0x7f,
  0xce, 0x7f, 0x7f, 0xb5, 0x3b, 0x5e, 0xc5, 0x37, 0x9a, 0x51, 0x5a, 0x4f, 0x7f,
  0x5b, 0x0e, 0x81, 0x7f, 0x7f, 0x81, 0x69, 0xde, 0x7f, 0xd7, 0xe3, 0x0c, 0x07,
  0x22, 0xa7, 0x43, 0x37, 0xe9, 0xc0, 0xe8, 0x34, 0xc3, 0x08, 0xd5, 0x2b, 0xe4,
  0xed, 0xe9, 0xe2, 0xf5, 0xff, 0xff, 0x04, 0x00, 0x00, 0x00, 0xb4, 0x00, 0x00,
  0x00, 0xe3, 0xd0, 0xfa, 0x27, 0x78, 0x81, 0xf4, 0xc9, 0xd0, 0xb3, 0xb2, 0x92,
  0xe6, 0x4b, 0x92, 0xc4, 0xc7, 0x7f, 0xa5, 0xc7, 0xa6, 0x2a, 0x1b, 0x60, 0xd4,
  0x11, 0x3a, 0xf8, 0x12, 0xfc, 0x15, 0x47, 0xae, 0xab, 0xb6, 0xed, 0x81, 0xda,
  0x10, 0xfb, 0x39, 0xc9, 0x3b, 0x4f, 0x05, 0x33, 0xef, 0x46, 0x2c, 0xeb, 0x0c,
  0xf8, 0xd9, 0xf3, 0x58, 0x81, 0xde, 0xc2, 0x46, 0xec, 0x91, 0x05, 0x6a, 0xe1,
  0x2f, 0x07, 0x81, 0x12, 0xb4, 0x2f, 0xad, 0x46, 0x04, 0xb1, 0xfe, 0x36, 0xd8,
  0x5a, 0xed, 0x1a, 0x25, 0x3f, 0xda, 0x35, 0xc8, 0x4a, 0xeb, 0x7f, 0xca, 0x43,
  0xd5, 0x04, 0xf7, 0x74, 0xef, 0x0b, 0x0f, 0x2d, 0x81, 0xe9, 0xcf, 0x4d, 0x9e,
  0x4a, 0x04, 0x17, 0x46, 0x7f, 0x4d, 0xfc, 0x37, 0x32, 0x4c, 0xd5, 0x2c, 0x57,
  0xe4, 0x14, 0xdc, 0x29, 0xa5, 0x7f, 0xe0, 0x7b, 0xdf, 0xf5, 0x10, 0x51, 0x3a,
  0xd4, 0x03, 0xf9, 0xc5, 0xf5, 0x51, 0x69, 0x03, 0x16, 0x81, 0x18, 0x7f, 0xc2,
  0x9f, 0xc2, 0x06, 0xfc, 0x20, 0x3e, 0xc1, 0xa7, 0xcc, 0x70, 0xf2, 0x65, 0x24,
  0x81, 0x19, 0x3b, 0xf9, 0xce, 0xc1, 0xe9, 0x87, 0x2b, 0x34, 0x22, 0xc1, 0xe9,
  0xd3, 0x20, 0xeb, 0x97, 0x1b, 0xb6, 0xb9, 0x81, 0xe9, 0x1b, 0x8f, 0xb3, 0xa2,
  0xf6, 0xff, 0xff, 0x04, 0x00, 0x00, 0x00, 0x4b, 0x00, 0x00, 0x00, 0x4c, 0xce,
  0xa8, 0x12, 0xd7, 0xe5, 0x0b, 0x02, 0xe9, 0x0b, 0xc4, 0x09, 0x13, 0xfe, 0xf2,
  0x40, 0x48, 0x27, 0x07, 0x81, 0x2d, 0x2c, 0x28, 0xcd, 0xd6, 0x27, 0x7f, 0x01,
  0x12, 0x22, 0x7f, 0x7f, 0x4c, 0x7f, 0xa5, 0x81, 0x7f, 0x7f, 0x97, 0x7f, 0x7f,
  0x43, 0x81, 0x81, 0x7f, 0x58, 0xf3, 0x7f, 0x12, 0x3d, 0x98, 0x5b, 0x3f, 0x81,
  0x2b, 0x1d, 0x6d, 0xe8, 0xd2, 0x11, 0x52, 0x04, 0x02, 0xe5, 0x20, 0xc9, 0xd2,
  0x14, 0x49, 0x10, 0xeb, 0xb8, 0x11, 0x4a, 0xd5, 0x00, 0xfa, 0xf6, 0xff, 0xff,
  0x04, 0x00, 0x00, 0x00, 0x4b, 0x00, 0x00, 0x00, 0x7f, 0x36, 0x0e, 0xc2, 0x44,
  0xaf, 0x7f, 0xd9, 0x0f, 0x12, 0x5b, 0x75, 0x10, 0x86, 0x9d, 0xe9, 0x16, 0x7f,
  0x81, 0x7f, 0x81, 0x08, 0x7f, 0xfe, 0xcb, 0x7f, 0x7f, 0x7f, 0x81, 0x81, 0xb9,
  0x81, 0xa8, 0x1d, 0xfc, 0x06, 0x73, 0x37, 0x7f, 0xeb, 0xef, 0x26, 0x4a, 0x87,
  0x3c, 0x45, 0x77, 0x72, 0x39, 0x0b, 0x3e, 0xde, 0xf2, 0xd6, 0x7f, 0xec, 0xfd,
  0xb3, 0xc0, 0x0a, 0xed, 0xe3, 0xda, 0xff, 0x04, 0x06, 0x0d, 0x0c, 0x19, 0xe6,
  0xed, 0x0b, 0xc1, 0x0f, 0xf9, 0x00, 0x52, 0xf7, 0xff, 0xff, 0x04, 0x00, 0x00,
  0x00, 0x2c, 0x01, 0x00, 0x00, 0x3d, 0x26, 0xec, 0xc7, 0xe3, 0x1c, 0xae, 0xf4,
  0xed, 0x1f, 0x1a, 0x5d, 0x36, 0x5e, 0xe1, 0x7f, 0x24, 0x19, 0x42, 0x0c, 0xb2,
  0xff, 0x11, 0xb3, 0x26, 0x4c, 0xac, 0x81, 0x88, 0xe4, 0xd4, 0x2b, 0xbe, 0x65,
  0xe0, 0x31, 0x31, 0x53, 0x97, 0x0e, 0xd5, 0x81, 0x15, 0x59, 0x85, 0xe6, 0xfe,
  0xf9, 0x64, 0xc2, 0x03, 0xac, 0x8d, 0x28, 0xed, 0xcf, 0x0d, 0x0d, 0xe4, 0xf4,
  0x7f, 0x0f, 0xf1, 0xec, 0x05, 0x3a, 0xdb, 0x02, 0xbe, 0x05, 0xe4, 0x0a, 0xec,
  0xeb, 0xf4, 0xea, 0xd3, 0x13, 0xce, 0xf1, 0x28, 0xe4, 0x90, 0xa7, 0xee, 0xc4,
  0x0d, 0x4e, 0x20, 0x27, 0xd8, 0xc5, 0xd5, 0xc7, 0xff, 0x19, 0x0b, 0x7f, 0x9d,
  0xee, 0x7f, 0x00, 0x0c, 0xea, 0xae, 0x4a, 0xd5, 0x03, 0xe5, 0xe0, 0x40, 0xb9,
  0x4b, 0x21, 0xf3, 0x04, 0xf4, 0xdf, 0xdd, 0x00, 0x7f, 0x3d, 0xda, 0xb1, 0x1a,
  0xf5, 0x5f, 0xbe, 0x17, 0x5a, 0xdf, 0x27, 0xaf, 0xf5, 0xb4, 0x63, 0x0d, 0x72,
  0xef, 0x08, 0x10, 0xf0, 0x1f, 0xa5, 0x05, 0xf8, 0x1a, 0x14, 0x09, 0xc6, 0x3a,
  0xfe, 0x7f, 0x09, 0x09, 0xbd, 0x09, 0xbf, 0xb0, 0x0d, 0x81, 0x0a, 0x0e, 0x90,
  0x10, 0xd7, 0x6e, 0xe5, 0x04, 0x2d, 0xe5, 0x2b, 0x07, 0x0e, 0xab, 0x05, 0x11,
  0x26, 0x12, 0xfb, 0x49, 0xc4, 0x0e, 0xf8, 0xa6, 0xf4, 0x60, 0x35, 0x12, 0xc6,
  0x16, 0x0c, 0xee, 0xf9, 0x14, 0xf4, 0xe5, 0xe7, 0x7f, 0x0f, 0xdb, 0x38, 0x0b,
  0xed, 0x7f, 0xc3, 0x48, 0x1c, 0x4d, 0x29, 0x5a, 0xd7, 0x7d, 0x95, 0x1c, 0x17,
  0xe8, 0x98, 0x55, 0x04, 0xc2, 0x1c, 0x34, 0x7f, 0x3c, 0x14, 0xee, 0xc5, 0xed,
  0x20, 0xef, 0x2f, 0x04, 0xfe, 0xed, 0x06, 0xc4, 0x07, 0xd3, 0x00, 0xf6, 0xe9,
  0x03, 0x1b, 0xb2, 0x4e, 0xbd, 0x75, 0x81, 0xc9, 0xa9, 0xe1, 0x3a, 0xc6, 0x5d,
  0x20, 0xf3, 0xd1, 0x48, 0xdf, 0x4e, 0x3e, 0xda, 0xd2, 0x5a, 0xc9, 0x05, 0x04,
  0x13, 0xf3, 0xfe, 0x36, 0x17, 0x13, 0x81, 0x83, 0xf7, 0xeb, 0x8b, 0x00, 0x3c,
  0xe4, 0xf6, 0xd7, 0x1b, 0x3c, 0x7f, 0xeb, 0xfc, 0x17, 0x29, 0x45, 0x12, 0x18,
  0x17, 0xf6, 0x26, 0xeb, 0xe7, 0x16, 0x8a, 0xf8, 0xff, 0xff, 0x04, 0x00, 0x00,
  0x00, 0x64, 0x00, 0x00, 0x00, 0x34, 0x12, 0x00, 0x35, 0x6e, 0x81, 0xd8, 0xfa,
  0xe6, 0xf3, 0xed, 0x22, 0x99, 0xea, 0xfe, 0x25, 0x2a, 0xe8, 0xaf, 0xde, 0x9c,
  0x17, 0x43, 0xeb, 0x4c, 0xb8, 0x9b, 0x21, 0x7f, 0xff, 0x7a, 0xd4, 0xca, 0xfa,
  0xef, 0xdc, 0x33, 0xef, 0x19, 0x6d, 0x81, 0x81, 0xdb, 0xc5, 0xed, 0xda, 0x1e,
  0xb1, 0xd4, 0xeb, 0x32, 0x10, 0x60, 0xc5, 0xc2, 0xd1, 0x10, 0xbe, 0xf2, 0xf8,
  0x79, 0xf3, 0x81, 0x7f, 0x81, 0xe9, 0x7f, 0x7f, 0xee, 0x81, 0x81, 0x72, 0x7f,
  0x7f, 0x81, 0x8e, 0x81, 0x81, 0xcb, 0x81, 0x50, 0x5e, 0x54, 0xcb, 0xcd, 0xb8,
  0xf9, 0xc5, 0xda, 0x13, 0xbe, 0x81, 0xd8, 0xd7, 0x28, 0x7f, 0x1b, 0x02, 0x7f,
  0x43, 0xfa, 0xf8, 0xff, 0xff, 0x04, 0x00, 0x00, 0x00, 0xa0, 0x00, 0x00, 0x00,
  0x00, 0x00, 0x00, 0x00, 0x00, 0x00, 0x00, 0x00, 0x00, 0x00, 0x00, 0x00, 0x00,
  0x00, 0x00, 0x00, 0x00, 0x00, 0x00, 0x00, 0x00, 0x00, 0x00, 0x00, 0x00, 0x00,
  0x00, 0x00, 0x00, 0x00, 0x00, 0x00, 0x00, 0x00, 0x00, 0x00, 0x00, 0x00, 0x00,
  0x00, 0x00, 0x00, 0x00, 0x00, 0x00, 0x00, 0x00, 0x00, 0x00, 0x00, 0x00, 0x00,
  0x00, 0x00, 0x00, 0x00, 0x00, 0x00, 0x00, 0x00, 0x00, 0x00, 0x00, 0x00, 0x00,
  0x00, 0x00, 0x00, 0x00, 0x00, 0x00, 0x00, 0x00, 0x00, 0x00, 0x00, 0x00, 0x00,
  0x00, 0x00, 0x00, 0x00, 0x00, 0x00, 0x00, 0x00, 0x00, 0x00, 0x00, 0x00, 0x00,
  0x00, 0x00, 0x00, 0x00, 0x00, 0x00, 0x00, 0x00, 0x00, 0x00, 0x00, 0x00, 0x00,
  0x00, 0x00, 0x00, 0x00, 0x00, 0x00, 0x00, 0x00, 0x00, 0x00, 0x00, 0x00, 0x00,
  0x00, 0x00, 0x00, 0x00, 0x00, 0x00, 0x00, 0x00, 0x00, 0x00, 0x00, 0x00, 0x00,
  0x00, 0x00, 0x00, 0x00, 0x00, 0x00, 0x00, 0x00, 0x00, 0x00, 0x00, 0x00, 0x00,
  0x00, 0x00, 0x00, 0x00, 0x00, 0x00, 0x00, 0x00, 0x00, 0x00, 0x00, 0x00, 0x00,
  0x00, 0x00, 0x00, 0x00, 0xa6, 0xf9, 0xff, 0xff, 0x04, 0x00, 0x00, 0x00, 0x64,
  0x00, 0x00, 0x00, 0x3f, 0x0b, 0x07, 0xef, 0x32, 0x9a, 0x31, 0x3a, 0xfb, 0xfd,
  0x4a, 0x0c, 0x16, 0x1a, 0x0f, 0xe4, 0xe6, 0x06, 0x1d, 0xf2, 0x3f, 0x88, 0x16,
  0x1f, 0x1b, 0x86, 0xdf, 0x0e, 0xd4, 0x06, 0x0e, 0xfe, 0x43, 0x10, 0x3d, 0xfa,
  0x23, 0xfa, 0xfc, 0xf8, 0x5f, 0xc6, 0x30, 0xc0, 0xed, 0x81, 0xcc, 0xc6, 0x81,
  0x1a, 0x2e, 0xef, 0x5e, 0x50, 0x0b, 0xf5, 0x0e, 0xdf, 0xb0, 0x57, 0x7f, 0x81,
  0x7f, 0x89, 0xbb, 0x46, 0x7f, 0x81, 0xd9, 0x81, 0x8b, 0x7f, 0xd7, 0x55, 0x7f,
  0xa9, 0x7f, 0xad, 0x7f, 0x7f, 0x7b, 0xe6, 0x8d, 0x7f, 0x7f, 0x0f, 0xc2, 0x57,
  0x5d, 0x6c, 0x81, 0x37, 0x81, 0x7f, 0xaa, 0x7f, 0xe4, 0x7f, 0xb3, 0x4b, 0x16,
  0xfa, 0xff, 0xff, 0x04, 0x00, 0x00, 0x00, 0xe1, 0x00, 0x00, 0x00, 0x12, 0x12,
  0xe1, 0x7f, 0xf2, 0x23, 0xf7, 0xde, 0xea, 0xf7, 0x20, 0xeb, 0xd7, 0x1d, 0x04,
  0x1d, 0x13, 0x1b, 0x81, 0x5d, 0xc3, 0xfa, 0xd5, 0x1e, 0x29, 0x0e, 0xea, 0xfe,
  0x02, 0x05, 0xfd, 0x4a, 0x2d, 0x7f, 0x1f, 0xc0, 0x11, 0xe0, 0x39, 0x52, 0xee,
  0x09, 0xc7, 0x2b, 0x00, 0x0d, 0x08, 0xf5, 0x7f, 0x2d, 0xfa, 0xf1, 0xe8, 0x1d,
  0x45, 0xaa, 0x1a, 0xec, 0xdd, 0x27, 0x02, 0xeb, 0x0d, 0xe5, 0xdd, 0x45, 0x81,
  0x4f, 0xff, 0xf2, 0x12, 0x01, 0xc3, 0x6a, 0xa8, 0x81, 0x1a, 0x55, 0xbc, 0x3e,
  0xcd, 0x69, 0x9e, 0x1d, 0xaf, 0x02, 0xe7, 0xc9, 0xcd, 0x67, 0x0c, 0xfe, 0x1c,
  0x47, 0x2d, 0x7f, 0x99, 0x24, 0xdf, 0xe6, 0x1c, 0xdd, 0x6b, 0xd1, 0x04, 0xe3,
  0xf7, 0x79, 0x81, 0x0a, 0x07, 0x4f, 0xfa, 0x04, 0xec, 0x18, 0xef, 0xe0, 0x12,
  0x19, 0x06, 0xe8, 0xfe, 0x81, 0xe8, 0x1a, 0xdf, 0x0b, 0xe5, 0xf6, 0x16, 0xe2,
  0x1a, 0x00, 0xf5, 0xdf, 0xda, 0xe8, 0x81, 0x37, 0x27, 0x37, 0xfa, 0x06, 0xc9,
  0x10, 0xf2, 0x0b, 0xf3, 0x0e, 0xf3, 0xa3, 0x81, 0x98, 0x9a, 0x1b, 0xe4, 0xca,
  0xe9, 0x1f, 0xf6, 0x2f, 0x1f, 0xec, 0xd8, 0x33, 0xea, 0xa6, 0x73, 0x02, 0x05,
  0xf6, 0x01, 0x10, 0x0d, 0xdd, 0x20, 0x7f, 0xcb, 0x13, 0xdf, 0x1c, 0x47, 0xc6,
  0xf6, 0x17, 0x40, 0xaa, 0x12, 0x1b, 0x81, 0x50, 0xe8, 0xfd, 0x20, 0x32, 0xc3,
  0x2a, 0x7f, 0x0c, 0x02, 0x25, 0x5a, 0xaf, 0xdf, 0x25, 0xcb, 0xf4, 0xc7, 0x28,
  0x05, 0x12, 0x07, 0x36, 0xee, 0x17, 0xf6, 0x8e, 0xca, 0x04, 0x7f, 0x9a, 0x2c,
  0xd3, 0x3a, 0x00, 0x00, 0x00, 0x06, 0xfb, 0xff, 0xff, 0x04, 0x00, 0x00, 0x00,
  0x4b, 0x00, 0x00, 0x00, 0x0e, 0xe6, 0xf7, 0x03, 0xf5, 0xf6, 0xfb, 0xe1, 0x37,
  0x1a, 0x59, 0xf4, 0x12, 0xfe, 0xf9, 0xf8, 0xdb, 0xf1, 0x16, 0x03, 0x27, 0xf0,
  0x1c, 0x7f, 0xd6, 0x7f, 0xac, 0x04, 0xf8, 0x07, 0xc0, 0x81, 0xf1, 0xc4, 0xe9,
  0x7f, 0x81, 0x7f, 0x5b, 0x52, 0xac, 0x81, 0xb0, 0x81, 0x81, 0x81, 0xcc, 0x02,
  0x7f, 0x7f, 0x56, 0x12, 0xfd, 0x09, 0x7f, 0x06, 0x23, 0x81, 0xa6, 0x8e, 0x8e,
  0xf0, 0x7f, 0xda, 0xe9, 0xe6, 0xfc, 0x05, 0x70, 0x19, 0x07, 0xf7, 0xe6, 0xcc,
  0xdf, 0x00, 0x5e, 0xfb, 0xff, 0xff, 0x04, 0x00, 0x00, 0x00, 0x4b, 0x00, 0x00,
  0x00, 0x0a, 0x27, 0x0c, 0xf6, 0xfe, 0x1b, 0x0b, 0xf5, 0xfa, 0xf9, 0xf9, 0x0e,
  0x51, 0x69, 0x39, 0x60, 0x3e, 0xd5, 0x0f, 0xf8, 0x7f, 0x07, 0x81, 0xed, 0xfd,
  0xd8, 0x0e, 0x22, 0x2b, 0x7f, 0x7f, 0x7f, 0x7f, 0xd2, 0x05, 0x14, 0x81, 0x2a,
  0x06, 0xff, 0x81, 0x7f, 0xc5, 0x7f, 0x78, 0x16, 0x05, 0xd3, 0x7f, 0x7f, 0x24,
  0xf8, 0x26, 0x7f, 0x7f, 0xff, 0x12, 0x7f, 0xb4, 0xc9, 0x12, 0x03, 0xec, 0xff,
  0xf2, 0x18, 0x01, 0xf9, 0x40, 0x39, 0x0b, 0xf8, 0x9b, 0x09, 0x0d, 0x00, 0xb6,
  0xfb, 0xff, 0xff, 0x04, 0x00, 0x00, 0x00, 0x2c, 0x01, 0x00, 0x00, 0x01, 0x0b,
  0x7f, 0xc5, 0x0c, 0x0b, 0xdf, 0xfd, 0x9c, 0x13, 0x20, 0x13, 0xdb, 0x1a, 0x0b,
  0xf4, 0xe7, 0xe7, 0xdb, 0x30, 0x09, 0x0b, 0x07, 0xcf, 0x17, 0x0b, 0xdb, 0x1a,
  0x53, 0xf5, 0xf6, 0xe6, 0xd6, 0xfb, 0x1f, 0x4e, 0x0c, 0x50, 0x81, 0x45, 0x81,
  0x15, 0xfc, 0xdd, 0x03, 0xd6, 0x00, 0xd5, 0xc8, 0x05, 0x08, 0xee, 0x10, 0xf6,
  0xd8, 0xfd, 0xf8, 0xf9, 0xfe, 0xfb, 0x81, 0xf2, 0xfe, 0x0d, 0xf1, 0x75, 0xf7,
  0x01, 0x02, 0xff, 0x00, 0xf0, 0xf9, 0x19, 0xf8, 0xff, 0x16, 0x05, 0x0e, 0x01,
  0x11, 0x6c, 0xf3, 0xeb, 0x16, 0xb3, 0xd5, 0x21, 0x03, 0xf6, 0x74, 0x03, 0x53,
  0x81, 0x10, 0xff, 0xb9, 0x03, 0xe5, 0x0c, 0xde, 0xe3, 0xdd, 0x28, 0x0d, 0xe1,
  0x4e, 0x6c, 0xe4, 0x81, 0xf9, 0xfa, 0xf6, 0xd9, 0x60, 0x01, 0xd6, 0x2a, 0xf9,
  0x85, 0xe4, 0xcb, 0x03, 0x05, 0xdc, 0xb5, 0x81, 0x05, 0x05, 0x37, 0xfc, 0x6b,
  0x79, 0xd2, 0xde, 0xf6, 0x20, 0x36, 0x09, 0x28, 0x81, 0x40, 0xef, 0x13, 0x02,
  0x96, 0xe8, 0x02, 0xf6, 0x25, 0xf7, 0xf2, 0x2a, 0xdc, 0x11, 0xff, 0x1b, 0x1d,
  0x04, 0x0b, 0x13, 0xbf, 0xf1, 0xf3, 0xda, 0xed, 0xf9, 0xf5, 0xc9, 0x05, 0x77,
  0x7f, 0x1c, 0xf5, 0xea, 0xec, 0xae, 0xed, 0xf1, 0xdd, 0x04, 0x04, 0xfb, 0x7f,
  0x0f, 0xfa, 0xec, 0x19, 0xac, 0xf2, 0xe0, 0xf3, 0xe8, 0x21, 0x26, 0xf2, 0x17,
  0x04, 0x1f, 0x08, 0xc9, 0x06, 0x22, 0xed, 0x7f, 0x17, 0xe5, 0x31, 0xff, 0xf5,
  0x02, 0x18, 0x11, 0xe9, 0x99, 0x3e, 0x36, 0xd4, 0x3d, 0x3a, 0xfa, 0x99, 0xf3,
  0x3a, 0xbf, 0x0d, 0xde, 0xf4, 0xe6, 0xdd, 0xf5, 0x3a, 0x49, 0xe2, 0x49, 0xa6,
  0x0d, 0x93, 0x7f, 0x05, 0xbc, 0x0e, 0xe1, 0x2f, 0xdd, 0xb2, 0x81, 0xe2, 0x13,
  0xd9, 0xf9, 0x51, 0xfe, 0xe0, 0x39, 0x06, 0x04, 0x17, 0x03, 0x09, 0x12, 0x03,
  0xf0, 0x38, 0xe7, 0x2f, 0xce, 0xba, 0x13, 0x3b, 0x06, 0x00, 0xed, 0x18, 0x66,
  0xf6, 0x24, 0x81, 0xef, 0xf9, 0x2c, 0x1a, 0x19, 0x0f, 0xf6, 0xfc, 0xd7, 0x0f,
  0x05, 0x56, 0xf8, 0x09, 0x03, 0x0a, 0x01, 0xfb, 0x1c, 0x81, 0xfa, 0xed, 0xee,
  0xfc, 0xff, 0xff, 0x04, 0x00, 0x00, 0x00, 0x64, 0x00, 0x00, 0x00, 0x7f, 0xef,
  0xd4, 0xda, 0x5f, 0x81, 0xec, 0x13, 0x45, 0x06, 0xf4, 0x21, 0xe1, 0xfd, 0x33,
  0xa9, 0xe1, 0xff, 0xee, 0xce, 0x2d, 0x7f, 0x98, 0x05, 0x0d, 0xa5, 0x19, 0x81,
  0x81, 0xfb, 0x4e, 0x00, 0xe1, 0xf3, 0x5b, 0xf7, 0x23, 0x14, 0xf0, 0xf5, 0x0f,
  0x77, 0x7a, 0x7f, 0x99, 0x98, 0x81, 0xda, 0xca, 0x3b, 0x81, 0xf6, 0x81, 0x81,
  0x81, 0xe9, 0x7f, 0x81, 0x7f, 0x00, 0x7a, 0x72, 0x7f, 0xe7, 0x84, 0xdb, 0xd7,
  0x68, 0x5a, 0x7f, 0x2f, 0x81, 0xff, 0x1b, 0xdb, 0x7f, 0x1b, 0x65, 0x94, 0xd1,
  0x3c, 0xca, 0x91, 0xbc, 0x7f, 0xa8, 0x07, 0x39, 0x19, 0xf0, 0xfc, 0x29, 0xb5,
  0xf8, 0x1c, 0xfd, 0xc7, 0xf8, 0x0a, 0x7f, 0x5e, 0xfd, 0xff, 0xff, 0x04, 0x00,
  0x00, 0x00, 0x64, 0x00, 0x00, 0x00, 0x40, 0x42, 0x24, 0x11, 0x37, 0x7f, 0x15,
  0x91, 0xe3, 0xf8, 0x02, 0x26, 0x76, 0xdc, 0x17, 0x29, 0x16, 0x01, 0xf0, 0x31,
  0xc2, 0x96, 0x09, 0xf5, 0xfe, 0x0b, 0xff, 0xe0, 0x28, 0x0a, 0x7f, 0x21, 0xa5,
  0x81, 0x3e, 0xd8, 0x81, 0xf4, 0x11, 0xc7, 0xfb, 0x7f, 0x31, 0x7f, 0xf7, 0xe9,
  0x31, 0xce, 0x7f, 0xfb, 0xef, 0x7f, 0xa3, 0xed, 0x81, 0x34, 0x2a, 0x05, 0xf7,
  0x1f, 0xbc, 0x08, 0xec, 0x96, 0x7f, 0xf4, 0x05, 0x7f, 0xf7, 0x7f, 0xff, 0xb2,
  0x7f, 0xed, 0xbe, 0x7f, 0x1c, 0x7f, 0x87, 0x81, 0x81, 0xac, 0x81, 0x07, 0x1f,
  0x06, 0x81, 0x54, 0xee, 0x8c, 0x0d, 0x32, 0xbf, 0x7d, 0x71, 0x14, 0x14, 0x8f,
  0x81, 0x63, 0xce, 0xfd, 0xff, 0xff, 0x04, 0x00, 0x00, 0x00, 0x14, 0x00, 0x00,
  0x00, 0x81, 0x81, 0x81, 0x81, 0x81, 0x7f, 0x81, 0x81, 0x81, 0x81, 0x81, 0x81,
  0x7f, 0x81, 0x81, 0x81, 0x7f, 0x81, 0x7f, 0x7f, 0xee, 0xfd, 0xff, 0xff, 0x04,
  0x00, 0x00, 0x00, 0x07, 0x00, 0x00, 0x00, 0x00, 0x02, 0x09, 0x81, 0x03, 0xfa,
  0x00, 0x00, 0x02, 0xfe, 0xff, 0xff, 0x04, 0x00, 0x00, 0x00, 0x07, 0x00, 0x00,
  0x00, 0x00, 0x00, 0x01, 0xfe, 0xee, 0x7f, 0x05, 0x00, 0x16, 0xfe, 0xff, 0xff,
  0x04, 0x00, 0x00, 0x00, 0x20, 0x00, 0x00, 0x00, 0x00, 0x00, 0x00, 0x00, 0x00,
  0x00, 0x00, 0x00, 0x03, 0x00, 0x00, 0x00, 0x03, 0x00, 0x00, 0x00, 0x03, 0x00,
  0x00, 0x00, 0x03, 0x00, 0x00, 0x00, 0x00, 0x00, 0x00, 0x00, 0x00, 0x00, 0x00,
  0x00, 0x42, 0xfe, 0xff, 0xff, 0x04, 0x00, 0x00, 0x00, 0x78, 0x00, 0x00, 0x00,
  0x74, 0x09, 0x00, 0x00, 0x00, 0x00, 0x00, 0x00, 0x46, 0x12, 0x00, 0x00, 0x00,
  0x00, 0x00, 0x00, 0x9c, 0xbb, 0xff, 0xff, 0xff, 0xff, 0xff, 0xff, 0xb8, 0xbc,
  0xff, 0xff, 0xff, 0xff, 0xff, 0xff, 0x77, 0xfe, 0xff, 0xff, 0xff, 0xff, 0xff,
  0xff, 0x88, 0x02, 0x00, 0x00, 0x00, 0x00, 0x00, 0x00, 0x39, 0x43, 0xff, 0xff,
  0xff, 0xff, 0xff, 0xff, 0xdc, 0xac, 0xff, 0xff, 0xff, 0xff, 0xff, 0xff, 0x35,
  0xd5, 0xff, 0xff, 0xff, 0xff, 0xff, 0xff, 0x09, 0xfc, 0xff, 0xff, 0xff, 0xff,
  0xff, 0xff, 0x58, 0x1d, 0x00, 0x00, 0x00, 0x00, 0x00, 0x00, 0xe1, 0xcb, 0xff,
  0xff, 0xff, 0xff, 0xff, 0xff, 0x58, 0x0e, 0x00, 0x00, 0x00, 0x00, 0x00, 0x00,
  0x8e, 0xf3, 0xff, 0xff, 0xff, 0xff, 0xff, 0xff, 0x1d, 0x17, 0x00, 0x00, 0x00,
  0x00, 0x00, 0x00, 0xc6, 0xfe, 0xff, 0xff, 0x04, 0x00, 0x00, 0x00, 0x60, 0x00,
  0x00, 0x00, 0x9b, 0x05, 0x00, 0x00, 0x00, 0x00, 0x00, 0x00, 0x97, 0x35, 0x00,
  0x00, 0x00, 0x00, 0x00, 0x00, 0x52, 0x67, 0x00, 0x00, 0x00, 0x00, 0x00, 0x00,
  0x35, 0xf1, 0xfe, 0xff, 0xff, 0xff, 0xff, 0xff, 0x9c, 0xf7, 0xff, 0xff, 0xff,
  0xff, 0xff, 0xff, 0xbe, 0x57, 0x00, 0x00, 0x00, 0x00, 0x00, 0x00, 0x9c, 0x3f,
  0x00, 0x00, 0x00, 0x00, 0x00, 0x00, 0xf8, 0xa4, 0x02, 0x00, 0x00, 0x00, 0x00,
  0x00, 0x10, 0xd4, 0xff, 0xff, 0xff, 0xff, 0xff, 0xff, 0x3f, 0x43, 0xff, 0xff,
  0xff, 0xff, 0xff, 0xff, 0x8e, 0xc4, 0xff, 0xff, 0xff, 0xff, 0xff, 0xff, 0x87,
  0xf7, 0xff, 0xff, 0xff, 0xff, 0xff, 0xff, 0x32, 0xff, 0xff, 0xff, 0x04, 0x00,
  0x00, 0x00, 0x48, 0x00, 0x00, 0x00, 0x11, 0xe2, 0xff, 0xff, 0xff, 0xff, 0xff,
  0xff, 0xc6, 0x16, 0x00, 0x00, 0x00, 0x00, 0x00, 0x00, 0x00, 0xfb, 0xff, 0xff,
  0xff, 0xff, 0xff, 0xff, 0xfc, 0x31, 0x00, 0x00, 0x00, 0x00, 0x00, 0x00, 0xd2,
  0x08, 0x00, 0x00, 0x00, 0x00, 0x00, 0x00, 0x21, 0xe7, 0xff, 0xff, 0xff, 0xff,
  0xff, 0xff, 0x2a, 0x1b, 0x00, 0x00, 0x00, 0x00, 0x00, 0x00, 0xbe, 0x07, 0x00,
  0x00, 0x00, 0x00, 0x00, 0x00, 0xe1, 0x15, 0x00, 0x00, 0x00, 0x00, 0x00, 0x00,
  0x86, 0xff, 0xff, 0xff, 0x04, 0x00, 0x00, 0x00, 0x38, 0x00, 0x00, 0x00, 0xdd,
  0xe7, 0xfe, 0xff, 0xff, 0xff, 0xff, 0xff, 0x05, 0x04, 0xff, 0xff, 0xff, 0xff,
  0xff, 0xff, 0xcd, 0xe7, 0xff, 0xff, 0xff, 0xff, 0xff, 0xff, 0x4d, 0xf9, 0xff,
  0xff, 0xff, 0xff, 0xff, 0xff, 0xd1, 0xdd, 0xfd, 0xff, 0xff, 0xff, 0xff, 0xff,
  0x0a, 0x34, 0xff, 0xff, 0xff, 0xff, 0xff, 0xff, 0xf4, 0xef, 0xfc, 0xff, 0xff,
  0xff, 0xff, 0xff, 0xca, 0xff, 0xff, 0xff, 0x04, 0x00, 0x00, 0x00, 0x28, 0x00,
  0x00, 0x00, 0x2c, 0xd4, 0xfb, 0xff, 0xff, 0xff, 0xff, 0xff, 0x13, 0xf9, 0x00,
  0x00, 0x00, 0x00, 0x00, 0x00, 0x70, 0x94, 0x00, 0x00, 0x00, 0x00, 0x00, 0x00,
  0x98, 0xbc, 0xf9, 0xff, 0xff, 0xff, 0xff, 0xff, 0x2f, 0x68, 0xff, 0xff, 0xff,
  0xff, 0xff, 0xff, 0x00, 0x00, 0x06, 0x00, 0x08, 0x00, 0x04, 0x00, 0x06, 0x00,
  0x00, 0x00, 0x04, 0x00, 0x00, 0x00, 0x28, 0x00, 0x00, 0x00, 0xd0, 0x01, 0x03,
  0x00, 0x00, 0x00, 0x00, 0x00, 0x99, 0xc2, 0xf6, 0xff, 0xff, 0xff, 0xff, 0xff,
  0xd2, 0xf7, 0xff, 0xff, 0xff, 0xff, 0xff, 0xff, 0xcb, 0x99, 0xec, 0xff, 0xff,
  0xff, 0xff, 0xff, 0xf4, 0x46, 0xf2, 0xff, 0xff, 0xff, 0xff, 0xff, 0x58, 0x7d,
  0xff, 0xff, 0x5c, 0x7d, 0xff, 0xff, 0x0f, 0x00, 0x00, 0x00, 0x4d, 0x4c, 0x49,
  0x52, 0x20, 0x43, 0x6f, 0x6e, 0x76, 0x65, 0x72, 0x74, 0x65, 0x64, 0x2e, 0x00,
  0x01, 0x00, 0x00, 0x00, 0x14, 0x00, 0x00, 0x00, 0x00, 0x00, 0x0e, 0x00, 0x18,
  0x00, 0x14, 0x00, 0x10, 0x00, 0x0c, 0x00, 0x08, 0x00, 0x04, 0x00, 0x0e, 0x00,
  0x00, 0x00, 0x14, 0x00, 0x00, 0x00, 0x1c, 0x00, 0x00, 0x00, 0x50, 0x11, 0x00,
  0x00, 0x54, 0x11, 0x00, 0x00, 0x58, 0x11, 0x00, 0x00, 0x04, 0x00, 0x00, 0x00,
  0x6d, 0x61, 0x69, 0x6e, 0x00, 0x00, 0x00, 0x00, 0x42, 0x00, 0x00, 0x00, 0x14,
  0x11, 0x00, 0x00, 0xd8, 0x10, 0x00, 0x00, 0x78, 0x10, 0x00, 0x00, 0x24, 0x10,
  0x00, 0x00, 0xd8, 0x0f, 0x00, 0x00, 0x94, 0x0f, 0x00, 0x00, 0x50, 0x0f, 0x00,
  0x00, 0x00, 0x0f, 0x00, 0x00, 0xbc, 0x0e, 0x00, 0x00, 0x78, 0x0e, 0x00, 0x00,
  0x38, 0x0e, 0x00, 0x00, 0xf4, 0x0d, 0x00, 0x00, 0xb0, 0x0d, 0x00, 0x00, 0x70,
  0x0d, 0x00, 0x00, 0x30, 0x0d, 0x00, 0x00, 0xec, 0x0c, 0x00, 0x00, 0xa8, 0x0c,
  0x00, 0x00, 0x64, 0x0c, 0x00, 0x00, 0x20, 0x0c, 0x00, 0x00, 0xdc, 0x0b, 0x00,
  0x00, 0x9c, 0x0b, 0x00, 0x00, 0x58, 0x0b, 0x00, 0x00, 0x14, 0x0b, 0x00, 0x00,
  0xd4, 0x0a, 0x00, 0x00, 0x9c, 0x0a, 0x00, 0x00, 0x58, 0x0a, 0x00, 0x00, 0x14,
  0x0a, 0x00, 0x00, 0xd0, 0x09, 0x00, 0x00, 0x8c, 0x09, 0x00, 0x00, 0x48, 0x09,
  0x00, 0x00, 0x08, 0x09, 0x00, 0x00, 0xc4, 0x08, 0x00, 0x00, 0x80, 0x08, 0x00,
  0x00, 0x40, 0x08, 0x00, 0x00, 0x08, 0x08, 0x00, 0x00, 0xc4, 0x07, 0x00, 0x00,
  0x80, 0x07, 0x00, 0x00, 0x3c, 0x07, 0x00, 0x00, 0xf8, 0x06, 0x00, 0x00, 0xb4,
  0x06, 0x00, 0x00, 0x74, 0x06, 0x00, 0x00, 0x30, 0x06, 0x00, 0x00, 0xec, 0x05,
  0x00, 0x00, 0xac, 0x05, 0x00, 0x00, 0x74, 0x05, 0x00, 0x00, 0x30, 0x05, 0x00,
  0x00, 0xec, 0x04, 0x00, 0x00, 0xa8, 0x04, 0x00, 0x00, 0x64, 0x04, 0x00, 0x00,
  0x20, 0x04, 0x00, 0x00, 0xe0, 0x03, 0x00, 0x00, 0x9c, 0x03, 0x00, 0x00, 0x58,
  0x03, 0x00, 0x00, 0x18, 0x03, 0x00, 0x00, 0xe0, 0x02, 0x00, 0x00, 0x9c, 0x02,
  0x00, 0x00, 0x58, 0x02, 0x00, 0x00, 0x14, 0x02, 0x00, 0x00, 0xd0, 0x01, 0x00,
  0x00, 0x8c, 0x01, 0x00, 0x00, 0x4c, 0x01, 0x00, 0x00, 0x14, 0x01, 0x00, 0x00,
  0xc0, 0x00, 0x00, 0x00, 0x78, 0x00, 0x00, 0x00, 0x28, 0x00, 0x00, 0x00, 0x04,
  0x00, 0x00, 0x00, 0xfe, 0xef, 0xff, 0xff, 0x0c, 0x00, 0x00, 0x00, 0x10, 0x00,
  0x00, 0x00, 0x05, 0x00, 0x00, 0x00, 0x01, 0x00, 0x00, 0x00, 0x91, 0x00, 0x00,
  0x00, 0x01, 0x00, 0x00, 0x00, 0x8f, 0x00, 0x00, 0x00, 0xb6, 0xf0, 0xff, 0xff,
  0x20, 0x00, 0x00, 0x00, 0x00, 0x00, 0x00, 0x01, 0x28, 0x00, 0x00, 0x00, 0x2c,
  0x00, 0x00, 0x00, 0x02, 0x00, 0x00, 0x00, 0x00, 0x00, 0x0a, 0x00, 0x10, 0x00,
  0x0f, 0x00, 0x08, 0x00, 0x04, 0x00, 0x0a, 0x00, 0x00, 0x00, 0x01, 0x00, 0x00,
  0x00, 0x01, 0x00, 0x00, 0x00, 0x00, 0x00, 0x00, 0x01, 0x01, 0x00, 0x00, 0x00,
  0x8f, 0x00, 0x00, 0x00, 0x03, 0x00, 0x00, 0x00, 0x8e, 0x00, 0x00, 0x00, 0x47,
  0x00, 0x00, 0x00, 0x4f, 0x00, 0x00, 0x00, 0x02, 0xf1, 0xff, 0xff, 0x14, 0x00,
  0x00, 0x00, 0x00, 0x00, 0x00, 0x02, 0x20, 0x00, 0x00, 0x00, 0x24, 0x00, 0x00,
  0x00, 0x01, 0x00, 0x00, 0x00, 0xbc, 0xff, 0xff, 0xff, 0x01, 0x00, 0x00, 0x00,
  0x01, 0x00, 0x00, 0x00, 0x01, 0x00, 0x00, 0x00, 0x00, 0x00, 0x00, 0x01, 0x01,
  0x00, 0x00, 0x00, 0x8e, 0x00, 0x00, 0x00, 0x03, 0x00, 0x00, 0x00, 0x8d, 0x00,
  0x00, 0x00, 0x45, 0x00, 0x00, 0x00, 0x44, 0x00, 0x00, 0x00, 0x46, 0xf1, 0xff,
  0xff, 0x20, 0x00, 0x00, 0x00, 0x00, 0x00, 0x00, 0x02, 0x2c, 0x00, 0x00, 0x00,
  0x30, 0x00, 0x00, 0x00, 0x01, 0x00, 0x00, 0x00, 0x0c, 0x00, 0x14, 0x00, 0x13,
  0x00, 0x0c, 0x00, 0x08, 0x00, 0x04, 0x00, 0x0c, 0x00, 0x00, 0x00, 0x01, 0x00,
  0x00, 0x00, 0x01, 0x00, 0x00, 0x00, 0x01, 0x00, 0x00, 0x00, 0x00, 0x00, 0x00,
  0x01, 0x01, 0x00, 0x00, 0x00, 0x8d, 0x00, 0x00, 0x00, 0x03, 0x00, 0x00, 0x00,
  0x8c, 0x00, 0x00, 0x00, 0x43, 0x00, 0x00, 0x00, 0x44, 0x00, 0x00, 0x00, 0x96,
  0xf1, 0xff, 0xff, 0x14, 0x00, 0x00, 0x00, 0x00, 0x00, 0x00, 0x0b, 0x14, 0x00,
  0x00, 0x00, 0x18, 0x00, 0x00, 0x00, 0x03, 0x00, 0x00, 0x00, 0xa0, 0xf4, 0xff,
  0xff, 0x00, 0x00, 0x00, 0x00, 0x01, 0x00, 0x00, 0x00, 0x8c, 0x00, 0x00, 0x00,
  0x02, 0x00, 0x00, 0x00, 0x85, 0x00, 0x00, 0x00, 0x8b, 0x00, 0x00, 0x00, 0xca,
  0xf1, 0xff, 0xff, 0x14, 0x00, 0x00, 0x00, 0x00, 0x00, 0x00, 0x01, 0x18, 0x00,
  0x00, 0x00, 0x1c, 0x00, 0x00, 0x00, 0x02, 0x00, 0x00, 0x00, 0x52, 0xf2, 0xff,
  0xff, 0x01, 0x00, 0x00, 0x00, 0x01, 0x00, 0x00, 0x00, 0x01, 0x00, 0x00, 0x00,
  0x8b, 0x00, 0x00, 0x00, 0x03, 0x00, 0x00, 0x00, 0x8a, 0x00, 0x00, 0x00, 0x42,
  0x00, 0x00, 0x00, 0x4e, 0x00, 0x00, 0x00, 0x06, 0xf2, 0xff, 0xff, 0x14, 0x00,
  0x00, 0x00, 0x00, 0x00, 0x00, 0x02, 0x1c, 0x00, 0x00, 0x00, 0x20, 0x00, 0x00,
  0x00, 0x01, 0x00, 0x00, 0x00, 0xf8, 0xf1, 0xff, 0xff, 0x01, 0x00, 0x00, 0x00,
  0x01, 0x00, 0x00, 0x00, 0x01, 0x00, 0x00, 0x00, 0x01, 0x00, 0x00, 0x00, 0x8a,
  0x00, 0x00, 0x00, 0x03, 0x00, 0x00, 0x00, 0x89, 0x00, 0x00, 0x00, 0x41, 0x00,
  0x00, 0x00, 0x44, 0x00, 0x00, 0x00, 0x46, 0xf2, 0xff, 0xff, 0x14, 0x00, 0x00,
  0x00, 0x00, 0x00, 0x00, 0x02, 0x1c, 0x00, 0x00, 0x00, 0x20, 0x00, 0x00, 0x00,
  0x01, 0x00, 0x00, 0x00, 0x38, 0xf2, 0xff, 0xff, 0x01, 0x00, 0x00, 0x00, 0x01,
  0x00, 0x00, 0x00, 0x01, 0x00, 0x00, 0x00, 0x01, 0x00, 0x00, 0x00, 0x89, 0x00,
  0x00, 0x00, 0x03, 0x00, 0x00, 0x00, 0x88, 0x00, 0x00, 0x00, 0x40, 0x00, 0x00,
  0x00, 0x44, 0x00, 0x00, 0x00, 0x86, 0xf2, 0xff, 0xff, 0x14, 0x00, 0x00, 0x00,
  0x00, 0x00, 0x00, 0x01, 0x1c, 0x00, 0x00, 0x00, 0x20, 0x00, 0x00, 0x00, 0x02,
  0x00, 0x00, 0x00, 0xdc, 0xf3, 0xff, 0xff, 0x00, 0x00, 0x00, 0x01, 0x01, 0x00,
  0x00, 0x00, 0x01, 0x00, 0x00, 0x00, 0x01, 0x00, 0x00, 0x00, 0x88, 0x00, 0x00,
  0x00, 0x03, 0x00, 0x00, 0x00, 0x87, 0x00, 0x00, 0x00, 0x3f, 0x00, 0x00, 0x00,
  0x01, 0x00, 0x00, 0x00, 0xc6, 0xf2, 0xff, 0xff, 0x14, 0x00, 0x00, 0x00, 0x00,
  0x00, 0x00, 0x02, 0x1c, 0x00, 0x00, 0x00, 0x20, 0x00, 0x00, 0x00, 0x01, 0x00,
  0x00, 0x00, 0xb8, 0xf2, 0xff, 0xff, 0x01, 0x00, 0x00, 0x00, 0x01, 0x00, 0x00,
  0x00, 0x01, 0x00, 0x00, 0x00, 0x01, 0x00, 0x00, 0x00, 0x87, 0x00, 0x00, 0x00,
  0x03, 0x00, 0x00, 0x00, 0x86, 0x00, 0x00, 0x00, 0x3e, 0x00, 0x00, 0x00, 0x44,
  0x00, 0x00, 0x00, 0x06, 0xf3, 0xff, 0xff, 0x14, 0x00, 0x00, 0x00, 0x00, 0x00,
  0x00, 0x02, 0x1c, 0x00, 0x00, 0x00, 0x20, 0x00, 0x00, 0x00, 0x01, 0x00, 0x00,
  0x00, 0xf8, 0xf2, 0xff, 0xff, 0x01, 0x00, 0x00, 0x00, 0x01, 0x00, 0x00, 0x00,
  0x01, 0x00, 0x00, 0x00, 0x01, 0x00, 0x00, 0x00, 0x86, 0x00, 0x00, 0x00, 0x03,
  0x00, 0x00, 0x00, 0x85, 0x00, 0x00, 0x00, 0x3d, 0x00, 0x00, 0x00, 0x44, 0x00,
  0x00, 0x00, 0x46, 0xf3, 0xff, 0xff, 0x14, 0x00, 0x00, 0x00, 0x00, 0x00, 0x00,
  0x0b, 0x14, 0x00, 0x00, 0x00, 0x18, 0x00, 0x00, 0x00, 0x03, 0x00, 0x00, 0x00,
  0x50, 0xf6, 0xff, 0xff, 0x00, 0x00, 0x00, 0x00, 0x01, 0x00, 0x00, 0x00, 0x85,
  0x00, 0x00, 0x00, 0x02, 0x00, 0x00, 0x00, 0x84, 0x00, 0x00, 0x00, 0x81, 0x00,
  0x00, 0x00, 0x7a, 0xf3, 0xff, 0xff, 0x14, 0x00, 0x00, 0x00, 0x00, 0x00, 0x00,
  0x01, 0x18, 0x00, 0x00, 0x00, 0x1c, 0x00, 0x00, 0x00, 0x02, 0x00, 0x00, 0x00,
  0x02, 0xf4, 0xff, 0xff, 0x01, 0x00, 0x00, 0x00, 0x01, 0x00, 0x00, 0x00, 0x01,
  0x00, 0x00, 0x00, 0x84, 0x00, 0x00, 0x00, 0x03, 0x00, 0x00, 0x00, 0x83, 0x00,
  0x00, 0x00, 0x3c, 0x00, 0x00, 0x00, 0x4d, 0x00, 0x00, 0x00, 0xb6, 0xf3, 0xff,
  0xff, 0x14, 0x00, 0x00, 0x00, 0x00, 0x00, 0x00, 0x02, 0x1c, 0x00, 0x00, 0x00,
  0x20, 0x00, 0x00, 0x00, 0x01, 0x00, 0x00, 0x00, 0xa8, 0xf3, 0xff, 0xff, 0x01,
  0x00, 0x00, 0x00, 0x01, 0x00, 0x00, 0x00, 0x01, 0x00, 0x00, 0x00, 0x01, 0x00,
  0x00, 0x00, 0x83, 0x00, 0x00, 0x00, 0x03, 0x00, 0x00, 0x00, 0x82, 0x00, 0x00,
  0x00, 0x3b, 0x00, 0x00, 0x00, 0x3a, 0x00, 0x00, 0x00, 0xf6, 0xf3, 0xff, 0xff,
  0x14, 0x00, 0x00, 0x00, 0x00, 0x00, 0x00, 0x02, 0x1c, 0x00, 0x00, 0x00, 0x20,
  0x00, 0x00, 0x00, 0x01, 0x00, 0x00, 0x00, 0xe8, 0xf3, 0xff, 0xff, 0x01, 0x00,
  0x00, 0x00, 0x01, 0x00, 0x00, 0x00, 0x01, 0x00, 0x00, 0x00, 0x01, 0x00, 0x00,
  0x00, 0x82, 0x00, 0x00, 0x00, 0x03, 0x00, 0x00, 0x00, 0x7b, 0x00, 0x00, 0x00,
  0x39, 0x00, 0x00, 0x00, 0x3a, 0x00, 0x00, 0x00, 0x36, 0xf4, 0xff, 0xff, 0x14,
  0x00, 0x00, 0x00, 0x00, 0x00, 0x00, 0x01, 0x18, 0x00, 0x00, 0x00, 0x1c, 0x00,
  0x00, 0x00, 0x02, 0x00, 0x00, 0x00, 0xbe, 0xf4, 0xff, 0xff, 0x01, 0x00, 0x00,
  0x00, 0x01, 0x00, 0x00, 0x00, 0x01, 0x00, 0x00, 0x00, 0x81, 0x00, 0x00, 0x00,
  0x03, 0x00, 0x00, 0x00, 0x80, 0x00, 0x00, 0x00, 0x38, 0x00, 0x00, 0x00, 0x4d,
  0x00, 0x00, 0x00, 0x72, 0xf4, 0xff, 0xff, 0x14, 0x00, 0x00, 0x00, 0x00, 0x00,
  0x00, 0x02, 0x1c, 0x00, 0x00, 0x00, 0x20, 0x00, 0x00, 0x00, 0x01, 0x00, 0x00,
  0x00, 0x64, 0xf4, 0xff, 0xff, 0x01, 0x00, 0x00, 0x00, 0x01, 0x00, 0x00, 0x00,
  0x01, 0x00, 0x00, 0x00, 0x01, 0x00, 0x00, 0x00, 0x80, 0x00, 0x00, 0x00, 0x03,
  0x00, 0x00, 0x00, 0x7f, 0x00, 0x00, 0x00, 0x37, 0x00, 0x00, 0x00, 0x44, 0x00,
  0x00, 0x00, 0xb2, 0xf4, 0xff, 0xff, 0x14, 0x00, 0x00, 0x00, 0x00, 0x00, 0x00,
  0x02, 0x1c, 0x00, 0x00, 0x00, 0x20, 0x00, 0x00, 0x00, 0x01, 0x00, 0x00, 0x00,
  0xa4, 0xf4, 0xff, 0xff, 0x01, 0x00, 0x00, 0x00, 0x01, 0x00, 0x00, 0x00, 0x01,
  0x00, 0x00, 0x00, 0x01, 0x00, 0x00, 0x00, 0x7f, 0x00, 0x00, 0x00, 0x03, 0x00,
  0x00, 0x00, 0x7e, 0x00, 0x00, 0x00, 0x36, 0x00, 0x00, 0x00, 0x44, 0x00, 0x00,
  0x00, 0xf2, 0xf4, 0xff, 0xff, 0x14, 0x00, 0x00, 0x00, 0x00, 0x00, 0x00, 0x01,
  0x1c, 0x00, 0x00, 0x00, 0x20, 0x00, 0x00, 0x00, 0x02, 0x00, 0x00, 0x00, 0x48,
  0xf6, 0xff, 0xff, 0x00, 0x00, 0x00, 0x01, 0x01, 0x00, 0x00, 0x00, 0x01, 0x00,
  0x00, 0x00, 0x01, 0x00, 0x00, 0x00, 0x7e, 0x00, 0x00, 0x00, 0x03, 0x00, 0x00,
  0x00, 0x7d, 0x00, 0x00, 0x00, 0x35, 0x00, 0x00, 0x00, 0x02, 0x00, 0x00, 0x00,
  0x32, 0xf5, 0xff, 0xff, 0x14, 0x00, 0x00, 0x00, 0x00, 0x00, 0x00, 0x02, 0x1c,
  0x00, 0x00, 0x00, 0x20, 0x00, 0x00, 0x00, 0x01, 0x00, 0x00, 0x00, 0x24, 0xf5,
  0xff, 0xff, 0x01, 0x00, 0x00, 0x00, 0x01, 0x00, 0x00, 0x00, 0x01, 0x00, 0x00,
  0x00, 0x01, 0x00, 0x00, 0x00, 0x7d, 0x00, 0x00, 0x00, 0x03, 0x00, 0x00, 0x00,
  0x7c, 0x00, 0x00, 0x00, 0x34, 0x00, 0x00, 0x00, 0x3a, 0x00, 0x00, 0x00, 0x72,
  0xf5, 0xff, 0xff, 0x14, 0x00, 0x00, 0x00, 0x00, 0x00, 0x00, 0x02, 0x1c, 0x00,
  0x00, 0x00, 0x20, 0x00, 0x00, 0x00, 0x01, 0x00, 0x00, 0x00, 0x64, 0xf5, 0xff,
  0xff, 0x01, 0x00, 0x00, 0x00, 0x01, 0x00, 0x00, 0x00, 0x01, 0x00, 0x00, 0x00,
  0x01, 0x00, 0x00, 0x00, 0x7c, 0x00, 0x00, 0x00, 0x03, 0x00, 0x00, 0x00, 0x7b,
  0x00, 0x00, 0x00, 0x33, 0x00, 0x00, 0x00, 0x3a, 0x00, 0x00, 0x00, 0xb2, 0xf5,
  0xff, 0xff, 0x14, 0x00, 0x00, 0x00, 0x00, 0x00, 0x00, 0x0b, 0x14, 0x00, 0x00,
  0x00, 0x18, 0x00, 0x00, 0x00, 0x03, 0x00, 0x00, 0x00, 0xbc, 0xf8, 0xff, 0xff,
  0x00, 0x00, 0x00, 0x00, 0x01, 0x00, 0x00, 0x00, 0x7b, 0x00, 0x00, 0x00, 0x02,
  0x00, 0x00, 0x00, 0x7a, 0x00, 0x00, 0x00, 0x77, 0x00, 0x00, 0x00, 0xe6, 0xf5,
  0xff, 0xff, 0x14, 0x00, 0x00, 0x00, 0x00, 0x00, 0x00, 0x01, 0x18, 0x00, 0x00,
  0x00, 0x1c, 0x00, 0x00, 0x00, 0x02, 0x00, 0x00, 0x00, 0x6e, 0xf6, 0xff, 0xff,
  0x01, 0x00, 0x00, 0x00, 0x01, 0x00, 0x00, 0x00, 0x01, 0x00, 0x00, 0x00, 0x7a,
  0x00, 0x00, 0x00, 0x03, 0x00, 0x00, 0x00, 0x79, 0x00, 0x00, 0x00, 0x32, 0x00,
  0x00, 0x00, 0x4c, 0x00, 0x00, 0x00, 0x22, 0xf6, 0xff, 0xff, 0x14, 0x00, 0x00,
  0x00, 0x00, 0x00, 0x00, 0x02, 0x1c, 0x00, 0x00, 0x00, 0x20, 0x00, 0x00, 0x00,
  0x01, 0x00, 0x00, 0x00, 0x14, 0xf6, 0xff, 0xff, 0x01, 0x00, 0x00, 0x00, 0x01,
  0x00, 0x00, 0x00, 0x01, 0x00, 0x00, 0x00, 0x01, 0x00, 0x00, 0x00, 0x79, 0x00,
  0x00, 0x00, 0x03, 0x00, 0x00, 0x00, 0x78, 0x00, 0x00, 0x00, 0x31, 0x00, 0x00,
  0x00, 0x30, 0x00, 0x00, 0x00, 0x62, 0xf6, 0xff, 0xff, 0x14, 0x00, 0x00, 0x00,
  0x00, 0x00, 0x00, 0x02, 0x1c, 0x00, 0x00, 0x00, 0x20, 0x00, 0x00, 0x00, 0x01,
  0x00, 0x00, 0x00, 0x54, 0xf6, 0xff, 0xff, 0x01, 0x00, 0x00, 0x00, 0x01, 0x00,
  0x00, 0x00, 0x01, 0x00, 0x00, 0x00, 0x01, 0x00, 0x00, 0x00, 0x78, 0x00, 0x00,
  0x00, 0x03, 0x00, 0x00, 0x00, 0x71, 0x00, 0x00, 0x00, 0x2f, 0x00, 0x00, 0x00,
  0x30, 0x00, 0x00, 0x00, 0xa2, 0xf6, 0xff, 0xff, 0x14, 0x00, 0x00, 0x00, 0x00,
  0x00, 0x00, 0x01, 0x18, 0x00, 0x00, 0x00, 0x1c, 0x00, 0x00, 0x00, 0x02, 0x00,
  0x00, 0x00, 0x2a, 0xf7, 0xff, 0xff, 0x01, 0x00, 0x00, 0x00, 0x01, 0x00, 0x00,
  0x00, 0x01, 0x00, 0x00, 0x00, 0x77, 0x00, 0x00, 0x00, 0x03, 0x00, 0x00, 0x00,
  0x76, 0x00, 0x00, 0x00, 0x2e, 0x00, 0x00, 0x00, 0x4c, 0x00, 0x00, 0x00, 0xde,
  0xf6, 0xff, 0xff, 0x14, 0x00, 0x00, 0x00, 0x00, 0x00, 0x00, 0x02, 0x1c, 0x00,
  0x00, 0x00, 0x20, 0x00, 0x00, 0x00, 0x01, 0x00, 0x00, 0x00, 0xd0, 0xf6, 0xff,
  0xff, 0x01, 0x00, 0x00, 0x00, 0x01, 0x00, 0x00, 0x00, 0x01, 0x00, 0x00, 0x00,
  0x01, 0x00, 0x00, 0x00, 0x76, 0x00, 0x00, 0x00, 0x03, 0x00, 0x00, 0x00, 0x75,
  0x00, 0x00, 0x00, 0x2d, 0x00, 0x00, 0x00, 0x3a, 0x00, 0x00, 0x00, 0x1e, 0xf7,
  0xff, 0xff, 0x14, 0x00, 0x00, 0x00, 0x00, 0x00, 0x00, 0x02, 0x1c, 0x00, 0x00,
  0x00, 0x20, 0x00, 0x00, 0x00, 0x01, 0x00, 0x00, 0x00, 0x10, 0xf7, 0xff, 0xff,
  0x01, 0x00, 0x00, 0x00, 0x01, 0x00, 0x00, 0x00, 0x01, 0x00, 0x00, 0x00, 0x01,
  0x00, 0x00, 0x00, 0x75, 0x00, 0x00, 0x00, 0x03, 0x00, 0x00, 0x00, 0x74, 0x00,
  0x00, 0x00, 0x2c, 0x00, 0x00, 0x00, 0x3a, 0x00, 0x00, 0x00, 0x5e, 0xf7, 0xff,
  0xff, 0x14, 0x00, 0x00, 0x00, 0x00, 0x00, 0x00, 0x01, 0x1c, 0x00, 0x00, 0x00,
  0x20, 0x00, 0x00, 0x00, 0x02, 0x00, 0x00, 0x00, 0xb4, 0xf8, 0xff, 0xff, 0x00,
  0x00, 0x00, 0x01, 0x01, 0x00, 0x00, 0x00, 0x01, 0x00, 0x00, 0x00, 0x01, 0x00,
  0x00, 0x00, 0x74, 0x00, 0x00, 0x00, 0x03, 0x00, 0x00, 0x00, 0x73, 0x00, 0x00,
  0x00, 0x2b, 0x00, 0x00, 0x00, 0x03, 0x00, 0x00, 0x00, 0x9e, 0xf7, 0xff, 0xff,
  0x14, 0x00, 0x00, 0x00, 0x00, 0x00, 0x00, 0x02, 0x1c, 0x00, 0x00, 0x00, 0x20,
  0x00, 0x00, 0x00, 0x01, 0x00, 0x00, 0x00, 0x90, 0xf7, 0xff, 0xff, 0x01, 0x00,
  0x00, 0x00, 0x01, 0x00, 0x00, 0x00, 0x01, 0x00, 0x00, 0x00, 0x01, 0x00, 0x00,
  0x00, 0x73, 0x00, 0x00, 0x00, 0x03, 0x00, 0x00, 0x00, 0x72, 0x00, 0x00, 0x00,
  0x2a, 0x00, 0x00, 0x00, 0x30, 0x00, 0x00, 0x00, 0xde, 0xf7, 0xff, 0xff, 0x14,
  0x00, 0x00, 0x00, 0x00, 0x00, 0x00, 0x02, 0x1c, 0x00, 0x00, 0x00, 0x20, 0x00,
  0x00, 0x00, 0x01, 0x00, 0x00, 0x00, 0xd0, 0xf7, 0xff, 0xff, 0x01, 0x00, 0x00,
  0x00, 0x01, 0x00, 0x00, 0x00, 0x01, 0x00, 0x00, 0x00, 0x01, 0x00, 0x00, 0x00,
  0x72, 0x00, 0x00, 0x00, 0x03, 0x00, 0x00, 0x00, 0x71, 0x00, 0x00, 0x00, 0x29,
  0x00, 0x00, 0x00, 0x30, 0x00, 0x00, 0x00, 0x1e, 0xf8, 0xff, 0xff, 0x14, 0x00,
  0x00, 0x00, 0x00, 0x00, 0x00, 0x0b, 0x14, 0x00, 0x00, 0x00, 0x18, 0x00, 0x00,
  0x00, 0x03, 0x00, 0x00, 0x00, 0x28, 0xfb, 0xff, 0xff, 0x00, 0x00, 0x00, 0x00,
  0x01, 0x00, 0x00, 0x00, 0x71, 0x00, 0x00, 0x00, 0x02, 0x00, 0x00, 0x00, 0x70,
  0x00, 0x00, 0x00, 0x6d, 0x00, 0x00, 0x00, 0x52, 0xf8, 0xff, 0xff, 0x14, 0x00,
  0x00, 0x00, 0x00, 0x00, 0x00, 0x01, 0x18, 0x00, 0x00, 0x00, 0x1c, 0x00, 0x00,
  0x00, 0x02, 0x00, 0x00, 0x00, 0xda, 0xf8, 0xff, 0xff, 0x01, 0x00, 0x00, 0x00,
  0x01, 0x00, 0x00, 0x00, 0x01, 0x00, 0x00, 0x00, 0x70, 0x00, 0x00, 0x00, 0x03,
  0x00, 0x00, 0x00, 0x6f, 0x00, 0x00, 0x00, 0x28, 0x00, 0x00, 0x00, 0x4b, 0x00,
  0x00, 0x00, 0x8e, 0xf8, 0xff, 0xff, 0x14, 0x00, 0x00, 0x00, 0x00, 0x00, 0x00,
  0x02, 0x1c, 0x00, 0x00, 0x00, 0x20, 0x00, 0x00, 0x00, 0x01, 0x00, 0x00, 0x00,
  0x80, 0xf8, 0xff, 0xff, 0x01, 0x00, 0x00, 0x00, 0x01, 0x00, 0x00, 0x00, 0x01,
  0x00, 0x00, 0x00, 0x01, 0x00, 0x00, 0x00, 0x6f, 0x00, 0x00, 0x00, 0x03, 0x00,
  0x00, 0x00, 0x6e, 0x00, 0x00, 0x00, 0x27, 0x00, 0x00, 0x00, 0x26, 0x00, 0x00,
  0x00, 0xce, 0xf8, 0xff, 0xff, 0x14, 0x00, 0x00, 0x00, 0x00, 0x00, 0x00, 0x02,
  0x1c, 0x00, 0x00, 0x00, 0x20, 0x00, 0x00, 0x00, 0x01, 0x00, 0x00, 0x00, 0xc0,
  0xf8, 0xff, 0xff, 0x01, 0x00, 0x00, 0x00, 0x01, 0x00, 0x00, 0x00, 0x01, 0x00,
  0x00, 0x00, 0x01, 0x00, 0x00, 0x00, 0x6e, 0x00, 0x00, 0x00, 0x03, 0x00, 0x00,
  0x00, 0x67, 0x00, 0x00, 0x00, 0x25, 0x00, 0x00, 0x00, 0x26, 0x00, 0x00, 0x00,
  0x0e, 0xf9, 0xff, 0xff, 0x14, 0x00, 0x00, 0x00, 0x00, 0x00, 0x00, 0x01, 0x18,
  0x00, 0x00, 0x00, 0x1c, 0x00, 0x00, 0x00, 0x02, 0x00, 0x00, 0x00, 0x96, 0xf9,
  0xff, 0xff, 0x01, 0x00, 0x00, 0x00, 0x01, 0x00, 0x00, 0x00, 0x01, 0x00, 0x00,
  0x00, 0x6d, 0x00, 0x00, 0x00, 0x03, 0x00, 0x00, 0x00, 0x6c, 0x00, 0x00, 0x00,
  0x24, 0x00, 0x00, 0x00, 0x4b, 0x00, 0x00, 0x00, 0x4a, 0xf9, 0xff, 0xff, 0x14,
  0x00, 0x00, 0x00, 0x00, 0x00, 0x00, 0x02, 0x1c, 0x00, 0x00, 0x00, 0x20, 0x00,
  0x00, 0x00, 0x01, 0x00, 0x00, 0x00, 0x3c, 0xf9, 0xff, 0xff, 0x01, 0x00, 0x00,
  0x00, 0x01, 0x00, 0x00, 0x00, 0x01, 0x00, 0x00, 0x00, 0x01, 0x00, 0x00, 0x00,
  0x6c, 0x00, 0x00, 0x00, 0x03, 0x00, 0x00, 0x00, 0x6b, 0x00, 0x00, 0x00, 0x23,
  0x00, 0x00, 0x00, 0x30, 0x00, 0x00, 0x00, 0x8a, 0xf9, 0xff, 0xff, 0x14, 0x00,
  0x00, 0x00, 0x00, 0x00, 0x00, 0x02, 0x1c, 0x00, 0x00, 0x00, 0x20, 0x00, 0x00,
  0x00, 0x01, 0x00, 0x00, 0x00, 0x7c, 0xf9, 0xff, 0xff, 0x01, 0x00, 0x00, 0x00,
  0x01, 0x00, 0x00, 0x00, 0x01, 0x00, 0x00, 0x00, 0x01, 0x00, 0x00, 0x00, 0x6b,
  0x00, 0x00, 0x00, 0x03, 0x00, 0x00, 0x00, 0x6a, 0x00, 0x00, 0x00, 0x22, 0x00,
  0x00, 0x00, 0x30, 0x00, 0x00, 0x00, 0xca, 0xf9, 0xff, 0xff, 0x14, 0x00, 0x00,
  0x00, 0x00, 0x00, 0x00, 0x01, 0x1c, 0x00, 0x00, 0x00, 0x20, 0x00, 0x00, 0x00,
  0x02, 0x00, 0x00, 0x00, 0x20, 0xfb, 0xff, 0xff, 0x00, 0x00, 0x00, 0x01, 0x01,
  0x00, 0x00, 0x00, 0x01, 0x00, 0x00, 0x00, 0x01, 0x00, 0x00, 0x00, 0x6a, 0x00,
  0x00, 0x00, 0x03, 0x00, 0x00, 0x00, 0x69, 0x00, 0x00, 0x00, 0x21, 0x00, 0x00,
  0x00, 0x04, 0x00, 0x00, 0x00, 0x0a, 0xfa, 0xff, 0xff, 0x14, 0x00, 0x00, 0x00,
  0x00, 0x00, 0x00, 0x02, 0x1c, 0x00, 0x00, 0x00, 0x20, 0x00, 0x00, 0x00, 0x01,
  0x00, 0x00, 0x00, 0xfc, 0xf9, 0xff, 0xff, 0x01, 0x00, 0x00, 0x00, 0x01, 0x00,
  0x00, 0x00, 0x01, 0x00, 0x00, 0x00, 0x01, 0x00, 0x00, 0x00, 0x69, 0x00, 0x00,
  0x00, 0x03, 0x00, 0x00, 0x00, 0x68, 0x00, 0x00, 0x00, 0x20, 0x00, 0x00, 0x00,
  0x26, 0x00, 0x00, 0x00, 0x4a, 0xfa, 0xff, 0xff, 0x14, 0x00, 0x00, 0x00, 0x00,
  0x00, 0x00, 0x02, 0x1c, 0x00, 0x00, 0x00, 0x20, 0x00, 0x00, 0x00, 0x01, 0x00,
  0x00, 0x00, 0x3c, 0xfa, 0xff, 0xff, 0x01, 0x00, 0x00, 0x00, 0x01, 0x00, 0x00,
  0x00, 0x01, 0x00, 0x00, 0x00, 0x01, 0x00, 0x00, 0x00, 0x68, 0x00, 0x00, 0x00,
  0x03, 0x00, 0x00, 0x00, 0x67, 0x00, 0x00, 0x00, 0x1f, 0x00, 0x00, 0x00, 0x26,
  0x00, 0x00, 0x00, 0x8a, 0xfa, 0xff, 0xff, 0x14, 0x00, 0x00, 0x00, 0x00, 0x00,
  0x00, 0x0b, 0x14, 0x00, 0x00, 0x00, 0x18, 0x00, 0x00, 0x00, 0x03, 0x00, 0x00,
  0x00, 0x94, 0xfd, 0xff, 0xff, 0x00, 0x00, 0x00, 0x00, 0x01, 0x00, 0x00, 0x00,
  0x67, 0x00, 0x00, 0x00, 0x02, 0x00, 0x00, 0x00, 0x66, 0x00, 0x00, 0x00, 0x63,
  0x00, 0x00, 0x00, 0xbe, 0xfa, 0xff, 0xff, 0x14, 0x00, 0x00, 0x00, 0x00, 0x00,
  0x00, 0x01, 0x18, 0x00, 0x00, 0x00, 0x1c, 0x00, 0x00, 0x00, 0x02, 0x00, 0x00,
  0x00, 0x46, 0xfb, 0xff, 0xff, 0x01, 0x00, 0x00, 0x00, 0x01, 0x00, 0x00, 0x00,
  0x01, 0x00, 0x00, 0x00, 0x66, 0x00, 0x00, 0x00, 0x03, 0x00, 0x00, 0x00, 0x65,
  0x00, 0x00, 0x00, 0x1e, 0x00, 0x00, 0x00, 0x4a, 0x00, 0x00, 0x00, 0xfa, 0xfa,
  0xff, 0xff, 0x14, 0x00, 0x00, 0x00, 0x00, 0x00, 0x00, 0x02, 0x1c, 0x00, 0x00,
  0x00, 0x20, 0x00, 0x00, 0x00, 0x01, 0x00, 0x00, 0x00, 0xec, 0xfa, 0xff, 0xff,
  0x01, 0x00, 0x00, 0x00, 0x01, 0x00, 0x00, 0x00, 0x01, 0x00, 0x00, 0x00, 0x01,
  0x00, 0x00, 0x00, 0x65, 0x00, 0x00, 0x00, 0x03, 0x00, 0x00, 0x00, 0x64, 0x00,
  0x00, 0x00, 0x1d, 0x00, 0x00, 0x00, 0x1c, 0x00, 0x00, 0x00, 0x3a, 0xfb, 0xff,
  0xff, 0x14, 0x00, 0x00, 0x00, 0x00, 0x00, 0x00, 0x02, 0x1c, 0x00, 0x00, 0x00,
  0x20, 0x00, 0x00, 0x00, 0x01, 0x00, 0x00, 0x00, 0x2c, 0xfb, 0xff, 0xff, 0x01,
  0x00, 0x00, 0x00, 0x01, 0x00, 0x00, 0x00, 0x01, 0x00, 0x00, 0x00, 0x01, 0x00,
  0x00, 0x00, 0x64, 0x00, 0x00, 0x00, 0x03, 0x00, 0x00, 0x00, 0x5d, 0x00, 0x00,
  0x00, 0x1b, 0x00, 0x00, 0x00, 0x1c, 0x00, 0x00, 0x00, 0x7a, 0xfb, 0xff, 0xff,
  0x14, 0x00, 0x00, 0x00, 0x00, 0x00, 0x00, 0x01, 0x18, 0x00, 0x00, 0x00, 0x1c,
  0x00, 0x00, 0x00, 0x02, 0x00, 0x00, 0x00, 0x02, 0xfc, 0xff, 0xff, 0x01, 0x00,
  0x00, 0x00, 0x01, 0x00, 0x00, 0x00, 0x01, 0x00, 0x00, 0x00, 0x63, 0x00, 0x00,
  0x00, 0x03, 0x00, 0x00, 0x00, 0x62, 0x00, 0x00, 0x00, 0x1a, 0x00, 0x00, 0x00,
  0x4a, 0x00, 0x00, 0x00, 0xb6, 0xfb, 0xff, 0xff, 0x14, 0x00, 0x00, 0x00, 0x00,
  0x00, 0x00, 0x02, 0x1c, 0x00, 0x00, 0x00, 0x20, 0x00, 0x00, 0x00, 0x01, 0x00,
  0x00, 0x00, 0xa8, 0xfb, 0xff, 0xff, 0x01, 0x00, 0x00, 0x00, 0x01, 0x00, 0x00,
  0x00, 0x01, 0x00, 0x00, 0x00, 0x01, 0x00, 0x00, 0x00, 0x62, 0x00, 0x00, 0x00,
  0x03, 0x00, 0x00, 0x00, 0x61, 0x00, 0x00, 0x00, 0x19, 0x00, 0x00, 0x00, 0x26,
  0x00, 0x00, 0x00, 0xf6, 0xfb, 0xff, 0xff, 0x14, 0x00, 0x00, 0x00, 0x00, 0x00,
  0x00, 0x02, 0x1c, 0x00, 0x00, 0x00, 0x20, 0x00, 0x00, 0x00, 0x01, 0x00, 0x00,
  0x00, 0xe8, 0xfb, 0xff, 0xff, 0x01, 0x00, 0x00, 0x00, 0x01, 0x00, 0x00, 0x00,
  0x01, 0x00, 0x00, 0x00, 0x01, 0x00, 0x00, 0x00, 0x61, 0x00, 0x00, 0x00, 0x03,
  0x00, 0x00, 0x00, 0x60, 0x00, 0x00, 0x00, 0x18, 0x00, 0x00, 0x00, 0x26, 0x00,
  0x00, 0x00, 0x36, 0xfc, 0xff, 0xff, 0x14, 0x00, 0x00, 0x00, 0x00, 0x00, 0x00,
  0x01, 0x1c, 0x00, 0x00, 0x00, 0x20, 0x00, 0x00, 0x00, 0x02, 0x00, 0x00, 0x00,
  0x8c, 0xfd, 0xff, 0xff, 0x00, 0x00, 0x00, 0x01, 0x01, 0x00, 0x00, 0x00, 0x01,
  0x00, 0x00, 0x00, 0x01, 0x00, 0x00, 0x00, 0x60, 0x00, 0x00, 0x00, 0x03, 0x00,
  0x00, 0x00, 0x5f, 0x00, 0x00, 0x00, 0x17, 0x00, 0x00, 0x00, 0x05, 0x00, 0x00,
  0x00, 0x76, 0xfc, 0xff, 0xff, 0x14, 0x00, 0x00, 0x00, 0x00, 0x00, 0x00, 0x02,
  0x1c, 0x00, 0x00, 0x00, 0x20, 0x00, 0x00, 0x00, 0x01, 0x00, 0x00, 0x00, 0x68,
  0xfc, 0xff, 0xff, 0x01, 0x00, 0x00, 0x00, 0x01, 0x00, 0x00, 0x00, 0x01, 0x00,
  0x00, 0x00, 0x01, 0x00, 0x00, 0x00, 0x5f, 0x00, 0x00, 0x00, 0x03, 0x00, 0x00,
  0x00, 0x5e, 0x00, 0x00, 0x00, 0x16, 0x00, 0x00, 0x00, 0x1c, 0x00, 0x00, 0x00,
  0xb6, 0xfc, 0xff, 0xff, 0x14, 0x00, 0x00, 0x00, 0x00, 0x00, 0x00, 0x02, 0x1c,
  0x00, 0x00, 0x00, 0x20, 0x00, 0x00, 0x00, 0x01, 0x00, 0x00, 0x00, 0xa8, 0xfc,
  0xff, 0xff, 0x01, 0x00, 0x00, 0x00, 0x01, 0x00, 0x00, 0x00, 0x01, 0x00, 0x00,
  0x00, 0x01, 0x00, 0x00, 0x00, 0x5e, 0x00, 0x00, 0x00, 0x03, 0x00, 0x00, 0x00,
  0x5d, 0x00, 0x00, 0x00, 0x15, 0x00, 0x00, 0x00, 0x1c, 0x00, 0x00, 0x00, 0xf6,
  0xfc, 0xff, 0xff, 0x1c, 0x00, 0x00, 0x00, 0x00, 0x00, 0x00, 0x0b, 0x1c, 0x00,
  0x00, 0x00, 0x20, 0x00, 0x00, 0x00, 0x03, 0x00, 0x00, 0x00, 0x08, 0x00, 0x08,
  0x00, 0x00, 0x00, 0x07, 0x00, 0x08, 0x00, 0x00, 0x00, 0x00, 0x00, 0x00, 0x00,
  0x01, 0x00, 0x00, 0x00, 0x5d, 0x00, 0x00, 0x00, 0x02, 0x00, 0x00, 0x00, 0x5c,
  0x00, 0x00, 0x00, 0x59, 0x00, 0x00, 0x00, 0x32, 0xfd, 0xff, 0xff, 0x14, 0x00,
  0x00, 0x00, 0x00, 0x00, 0x00, 0x01, 0x18, 0x00, 0x00, 0x00, 0x1c, 0x00, 0x00,
  0x00, 0x02, 0x00, 0x00, 0x00, 0xba, 0xfd, 0xff, 0xff, 0x01, 0x00, 0x00, 0x00,
  0x01, 0x00, 0x00, 0x00, 0x01, 0x00, 0x00, 0x00, 0x5c, 0x00, 0x00, 0x00, 0x03,
  0x00, 0x00, 0x00, 0x5b, 0x00, 0x00, 0x00, 0x14, 0x00, 0x00, 0x00, 0x49, 0x00,
  0x00, 0x00, 0x6e, 0xfd, 0xff, 0xff, 0x14, 0x00, 0x00, 0x00, 0x00, 0x00, 0x00,
  0x02, 0x1c, 0x00, 0x00, 0x00, 0x20, 0x00, 0x00, 0x00, 0x01, 0x00, 0x00, 0x00,
  0x60, 0xfd, 0xff, 0xff, 0x01, 0x00, 0x00, 0x00, 0x01, 0x00, 0x00, 0x00, 0x01,
  0x00, 0x00, 0x00, 0x01, 0x00, 0x00, 0x00, 0x5b, 0x00, 0x00, 0x00, 0x03, 0x00,
  0x00, 0x00, 0x5a, 0x00, 0x00, 0x00, 0x13, 0x00, 0x00, 0x00, 0x12, 0x00, 0x00,
  0x00, 0xae, 0xfd, 0xff, 0xff, 0x14, 0x00, 0x00, 0x00, 0x00, 0x00, 0x00, 0x02,
  0x1c, 0x00, 0x00, 0x00, 0x20, 0x00, 0x00, 0x00, 0x01, 0x00, 0x00, 0x00, 0xa0,
  0xfd, 0xff, 0xff, 0x01, 0x00, 0x00, 0x00, 0x01, 0x00, 0x00, 0x00, 0x01, 0x00,
  0x00, 0x00, 0x01, 0x00, 0x00, 0x00, 0x5a, 0x00, 0x00, 0x00, 0x03, 0x00, 0x00,
  0x00, 0x53, 0x00, 0x00, 0x00, 0x11, 0x00, 0x00, 0x00, 0x12, 0x00, 0x00, 0x00,
  0xee, 0xfd, 0xff, 0xff, 0x14, 0x00, 0x00, 0x00, 0x00, 0x00, 0x00, 0x01, 0x18,
  0x00, 0x00, 0x00, 0x1c, 0x00, 0x00, 0x00, 0x02, 0x00, 0x00, 0x00, 0x76, 0xfe,
  0xff, 0xff, 0x01, 0x00, 0x00, 0x00, 0x01, 0x00, 0x00, 0x00, 0x01, 0x00, 0x00,
  0x00, 0x59, 0x00, 0x00, 0x00, 0x03, 0x00, 0x00, 0x00, 0x58, 0x00, 0x00, 0x00,
  0x10, 0x00, 0x00, 0x00, 0x49, 0x00, 0x00, 0x00, 0x2a, 0xfe, 0xff, 0xff, 0x14,
  0x00, 0x00, 0x00, 0x00, 0x00, 0x00, 0x02, 0x1c, 0x00, 0x00, 0x00, 0x20, 0x00,
  0x00, 0x00, 0x01, 0x00, 0x00, 0x00, 0x1c, 0xfe, 0xff, 0xff, 0x01, 0x00, 0x00,
  0x00, 0x01, 0x00, 0x00, 0x00, 0x01, 0x00, 0x00, 0x00, 0x01, 0x00, 0x00, 0x00,
  0x58, 0x00, 0x00, 0x00, 0x03, 0x00, 0x00, 0x00, 0x57, 0x00, 0x00, 0x00, 0x0f,
  0x00, 0x00, 0x00, 0x1c, 0x00, 0x00, 0x00, 0x6a, 0xfe, 0xff, 0xff, 0x14, 0x00,
  0x00, 0x00, 0x00, 0x00, 0x00, 0x02, 0x1c, 0x00, 0x00, 0x00, 0x20, 0x00, 0x00,
  0x00, 0x01, 0x00, 0x00, 0x00, 0x5c, 0xfe, 0xff, 0xff, 0x01, 0x00, 0x00, 0x00,
  0x01, 0x00, 0x00, 0x00, 0x01, 0x00, 0x00, 0x00, 0x01, 0x00, 0x00, 0x00, 0x57,
  0x00, 0x00, 0x00, 0x03, 0x00, 0x00, 0x00, 0x56, 0x00, 0x00, 0x00, 0x0e, 0x00,
  0x00, 0x00, 0x1c, 0x00, 0x00, 0x00, 0xaa, 0xfe, 0xff, 0xff, 0x20, 0x00, 0x00,
  0x00, 0x00, 0x00, 0x00, 0x01, 0x28, 0x00, 0x00, 0x00, 0x2c, 0x00, 0x00, 0x00,
  0x02, 0x00, 0x00, 0x00, 0x0c, 0x00, 0x10, 0x00, 0x00, 0x00, 0x0c, 0x00, 0x08,
  0x00, 0x07, 0x00, 0x0c, 0x00, 0x00, 0x00, 0x00, 0x00, 0x00, 0x01, 0x01, 0x00,
  0x00, 0x00, 0x01, 0x00, 0x00, 0x00, 0x01, 0x00, 0x00, 0x00, 0x56, 0x00, 0x00,
  0x00, 0x03, 0x00, 0x00, 0x00, 0x55, 0x00, 0x00, 0x00, 0x0d, 0x00, 0x00, 0x00,
  0x06, 0x00, 0x00, 0x00, 0xf6, 0xfe, 0xff, 0xff, 0x14, 0x00, 0x00, 0x00, 0x00,
  0x00, 0x00, 0x02, 0x1c, 0x00, 0x00, 0x00, 0x20, 0x00, 0x00, 0x00, 0x01, 0x00,
  0x00, 0x00, 0xe8, 0xfe, 0xff, 0xff, 0x01, 0x00, 0x00, 0x00, 0x01, 0x00, 0x00,
  0x00, 0x01, 0x00, 0x00, 0x00, 0x01, 0x00, 0x00, 0x00, 0x55, 0x00, 0x00, 0x00,
  0x03, 0x00, 0x00, 0x00, 0x54, 0x00, 0x00, 0x00, 0x0c, 0x00, 0x00, 0x00, 0x12,
  0x00, 0x00, 0x00, 0x36, 0xff, 0xff, 0xff, 0x14, 0x00, 0x00, 0x00, 0x00, 0x00,
  0x00, 0x02, 0x1c, 0x00, 0x00, 0x00, 0x20, 0x00, 0x00, 0x00, 0x01, 0x00, 0x00,
  0x00, 0x28, 0xff, 0xff, 0xff, 0x01, 0x00, 0x00, 0x00, 0x01, 0x00, 0x00, 0x00,
  0x01, 0x00, 0x00, 0x00, 0x01, 0x00, 0x00, 0x00, 0x54, 0x00, 0x00, 0x00, 0x03,
  0x00, 0x00, 0x00, 0x53, 0x00, 0x00, 0x00, 0x0b, 0x00, 0x00, 0x00, 0x12, 0x00,
  0x00, 0x00, 0x76, 0xff, 0xff, 0xff, 0x20, 0x00, 0x00, 0x00, 0x00, 0x00, 0x00,
  0x01, 0x24, 0x00, 0x00, 0x00, 0x28, 0x00, 0x00, 0x00, 0x02, 0x00, 0x00, 0x00,
  0x00, 0x00, 0x0a, 0x00, 0x0c, 0x00, 0x00, 0x00, 0x08, 0x00, 0x04, 0x00, 0x0a,
  0x00, 0x00, 0x00, 0x01, 0x00, 0x00, 0x00, 0x01, 0x00, 0x00, 0x00, 0x01, 0x00,
  0x00, 0x00, 0x53, 0x00, 0x00, 0x00, 0x03, 0x00, 0x00, 0x00, 0x52, 0x00, 0x00,
  0x00, 0x0a, 0x00, 0x00, 0x00, 0x48, 0x00, 0x00, 0x00, 0xbe, 0xff, 0xff, 0xff,
  0x14, 0x00, 0x00, 0x00, 0x00, 0x00, 0x00, 0x02, 0x1c, 0x00, 0x00, 0x00, 0x20,
  0x00, 0x00, 0x00, 0x01, 0x00, 0x00, 0x00, 0xb0, 0xff, 0xff, 0xff, 0x01, 0x00,
  0x00, 0x00, 0x01, 0x00, 0x00, 0x00, 0x01, 0x00, 0x00, 0x00, 0x01, 0x00, 0x00,
  0x00, 0x52, 0x00, 0x00, 0x00, 0x03, 0x00, 0x00, 0x00, 0x51, 0x00, 0x00, 0x00,
  0x09, 0x00, 0x00, 0x00, 0x46, 0x00, 0x00, 0x00, 0x00, 0x00, 0x0e, 0x00, 0x18,
  0x00, 0x14, 0x00, 0x10, 0x00, 0x0c, 0x00, 0x0b, 0x00, 0x04, 0x00, 0x0e, 0x00,
  0x00, 0x00, 0x20, 0x00, 0x00, 0x00, 0x00, 0x00, 0x00, 0x02, 0x28, 0x00, 0x00,
  0x00, 0x2c, 0x00, 0x00, 0x00, 0x01, 0x00, 0x00, 0x00, 0x0c, 0x00, 0x10, 0x00,
  0x00, 0x00, 0x0c, 0x00, 0x08, 0x00, 0x04, 0x00, 0x0c, 0x00, 0x00, 0x00, 0x01,
  0x00, 0x00, 0x00, 0x01, 0x00, 0x00, 0x00, 0x01, 0x00, 0x00, 0x00, 0x01, 0x00,
  0x00, 0x00, 0x51, 0x00, 0x00, 0x00, 0x03, 0x00, 0x00, 0x00, 0x50, 0x00, 0x00,
  0x00, 0x08, 0x00, 0x00, 0x00, 0x46, 0x00, 0x00, 0x00, 0x00, 0x00, 0x0e, 0x00,
  0x14, 0x00, 0x00, 0x00, 0x10, 0x00, 0x0c, 0x00, 0x0b, 0x00, 0x04, 0x00, 0x0e,
  0x00, 0x00, 0x00, 0x10, 0x00, 0x00, 0x00, 0x00, 0x00, 0x00, 0x16, 0x0c, 0x00,
  0x00, 0x00, 0x10, 0x00, 0x00, 0x00, 0xa4, 0x8e, 0xff, 0xff, 0x01, 0x00, 0x00,
  0x00, 0x50, 0x00, 0x00, 0x00, 0x02, 0x00, 0x00, 0x00, 0x00, 0x00, 0x00, 0x00,
  0x07, 0x00, 0x00, 0x00, 0x00, 0x00, 0x0a, 0x00, 0x10, 0x00, 0x0c, 0x00, 0x08,
  0x00, 0x04, 0x00, 0x0a, 0x00, 0x00, 0x00, 0x0c, 0x00, 0x00, 0x00, 0x10, 0x00,
  0x00, 0x00, 0x04, 0x00, 0x00, 0x00, 0x01, 0x00, 0x00, 0x00, 0x00, 0x00, 0x00,
  0x00, 0x01, 0x00, 0x00, 0x00, 0x90, 0x00, 0x00, 0x00, 0x01, 0x00, 0x00, 0x00,
  0x91, 0x00, 0x00, 0x00, 0x01, 0x00, 0x00, 0x00, 0x90, 0x00, 0x00, 0x00, 0x92,
  0x00, 0x00, 0x00, 0x60, 0x75, 0x00, 0x00, 0xbc, 0x74, 0x00, 0x00, 0x34, 0x74,
  0x00, 0x00, 0x98, 0x73, 0x00, 0x00, 0xe4, 0x72, 0x00, 0x00, 0x08, 0x72, 0x00,
  0x00, 0x0c, 0x71, 0x00, 0x00, 0xd0, 0x70, 0x00, 0x00, 0x3c, 0x70, 0x00, 0x00,
  0xbc, 0x6f, 0x00, 0x00, 0xcc, 0x6d, 0x00, 0x00, 0xd4, 0x6b, 0x00, 0x00, 0xd8,
  0x69, 0x00, 0x00, 0x48, 0x68, 0x00, 0x00, 0xb0, 0x66, 0x00, 0x00, 0x1c, 0x65,
  0x00, 0x00, 0x8c, 0x63, 0x00, 0x00, 0x94, 0x61, 0x00, 0x00, 0x5c, 0x60, 0x00,
  0x00, 0x5c, 0x5e, 0x00, 0x00, 0xcc, 0x5c, 0x00, 0x00, 0x34, 0x5b, 0x00, 0x00,
  0xa0, 0x59, 0x00, 0x00, 0x48, 0x58, 0x00, 0x00, 0xe8, 0x56, 0x00, 0x00, 0x8c,
  0x55, 0x00, 0x00, 0x34, 0x54, 0x00, 0x00, 0x9c, 0x52, 0x00, 0x00, 0x9c, 0x51,
  0x00, 0x00, 0x04, 0x50, 0x00, 0x00, 0xac, 0x4e, 0x00, 0x00, 0x4c, 0x4d, 0x00,
  0x00, 0xf0, 0x4b, 0x00, 0x00, 0xd8, 0x4a, 0x00, 0x00, 0xb8, 0x49, 0x00, 0x00,
  0x94, 0x48, 0x00, 0x00, 0x7c, 0x47, 0x00, 0x00, 0x1c, 0x46, 0x00, 0x00, 0x3c,
  0x45, 0x00, 0x00, 0xdc, 0x43, 0x00, 0x00, 0xc4, 0x42, 0x00, 0x00, 0xa4, 0x41,
  0x00, 0x00, 0x80, 0x40, 0x00, 0x00, 0x90, 0x3f, 0x00, 0x00, 0x98, 0x3e, 0x00,
  0x00, 0x9c, 0x3d, 0x00, 0x00, 0xac, 0x3c, 0x00, 0x00, 0x8c, 0x3b, 0x00, 0x00,
  0xd4, 0x3a, 0x00, 0x00, 0xb4, 0x39, 0x00, 0x00, 0xc4, 0x38, 0x00, 0x00, 0xcc,
  0x37, 0x00, 0x00, 0xd0, 0x36, 0x00, 0x00, 0x08, 0x36, 0x00, 0x00, 0x38, 0x35,
  0x00, 0x00, 0x64, 0x34, 0x00, 0x00, 0x9c, 0x33, 0x00, 0x00, 0xa4, 0x32, 0x00,
  0x00, 0x04, 0x32, 0x00, 0x00, 0x0c, 0x31, 0x00, 0x00, 0x44, 0x30, 0x00, 0x00,
  0x74, 0x2f, 0x00, 0x00, 0xa0, 0x2e, 0x00, 0x00, 0xd8, 0x2d, 0x00, 0x00, 0x08,
  0x2d, 0x00, 0x00, 0x34, 0x2c, 0x00, 0x00, 0x6c, 0x2b, 0x00, 0x00, 0x9c, 0x2a,
  0x00, 0x00, 0x14, 0x2a, 0x00, 0x00, 0x44, 0x29, 0x00, 0x00, 0xec, 0x28, 0x00,
  0x00, 0x70, 0x28, 0x00, 0x00, 0x1c, 0x27, 0x00, 0x00, 0x00, 0x26, 0x00, 0x00,
  0x04, 0x25, 0x00, 0x00, 0x30, 0x24, 0x00, 0x00, 0x6c, 0x23, 0x00, 0x00, 0xc0,
  0x22, 0x00, 0x00, 0x14, 0x22, 0x00, 0x00, 0xa8, 0x21, 0x00, 0x00, 0x34, 0x21,
  0x00, 0x00, 0xb8, 0x20, 0x00, 0x00, 0x3c, 0x20, 0x00, 0x00, 0xa8, 0x1f, 0x00,
  0x00, 0x2c, 0x1f, 0x00, 0x00, 0xb0, 0x1e, 0x00, 0x00, 0x14, 0x1e, 0x00, 0x00,
  0x98, 0x1d, 0x00, 0x00, 0x1c, 0x1d, 0x00, 0x00, 0x80, 0x1c, 0x00, 0x00, 0x04,
  0x1c, 0x00, 0x00, 0x88, 0x1b, 0x00, 0x00, 0xec, 0x1a, 0x00, 0x00, 0x78, 0x1a,
  0x00, 0x00, 0xfc, 0x19, 0x00, 0x00, 0x80, 0x19, 0x00, 0x00, 0xdc, 0x18, 0x00,
  0x00, 0x60, 0x18, 0x00, 0x00, 0xe4, 0x17, 0x00, 0x00, 0x48, 0x17, 0x00, 0x00,
  0xcc, 0x16, 0x00, 0x00, 0x50, 0x16, 0x00, 0x00, 0xb4, 0x15, 0x00, 0x00, 0x40,
  0x15, 0x00, 0x00, 0xc4, 0x14, 0x00, 0x00, 0x48, 0x14, 0x00, 0x00, 0xa4, 0x13,
  0x00, 0x00, 0x28, 0x13, 0x00, 0x00, 0xac, 0x12, 0x00, 0x00, 0x10, 0x12, 0x00,
  0x00, 0x94, 0x11, 0x00, 0x00, 0x18, 0x11, 0x00, 0x00, 0x7c, 0x10, 0x00, 0x00,
  0x08, 0x10, 0x00, 0x00, 0x8c, 0x0f, 0x00, 0x00, 0x10, 0x0f, 0x00, 0x00, 0x6c,
  0x0e, 0x00, 0x00, 0xf0, 0x0d, 0x00, 0x00, 0x74, 0x0d, 0x00, 0x00, 0xd8, 0x0c,
  0x00, 0x00, 0x5c, 0x0c, 0x00, 0x00, 0xe0, 0x0b, 0x00, 0x00, 0x44, 0x0b, 0x00,
  0x00, 0xd0, 0x0a, 0x00, 0x00, 0x54, 0x0a, 0x00, 0x00, 0xd8, 0x09, 0x00, 0x00,
  0x34, 0x09, 0x00, 0x00, 0xb8, 0x08, 0x00, 0x00, 0x3c, 0x08, 0x00, 0x00, 0xa0,
  0x07, 0x00, 0x00, 0x24, 0x07, 0x00, 0x00, 0xa8, 0x06, 0x00, 0x00, 0x0c, 0x06,
  0x00, 0x00, 0x98, 0x05, 0x00, 0x00, 0x1c, 0x05, 0x00, 0x00, 0xa0, 0x04, 0x00,
  0x00, 0xfc, 0x03, 0x00, 0x00, 0x80, 0x03, 0x00, 0x00, 0x04, 0x03, 0x00, 0x00,
  0x68, 0x02, 0x00, 0x00, 0xf4, 0x01, 0x00, 0x00, 0x78, 0x01, 0x00, 0x00, 0xfc,
  0x00, 0x00, 0x00, 0x78, 0x00, 0x00, 0x00, 0x44, 0x00, 0x00, 0x00, 0x04, 0x00,
  0x00, 0x00, 0xd0, 0xff, 0xff, 0xff, 0x08, 0x00, 0x00, 0x00, 0x14, 0x00, 0x00,
  0x00, 0x0a, 0x00, 0x00, 0x00, 0x42, 0x69, 0x61, 0x73, 0x41, 0x64, 0x64, 0x5f,
  0x31, 0x38, 0x00, 0x00, 0x04, 0x00, 0x00, 0x00, 0x01, 0x00, 0x00, 0x00, 0x38,
  0x04, 0x00, 0x00, 0x80, 0x07, 0x00, 0x00, 0x01, 0x00, 0x00, 0x00, 0x0c, 0x00,
  0x0c, 0x00, 0x08, 0x00, 0x00, 0x00, 0x00, 0x00, 0x04, 0x00, 0x0c, 0x00, 0x00,
  0x00, 0x08, 0x00, 0x00, 0x00, 0x14, 0x00, 0x00, 0x00, 0x0b, 0x00, 0x00, 0x00,
  0x50, 0x6c, 0x61, 0x63, 0x65, 0x68, 0x6f, 0x6c, 0x64, 0x65, 0x72, 0x00, 0x04,
  0x00, 0x00, 0x00, 0x01, 0x00, 0x00, 0x00, 0x38, 0x04, 0x00, 0x00, 0x80, 0x07,
  0x00, 0x00, 0x01, 0x00, 0x00, 0x00, 0x62, 0x8d, 0xff, 0xff, 0x14, 0x00, 0x00,
  0x00, 0x4c, 0x00, 0x00, 0x00, 0x90, 0x00, 0x00, 0x00, 0x00, 0x00, 0x00, 0x07,
  0x58, 0x00, 0x00, 0x00, 0x54, 0x8d, 0xff, 0xff, 0x10, 0x00, 0x00, 0x00, 0x1c,
  0x00, 0x00, 0x00, 0x20, 0x00, 0x00, 0x00, 0x24, 0x00, 0x00, 0x00, 0x01, 0x00,
  0x00, 0x00, 0x00, 0x00, 0x00, 0x00, 0x00, 0x00, 0x00, 0x00, 0x00, 0x00, 0x00,
  0x00, 0x01, 0x00, 0x00, 0x00, 0x1b, 0xe7, 0x7d, 0x36, 0x01, 0x00, 0x00, 0x00,
  0x1f, 0xe5, 0xfd, 0x3d, 0x01, 0x00, 0x00, 0x00, 0x56, 0x04, 0xd8, 0xbd, 0x10,
  0x00, 0x00, 0x00, 0x42, 0x69, 0x61, 0x73, 0x41, 0x64, 0x64, 0x5f, 0x31, 0x38,
  0x5f, 0x69, 0x6e, 0x74, 0x31, 0x36, 0x00, 0x00, 0x00, 0x00, 0x04, 0x00, 0x00,
  0x00, 0x01, 0x00, 0x00, 0x00, 0x38, 0x04, 0x00, 0x00, 0x80, 0x07, 0x00, 0x00,
  0x01, 0x00, 0x00, 0x00, 0xe2, 0x8d, 0xff, 0xff, 0x14, 0x00, 0x00, 0x00, 0x48,
  0x00, 0x00, 0x00, 0x8f, 0x00, 0x00, 0x00, 0x00, 0x00, 0x00, 0x07, 0x50, 0x00,
  0x00, 0x00, 0xd4, 0x8d, 0xff, 0xff, 0x10, 0x00, 0x00, 0x00, 0x18, 0x00, 0x00,
  0x00, 0x1c, 0x00, 0x00, 0x00, 0x20, 0x00, 0x00, 0x00, 0x01, 0x00, 0x00, 0x00,
  0x00, 0x00, 0x00, 0x00, 0x00, 0x00, 0x00, 0x00, 0x01, 0x00, 0x00, 0x00, 0x88,
  0xdf, 0x9e, 0x38, 0x01, 0x00, 0x00, 0x00, 0x4a, 0xde, 0x1e, 0x40, 0x01, 0x00,
  0x00, 0x00, 0x97, 0xed, 0xff, 0xbf, 0x0d, 0x00, 0x00, 0x00, 0x64, 0x65, 0x70,
  0x74, 0x68, 0x77, 0x69, 0x73, 0x65, 0x5f, 0x33, 0x37, 0x32, 0x00, 0x00, 0x00,
  0x04, 0x00, 0x00, 0x00, 0x01, 0x00, 0x00, 0x00, 0x38, 0x04, 0x00, 0x00, 0x80,
  0x07, 0x00, 0x00, 0x05, 0x00, 0x00, 0x00, 0x5a, 0x8e, 0xff, 0xff, 0x14, 0x00,
  0x00, 0x00, 0x48, 0x00, 0x00, 0x00, 0x8e, 0x00, 0x00, 0x00, 0x00, 0x00, 0x00,
  0x07, 0x50, 0x00, 0x00, 0x00, 0x4c, 0x8e, 0xff, 0xff, 0x10, 0x00, 0x00, 0x00,
  0x18, 0x00, 0x00, 0x00, 0x1c, 0x00, 0x00, 0x00, 0x20, 0x00, 0x00, 0x00, 0x01,
  0x00, 0x00, 0x00, 0x00, 0x00, 0x00, 0x00, 0x00, 0x00, 0x00, 0x00, 0x01, 0x00,
  0x00, 0x00, 0x55, 0x65, 0x77, 0x39, 0x01, 0x00, 0x00, 0x00, 0x66, 0x63, 0xf7,
  0x40, 0x01, 0x00, 0x00, 0x00, 0xaa, 0x33, 0xc9, 0xc0, 0x0d, 0x00, 0x00, 0x00,
  0x64, 0x65, 0x70, 0x74, 0x68, 0x77, 0x69, 0x73, 0x65, 0x5f, 0x33, 0x36, 0x31,
  0x00, 0x00, 0x00, 0x04, 0x00, 0x00, 0x00, 0x01, 0x00, 0x00, 0x00, 0x38, 0x04,
  0x00, 0x00, 0x86, 0x07, 0x00, 0x00, 0x05, 0x00, 0x00, 0x00, 0xd2, 0x8e, 0xff,
  0xff, 0x14, 0x00, 0x00, 0x00, 0x48, 0x00, 0x00, 0x00, 0x8d, 0x00, 0x00, 0x00,
  0x00, 0x00, 0x00, 0x07, 0x48, 0x00, 0x00, 0x00, 0xc4, 0x8e, 0xff, 0xff, 0x10,
  0x00, 0x00, 0x00, 0x18, 0x00, 0x00, 0x00, 0x1c, 0x00, 0x00, 0x00, 0x20, 0x00,
  0x00, 0x00, 0x01, 0x00, 0x00, 0x00, 0x00, 0x00, 0x00, 0x00, 0x00, 0x00, 0x00,
  0x00, 0x01, 0x00, 0x00, 0x00, 0xe4, 0x7f, 0x1e, 0x3a, 0x01, 0x00, 0x00, 0x00,
  0xe6, 0x15, 0x99, 0x41, 0x01, 0x00, 0x00, 0x00, 0xa7, 0x7e, 0x9e, 0xc1, 0x05,
  0x00, 0x00, 0x00, 0x41, 0x64, 0x64, 0x5f, 0x35, 0x00, 0x00, 0x00, 0x04, 0x00,
  0x00, 0x00, 0x01, 0x00, 0x00, 0x00, 0x3e, 0x04, 0x00, 0x00, 0x86, 0x07, 0x00,
  0x00, 0x05, 0x00, 0x00, 0x00, 0x42, 0x8f, 0xff, 0xff, 0x14, 0x00, 0x00, 0x00,
  0x48, 0x00, 0x00, 0x00, 0x8c, 0x00, 0x00, 0x00, 0x00, 0x00, 0x00, 0x07, 0x70,
  0x00, 0x00, 0x00, 0x34, 0x8f, 0xff, 0xff, 0x10, 0x00, 0x00, 0x00, 0x18, 0x00,
  0x00, 0x00, 0x1c, 0x00, 0x00, 0x00, 0x20, 0x00, 0x00, 0x00, 0x01, 0x00, 0x00,
  0x00, 0x00, 0x00, 0x00, 0x00, 0x00, 0x00, 0x00, 0x00, 0x01, 0x00, 0x00, 0x00,
  0x44, 0x22, 0x1b, 0x3a, 0x01, 0x00, 0x00, 0x00, 0x5e, 0x80, 0x82, 0x41, 0x01,
  0x00, 0x00, 0x00, 0x0e, 0x21, 0x9b, 0xc1, 0x2d, 0x00, 0x00, 0x00, 0x42, 0x69,
  0x61, 0x73, 0x41, 0x64, 0x64, 0x5f, 0x31, 0x37, 0x3b, 0x64, 0x65, 0x70, 0x74,
  0x68, 0x77, 0x69, 0x73, 0x65, 0x5f, 0x33, 0x37, 0x3b, 0x43, 0x6f, 0x6e, 0x76,
  0x32, 0x44, 0x5f, 0x31, 0x37, 0x3b, 0x63, 0x6f, 0x6e, 0x76, 0x5f, 0x36, 0x5f,
  0x31, 0x5f, 0x62, 0x31, 0x00, 0x00, 0x00, 0x04, 0x00, 0x00, 0x00, 0x01, 0x00,
  0x00, 0x00, 0x3e, 0x04, 0x00, 0x00, 0x86, 0x07, 0x00, 0x00, 0x05, 0x00, 0x00,
  0x00, 0xda, 0x8f, 0xff, 0xff, 0x14, 0x00, 0x00, 0x00, 0x48, 0x00, 0x00, 0x00,
  0x8b, 0x00, 0x00, 0x00, 0x00, 0x00, 0x00, 0x07, 0x50, 0x00, 0x00, 0x00, 0xcc,
  0x8f, 0xff, 0xff, 0x10, 0x00, 0x00, 0x00, 0x18, 0x00, 0x00, 0x00, 0x1c, 0x00,
  0x00, 0x00, 0x20, 0x00, 0x00, 0x00, 0x01, 0x00, 0x00, 0x00, 0x00, 0x00, 0x00,
  0x00, 0x00, 0x00, 0x00, 0x00, 0x01, 0x00, 0x00, 0x00, 0xd5, 0x80, 0x7b, 0x39,
  0x01, 0x00, 0x00, 0x00, 0x86, 0x91, 0xdd, 0x40, 0x01, 0x00, 0x00, 0x00, 0xde,
  0x7e, 0xfb, 0xc0, 0x0d, 0x00, 0x00, 0x00, 0x64, 0x65, 0x70, 0x74, 0x68, 0x77,
  0x69, 0x73, 0x65, 0x5f, 0x33, 0x35, 0x31, 0x00, 0x00, 0x00, 0x04, 0x00, 0x00,
  0x00, 0x01, 0x00, 0x00, 0x00, 0x3e, 0x04, 0x00, 0x00, 0x86, 0x07, 0x00, 0x00,
  0x05, 0x00, 0x00, 0x00, 0x52, 0x90, 0xff, 0xff, 0x14, 0x00, 0x00, 0x00, 0x48,
  0x00, 0x00, 0x00, 0x8a, 0x00, 0x00, 0x00, 0x00, 0x00, 0x00, 0x07, 0x50, 0x00,
  0x00, 0x00, 0x44, 0x90, 0xff, 0xff, 0x10, 0x00, 0x00, 0x00, 0x18, 0x00, 0x00,
  0x00, 0x1c, 0x00, 0x00, 0x00, 0x20, 0x00, 0x00, 0x00, 0x01, 0x00, 0x00, 0x00,
  0x00, 0x00, 0x00, 0x00, 0x00, 0x00, 0x00, 0x00, 0x01, 0x00, 0x00, 0x00, 0x49,
  0xd8, 0x59, 0x39, 0x01, 0x00, 0x00, 0x00, 0xdf, 0x83, 0xa9, 0x40, 0x01, 0x00,
  0x00, 0x00, 0x95, 0xd6, 0xd9, 0xc0, 0x0d, 0x00, 0x00, 0x00, 0x64, 0x65, 0x70,
  0x74, 0x68, 0x77, 0x69, 0x73, 0x65, 0x5f, 0x33, 0x34, 0x31, 0x00, 0x00, 0x00,
  0x04, 0x00, 0x00, 0x00, 0x01, 0x00, 0x00, 0x00, 0x3e, 0x04, 0x00, 0x00, 0x86,
  0x07, 0x00, 0x00, 0x05, 0x00, 0x00, 0x00, 0xca, 0x90, 0xff, 0xff, 0x14, 0x00,
  0x00, 0x00, 0x4c, 0x00, 0x00, 0x00, 0x89, 0x00, 0x00, 0x00, 0x00, 0x00, 0x00,
  0x07, 0x78, 0x00, 0x00, 0x00, 0xbc, 0x90, 0xff, 0xff, 0x10, 0x00, 0x00, 0x00,
  0x1c, 0x00, 0x00, 0x00, 0x20, 0x00, 0x00, 0x00, 0x24, 0x00, 0x00, 0x00, 0x01,
  0x00, 0x00, 0x00, 0x00, 0x00, 0x00, 0x00, 0x00, 0x00, 0x00, 0x00, 0x00, 0x00,
  0x00, 0x00, 0x01, 0x00, 0x00, 0x00, 0x83, 0x31, 0x8e, 0x39, 0x01, 0x00, 0x00,
  0x00, 0x67, 0x30, 0x0e, 0x41, 0x01, 0x00, 0x00, 0x00, 0x00, 0x00, 0x00, 0x00,
  0x33, 0x00, 0x00, 0x00, 0x52, 0x65, 0x6c, 0x75, 0x5f, 0x35, 0x3b, 0x42, 0x69,
  0x61, 0x73, 0x41, 0x64, 0x64, 0x5f, 0x31, 0x36, 0x3b, 0x64, 0x65, 0x70, 0x74,
  0x68, 0x77, 0x69, 0x73, 0x65, 0x5f, 0x33, 0x37, 0x3b, 0x43, 0x6f, 0x6e, 0x76,
  0x32, 0x44, 0x5f, 0x31, 0x36, 0x3b, 0x63, 0x6f, 0x6e, 0x76, 0x5f, 0x36, 0x5f,
  0x30, 0x5f, 0x62, 0x00, 0x04, 0x00, 0x00, 0x00, 0x01, 0x00, 0x00, 0x00, 0x3e,
  0x04, 0x00, 0x00, 0x86, 0x07, 0x00, 0x00, 0x05, 0x00, 0x00, 0x00, 0x6a, 0x91,
  0xff, 0xff, 0x14, 0x00, 0x00, 0x00, 0x48, 0x00, 0x00, 0x00, 0x88, 0x00, 0x00,
  0x00, 0x00, 0x00, 0x00, 0x07, 0x50, 0x00, 0x00, 0x00, 0x5c, 0x91, 0xff, 0xff,
  0x10, 0x00, 0x00, 0x00, 0x18, 0x00, 0x00, 0x00, 0x1c, 0x00, 0x00, 0x00, 0x20,
  0x00, 0x00, 0x00, 0x01, 0x00, 0x00, 0x00, 0x00, 0x00, 0x00, 0x00, 0x00, 0x00,
  0x00, 0x00, 0x01, 0x00, 0x00, 0x00, 0xe9, 0x87, 0x41, 0x39, 0x01, 0x00, 0x00,
  0x00, 0x66, 0x86, 0xc1, 0x40, 0x01, 0x00, 0x00, 0x00, 0x1c, 0x1e, 0x96, 0xc0,
  0x0d, 0x00, 0x00, 0x00, 0x64, 0x65, 0x70, 0x74, 0x68, 0x77, 0x69, 0x73, 0x65,
  0x5f, 0x33, 0x33, 0x31, 0x00, 0x00, 0x00, 0x04, 0x00, 0x00, 0x00, 0x01, 0x00,
  0x00, 0x00, 0x3e, 0x04, 0x00, 0x00, 0x86, 0x07, 0x00, 0x00, 0x05, 0x00, 0x00,
  0x00, 0xe2, 0x91, 0xff, 0xff, 0x14, 0x00, 0x00, 0x00, 0x48, 0x00, 0x00, 0x00,
  0x87, 0x00, 0x00, 0x00, 0x00, 0x00, 0x00, 0x07, 0x50, 0x00, 0x00, 0x00, 0xd4,
  0x91, 0xff, 0xff, 0x10, 0x00, 0x00, 0x00, 0x18, 0x00, 0x00, 0x00, 0x1c, 0x00,
  0x00, 0x00, 0x20, 0x00, 0x00, 0x00, 0x01, 0x00, 0x00, 0x00, 0x00, 0x00, 0x00,
  0x00, 0x00, 0x00, 0x00, 0x00, 0x01, 0x00, 0x00, 0x00, 0xd1, 0xb2, 0xba, 0x39,
  0x01, 0x00, 0x00, 0x00, 0x00, 0xae, 0x0a, 0x41, 0x01, 0x00, 0x00, 0x00, 0x5c,
  0xb1, 0x3a, 0xc1, 0x0d, 0x00, 0x00, 0x00, 0x64, 0x65, 0x70, 0x74, 0x68, 0x77,
  0x69, 0x73, 0x65, 0x5f, 0x33, 0x32, 0x31, 0x00, 0x00, 0x00, 0x04, 0x00, 0x00,
  0x00, 0x01, 0x00, 0x00, 0x00, 0x3e, 0x04, 0x00, 0x00, 0x86, 0x07, 0x00, 0x00,
  0x05, 0x00, 0x00, 0x00, 0x5a, 0x92, 0xff, 0xff, 0x14, 0x00, 0x00, 0x00, 0x48,
  0x00, 0x00, 0x00, 0x86, 0x00, 0x00, 0x00, 0x00, 0x00, 0x00, 0x07, 0x48, 0x00,
  0x00, 0x00, 0x4c, 0x92, 0xff, 0xff, 0x10, 0x00, 0x00, 0x00, 0x18, 0x00, 0x00,
  0x00, 0x1c, 0x00, 0x00, 0x00, 0x20, 0x00, 0x00, 0x00, 0x01, 0x00, 0x00, 0x00,
  0x00, 0x00, 0x00, 0x00, 0x00, 0x00, 0x00, 0x00, 0x01, 0x00, 0x00, 0x00, 0xf8,
  0x67, 0xd6, 0x39, 0x01, 0x00, 0x00, 0x00, 0x4b, 0x66, 0x56, 0x41, 0x01, 0x00,
  0x00, 0x00, 0x02, 0x8a, 0x50, 0xc1, 0x05, 0x00, 0x00, 0x00, 0x41, 0x64, 0x64,
  0x5f, 0x34, 0x00, 0x00, 0x00, 0x04, 0x00, 0x00, 0x00, 0x01, 0x00, 0x00, 0x00,
  0x3e, 0x04, 0x00, 0x00, 0x86, 0x07, 0x00, 0x00, 0x05, 0x00, 0x00, 0x00, 0xca,
  0x92, 0xff, 0xff, 0x14, 0x00, 0x00, 0x00, 0x48, 0x00, 0x00, 0x00, 0x85, 0x00,
  0x00, 0x00, 0x00, 0x00, 0x00, 0x07, 0x70, 0x00, 0x00, 0x00, 0xbc, 0x92, 0xff,
  0xff, 0x10, 0x00, 0x00, 0x00, 0x18, 0x00, 0x00, 0x00, 0x1c, 0x00, 0x00, 0x00,
  0x20, 0x00, 0x00, 0x00, 0x01, 0x00, 0x00, 0x00, 0x00, 0x00, 0x00, 0x00, 0x00,
  0x00, 0x00, 0x00, 0x01, 0x00, 0x00, 0x00, 0xf3, 0x47, 0x86, 0x39, 0x01, 0x00,
  0x00, 0x00, 0xe6, 0x46, 0x06, 0x41, 0x01, 0x00, 0x00, 0x00, 0xb7, 0x45, 0xff,
  0xc0, 0x2d, 0x00, 0x00, 0x00, 0x42, 0x69, 0x61, 0x73, 0x41, 0x64, 0x64, 0x5f,
  0x31, 0x35, 0x3b, 0x64, 0x65, 0x70, 0x74, 0x68, 0x77, 0x69, 0x73, 0x65, 0x5f,
  0x33, 0x37, 0x3b, 0x43, 0x6f, 0x6e, 0x76, 0x32, 0x44, 0x5f, 0x31, 0x35, 0x3b,
  0x63, 0x6f, 0x6e, 0x76, 0x5f, 0x35, 0x5f, 0x31, 0x5f, 0x62, 0x31, 0x00, 0x00,
  0x00, 0x04, 0x00, 0x00, 0x00, 0x01, 0x00, 0x00, 0x00, 0x3e, 0x04, 0x00, 0x00,
  0x86, 0x07, 0x00, 0x00, 0x05, 0x00, 0x00, 0x00, 0x62, 0x93, 0xff, 0xff, 0x14,
  0x00, 0x00, 0x00, 0x48, 0x00, 0x00, 0x00, 0x84, 0x00, 0x00, 0x00, 0x00, 0x00,
  0x00, 0x07, 0x50, 0x00, 0x00, 0x00, 0x54, 0x93, 0xff, 0xff, 0x10, 0x00, 0x00,
  0x00, 0x18, 0x00, 0x00, 0x00, 0x1c, 0x00, 0x00, 0x00, 0x20, 0x00, 0x00, 0x00,
  0x01, 0x00, 0x00, 0x00, 0x00, 0x00, 0x00, 0x00, 0x00, 0x00, 0x00, 0x00, 0x01,
  0x00, 0x00, 0x00, 0x31, 0xa2, 0xe9, 0x39, 0x01, 0x00, 0x00, 0x00, 0xd0, 0x68,
  0x63, 0x41, 0x01, 0x00, 0x00, 0x00, 0x5e, 0xa0, 0x69, 0xc1, 0x0d, 0x00, 0x00,
  0x00, 0x64, 0x65, 0x70, 0x74, 0x68, 0x77, 0x69, 0x73, 0x65, 0x5f, 0x33, 0x31,
  0x32, 0x00, 0x00, 0x00, 0x04, 0x00, 0x00, 0x00, 0x01, 0x00, 0x00, 0x00, 0x3e,
  0x04, 0x00, 0x00, 0x86, 0x07, 0x00, 0x00, 0x07, 0x00, 0x00, 0x00, 0xda, 0x93,
  0xff, 0xff, 0x14, 0x00, 0x00, 0x00, 0x48, 0x00, 0x00, 0x00, 0x83, 0x00, 0x00,
  0x00, 0x00, 0x00, 0x00, 0x07, 0x50, 0x00, 0x00, 0x00, 0xcc, 0x93, 0xff, 0xff,
  0x10, 0x00, 0x00, 0x00, 0x18, 0x00, 0x00, 0x00, 0x1c, 0x00, 0x00, 0x00, 0x20,
  0x00, 0x00, 0x00, 0x01, 0x00, 0x00, 0x00, 0x00, 0x00, 0x00, 0x00, 0x00, 0x00,
  0x00, 0x00, 0x01, 0x00, 0x00, 0x00, 0xa6, 0x12, 0x94, 0x3a, 0x01, 0x00, 0x00,
  0x00, 0x2b, 0x2f, 0xdc, 0x41, 0x01, 0x00, 0x00, 0x00, 0x7e, 0x11, 0x14, 0xc2,
  0x0d, 0x00, 0x00, 0x00, 0x64, 0x65, 0x70, 0x74, 0x68, 0x77, 0x69, 0x73, 0x65,
  0x5f, 0x33, 0x30, 0x31, 0x00, 0x00, 0x00, 0x04, 0x00, 0x00, 0x00, 0x01, 0x00,
  0x00, 0x00, 0x3e, 0x04, 0x00, 0x00, 0x86, 0x07, 0x00, 0x00, 0x07, 0x00, 0x00,
  0x00, 0x52, 0x94, 0xff, 0xff, 0x14, 0x00, 0x00, 0x00, 0x48, 0x00, 0x00, 0x00,
  0x82, 0x00, 0x00, 0x00, 0x00, 0x00, 0x00, 0x07, 0x70, 0x00, 0x00, 0x00, 0x44,
  0x94, 0xff, 0xff, 0x10, 0x00, 0x00, 0x00, 0x18, 0x00, 0x00, 0x00, 0x1c, 0x00,
  0x00, 0x00, 0x20, 0x00, 0x00, 0x00, 0x01, 0x00, 0x00, 0x00, 0x00, 0x00, 0x00,
  0x00, 0x00, 0x00, 0x00, 0x00, 0x01, 0x00, 0x00, 0x00, 0xaf, 0x96, 0xb7, 0x39,
  0x01, 0x00, 0x00, 0x00, 0x40, 0x95, 0x37, 0x41, 0x01, 0x00, 0x00, 0x00, 0x44,
  0x4f, 0x1f, 0xc1, 0x2c, 0x00, 0x00, 0x00, 0x42, 0x69, 0x61, 0x73, 0x41, 0x64,
  0x64, 0x5f, 0x31, 0x34, 0x3b, 0x64, 0x65, 0x70, 0x74, 0x68, 0x77, 0x69, 0x73,
  0x65, 0x5f, 0x33, 0x37, 0x3b, 0x43, 0x6f, 0x6e, 0x76, 0x32, 0x44, 0x5f, 0x31,
  0x34, 0x3b, 0x63, 0x6f, 0x6e, 0x76, 0x5f, 0x35, 0x5f, 0x31, 0x5f, 0x62, 0x00,
  0x00, 0x00, 0x00, 0x04, 0x00, 0x00, 0x00, 0x01, 0x00, 0x00, 0x00, 0x3e, 0x04,
  0x00, 0x00, 0x86, 0x07, 0x00, 0x00, 0x05, 0x00, 0x00, 0x00, 0xea, 0x94, 0xff,
  0xff, 0x14, 0x00, 0x00, 0x00, 0x48, 0x00, 0x00, 0x00, 0x81, 0x00, 0x00, 0x00,
  0x00, 0x00, 0x00, 0x07, 0x50, 0x00, 0x00, 0x00, 0xdc, 0x94, 0xff, 0xff, 0x10,
  0x00, 0x00, 0x00, 0x18, 0x00, 0x00, 0x00, 0x1c, 0x00, 0x00, 0x00, 0x20, 0x00,
  0x00, 0x00, 0x01, 0x00, 0x00, 0x00, 0x00, 0x00, 0x00, 0x00, 0x00, 0x00, 0x00,
  0x00, 0x01, 0x00, 0x00, 0x00, 0x0e, 0x80, 0xc4, 0x39, 0x01, 0x00, 0x00, 0x00,
  0x1e, 0x00, 0xfd, 0x40, 0x01, 0x00, 0x00, 0x00, 0x85, 0x7e, 0x44, 0xc1, 0x0d,
  0x00, 0x00, 0x00, 0x64, 0x65, 0x70, 0x74, 0x68, 0x77, 0x69, 0x73, 0x65, 0x5f,
  0x32, 0x39, 0x31, 0x00, 0x00, 0x00, 0x04, 0x00, 0x00, 0x00, 0x01, 0x00, 0x00,
  0x00, 0x3e, 0x04, 0x00, 0x00, 0x86, 0x07, 0x00, 0x00, 0x05, 0x00, 0x00, 0x00,
  0x62, 0x95, 0xff, 0xff, 0x14, 0x00, 0x00, 0x00, 0x48, 0x00, 0x00, 0x00, 0x80,
  0x00, 0x00, 0x00, 0x00, 0x00, 0x00, 0x07, 0x50, 0x00, 0x00, 0x00, 0x54, 0x95,
  0xff, 0xff, 0x10, 0x00, 0x00, 0x00, 0x18, 0x00, 0x00, 0x00, 0x1c, 0x00, 0x00,
  0x00, 0x20, 0x00, 0x00, 0x00, 0x01, 0x00, 0x00, 0x00, 0x00, 0x00, 0x00, 0x00,
  0x00, 0x00, 0x00, 0x00, 0x01, 0x00, 0x00, 0x00, 0x94, 0xdd, 0xf2, 0x39, 0x01,
  0x00, 0x00, 0x00, 0x5a, 0x38, 0x64, 0x41, 0x01, 0x00, 0x00, 0x00, 0xae, 0xdb,
  0x72, 0xc1, 0x0d, 0x00, 0x00, 0x00, 0x64, 0x65, 0x70, 0x74, 0x68, 0x77, 0x69,
  0x73, 0x65, 0x5f, 0x32, 0x38, 0x31, 0x00, 0x00, 0x00, 0x04, 0x00, 0x00, 0x00,
  0x01, 0x00, 0x00, 0x00, 0x3e, 0x04, 0x00, 0x00, 0x86, 0x07, 0x00, 0x00, 0x05,
  0x00, 0x00, 0x00, 0xda, 0x95, 0xff, 0xff, 0x14, 0x00, 0x00, 0x00, 0x4c, 0x00,
  0x00, 0x00, 0x7f, 0x00, 0x00, 0x00, 0x00, 0x00, 0x00, 0x07, 0x78, 0x00, 0x00,
  0x00, 0xcc, 0x95, 0xff, 0xff, 0x10, 0x00, 0x00, 0x00, 0x1c, 0x00, 0x00, 0x00,
  0x20, 0x00, 0x00, 0x00, 0x24, 0x00, 0x00, 0x00, 0x01, 0x00, 0x00, 0x00, 0x00,
  0x00, 0x00, 0x00, 0x00, 0x00, 0x00, 0x00, 0x00, 0x00, 0x00, 0x00, 0x01, 0x00,
  0x00, 0x00, 0x59, 0xdf, 0x0e, 0x3a, 0x01, 0x00, 0x00, 0x00, 0x3b, 0xde, 0x8e,
  0x41, 0x01, 0x00, 0x00, 0x00, 0x00, 0x00, 0x00, 0x00, 0x33, 0x00, 0x00, 0x00,
  0x52, 0x65, 0x6c, 0x75, 0x5f, 0x34, 0x3b, 0x42, 0x69, 0x61, 0x73, 0x41, 0x64,
  0x64, 0x5f, 0x31, 0x33, 0x3b, 0x64, 0x65, 0x70, 0x74, 0x68, 0x77, 0x69, 0x73,
  0x65, 0x5f, 0x33, 0x37, 0x3b, 0x43, 0x6f, 0x6e, 0x76, 0x32, 0x44, 0x5f, 0x31,
  0x33, 0x3b, 0x63, 0x6f, 0x6e, 0x76, 0x5f, 0x35, 0x5f, 0x30, 0x5f, 0x62, 0x00,
  0x04, 0x00, 0x00, 0x00, 0x01, 0x00, 0x00, 0x00, 0x3e, 0x04, 0x00, 0x00, 0x86,
  0x07, 0x00, 0x00, 0x05, 0x00, 0x00, 0x00, 0x7a, 0x96, 0xff, 0xff, 0x14, 0x00,
  0x00, 0x00, 0x48, 0x00, 0x00, 0x00, 0x7e, 0x00, 0x00, 0x00, 0x00, 0x00, 0x00,
  0x07, 0x50, 0x00, 0x00, 0x00, 0x6c, 0x96, 0xff, 0xff, 0x10, 0x00, 0x00, 0x00,
  0x18, 0x00, 0x00, 0x00, 0x1c, 0x00, 0x00, 0x00, 0x20, 0x00, 0x00, 0x00, 0x01,
  0x00, 0x00, 0x00, 0x00, 0x00, 0x00, 0x00, 0x00, 0x00, 0x00, 0x00, 0x01, 0x00,
  0x00, 0x00, 0xaa, 0xe8, 0x61, 0x3a, 0x01, 0x00, 0x00, 0x00, 0xe6, 0xe6, 0xe1,
  0x41, 0x01, 0x00, 0x00, 0x00, 0x24, 0x19, 0xac, 0xc1, 0x0d, 0x00, 0x00, 0x00,
  0x64, 0x65, 0x70, 0x74, 0x68, 0x77, 0x69, 0x73, 0x65, 0x5f, 0x32, 0x37, 0x31,
  0x00, 0x00, 0x00, 0x04, 0x00, 0x00, 0x00, 0x01, 0x00, 0x00, 0x00, 0x3e, 0x04,
  0x00, 0x00, 0x86, 0x07, 0x00, 0x00, 0x07, 0x00, 0x00, 0x00, 0xf2, 0x96, 0xff,
  0xff, 0x14, 0x00, 0x00, 0x00, 0x48, 0x00, 0x00, 0x00, 0x7d, 0x00, 0x00, 0x00,
  0x00, 0x00, 0x00, 0x07, 0x50, 0x00, 0x00, 0x00, 0xe4, 0x96, 0xff, 0xff, 0x10,
  0x00, 0x00, 0x00, 0x18, 0x00, 0x00, 0x00, 0x1c, 0x00, 0x00, 0x00, 0x20, 0x00,
  0x00, 0x00, 0x01, 0x00, 0x00, 0x00, 0x00, 0x00, 0x00, 0x00, 0x00, 0x00, 0x00,
  0x00, 0x01, 0x00, 0x00, 0x00, 0xf4, 0xaa, 0xd3, 0x3a, 0x01, 0x00, 0x00, 0x00,
  0x4d, 0xa9, 0x53, 0x42, 0x01, 0x00, 0x00, 0x00, 0x80, 0x0d, 0x1d, 0xc2, 0x0d,
  0x00, 0x00, 0x00, 0x64, 0x65, 0x70, 0x74, 0x68, 0x77, 0x69, 0x73, 0x65, 0x5f,
  0x32, 0x36, 0x31, 0x00, 0x00, 0x00, 0x04, 0x00, 0x00, 0x00, 0x01, 0x00, 0x00,
  0x00, 0x3e, 0x04, 0x00, 0x00, 0x86, 0x07, 0x00, 0x00, 0x07, 0x00, 0x00, 0x00,
  0x6a, 0x97, 0xff, 0xff, 0x14, 0x00, 0x00, 0x00, 0x48, 0x00, 0x00, 0x00, 0x7c,
  0x00, 0x00, 0x00, 0x00, 0x00, 0x00, 0x07, 0x48, 0x00, 0x00, 0x00, 0x5c, 0x97,
  0xff, 0xff, 0x10, 0x00, 0x00, 0x00, 0x18, 0x00, 0x00, 0x00, 0x1c, 0x00, 0x00,
  0x00, 0x20, 0x00, 0x00, 0x00, 0x01, 0x00, 0x00, 0x00, 0x00, 0x00, 0x00, 0x00,
  0x00, 0x00, 0x00, 0x00, 0x01, 0x00, 0x00, 0x00, 0x63, 0xaa, 0x25, 0x3b, 0x01,
  0x00, 0x00, 0x00, 0x18, 0xb6, 0x68, 0x42, 0x01, 0x00, 0x00, 0x00, 0x18, 0xa9,
  0xa5, 0xc2, 0x05, 0x00, 0x00, 0x00, 0x41, 0x64, 0x64, 0x5f, 0x33, 0x00, 0x00,
  0x00, 0x04, 0x00, 0x00, 0x00, 0x01, 0x00, 0x00, 0x00, 0x3e, 0x04, 0x00, 0x00,
  0x86, 0x07, 0x00, 0x00, 0x07, 0x00, 0x00, 0x00, 0xda, 0x97, 0xff, 0xff, 0x14,
  0x00, 0x00, 0x00, 0x48, 0x00, 0x00, 0x00, 0x7b, 0x00, 0x00, 0x00, 0x00, 0x00,
  0x00, 0x07, 0x70, 0x00, 0x00, 0x00, 0xcc, 0x97, 0xff, 0xff, 0x10, 0x00, 0x00,
  0x00, 0x18, 0x00, 0x00, 0x00, 0x1c, 0x00, 0x00, 0x00, 0x20, 0x00, 0x00, 0x00,
  0x01, 0x00, 0x00, 0x00, 0x00, 0x00, 0x00, 0x00, 0x00, 0x00, 0x00, 0x00, 0x01,
  0x00, 0x00, 0x00, 0xfc, 0x05, 0x14, 0x3b, 0x01, 0x00, 0x00, 0x00, 0x05, 0x57,
  0x3f, 0x42, 0x01, 0x00, 0x00, 0x00, 0xd4, 0x04, 0x94, 0xc2, 0x2d, 0x00, 0x00,
  0x00, 0x42, 0x69, 0x61, 0x73, 0x41, 0x64, 0x64, 0x5f, 0x31, 0x32, 0x3b, 0x64,
  0x65, 0x70, 0x74, 0x68, 0x77, 0x69, 0x73, 0x65, 0x5f, 0x33, 0x31, 0x3b, 0x43,
  0x6f, 0x6e, 0x76, 0x32, 0x44, 0x5f, 0x31, 0x32, 0x3b, 0x63, 0x6f, 0x6e, 0x76,
  0x5f, 0x34, 0x5f, 0x31, 0x5f, 0x62, 0x31, 0x00, 0x00, 0x00, 0x04, 0x00, 0x00,
  0x00, 0x01, 0x00, 0x00, 0x00, 0x3e, 0x04, 0x00, 0x00, 0x86, 0x07, 0x00, 0x00,
  0x07, 0x00, 0x00, 0x00, 0x72, 0x98, 0xff, 0xff, 0x14, 0x00, 0x00, 0x00, 0x48,
  0x00, 0x00, 0x00, 0x7a, 0x00, 0x00, 0x00, 0x00, 0x00, 0x00, 0x07, 0x50, 0x00,
  0x00, 0x00, 0x64, 0x98, 0xff, 0xff, 0x10, 0x00, 0x00, 0x00, 0x18, 0x00, 0x00,
  0x00, 0x1c, 0x00, 0x00, 0x00, 0x20, 0x00, 0x00, 0x00, 0x01, 0x00, 0x00, 0x00,
  0x00, 0x00, 0x00, 0x00, 0x00, 0x00, 0x00, 0x00, 0x01, 0x00, 0x00, 0x00, 0xba,
  0x41, 0x2b, 0x3b, 0x01, 0x00, 0x00, 0x00, 0xcf, 0x58, 0x82, 0x42, 0x01, 0x00,
  0x00, 0x00, 0x63, 0x40, 0xab, 0xc2, 0x0d, 0x00, 0x00, 0x00, 0x64, 0x65, 0x70,
  0x74, 0x68, 0x77, 0x69, 0x73, 0x65, 0x5f, 0x32, 0x35, 0x32, 0x00, 0x00, 0x00,
  0x04, 0x00, 0x00, 0x00, 0x01, 0x00, 0x00, 0x00, 0x3e, 0x04, 0x00, 0x00, 0x86,
  0x07, 0x00, 0x00, 0x09, 0x00, 0x00, 0x00, 0xea, 0x98, 0xff, 0xff, 0x14, 0x00,
  0x00, 0x00, 0x48, 0x00, 0x00, 0x00, 0x79, 0x00, 0x00, 0x00, 0x00, 0x00, 0x00,
  0x07, 0x50, 0x00, 0x00, 0x00, 0xdc, 0x98, 0xff, 0xff, 0x10, 0x00, 0x00, 0x00,
  0x18, 0x00, 0x00, 0x00, 0x1c, 0x00, 0x00, 0x00, 0x20, 0x00, 0x00, 0x00, 0x01,
  0x00, 0x00, 0x00, 0x00, 0x00, 0x00, 0x00, 0x00, 0x00, 0x00, 0x00, 0x01, 0x00,
  0x00, 0x00, 0xff, 0x28, 0xa6, 0x3b, 0x01, 0x00, 0x00, 0x00, 0xd8, 0x52, 0x1d,
  0x43, 0x01, 0x00, 0x00, 0x00, 0xb3, 0x27, 0x26, 0xc3, 0x0d, 0x00, 0x00, 0x00,
  0x64, 0x65, 0x70, 0x74, 0x68, 0x77, 0x69, 0x73, 0x65, 0x5f, 0x32, 0x34, 0x31,
  0x00, 0x00, 0x00, 0x04, 0x00, 0x00, 0x00, 0x01, 0x00, 0x00, 0x00, 0x3e, 0x04,
  0x00, 0x00, 0x86, 0x07, 0x00, 0x00, 0x09, 0x00, 0x00, 0x00, 0x62, 0x99, 0xff,
  0xff, 0x14, 0x00, 0x00, 0x00, 0x48, 0x00, 0x00, 0x00, 0x78, 0x00, 0x00, 0x00,
  0x00, 0x00, 0x00, 0x07, 0x70, 0x00, 0x00, 0x00, 0x54, 0x99, 0xff, 0xff, 0x10,
  0x00, 0x00, 0x00, 0x18, 0x00, 0x00, 0x00, 0x1c, 0x00, 0x00, 0x00, 0x20, 0x00,
  0x00, 0x00, 0x01, 0x00, 0x00, 0x00, 0x00, 0x00, 0x00, 0x00, 0x00, 0x00, 0x00,
  0x00, 0x01, 0x00, 0x00, 0x00, 0x58, 0xc0, 0x1c, 0x3b, 0x01, 0x00, 0x00, 0x00,
  0xa3, 0x77, 0x70, 0x42, 0x01, 0x00, 0x00, 0x00, 0x1e, 0xbf, 0x9c, 0xc2, 0x2c,
  0x00, 0x00, 0x00, 0x42, 0x69, 0x61, 0x73, 0x41, 0x64, 0x64, 0x5f, 0x31, 0x31,
  0x3b, 0x64, 0x65, 0x70, 0x74, 0x68, 0x77, 0x69, 0x73, 0x65, 0x5f, 0x33, 0x31,
  0x3b, 0x43, 0x6f, 0x6e, 0x76, 0x32, 0x44, 0x5f, 0x31, 0x31, 0x3b, 0x63, 0x6f,
  0x6e, 0x76, 0x5f, 0x34, 0x5f, 0x31, 0x5f, 0x62, 0x00, 0x00, 0x00, 0x00, 0x04,
  0x00, 0x00, 0x00, 0x01, 0x00, 0x00, 0x00, 0x3e, 0x04, 0x00, 0x00, 0x86, 0x07,
  0x00, 0x00, 0x07, 0x00, 0x00, 0x00, 0xfa, 0x99, 0xff, 0xff, 0x14, 0x00, 0x00,
  0x00, 0x48, 0x00, 0x00, 0x00, 0x77, 0x00, 0x00, 0x00, 0x00, 0x00, 0x00, 0x07,
  0x50, 0x00, 0x00, 0x00, 0xec, 0x99, 0xff, 0xff, 0x10, 0x00, 0x00, 0x00, 0x18,
  0x00, 0x00, 0x00, 0x1c, 0x00, 0x00, 0x00, 0x20, 0x00, 0x00, 0x00, 0x01, 0x00,
  0x00, 0x00, 0x00, 0x00, 0x00, 0x00, 0x00, 0x00, 0x00, 0x00, 0x01, 0x00, 0x00,
  0x00, 0x46, 0x30, 0xd6, 0x3a, 0x01, 0x00, 0x00, 0x00, 0xd1, 0xc4, 0x55, 0x42,
  0x01, 0x00, 0x00, 0x00, 0x9a, 0x2e, 0x56, 0xc2, 0x0d, 0x00, 0x00, 0x00, 0x64,
  0x65, 0x70, 0x74, 0x68, 0x77, 0x69, 0x73, 0x65, 0x5f, 0x32, 0x33, 0x31, 0x00,
  0x00, 0x00, 0x04, 0x00, 0x00, 0x00, 0x01, 0x00, 0x00, 0x00, 0x3e, 0x04, 0x00,
  0x00, 0x86, 0x07, 0x00, 0x00, 0x07, 0x00, 0x00, 0x00, 0x72, 0x9a, 0xff, 0xff,
  0x14, 0x00, 0x00, 0x00, 0x48, 0x00, 0x00, 0x00, 0x76, 0x00, 0x00, 0x00, 0x00,
  0x00, 0x00, 0x07, 0x50, 0x00, 0x00, 0x00, 0x64, 0x9a, 0xff, 0xff, 0x10, 0x00,
  0x00, 0x00, 0x18, 0x00, 0x00, 0x00, 0x1c, 0x00, 0x00, 0x00, 0x20, 0x00, 0x00,
  0x00, 0x01, 0x00, 0x00, 0x00, 0x00, 0x00, 0x00, 0x00, 0x00, 0x00, 0x00, 0x00,
  0x01, 0x00, 0x00, 0x00, 0x64, 0x2f, 0x0f, 0x3b, 0x01, 0x00, 0x00, 0x00, 0x46,
  0x2e, 0x8f, 0x42, 0x01, 0x00, 0x00, 0x00, 0x6c, 0xbe, 0x20, 0xc2, 0x0d, 0x00,
  0x00, 0x00, 0x64, 0x65, 0x70, 0x74, 0x68, 0x77, 0x69, 0x73, 0x65, 0x5f, 0x32,
  0x32, 0x31, 0x00, 0x00, 0x00, 0x04, 0x00, 0x00, 0x00, 0x01, 0x00, 0x00, 0x00,
  0x3e, 0x04, 0x00, 0x00, 0x86, 0x07, 0x00, 0x00, 0x07, 0x00, 0x00, 0x00, 0xea,
  0x9a, 0xff, 0xff, 0x14, 0x00, 0x00, 0x00, 0x4c, 0x00, 0x00, 0x00, 0x75, 0x00,
  0x00, 0x00, 0x00, 0x00, 0x00, 0x07, 0x78, 0x00, 0x00, 0x00, 0xdc, 0x9a, 0xff,
  0xff, 0x10, 0x00, 0x00, 0x00, 0x1c, 0x00, 0x00, 0x00, 0x20, 0x00, 0x00, 0x00,
  0x24, 0x00, 0x00, 0x00, 0x01, 0x00, 0x00, 0x00, 0x00, 0x00, 0x00, 0x00, 0x00,
