const unsigned char _tmp_sr4by3_tflite[] = {
  0x1c, 0x00, 0x00, 0x00, 0x54, 0x46, 0x4c, 0x33, 0x14, 0x00, 0x20, 0x00,
  0x04, 0x00, 0x08, 0x00, 0x0c, 0x00, 0x10, 0x00, 0x14, 0x00, 0x00, 0x00,
  0x18, 0x00, 0x1c, 0x00, 0x14, 0x00, 0x00, 0x00, 0x03, 0x00, 0x00, 0x00,
  0x18, 0x02, 0x00, 0x00, 0x0c, 0x02, 0x00, 0x00, 0xfc, 0x02, 0x00, 0x00,
  0x0c, 0x00, 0x00, 0x00, 0xa4, 0x02, 0x00, 0x00, 0x18, 0x02, 0x00, 0x00,
  0x7d, 0x00, 0x00, 0x00, 0xd4, 0x6f, 0x00, 0x00, 0xd0, 0x6f, 0x00, 0x00,
  0xc4, 0x6e, 0x00, 0x00, 0x48, 0x6e, 0x00, 0x00, 0xe8, 0x6d, 0x00, 0x00,
  0x88, 0x6d, 0x00, 0x00, 0x18, 0x6d, 0x00, 0x00, 0xa4, 0x6c, 0x00, 0x00,
  0x3c, 0x6c, 0x00, 0x00, 0xd4, 0x6b, 0x00, 0x00, 0x54, 0x6b, 0x00, 0x00,
  0xf0, 0x69, 0x00, 0x00, 0x8c, 0x68, 0x00, 0x00, 0xa0, 0x65, 0x00, 0x00,
  0x64, 0x64, 0x00, 0x00, 0x28, 0x63, 0x00, 0x00, 0x2c, 0x61, 0x00, 0x00,
  0xc8, 0x5f, 0x00, 0x00, 0x64, 0x5e, 0x00, 0x00, 0x20, 0x5c, 0x00, 0x00,
  0x20, 0x5b, 0x00, 0x00, 0x20, 0x5a, 0x00, 0x00, 0xb4, 0x58, 0x00, 0x00,
  0xc4, 0x57, 0x00, 0x00, 0xd4, 0x56, 0x00, 0x00, 0xc8, 0x55, 0x00, 0x00,
  0xc4, 0x54, 0x00, 0x00, 0xc0, 0x53, 0x00, 0x00, 0x9c, 0x52, 0x00, 0x00,
  0xd4, 0x51, 0x00, 0x00, 0x0c, 0x51, 0x00, 0x00, 0x00, 0x50, 0x00, 0x00,
  0x10, 0x4f, 0x00, 0x00, 0xac, 0x4e, 0x00, 0x00, 0xbc, 0x4d, 0x00, 0x00,
  0xb0, 0x4c, 0x00, 0x00, 0xe8, 0x4b, 0x00, 0x00, 0x20, 0x4b, 0x00, 0x00,
  0xb4, 0x49, 0x00, 0x00, 0x74, 0x48, 0x00, 0x00, 0x00, 0x48, 0x00, 0x00,
  0xc0, 0x46, 0x00, 0x00, 0xc4, 0x44, 0x00, 0x00, 0xfc, 0x43, 0x00, 0x00,
  0xa0, 0x43, 0x00, 0x00, 0xd8, 0x42, 0x00, 0x00, 0xb4, 0x41, 0x00, 0x00,
  0xb0, 0x40, 0x00, 0x00, 0xac, 0x3f, 0x00, 0x00, 0xb4, 0x3c, 0x00, 0x00,
  0xe8, 0x3a, 0x00, 0x00, 0x58, 0x3a, 0x00, 0x00, 0x8c, 0x38, 0x00, 0x00,
  0x18, 0x34, 0x00, 0x00, 0x14, 0x33, 0x00, 0x00, 0xac, 0x32, 0x00, 0x00,
  0xa8, 0x31, 0x00, 0x00, 0x64, 0x2f, 0x00, 0x00, 0x8c, 0x2d, 0x00, 0x00,
  0x10, 0x2d, 0x00, 0x00, 0x38, 0x2b, 0x00, 0x00, 0xf4, 0x2a, 0x00, 0x00,
  0x70, 0x2a, 0x00, 0x00, 0xdc, 0x29, 0x00, 0x00, 0x58, 0x29, 0x00, 0x00,
  0xe0, 0x28, 0x00, 0x00, 0x68, 0x28, 0x00, 0x00, 0xe0, 0x27, 0x00, 0x00,
  0x44, 0x27, 0x00, 0x00, 0xec, 0x26, 0x00, 0x00, 0xbc, 0x6e, 0x00, 0x00,
  0xb8, 0x6e, 0x00, 0x00, 0xb4, 0x6e, 0x00, 0x00, 0xb0, 0x6e, 0x00, 0x00,
  0xac, 0x6e, 0x00, 0x00, 0xa8, 0x6e, 0x00, 0x00, 0xa4, 0x6e, 0x00, 0x00,
  0xa0, 0x6e, 0x00, 0x00, 0x9c, 0x6e, 0x00, 0x00, 0x98, 0x6e, 0x00, 0x00,
  0x94, 0x6e, 0x00, 0x00, 0x90, 0x6e, 0x00, 0x00, 0x8c, 0x6e, 0x00, 0x00,
  0x88, 0x6e, 0x00, 0x00, 0x84, 0x6e, 0x00, 0x00, 0x80, 0x6e, 0x00, 0x00,
  0x7c, 0x6e, 0x00, 0x00, 0x78, 0x6e, 0x00, 0x00, 0x74, 0x6e, 0x00, 0x00,
  0x70, 0x6e, 0x00, 0x00, 0x6c, 0x6e, 0x00, 0x00, 0x68, 0x6e, 0x00, 0x00,
  0x64, 0x6e, 0x00, 0x00, 0x60, 0x6e, 0x00, 0x00, 0x5c, 0x6e, 0x00, 0x00,
  0x58, 0x6e, 0x00, 0x00, 0x54, 0x6e, 0x00, 0x00, 0x50, 0x6e, 0x00, 0x00,
  0x4c, 0x6e, 0x00, 0x00, 0x48, 0x6e, 0x00, 0x00, 0x44, 0x6e, 0x00, 0x00,
  0x40, 0x6e, 0x00, 0x00, 0x3c, 0x6e, 0x00, 0x00, 0x38, 0x6e, 0x00, 0x00,
  0x34, 0x6e, 0x00, 0x00, 0x30, 0x6e, 0x00, 0x00, 0x2c, 0x6e, 0x00, 0x00,
  0x28, 0x6e, 0x00, 0x00, 0x24, 0x6e, 0x00, 0x00, 0x20, 0x6e, 0x00, 0x00,
  0x1c, 0x6e, 0x00, 0x00, 0x18, 0x6e, 0x00, 0x00, 0x14, 0x6e, 0x00, 0x00,
  0x10, 0x6e, 0x00, 0x00, 0x0c, 0x6e, 0x00, 0x00, 0x08, 0x6e, 0x00, 0x00,
  0x04, 0x6e, 0x00, 0x00, 0x00, 0x6e, 0x00, 0x00, 0xfc, 0x6d, 0x00, 0x00,
  0xf8, 0x6d, 0x00, 0x00, 0xf4, 0x6d, 0x00, 0x00, 0xf0, 0x6d, 0x00, 0x00,
  0xec, 0x6d, 0x00, 0x00, 0xe8, 0x6d, 0x00, 0x00, 0xdc, 0x00, 0x00, 0x00,
  0x01, 0x00, 0x00, 0x00, 0x14, 0x01, 0x00, 0x00, 0x04, 0x00, 0x00, 0x00,
  0x9c, 0x25, 0x00, 0x00, 0xe0, 0x24, 0x00, 0x00, 0x68, 0x23, 0x00, 0x00,
  0x04, 0x1d, 0x00, 0x00, 0x01, 0x00, 0x00, 0x00, 0x10, 0x00, 0x00, 0x00,
  0x0c, 0x00, 0x14, 0x00, 0x10, 0x00, 0x0c, 0x00, 0x08, 0x00, 0x04, 0x00,
  0x0c, 0x00, 0x00, 0x00, 0x10, 0x00, 0x00, 0x00, 0x18, 0x00, 0x00, 0x00,
  0x28, 0x00, 0x00, 0x00, 0x2c, 0x00, 0x00, 0x00, 0x05, 0x00, 0x00, 0x00,
  0x73, 0x65, 0x72, 0x76, 0x65, 0x00, 0x00, 0x00, 0x0f, 0x00, 0x00, 0x00,
  0x73, 0x65, 0x72, 0x76, 0x69, 0x6e, 0x67, 0x5f, 0x64, 0x65, 0x66, 0x61,
  0x75, 0x6c, 0x74, 0x00, 0x01, 0x00, 0x00, 0x00, 0x14, 0x00, 0x00, 0x00,
  0x01, 0x00, 0x00, 0x00, 0x24, 0x00, 0x00, 0x00, 0x08, 0x00, 0x0c, 0x00,
  0x08, 0x00, 0x04, 0x00, 0x08, 0x00, 0x00, 0x00, 0x7a, 0x00, 0x00, 0x00,
  0x04, 0x00, 0x00, 0x00, 0x06, 0x00, 0x00, 0x00, 0x6f, 0x75, 0x74, 0x70,
  0x75, 0x74, 0x00, 0x00, 0xc2, 0x93, 0xff, 0xff, 0x04, 0x00, 0x00, 0x00,
  0x03, 0x00, 0x00, 0x00, 0x69, 0x6d, 0x67, 0x00, 0x01, 0x00, 0x00, 0x00,
  0x0c, 0x00, 0x00, 0x00, 0x08, 0x00, 0x0c, 0x00, 0x04, 0x00, 0x08, 0x00,
  0x08, 0x00, 0x00, 0x00, 0x08, 0x00, 0x00, 0x00, 0x7c, 0x00, 0x00, 0x00,
  0x13, 0x00, 0x00, 0x00, 0x6d, 0x69, 0x6e, 0x5f, 0x72, 0x75, 0x6e, 0x74,
  0x69, 0x6d, 0x65, 0x5f, 0x76, 0x65, 0x72, 0x73, 0x69, 0x6f, 0x6e, 0x00,
  0x06, 0x94, 0xff, 0xff, 0x04, 0x00, 0x00, 0x00, 0x10, 0x00, 0x00, 0x00,
  0x31, 0x2e, 0x31, 0x33, 0x2e, 0x31, 0x00, 0x00, 0x00, 0x00, 0x00, 0x00,
  0x00, 0x00, 0x00, 0x00, 0x0f, 0x00, 0x00, 0x00, 0x4d, 0x4c, 0x49, 0x52,
  0x20, 0x43, 0x6f, 0x6e, 0x76, 0x65, 0x72, 0x74, 0x65, 0x64, 0x2e, 0x00,
  0x00, 0x00, 0x0e, 0x00, 0x18, 0x00, 0x04, 0x00, 0x08, 0x00, 0x0c, 0x00,
  0x10, 0x00, 0x14, 0x00, 0x0e, 0x00, 0x00, 0x00, 0x0c, 0x01, 0x00, 0x00,
  0x00, 0x01, 0x00, 0x00, 0xf4, 0x00, 0x00, 0x00, 0x14, 0x00, 0x00, 0x00,
  0x04, 0x00, 0x00, 0x00, 0x04, 0x00, 0x00, 0x00, 0x6d, 0x61, 0x69, 0x6e,
  0x00, 0x00, 0x00, 0x00, 0x36, 0x00, 0x00, 0x00, 0x24, 0x24, 0x00, 0x00,
  0x60, 0x23, 0x00, 0x00, 0xb4, 0x22, 0x00, 0x00, 0xe8, 0x21, 0x00, 0x00,
  0x3c, 0x21, 0x00, 0x00, 0xa0, 0x20, 0x00, 0x00, 0xd8, 0x1f, 0x00, 0x00,
  0x3c, 0x1f, 0x00, 0x00, 0xa0, 0x1e, 0x00, 0x00, 0xec, 0x1d, 0x00, 0x00,
  0x50, 0x1d, 0x00, 0x00, 0xb4, 0x1c, 0x00, 0x00, 0x00, 0x1c, 0x00, 0x00,
  0x6c, 0x1b, 0x00, 0x00, 0xd0, 0x1a, 0x00, 0x00, 0x34, 0x1a, 0x00, 0x00,
  0x74, 0x19, 0x00, 0x00, 0xd8, 0x18, 0x00, 0x00, 0x3c, 0x18, 0x00, 0x00,
  0x88, 0x17, 0x00, 0x00, 0xec, 0x16, 0x00, 0x00, 0x50, 0x16, 0x00, 0x00,
  0x9c, 0x15, 0x00, 0x00, 0x18, 0x15, 0x00, 0x00, 0x7c, 0x14, 0x00, 0x00,
  0xe0, 0x13, 0x00, 0x00, 0x20, 0x13, 0x00, 0x00, 0x84, 0x12, 0x00, 0x00,
  0xe8, 0x11, 0x00, 0x00, 0x34, 0x11, 0x00, 0x00, 0xb0, 0x10, 0x00, 0x00,
  0x14, 0x10, 0x00, 0x00, 0x78, 0x0f, 0x00, 0x00, 0xb8, 0x0e, 0x00, 0x00,
  0x1c, 0x0e, 0x00, 0x00, 0x80, 0x0d, 0x00, 0x00, 0xc8, 0x0c, 0x00, 0x00,
  0x2c, 0x0c, 0x00, 0x00, 0x90, 0x0b, 0x00, 0x00, 0xd8, 0x0a, 0x00, 0x00,
  0x54, 0x0a, 0x00, 0x00, 0xb8, 0x09, 0x00, 0x00, 0x1c, 0x09, 0x00, 0x00,
  0x5c, 0x08, 0x00, 0x00, 0xc0, 0x07, 0x00, 0x00, 0x24, 0x07, 0x00, 0x00,
  0x6c, 0x06, 0x00, 0x00, 0xd0, 0x05, 0x00, 0x00, 0x34, 0x05, 0x00, 0x00,
  0x7c, 0x04, 0x00, 0x00, 0xf8, 0x03, 0x00, 0x00, 0x4c, 0x03, 0x00, 0x00,
  0xac, 0x02, 0x00, 0x00, 0x04, 0x02, 0x00, 0x00, 0x01, 0x00, 0x00, 0x00,
  0x7a, 0x00, 0x00, 0x00, 0x01, 0x00, 0x00, 0x00, 0x00, 0x00, 0x00, 0x00,
  0x7b, 0x00, 0x00, 0x00, 0x58, 0x6b, 0x00, 0x00, 0x10, 0x6b, 0x00, 0x00,
  0x68, 0x6a, 0x00, 0x00, 0xf8, 0x69, 0x00, 0x00, 0x98, 0x69, 0x00, 0x00,
  0x38, 0x69, 0x00, 0x00, 0xc4, 0x68, 0x00, 0x00, 0x48, 0x68, 0x00, 0x00,
  0xe0, 0x67, 0x00, 0x00, 0x7c, 0x67, 0x00, 0x00, 0xf8, 0x66, 0x00, 0x00,
  0x94, 0x65, 0x00, 0x00, 0x30, 0x64, 0x00, 0x00, 0x44, 0x61, 0x00, 0x00,
  0x08, 0x60, 0x00, 0x00, 0xcc, 0x5e, 0x00, 0x00, 0xd0, 0x5c, 0x00, 0x00,
  0x6c, 0x5b, 0x00, 0x00, 0x08, 0x5a, 0x00, 0x00, 0xc4, 0x57, 0x00, 0x00,
  0xc4, 0x56, 0x00, 0x00, 0xc4, 0x55, 0x00, 0x00, 0x54, 0x54, 0x00, 0x00,
  0x64, 0x53, 0x00, 0x00, 0x78, 0x52, 0x00, 0x00, 0x68, 0x51, 0x00, 0x00,
  0x64, 0x50, 0x00, 0x00, 0x64, 0x4f, 0x00, 0x00, 0x3c, 0x4e, 0x00, 0x00,
  0x74, 0x4d, 0x00, 0x00, 0xb0, 0x4c, 0x00, 0x00, 0xa0, 0x4b, 0x00, 0x00,
  0xbc, 0x4a, 0x00, 0x00, 0x4c, 0x4a, 0x00, 0x00, 0x60, 0x49, 0x00, 0x00,
  0x50, 0x48, 0x00, 0x00, 0x88, 0x47, 0x00, 0x00, 0xc4, 0x46, 0x00, 0x00,
  0x54, 0x45, 0x00, 0x00, 0x20, 0x44, 0x00, 0x00, 0xa0, 0x43, 0x00, 0x00,
  0x64, 0x42, 0x00, 0x00, 0x64, 0x40, 0x00, 0x00, 0xa8, 0x3f, 0x00, 0x00,
  0x40, 0x3f, 0x00, 0x00, 0x7c, 0x3e, 0x00, 0x00, 0x54, 0x3d, 0x00, 0x00,
  0x50, 0x3c, 0x00, 0x00, 0x50, 0x3b, 0x00, 0x00, 0x54, 0x38, 0x00, 0x00,
  0x94, 0x36, 0x00, 0x00, 0xf8, 0x35, 0x00, 0x00, 0x30, 0x34, 0x00, 0x00,
  0xb8, 0x2f, 0x00, 0x00, 0xc0, 0x2e, 0x00, 0x00, 0x4c, 0x2e, 0x00, 0x00,
  0x4c, 0x2d, 0x00, 0x00, 0x04, 0x2b, 0x00, 0x00, 0x38, 0x29, 0x00, 0x00,
  0xb0, 0x28, 0x00, 0x00, 0xe8, 0x26, 0x00, 0x00, 0x98, 0x26, 0x00, 0x00,
  0x04, 0x26, 0x00, 0x00, 0x6c, 0x25, 0x00, 0x00, 0xe8, 0x24, 0x00, 0x00,
  0x70, 0x24, 0x00, 0x00, 0xf4, 0x23, 0x00, 0x00, 0x6c, 0x23, 0x00, 0x00,
  0xe0, 0x22, 0x00, 0x00, 0x78, 0x22, 0x00, 0x00, 0xbc, 0x21, 0x00, 0x00,
  0xf4, 0x20, 0x00, 0x00, 0x40, 0x20, 0x00, 0x00, 0x7c, 0x1f, 0x00, 0x00,
  0xe0, 0x1e, 0x00, 0x00, 0x24, 0x1e, 0x00, 0x00, 0x7c, 0x1d, 0x00, 0x00,
  0xe0, 0x1c, 0x00, 0x00, 0x28, 0x1c, 0x00, 0x00, 0x90, 0x1b, 0x00, 0x00,
  0xf4, 0x1a, 0x00, 0x00, 0x3c, 0x1a, 0x00, 0x00, 0xb0, 0x19, 0x00, 0x00,
  0x10, 0x19, 0x00, 0x00, 0x74, 0x18, 0x00, 0x00, 0xb4, 0x17, 0x00, 0x00,
  0x18, 0x17, 0x00, 0x00, 0x7c, 0x16, 0x00, 0x00, 0xc4, 0x15, 0x00, 0x00,
  0x2c, 0x15, 0x00, 0x00, 0x90, 0x14, 0x00, 0x00, 0xd8, 0x13, 0x00, 0x00,
  0x48, 0x13, 0x00, 0x00, 0xbc, 0x12, 0x00, 0x00, 0x20, 0x12, 0x00, 0x00,
  0x60, 0x11, 0x00, 0x00, 0xc4, 0x10, 0x00, 0x00, 0x28, 0x10, 0x00, 0x00,
  0x70, 0x0f, 0x00, 0x00, 0xe0, 0x0e, 0x00, 0x00, 0x54, 0x0e, 0x00, 0x00,
  0xb8, 0x0d, 0x00, 0x00, 0xf8, 0x0c, 0x00, 0x00, 0x5c, 0x0c, 0x00, 0x00,
  0xc0, 0x0b, 0x00, 0x00, 0x04, 0x0b, 0x00, 0x00, 0x6c, 0x0a, 0x00, 0x00,
  0xd0, 0x09, 0x00, 0x00, 0x14, 0x09, 0x00, 0x00, 0x84, 0x08, 0x00, 0x00,
  0xf8, 0x07, 0x00, 0x00, 0x5c, 0x07, 0x00, 0x00, 0x9c, 0x06, 0x00, 0x00,
  0x00, 0x06, 0x00, 0x00, 0x64, 0x05, 0x00, 0x00, 0xa8, 0x04, 0x00, 0x00,
  0x10, 0x04, 0x00, 0x00, 0x74, 0x03, 0x00, 0x00, 0xb8, 0x02, 0x00, 0x00,
  0x28, 0x02, 0x00, 0x00, 0x9c, 0x01, 0x00, 0x00, 0xf0, 0x00, 0x00, 0x00,
  0x50, 0x00, 0x00, 0x00, 0xf2, 0xe0, 0xff, 0xff, 0x00, 0x00, 0x00, 0x01,
  0x02, 0x00, 0x00, 0x00, 0x30, 0x00, 0x00, 0x00, 0x24, 0x00, 0x00, 0x00,
  0x10, 0x00, 0x00, 0x00, 0x00, 0x00, 0x0a, 0x00, 0x10, 0x00, 0x0f, 0x00,
  0x04, 0x00, 0x08, 0x00, 0x0a, 0x00, 0x00, 0x00, 0x01, 0x00, 0x00, 0x00,
  0x01, 0x00, 0x00, 0x00, 0x00, 0x00, 0x00, 0x01, 0x01, 0x00, 0x00, 0x00,
  0x7a, 0x00, 0x00, 0x00, 0x03, 0x00, 0x00, 0x00, 0x79, 0x00, 0x00, 0x00,
  0x3d, 0x00, 0x00, 0x00, 0x44, 0x00, 0x00, 0x00, 0xf4, 0x96, 0xff, 0xff,
  0x3c, 0x00, 0x00, 0x00, 0x7b, 0x00, 0x00, 0x00, 0x20, 0x00, 0x00, 0x00,
  0x44, 0x00, 0x00, 0x00, 0x04, 0x00, 0x00, 0x00, 0x04, 0x00, 0x00, 0x00,
  0xff, 0xff, 0xff, 0xff, 0x40, 0x00, 0x00, 0x00, 0x40, 0x00, 0x00, 0x00,
  0x01, 0x00, 0x00, 0x00, 0x0c, 0x00, 0x00, 0x00, 0x42, 0x69, 0x61, 0x73,
  0x41, 0x64, 0x64, 0x5f, 0x31, 0x35, 0x3a, 0x30, 0x00, 0x00, 0x00, 0x00,
  0x04, 0x00, 0x00, 0x00, 0x01, 0x00, 0x00, 0x00, 0x40, 0x00, 0x00, 0x00,
  0x40, 0x00, 0x00, 0x00, 0x01, 0x00, 0x00, 0x00, 0xdc, 0x96, 0xff, 0xff,
  0x26, 0xe0, 0xff, 0xff, 0x00, 0x00, 0x00, 0x02, 0x01, 0x00, 0x00, 0x00,
  0x28, 0x00, 0x00, 0x00, 0x1c, 0x00, 0x00, 0x00, 0x04, 0x00, 0x00, 0x00,
  0x64, 0xff, 0xff, 0xff, 0x01, 0x00, 0x00, 0x00, 0x01, 0x00, 0x00, 0x00,
  0x01, 0x00, 0x00, 0x00, 0x00, 0x00, 0x00, 0x01, 0x01, 0x00, 0x00, 0x00,
  0x79, 0x00, 0x00, 0x00, 0x03, 0x00, 0x00, 0x00, 0x78, 0x00, 0x00, 0x00,
  0x3b, 0x00, 0x00, 0x00, 0x3a, 0x00, 0x00, 0x00, 0x90, 0x97, 0xff, 0xff,
  0x3c, 0x00, 0x00, 0x00, 0x7a, 0x00, 0x00, 0x00, 0x20, 0x00, 0x00, 0x00,
  0x44, 0x00, 0x00, 0x00, 0x04, 0x00, 0x00, 0x00, 0x04, 0x00, 0x00, 0x00,
  0xff, 0xff, 0xff, 0xff, 0x40, 0x00, 0x00, 0x00, 0x40, 0x00, 0x00, 0x00,
  0x0e, 0x00, 0x00, 0x00, 0x0d, 0x00, 0x00, 0x00, 0x64, 0x65, 0x70, 0x74,
  0x68, 0x77, 0x69, 0x73, 0x65, 0x5f, 0x33, 0x31, 0x32, 0x00, 0x00, 0x00,
  0x04, 0x00, 0x00, 0x00, 0x01, 0x00, 0x00, 0x00, 0x40, 0x00, 0x00, 0x00,
  0x40, 0x00, 0x00, 0x00, 0x0e, 0x00, 0x00, 0x00, 0x78, 0x97, 0xff, 0xff,
  0xc2, 0xe0, 0xff, 0xff, 0x00, 0x00, 0x00, 0x02, 0x01, 0x00, 0x00, 0x00,
  0x34, 0x00, 0x00, 0x00, 0x28, 0x00, 0x00, 0x00, 0x10, 0x00, 0x00, 0x00,
  0x0c, 0x00, 0x14, 0x00, 0x13, 0x00, 0x08, 0x00, 0x0c, 0x00, 0x04, 0x00,
  0x0c, 0x00, 0x00, 0x00, 0x01, 0x00, 0x00, 0x00, 0x01, 0x00, 0x00, 0x00,
  0x01, 0x00, 0x00, 0x00, 0x00, 0x00, 0x00, 0x01, 0x01, 0x00, 0x00, 0x00,
  0x78, 0x00, 0x00, 0x00, 0x03, 0x00, 0x00, 0x00, 0x77, 0x00, 0x00, 0x00,
  0x39, 0x00, 0x00, 0x00, 0x3a, 0x00, 0x00, 0x00, 0x38, 0x98, 0xff, 0xff,
  0x3c, 0x00, 0x00, 0x00, 0x79, 0x00, 0x00, 0x00, 0x20, 0x00, 0x00, 0x00,
  0x44, 0x00, 0x00, 0x00, 0x04, 0x00, 0x00, 0x00, 0x04, 0x00, 0x00, 0x00,
  0xff, 0xff, 0xff, 0xff, 0x40, 0x00, 0x00, 0x00, 0x46, 0x00, 0x00, 0x00,
  0x0e, 0x00, 0x00, 0x00, 0x0d, 0x00, 0x00, 0x00, 0x64, 0x65, 0x70, 0x74,
  0x68, 0x77, 0x69, 0x73, 0x65, 0x5f, 0x33, 0x30, 0x31, 0x00, 0x00, 0x00,
  0x04, 0x00, 0x00, 0x00, 0x01, 0x00, 0x00, 0x00, 0x40, 0x00, 0x00, 0x00,
  0x46, 0x00, 0x00, 0x00, 0x0e, 0x00, 0x00, 0x00, 0x20, 0x98, 0xff, 0xff,
  0x6a, 0xe1, 0xff, 0xff, 0x00, 0x00, 0x00, 0x0b, 0x03, 0x00, 0x00, 0x00,
  0x18, 0x00, 0x00, 0x00, 0x0c, 0x00, 0x00, 0x00, 0x04, 0x00, 0x00, 0x00,
  0x3c, 0x98, 0xff, 0xff, 0x01, 0x00, 0x00, 0x00, 0x77, 0x00, 0x00, 0x00,
  0x02, 0x00, 0x00, 0x00, 0x76, 0x00, 0x00, 0x00, 0x73, 0x00, 0x00, 0x00,
  0xc0, 0x98, 0xff, 0xff, 0x34, 0x00, 0x00, 0x00, 0x78, 0x00, 0x00, 0x00,
  0x20, 0x00, 0x00, 0x00, 0x3c, 0x00, 0x00, 0x00, 0x04, 0x00, 0x00, 0x00,
  0x04, 0x00, 0x00, 0x00, 0xff, 0xff, 0xff, 0xff, 0x46, 0x00, 0x00, 0x00,
  0x46, 0x00, 0x00, 0x00, 0x0e, 0x00, 0x00, 0x00, 0x05, 0x00, 0x00, 0x00,
  0x41, 0x64, 0x64, 0x5f, 0x34, 0x00, 0x00, 0x00, 0x04, 0x00, 0x00, 0x00,
  0x01, 0x00, 0x00, 0x00, 0x46, 0x00, 0x00, 0x00, 0x46, 0x00, 0x00, 0x00,
  0x0e, 0x00, 0x00, 0x00, 0xa0, 0x98, 0xff, 0xff, 0xea, 0xe1, 0xff, 0xff,
  0x00, 0x00, 0x00, 0x01, 0x02, 0x00, 0x00, 0x00, 0x20, 0x00, 0x00, 0x00,
  0x14, 0x00, 0x00, 0x00, 0x04, 0x00, 0x00, 0x00, 0x4a, 0xe3, 0xff, 0xff,
  0x01, 0x00, 0x00, 0x00, 0x01, 0x00, 0x00, 0x00, 0x01, 0x00, 0x00, 0x00,
  0x76, 0x00, 0x00, 0x00, 0x03, 0x00, 0x00, 0x00, 0x75, 0x00, 0x00, 0x00,
  0x38, 0x00, 0x00, 0x00, 0x43, 0x00, 0x00, 0x00, 0x4c, 0x99, 0xff, 0xff,
  0x5c, 0x00, 0x00, 0x00, 0x77, 0x00, 0x00, 0x00, 0x20, 0x00, 0x00, 0x00,
  0x64, 0x00, 0x00, 0x00, 0x04, 0x00, 0x00, 0x00, 0x04, 0x00, 0x00, 0x00,
  0xff, 0xff, 0xff, 0xff, 0x46, 0x00, 0x00, 0x00, 0x46, 0x00, 0x00, 0x00,
  0x0e, 0x00, 0x00, 0x00, 0x2d, 0x00, 0x00, 0x00, 0x42, 0x69, 0x61, 0x73,
  0x41, 0x64, 0x64, 0x5f, 0x31, 0x34, 0x3b, 0x64, 0x65, 0x70, 0x74, 0x68,
  0x77, 0x69, 0x73, 0x65, 0x5f, 0x33, 0x31, 0x3b, 0x43, 0x6f, 0x6e, 0x76,
  0x32, 0x44, 0x5f, 0x31, 0x34, 0x3b, 0x63, 0x6f, 0x6e, 0x76, 0x5f, 0x35,
  0x5f, 0x31, 0x5f, 0x62, 0x31, 0x00, 0x00, 0x00, 0x04, 0x00, 0x00, 0x00,
  0x01, 0x00, 0x00, 0x00, 0x46, 0x00, 0x00, 0x00, 0x46, 0x00, 0x00, 0x00,
  0x0e, 0x00, 0x00, 0x00, 0x54, 0x99, 0xff, 0xff, 0x9e, 0xe2, 0xff, 0xff,
  0x00, 0x00, 0x00, 0x02, 0x01, 0x00, 0x00, 0x00, 0x24, 0x00, 0x00, 0x00,
  0x18, 0x00, 0x00, 0x00, 0x04, 0x00, 0x00, 0x00, 0x90, 0xe2, 0xff, 0xff,
  0x01, 0x00, 0x00, 0x00, 0x01, 0x00, 0x00, 0x00, 0x01, 0x00, 0x00, 0x00,
  0x01, 0x00, 0x00, 0x00, 0x75, 0x00, 0x00, 0x00, 0x03, 0x00, 0x00, 0x00,
  0x74, 0x00, 0x00, 0x00, 0x37, 0x00, 0x00, 0x00, 0x36, 0x00, 0x00, 0x00,
  0x04, 0x9a, 0xff, 0xff, 0x3c, 0x00, 0x00, 0x00, 0x76, 0x00, 0x00, 0x00,
  0x20, 0x00, 0x00, 0x00, 0x44, 0x00, 0x00, 0x00, 0x04, 0x00, 0x00, 0x00,
  0x04, 0x00, 0x00, 0x00, 0xff, 0xff, 0xff, 0xff, 0x46, 0x00, 0x00, 0x00,
  0x46, 0x00, 0x00, 0x00, 0x09, 0x00, 0x00, 0x00, 0x0d, 0x00, 0x00, 0x00,
  0x64, 0x65, 0x70, 0x74, 0x68, 0x77, 0x69, 0x73, 0x65, 0x5f, 0x32, 0x39,
  0x32, 0x00, 0x00, 0x00, 0x04, 0x00, 0x00, 0x00, 0x01, 0x00, 0x00, 0x00,
  0x46, 0x00, 0x00, 0x00, 0x46, 0x00, 0x00, 0x00, 0x09, 0x00, 0x00, 0x00,
  0xec, 0x99, 0xff, 0xff, 0x36, 0xe3, 0xff, 0xff, 0x00, 0x00, 0x00, 0x02,
  0x01, 0x00, 0x00, 0x00, 0x24, 0x00, 0x00, 0x00, 0x18, 0x00, 0x00, 0x00,
  0x04, 0x00, 0x00, 0x00, 0x28, 0xe3, 0xff, 0xff, 0x01, 0x00, 0x00, 0x00,
  0x01, 0x00, 0x00, 0x00, 0x01, 0x00, 0x00, 0x00, 0x01, 0x00, 0x00, 0x00,
  0x74, 0x00, 0x00, 0x00, 0x03, 0x00, 0x00, 0x00, 0x6d, 0x00, 0x00, 0x00,
  0x35, 0x00, 0x00, 0x00, 0x36, 0x00, 0x00, 0x00, 0x9c, 0x9a, 0xff, 0xff,
  0x3c, 0x00, 0x00, 0x00, 0x75, 0x00, 0x00, 0x00, 0x20, 0x00, 0x00, 0x00,
  0x44, 0x00, 0x00, 0x00, 0x04, 0x00, 0x00, 0x00, 0x04, 0x00, 0x00, 0x00,
  0xff, 0xff, 0xff, 0xff, 0x46, 0x00, 0x00, 0x00, 0x46, 0x00, 0x00, 0x00,
  0x09, 0x00, 0x00, 0x00, 0x0d, 0x00, 0x00, 0x00, 0x64, 0x65, 0x70, 0x74,
  0x68, 0x77, 0x69, 0x73, 0x65, 0x5f, 0x32, 0x38, 0x31, 0x00, 0x00, 0x00,
  0x04, 0x00, 0x00, 0x00, 0x01, 0x00, 0x00, 0x00, 0x46, 0x00, 0x00, 0x00,
  0x46, 0x00, 0x00, 0x00, 0x09, 0x00, 0x00, 0x00, 0x84, 0x9a, 0xff, 0xff,
  0xce, 0xe3, 0xff, 0xff, 0x00, 0x00, 0x00, 0x01, 0x02, 0x00, 0x00, 0x00,
  0x20, 0x00, 0x00, 0x00, 0x14, 0x00, 0x00, 0x00, 0x04, 0x00, 0x00, 0x00,
  0x2e, 0xe5, 0xff, 0xff, 0x01, 0x00, 0x00, 0x00, 0x01, 0x00, 0x00, 0x00,
  0x01, 0x00, 0x00, 0x00, 0x73, 0x00, 0x00, 0x00, 0x03, 0x00, 0x00, 0x00,
  0x72, 0x00, 0x00, 0x00, 0x34, 0x00, 0x00, 0x00, 0x43, 0x00, 0x00, 0x00,
  0x30, 0x9b, 0xff, 0xff, 0x5c, 0x00, 0x00, 0x00, 0x74, 0x00, 0x00, 0x00,
  0x20, 0x00, 0x00, 0x00, 0x64, 0x00, 0x00, 0x00, 0x04, 0x00, 0x00, 0x00,
  0x04, 0x00, 0x00, 0x00, 0xff, 0xff, 0xff, 0xff, 0x46, 0x00, 0x00, 0x00,
  0x46, 0x00, 0x00, 0x00, 0x0e, 0x00, 0x00, 0x00, 0x2c, 0x00, 0x00, 0x00,
  0x42, 0x69, 0x61, 0x73, 0x41, 0x64, 0x64, 0x5f, 0x31, 0x33, 0x3b, 0x64,
  0x65, 0x70, 0x74, 0x68, 0x77, 0x69, 0x73, 0x65, 0x5f, 0x33, 0x31, 0x3b,
  0x43, 0x6f, 0x6e, 0x76, 0x32, 0x44, 0x5f, 0x31, 0x33, 0x3b, 0x63, 0x6f,
  0x6e, 0x76, 0x5f, 0x35, 0x5f, 0x31, 0x5f, 0x62, 0x00, 0x00, 0x00, 0x00,
  0x04, 0x00, 0x00, 0x00, 0x01, 0x00, 0x00, 0x00, 0x46, 0x00, 0x00, 0x00,
  0x46, 0x00, 0x00, 0x00, 0x0e, 0x00, 0x00, 0x00, 0x38, 0x9b, 0xff, 0xff,
  0x82, 0xe4, 0xff, 0xff, 0x00, 0x00, 0x00, 0x02, 0x01, 0x00, 0x00, 0x00,
  0x24, 0x00, 0x00, 0x00, 0x18, 0x00, 0x00, 0x00, 0x04, 0x00, 0x00, 0x00,
  0x74, 0xe4, 0xff, 0xff, 0x01, 0x00, 0x00, 0x00, 0x01, 0x00, 0x00, 0x00,
  0x01, 0x00, 0x00, 0x00, 0x01, 0x00, 0x00, 0x00, 0x72, 0x00, 0x00, 0x00,
  0x03, 0x00, 0x00, 0x00, 0x71, 0x00, 0x00, 0x00, 0x33, 0x00, 0x00, 0x00,
  0x32, 0x00, 0x00, 0x00, 0xe8, 0x9b, 0xff, 0xff, 0x3c, 0x00, 0x00, 0x00,
  0x73, 0x00, 0x00, 0x00, 0x20, 0x00, 0x00, 0x00, 0x44, 0x00, 0x00, 0x00,
  0x04, 0x00, 0x00, 0x00, 0x04, 0x00, 0x00, 0x00, 0xff, 0xff, 0xff, 0xff,
  0x46, 0x00, 0x00, 0x00, 0x46, 0x00, 0x00, 0x00, 0x13, 0x00, 0x00, 0x00,
  0x0d, 0x00, 0x00, 0x00, 0x64, 0x65, 0x70, 0x74, 0x68, 0x77, 0x69, 0x73,
  0x65, 0x5f, 0x32, 0x37, 0x32, 0x00, 0x00, 0x00, 0x04, 0x00, 0x00, 0x00,
  0x01, 0x00, 0x00, 0x00, 0x46, 0x00, 0x00, 0x00, 0x46, 0x00, 0x00, 0x00,
  0x13, 0x00, 0x00, 0x00, 0xd0, 0x9b, 0xff, 0xff, 0x1a, 0xe5, 0xff, 0xff,
  0x00, 0x00, 0x00, 0x02, 0x01, 0x00, 0x00, 0x00, 0x24, 0x00, 0x00, 0x00,
  0x18, 0x00, 0x00, 0x00, 0x04, 0x00, 0x00, 0x00, 0x0c, 0xe5, 0xff, 0xff,
  0x01, 0x00, 0x00, 0x00, 0x01, 0x00, 0x00, 0x00, 0x01, 0x00, 0x00, 0x00,
  0x01, 0x00, 0x00, 0x00, 0x71, 0x00, 0x00, 0x00, 0x03, 0x00, 0x00, 0x00,
  0x70, 0x00, 0x00, 0x00, 0x31, 0x00, 0x00, 0x00, 0x32, 0x00, 0x00, 0x00,
  0x80, 0x9c, 0xff, 0xff, 0x3c, 0x00, 0x00, 0x00, 0x72, 0x00, 0x00, 0x00,
  0x20, 0x00, 0x00, 0x00, 0x44, 0x00, 0x00, 0x00, 0x04, 0x00, 0x00, 0x00,
  0x04, 0x00, 0x00, 0x00, 0xff, 0xff, 0xff, 0xff, 0x46, 0x00, 0x00, 0x00,
  0x46, 0x00, 0x00, 0x00, 0x13, 0x00, 0x00, 0x00, 0x0d, 0x00, 0x00, 0x00,
  0x64, 0x65, 0x70, 0x74, 0x68, 0x77, 0x69, 0x73, 0x65, 0x5f, 0x32, 0x36,
  0x31, 0x00, 0x00, 0x00, 0x04, 0x00, 0x00, 0x00, 0x01, 0x00, 0x00, 0x00,
  0x46, 0x00, 0x00, 0x00, 0x46, 0x00, 0x00, 0x00, 0x13, 0x00, 0x00, 0x00,
  0x68, 0x9c, 0xff, 0xff, 0xb2, 0xe5, 0xff, 0xff, 0x00, 0x00, 0x00, 0x01,
  0x02, 0x00, 0x00, 0x00, 0x24, 0x00, 0x00, 0x00, 0x18, 0x00, 0x00, 0x00,
  0x04, 0x00, 0x00, 0x00, 0x18, 0xe9, 0xff, 0xff, 0x01, 0x00, 0x00, 0x00,
  0x01, 0x00, 0x00, 0x00, 0x00, 0x00, 0x00, 0x01, 0x01, 0x00, 0x00, 0x00,
  0x70, 0x00, 0x00, 0x00, 0x03, 0x00, 0x00, 0x00, 0x6f, 0x00, 0x00, 0x00,
  0x30, 0x00, 0x00, 0x00, 0x01, 0x00, 0x00, 0x00, 0x18, 0x9d, 0xff, 0xff,
  0x60, 0x00, 0x00, 0x00, 0x71, 0x00, 0x00, 0x00, 0x20, 0x00, 0x00, 0x00,
  0x68, 0x00, 0x00, 0x00, 0x04, 0x00, 0x00, 0x00, 0x04, 0x00, 0x00, 0x00,
  0xff, 0xff, 0xff, 0xff, 0x46, 0x00, 0x00, 0x00, 0x46, 0x00, 0x00, 0x00,
  0x13, 0x00, 0x00, 0x00, 0x33, 0x00, 0x00, 0x00, 0x52, 0x65, 0x6c, 0x75,
  0x5f, 0x34, 0x3b, 0x42, 0x69, 0x61, 0x73, 0x41, 0x64, 0x64, 0x5f, 0x31,
  0x32, 0x3b, 0x64, 0x65, 0x70, 0x74, 0x68, 0x77, 0x69, 0x73, 0x65, 0x5f,
  0x32, 0x37, 0x3b, 0x43, 0x6f, 0x6e, 0x76, 0x32, 0x44, 0x5f, 0x31, 0x32,
  0x3b, 0x63, 0x6f, 0x6e, 0x76, 0x5f, 0x35, 0x5f, 0x30, 0x5f, 0x62, 0x00,
  0x04, 0x00, 0x00, 0x00, 0x01, 0x00, 0x00, 0x00, 0x46, 0x00, 0x00, 0x00,
  0x46, 0x00, 0x00, 0x00, 0x13, 0x00, 0x00, 0x00, 0x24, 0x9d, 0xff, 0xff,
  0x6e, 0xe6, 0xff, 0xff, 0x00, 0x00, 0x00, 0x02, 0x01, 0x00, 0x00, 0x00,
  0x24, 0x00, 0x00, 0x00, 0x18, 0x00, 0x00, 0x00, 0x04, 0x00, 0x00, 0x00,
  0x60, 0xe6, 0xff, 0xff, 0x01, 0x00, 0x00, 0x00, 0x01, 0x00, 0x00, 0x00,
  0x01, 0x00, 0x00, 0x00, 0x01, 0x00, 0x00, 0x00, 0x6f, 0x00, 0x00, 0x00,
  0x03, 0x00, 0x00, 0x00, 0x6e, 0x00, 0x00, 0x00, 0x2f, 0x00, 0x00, 0x00,
  0x36, 0x00, 0x00, 0x00, 0xd4, 0x9d, 0xff, 0xff, 0x3c, 0x00, 0x00, 0x00,
  0x70, 0x00, 0x00, 0x00, 0x20, 0x00, 0x00, 0x00, 0x44, 0x00, 0x00, 0x00,
  0x04, 0x00, 0x00, 0x00, 0x04, 0x00, 0x00, 0x00, 0xff, 0xff, 0xff, 0xff,
  0x46, 0x00, 0x00, 0x00, 0x46, 0x00, 0x00, 0x00, 0x09, 0x00, 0x00, 0x00,
  0x0d, 0x00, 0x00, 0x00, 0x64, 0x65, 0x70, 0x74, 0x68, 0x77, 0x69, 0x73,
  0x65, 0x5f, 0x32, 0x35, 0x31, 0x00, 0x00, 0x00, 0x04, 0x00, 0x00, 0x00,
  0x01, 0x00, 0x00, 0x00, 0x46, 0x00, 0x00, 0x00, 0x46, 0x00, 0x00, 0x00,
  0x09, 0x00, 0x00, 0x00, 0xbc, 0x9d, 0xff, 0xff, 0x06, 0xe7, 0xff, 0xff,
  0x00, 0x00, 0x00, 0x02, 0x01, 0x00, 0x00, 0x00, 0x24, 0x00, 0x00, 0x00,
  0x18, 0x00, 0x00, 0x00, 0x04, 0x00, 0x00, 0x00, 0xf8, 0xe6, 0xff, 0xff,
  0x01, 0x00, 0x00, 0x00, 0x01, 0x00, 0x00, 0x00, 0x01, 0x00, 0x00, 0x00,
  0x01, 0x00, 0x00, 0x00, 0x6e, 0x00, 0x00, 0x00, 0x03, 0x00, 0x00, 0x00,
  0x6d, 0x00, 0x00, 0x00, 0x2e, 0x00, 0x00, 0x00, 0x36, 0x00, 0x00, 0x00,
  0x6c, 0x9e, 0xff, 0xff, 0x3c, 0x00, 0x00, 0x00, 0x6f, 0x00, 0x00, 0x00,
  0x20, 0x00, 0x00, 0x00, 0x44, 0x00, 0x00, 0x00, 0x04, 0x00, 0x00, 0x00,
  0x04, 0x00, 0x00, 0x00, 0xff, 0xff, 0xff, 0xff, 0x46, 0x00, 0x00, 0x00,
  0x46, 0x00, 0x00, 0x00, 0x09, 0x00, 0x00, 0x00, 0x0d, 0x00, 0x00, 0x00,
  0x64, 0x65, 0x70, 0x74, 0x68, 0x77, 0x69, 0x73, 0x65, 0x5f, 0x32, 0x34,
  0x31, 0x00, 0x00, 0x00, 0x04, 0x00, 0x00, 0x00, 0x01, 0x00, 0x00, 0x00,
  0x46, 0x00, 0x00, 0x00, 0x46, 0x00, 0x00, 0x00, 0x09, 0x00, 0x00, 0x00,
  0x54, 0x9e, 0xff, 0xff, 0x9e, 0xe7, 0xff, 0xff, 0x00, 0x00, 0x00, 0x0b,
  0x03, 0x00, 0x00, 0x00, 0x18, 0x00, 0x00, 0x00, 0x0c, 0x00, 0x00, 0x00,
  0x04, 0x00, 0x00, 0x00, 0x70, 0x9e, 0xff, 0xff, 0x01, 0x00, 0x00, 0x00,
  0x6d, 0x00, 0x00, 0x00, 0x02, 0x00, 0x00, 0x00, 0x6c, 0x00, 0x00, 0x00,
  0x69, 0x00, 0x00, 0x00, 0xf4, 0x9e, 0xff, 0xff, 0x34, 0x00, 0x00, 0x00,
  0x6e, 0x00, 0x00, 0x00, 0x20, 0x00, 0x00, 0x00, 0x3c, 0x00, 0x00, 0x00,
  0x04, 0x00, 0x00, 0x00, 0x04, 0x00, 0x00, 0x00, 0xff, 0xff, 0xff, 0xff,
  0x46, 0x00, 0x00, 0x00, 0x46, 0x00, 0x00, 0x00, 0x09, 0x00, 0x00, 0x00,
  0x05, 0x00, 0x00, 0x00, 0x41, 0x64, 0x64, 0x5f, 0x33, 0x00, 0x00, 0x00,
  0x04, 0x00, 0x00, 0x00, 0x01, 0x00, 0x00, 0x00, 0x46, 0x00, 0x00, 0x00,
  0x46, 0x00, 0x00, 0x00, 0x09, 0x00, 0x00, 0x00, 0xd4, 0x9e, 0xff, 0xff,
  0x1e, 0xe8, 0xff, 0xff, 0x00, 0x00, 0x00, 0x01, 0x02, 0x00, 0x00, 0x00,
  0x20, 0x00, 0x00, 0x00, 0x14, 0x00, 0x00, 0x00, 0x04, 0x00, 0x00, 0x00,
  0x7e, 0xe9, 0xff, 0xff, 0x01, 0x00, 0x00, 0x00, 0x01, 0x00, 0x00, 0x00,
  0x01, 0x00, 0x00, 0x00, 0x6c, 0x00, 0x00, 0x00, 0x03, 0x00, 0x00, 0x00,
  0x6b, 0x00, 0x00, 0x00, 0x2d, 0x00, 0x00, 0x00, 0x42, 0x00, 0x00, 0x00,
  0x80, 0x9f, 0xff, 0xff, 0x5c, 0x00, 0x00, 0x00, 0x6d, 0x00, 0x00, 0x00,
  0x20, 0x00, 0x00, 0x00, 0x64, 0x00, 0x00, 0x00, 0x04, 0x00, 0x00, 0x00,
  0x04, 0x00, 0x00, 0x00, 0xff, 0xff, 0xff, 0xff, 0x46, 0x00, 0x00, 0x00,
  0x46, 0x00, 0x00, 0x00, 0x09, 0x00, 0x00, 0x00, 0x2d, 0x00, 0x00, 0x00,
  0x42, 0x69, 0x61, 0x73, 0x41, 0x64, 0x64, 0x5f, 0x31, 0x31, 0x3b, 0x64,
  0x65, 0x70, 0x74, 0x68, 0x77, 0x69, 0x73, 0x65, 0x5f, 0x32, 0x39, 0x3b,
  0x43, 0x6f, 0x6e, 0x76, 0x32, 0x44, 0x5f, 0x31, 0x31, 0x3b, 0x63, 0x6f,
  0x6e, 0x76, 0x5f, 0x34, 0x5f, 0x31, 0x5f, 0x62, 0x31, 0x00, 0x00, 0x00,
  0x04, 0x00, 0x00, 0x00, 0x01, 0x00, 0x00, 0x00, 0x46, 0x00, 0x00, 0x00,
  0x46, 0x00, 0x00, 0x00, 0x09, 0x00, 0x00, 0x00, 0x88, 0x9f, 0xff, 0xff,
  0xd2, 0xe8, 0xff, 0xff, 0x00, 0x00, 0x00, 0x02, 0x01, 0x00, 0x00, 0x00,
  0x24, 0x00, 0x00, 0x00, 0x18, 0x00, 0x00, 0x00, 0x04, 0x00, 0x00, 0x00,
  0xc4, 0xe8, 0xff, 0xff, 0x01, 0x00, 0x00, 0x00, 0x01, 0x00, 0x00, 0x00,
  0x01, 0x00, 0x00, 0x00, 0x01, 0x00, 0x00, 0x00, 0x6b, 0x00, 0x00, 0x00,
  0x03, 0x00, 0x00, 0x00, 0x6a, 0x00, 0x00, 0x00, 0x2c, 0x00, 0x00, 0x00,
  0x2b, 0x00, 0x00, 0x00, 0x38, 0xa0, 0xff, 0xff, 0x3c, 0x00, 0x00, 0x00,
  0x6c, 0x00, 0x00, 0x00, 0x20, 0x00, 0x00, 0x00, 0x44, 0x00, 0x00, 0x00,
  0x04, 0x00, 0x00, 0x00, 0x04, 0x00, 0x00, 0x00, 0xff, 0xff, 0xff, 0xff,
  0x46, 0x00, 0x00, 0x00, 0x46, 0x00, 0x00, 0x00, 0x06, 0x00, 0x00, 0x00,
  0x0d, 0x00, 0x00, 0x00, 0x64, 0x65, 0x70, 0x74, 0x68, 0x77, 0x69, 0x73,
  0x65, 0x5f, 0x32, 0x33, 0x32, 0x00, 0x00, 0x00, 0x04, 0x00, 0x00, 0x00,
  0x01, 0x00, 0x00, 0x00, 0x46, 0x00, 0x00, 0x00, 0x46, 0x00, 0x00, 0x00,
  0x06, 0x00, 0x00, 0x00, 0x20, 0xa0, 0xff, 0xff, 0x6a, 0xe9, 0xff, 0xff,
  0x00, 0x00, 0x00, 0x02, 0x01, 0x00, 0x00, 0x00, 0x24, 0x00, 0x00, 0x00,
  0x18, 0x00, 0x00, 0x00, 0x04, 0x00, 0x00, 0x00, 0x5c, 0xe9, 0xff, 0xff,
  0x01, 0x00, 0x00, 0x00, 0x01, 0x00, 0x00, 0x00, 0x01, 0x00, 0x00, 0x00,
  0x01, 0x00, 0x00, 0x00, 0x6a, 0x00, 0x00, 0x00, 0x03, 0x00, 0x00, 0x00,
  0x63, 0x00, 0x00, 0x00, 0x2a, 0x00, 0x00, 0x00, 0x2b, 0x00, 0x00, 0x00,
  0xd0, 0xa0, 0xff, 0xff, 0x3c, 0x00, 0x00, 0x00, 0x6b, 0x00, 0x00, 0x00,
  0x20, 0x00, 0x00, 0x00, 0x44, 0x00, 0x00, 0x00, 0x04, 0x00, 0x00, 0x00,
  0x04, 0x00, 0x00, 0x00, 0xff, 0xff, 0xff, 0xff, 0x46, 0x00, 0x00, 0x00,
  0x46, 0x00, 0x00, 0x00, 0x06, 0x00, 0x00, 0x00, 0x0d, 0x00, 0x00, 0x00,
  0x64, 0x65, 0x70, 0x74, 0x68, 0x77, 0x69, 0x73, 0x65, 0x5f, 0x32, 0x32,
  0x31, 0x00, 0x00, 0x00, 0x04, 0x00, 0x00, 0x00, 0x01, 0x00, 0x00, 0x00,
  0x46, 0x00, 0x00, 0x00, 0x46, 0x00, 0x00, 0x00, 0x06, 0x00, 0x00, 0x00,
  0xb8, 0xa0, 0xff, 0xff, 0x02, 0xea, 0xff, 0xff, 0x00, 0x00, 0x00, 0x01,
  0x02, 0x00, 0x00, 0x00, 0x20, 0x00, 0x00, 0x00, 0x14, 0x00, 0x00, 0x00,
  0x04, 0x00, 0x00, 0x00, 0x62, 0xeb, 0xff, 0xff, 0x01, 0x00, 0x00, 0x00,
  0x01, 0x00, 0x00, 0x00, 0x01, 0x00, 0x00, 0x00, 0x69, 0x00, 0x00, 0x00,
  0x03, 0x00, 0x00, 0x00, 0x68, 0x00, 0x00, 0x00, 0x29, 0x00, 0x00, 0x00,
  0x42, 0x00, 0x00, 0x00, 0x64, 0xa1, 0xff, 0xff, 0x5c, 0x00, 0x00, 0x00,
  0x6a, 0x00, 0x00, 0x00, 0x20, 0x00, 0x00, 0x00, 0x64, 0x00, 0x00, 0x00,
  0x04, 0x00, 0x00, 0x00, 0x04, 0x00, 0x00, 0x00, 0xff, 0xff, 0xff, 0xff,
  0x46, 0x00, 0x00, 0x00, 0x46, 0x00, 0x00, 0x00, 0x09, 0x00, 0x00, 0x00,
  0x2c, 0x00, 0x00, 0x00, 0x42, 0x69, 0x61, 0x73, 0x41, 0x64, 0x64, 0x5f,
  0x31, 0x30, 0x3b, 0x64, 0x65, 0x70, 0x74, 0x68, 0x77, 0x69, 0x73, 0x65,
  0x5f, 0x32, 0x39, 0x3b, 0x43, 0x6f, 0x6e, 0x76, 0x32, 0x44, 0x5f, 0x31,
  0x30, 0x3b, 0x63, 0x6f, 0x6e, 0x76, 0x5f, 0x34, 0x5f, 0x31, 0x5f, 0x62,
  0x00, 0x00, 0x00, 0x00, 0x04, 0x00, 0x00, 0x00, 0x01, 0x00, 0x00, 0x00,
  0x46, 0x00, 0x00, 0x00, 0x46, 0x00, 0x00, 0x00, 0x09, 0x00, 0x00, 0x00,
  0x6c, 0xa1, 0xff, 0xff, 0xb6, 0xea, 0xff, 0xff, 0x00, 0x00, 0x00, 0x02,
  0x01, 0x00, 0x00, 0x00, 0x24, 0x00, 0x00, 0x00, 0x18, 0x00, 0x00, 0x00,
  0x04, 0x00, 0x00, 0x00, 0xa8, 0xea, 0xff, 0xff, 0x01, 0x00, 0x00, 0x00,
  0x01, 0x00, 0x00, 0x00, 0x01, 0x00, 0x00, 0x00, 0x01, 0x00, 0x00, 0x00,
  0x68, 0x00, 0x00, 0x00, 0x03, 0x00, 0x00, 0x00, 0x67, 0x00, 0x00, 0x00,
  0x28, 0x00, 0x00, 0x00, 0x27, 0x00, 0x00, 0x00, 0x1c, 0xa2, 0xff, 0xff,
  0x3c, 0x00, 0x00, 0x00, 0x69, 0x00, 0x00, 0x00, 0x20, 0x00, 0x00, 0x00,
  0x44, 0x00, 0x00, 0x00, 0x04, 0x00, 0x00, 0x00, 0x04, 0x00, 0x00, 0x00,
  0xff, 0xff, 0xff, 0xff, 0x46, 0x00, 0x00, 0x00, 0x46, 0x00, 0x00, 0x00,
  0x0c, 0x00, 0x00, 0x00, 0x0d, 0x00, 0x00, 0x00, 0x64, 0x65, 0x70, 0x74,
  0x68, 0x77, 0x69, 0x73, 0x65, 0x5f, 0x32, 0x31, 0x32, 0x00, 0x00, 0x00,
  0x04, 0x00, 0x00, 0x00, 0x01, 0x00, 0x00, 0x00, 0x46, 0x00, 0x00, 0x00,
  0x46, 0x00, 0x00, 0x00, 0x0c, 0x00, 0x00, 0x00, 0x04, 0xa2, 0xff, 0xff,
  0x4e, 0xeb, 0xff, 0xff, 0x00, 0x00, 0x00, 0x02, 0x01, 0x00, 0x00, 0x00,
  0x24, 0x00, 0x00, 0x00, 0x18, 0x00, 0x00, 0x00, 0x04, 0x00, 0x00, 0x00,
  0x40, 0xeb, 0xff, 0xff, 0x01, 0x00, 0x00, 0x00, 0x01, 0x00, 0x00, 0x00,
  0x01, 0x00, 0x00, 0x00, 0x01, 0x00, 0x00, 0x00, 0x67, 0x00, 0x00, 0x00,
  0x03, 0x00, 0x00, 0x00, 0x66, 0x00, 0x00, 0x00, 0x26, 0x00, 0x00, 0x00,
  0x27, 0x00, 0x00, 0x00, 0xb4, 0xa2, 0xff, 0xff, 0x3c, 0x00, 0x00, 0x00,
  0x68, 0x00, 0x00, 0x00, 0x20, 0x00, 0x00, 0x00, 0x44, 0x00, 0x00, 0x00,
  0x04, 0x00, 0x00, 0x00, 0x04, 0x00, 0x00, 0x00, 0xff, 0xff, 0xff, 0xff,
  0x46, 0x00, 0x00, 0x00, 0x46, 0x00, 0x00, 0x00, 0x0c, 0x00, 0x00, 0x00,
  0x0d, 0x00, 0x00, 0x00, 0x64, 0x65, 0x70, 0x74, 0x68, 0x77, 0x69, 0x73,
  0x65, 0x5f, 0x32, 0x30, 0x31, 0x00, 0x00, 0x00, 0x04, 0x00, 0x00, 0x00,
  0x01, 0x00, 0x00, 0x00, 0x46, 0x00, 0x00, 0x00, 0x46, 0x00, 0x00, 0x00,
  0x0c, 0x00, 0x00, 0x00, 0x9c, 0xa2, 0xff, 0xff, 0xe6, 0xeb, 0xff, 0xff,
  0x00, 0x00, 0x00, 0x01, 0x02, 0x00, 0x00, 0x00, 0x24, 0x00, 0x00, 0x00,
  0x18, 0x00, 0x00, 0x00, 0x04, 0x00, 0x00, 0x00, 0x4c, 0xef, 0xff, 0xff,
  0x01, 0x00, 0x00, 0x00, 0x01, 0x00, 0x00, 0x00, 0x00, 0x00, 0x00, 0x01,
  0x01, 0x00, 0x00, 0x00, 0x66, 0x00, 0x00, 0x00, 0x03, 0x00, 0x00, 0x00,
  0x65, 0x00, 0x00, 0x00, 0x25, 0x00, 0x00, 0x00, 0x02, 0x00, 0x00, 0x00,
  0x4c, 0xa3, 0xff, 0xff, 0x60, 0x00, 0x00, 0x00, 0x67, 0x00, 0x00, 0x00,
  0x20, 0x00, 0x00, 0x00, 0x68, 0x00, 0x00, 0x00, 0x04, 0x00, 0x00, 0x00,
  0x04, 0x00, 0x00, 0x00, 0xff, 0xff, 0xff, 0xff, 0x46, 0x00, 0x00, 0x00,
  0x46, 0x00, 0x00, 0x00, 0x0c, 0x00, 0x00, 0x00, 0x31, 0x00, 0x00, 0x00,
  0x52, 0x65, 0x6c, 0x75, 0x5f, 0x33, 0x3b, 0x42, 0x69, 0x61, 0x73, 0x41,
  0x64, 0x64, 0x5f, 0x39, 0x3b, 0x64, 0x65, 0x70, 0x74, 0x68, 0x77, 0x69,
  0x73, 0x65, 0x5f, 0x32, 0x31, 0x3b, 0x43, 0x6f, 0x6e, 0x76, 0x32, 0x44,
  0x5f, 0x39, 0x3b, 0x63, 0x6f, 0x6e, 0x76, 0x5f, 0x34, 0x5f, 0x30, 0x5f,
  0x62, 0x00, 0x00, 0x00, 0x04, 0x00, 0x00, 0x00, 0x01, 0x00, 0x00, 0x00,
  0x46, 0x00, 0x00, 0x00, 0x46, 0x00, 0x00, 0x00, 0x0c, 0x00, 0x00, 0x00,
  0x58, 0xa3, 0xff, 0xff, 0xa2, 0xec, 0xff, 0xff, 0x00, 0x00, 0x00, 0x02,
  0x01, 0x00, 0x00, 0x00, 0x24, 0x00, 0x00, 0x00, 0x18, 0x00, 0x00, 0x00,
  0x04, 0x00, 0x00, 0x00, 0x94, 0xec, 0xff, 0xff, 0x01, 0x00, 0x00, 0x00,
  0x01, 0x00, 0x00, 0x00, 0x01, 0x00, 0x00, 0x00, 0x01, 0x00, 0x00, 0x00,
  0x65, 0x00, 0x00, 0x00, 0x03, 0x00, 0x00, 0x00, 0x64, 0x00, 0x00, 0x00,
  0x24, 0x00, 0x00, 0x00, 0x2b, 0x00, 0x00, 0x00, 0x08, 0xa4, 0xff, 0xff,
  0x3c, 0x00, 0x00, 0x00, 0x66, 0x00, 0x00, 0x00, 0x20, 0x00, 0x00, 0x00,
  0x44, 0x00, 0x00, 0x00, 0x04, 0x00, 0x00, 0x00, 0x04, 0x00, 0x00, 0x00,
  0xff, 0xff, 0xff, 0xff, 0x46, 0x00, 0x00, 0x00, 0x46, 0x00, 0x00, 0x00,
  0x06, 0x00, 0x00, 0x00, 0x0d, 0x00, 0x00, 0x00, 0x64, 0x65, 0x70, 0x74,
  0x68, 0x77, 0x69, 0x73, 0x65, 0x5f, 0x31, 0x39, 0x31, 0x00, 0x00, 0x00,
  0x04, 0x00, 0x00, 0x00, 0x01, 0x00, 0x00, 0x00, 0x46, 0x00, 0x00, 0x00,
  0x46, 0x00, 0x00, 0x00, 0x06, 0x00, 0x00, 0x00, 0xf0, 0xa3, 0xff, 0xff,
  0x3a, 0xed, 0xff, 0xff, 0x00, 0x00, 0x00, 0x02, 0x01, 0x00, 0x00, 0x00,
  0x24, 0x00, 0x00, 0x00, 0x18, 0x00, 0x00, 0x00, 0x04, 0x00, 0x00, 0x00,
  0x2c, 0xed, 0xff, 0xff, 0x01, 0x00, 0x00, 0x00, 0x01, 0x00, 0x00, 0x00,
  0x01, 0x00, 0x00, 0x00, 0x01, 0x00, 0x00, 0x00, 0x64, 0x00, 0x00, 0x00,
  0x03, 0x00, 0x00, 0x00, 0x63, 0x00, 0x00, 0x00, 0x23, 0x00, 0x00, 0x00,
  0x2b, 0x00, 0x00, 0x00, 0xa0, 0xa4, 0xff, 0xff, 0x3c, 0x00, 0x00, 0x00,
  0x65, 0x00, 0x00, 0x00, 0x20, 0x00, 0x00, 0x00, 0x44, 0x00, 0x00, 0x00,
  0x04, 0x00, 0x00, 0x00, 0x04, 0x00, 0x00, 0x00, 0xff, 0xff, 0xff, 0xff,
  0x46, 0x00, 0x00, 0x00, 0x46, 0x00, 0x00, 0x00, 0x06, 0x00, 0x00, 0x00,
  0x0d, 0x00, 0x00, 0x00, 0x64, 0x65, 0x70, 0x74, 0x68, 0x77, 0x69, 0x73,
  0x65, 0x5f, 0x31, 0x38, 0x31, 0x00, 0x00, 0x00, 0x04, 0x00, 0x00, 0x00,
  0x01, 0x00, 0x00, 0x00, 0x46, 0x00, 0x00, 0x00, 0x46, 0x00, 0x00, 0x00,
  0x06, 0x00, 0x00, 0x00, 0x88, 0xa4, 0xff, 0xff, 0xd2, 0xed, 0xff, 0xff,
  0x00, 0x00, 0x00, 0x0b, 0x03, 0x00, 0x00, 0x00, 0x18, 0x00, 0x00, 0x00,
  0x0c, 0x00, 0x00, 0x00, 0x04, 0x00, 0x00, 0x00, 0xa4, 0xa4, 0xff, 0xff,
  0x01, 0x00, 0x00, 0x00, 0x63, 0x00, 0x00, 0x00, 0x02, 0x00, 0x00, 0x00,
  0x5c, 0x00, 0x00, 0x00, 0x62, 0x00, 0x00, 0x00, 0x28, 0xa5, 0xff, 0xff,
  0x34, 0x00, 0x00, 0x00, 0x64, 0x00, 0x00, 0x00, 0x20, 0x00, 0x00, 0x00,
  0x3c, 0x00, 0x00, 0x00, 0x04, 0x00, 0x00, 0x00, 0x04, 0x00, 0x00, 0x00,
  0xff, 0xff, 0xff, 0xff, 0x46, 0x00, 0x00, 0x00, 0x46, 0x00, 0x00, 0x00,
  0x06, 0x00, 0x00, 0x00, 0x05, 0x00, 0x00, 0x00, 0x41, 0x64, 0x64, 0x5f,
  0x32, 0x00, 0x00, 0x00, 0x04, 0x00, 0x00, 0x00, 0x01, 0x00, 0x00, 0x00,
  0x46, 0x00, 0x00, 0x00, 0x46, 0x00, 0x00, 0x00, 0x06, 0x00, 0x00, 0x00,
  0x08, 0xa5, 0xff, 0xff, 0x52, 0xee, 0xff, 0xff, 0x00, 0x00, 0x00, 0x01,
  0x02, 0x00, 0x00, 0x00, 0x20, 0x00, 0x00, 0x00, 0x14, 0x00, 0x00, 0x00,
  0x04, 0x00, 0x00, 0x00, 0xb2, 0xef, 0xff, 0xff, 0x01, 0x00, 0x00, 0x00,
  0x01, 0x00, 0x00, 0x00, 0x01, 0x00, 0x00, 0x00, 0x62, 0x00, 0x00, 0x00,
  0x03, 0x00, 0x00, 0x00, 0x61, 0x00, 0x00, 0x00, 0x22, 0x00, 0x00, 0x00,
  0x41, 0x00, 0x00, 0x00, 0xb4, 0xa5, 0xff, 0xff, 0x58, 0x00, 0x00, 0x00,
  0x63, 0x00, 0x00, 0x00, 0x20, 0x00, 0x00, 0x00, 0x60, 0x00, 0x00, 0x00,
  0x04, 0x00, 0x00, 0x00, 0x04, 0x00, 0x00, 0x00, 0xff, 0xff, 0xff, 0xff,
  0x46, 0x00, 0x00, 0x00, 0x46, 0x00, 0x00, 0x00, 0x06, 0x00, 0x00, 0x00,
  0x2b, 0x00, 0x00, 0x00, 0x42, 0x69, 0x61, 0x73, 0x41, 0x64, 0x64, 0x5f,
  0x38, 0x3b, 0x64, 0x65, 0x70, 0x74, 0x68, 0x77, 0x69, 0x73, 0x65, 0x5f,
  0x32, 0x33, 0x3b, 0x43, 0x6f, 0x6e, 0x76, 0x32, 0x44, 0x5f, 0x38, 0x3b,
  0x63, 0x6f, 0x6e, 0x76, 0x5f, 0x33, 0x5f, 0x31, 0x5f, 0x62, 0x31, 0x00,
  0x04, 0x00, 0x00, 0x00, 0x01, 0x00, 0x00, 0x00, 0x46, 0x00, 0x00, 0x00,
  0x46, 0x00, 0x00, 0x00, 0x06, 0x00, 0x00, 0x00, 0xb8, 0xa5, 0xff, 0xff,
  0x02, 0xef, 0xff, 0xff, 0x00, 0x00, 0x00, 0x02, 0x01, 0x00, 0x00, 0x00,
  0x24, 0x00, 0x00, 0x00, 0x18, 0x00, 0x00, 0x00, 0x04, 0x00, 0x00, 0x00,
  0xf4, 0xee, 0xff, 0xff, 0x01, 0x00, 0x00, 0x00, 0x01, 0x00, 0x00, 0x00,
  0x01, 0x00, 0x00, 0x00, 0x01, 0x00, 0x00, 0x00, 0x61, 0x00, 0x00, 0x00,
  0x03, 0x00, 0x00, 0x00, 0x60, 0x00, 0x00, 0x00, 0x21, 0x00, 0x00, 0x00,
  0x20, 0x00, 0x00, 0x00, 0x68, 0xa6, 0xff, 0xff, 0x3c, 0x00, 0x00, 0x00,
  0x62, 0x00, 0x00, 0x00, 0x20, 0x00, 0x00, 0x00, 0x44, 0x00, 0x00, 0x00,
  0x04, 0x00, 0x00, 0x00, 0x04, 0x00, 0x00, 0x00, 0xff, 0xff, 0xff, 0xff,
  0x46, 0x00, 0x00, 0x00, 0x46, 0x00, 0x00, 0x00, 0x08, 0x00, 0x00, 0x00,
  0x0d, 0x00, 0x00, 0x00, 0x64, 0x65, 0x70, 0x74, 0x68, 0x77, 0x69, 0x73,
  0x65, 0x5f, 0x31, 0x37, 0x32, 0x00, 0x00, 0x00, 0x04, 0x00, 0x00, 0x00,
  0x01, 0x00, 0x00, 0x00, 0x46, 0x00, 0x00, 0x00, 0x46, 0x00, 0x00, 0x00,
  0x08, 0x00, 0x00, 0x00, 0x50, 0xa6, 0xff, 0xff, 0x9a, 0xef, 0xff, 0xff,
  0x00, 0x00, 0x00, 0x02, 0x01, 0x00, 0x00, 0x00, 0x24, 0x00, 0x00, 0x00,
  0x18, 0x00, 0x00, 0x00, 0x04, 0x00, 0x00, 0x00, 0x8c, 0xef, 0xff, 0xff,
  0x01, 0x00, 0x00, 0x00, 0x01, 0x00, 0x00, 0x00, 0x01, 0x00, 0x00, 0x00,
  0x01, 0x00, 0x00, 0x00, 0x60, 0x00, 0x00, 0x00, 0x03, 0x00, 0x00, 0x00,
  0x5f, 0x00, 0x00, 0x00, 0x1f, 0x00, 0x00, 0x00, 0x20, 0x00, 0x00, 0x00,
  0x00, 0xa7, 0xff, 0xff, 0x3c, 0x00, 0x00, 0x00, 0x61, 0x00, 0x00, 0x00,
  0x20, 0x00, 0x00, 0x00, 0x44, 0x00, 0x00, 0x00, 0x04, 0x00, 0x00, 0x00,
  0x04, 0x00, 0x00, 0x00, 0xff, 0xff, 0xff, 0xff, 0x46, 0x00, 0x00, 0x00,
  0x46, 0x00, 0x00, 0x00, 0x08, 0x00, 0x00, 0x00, 0x0d, 0x00, 0x00, 0x00,
  0x64, 0x65, 0x70, 0x74, 0x68, 0x77, 0x69, 0x73, 0x65, 0x5f, 0x31, 0x36,
  0x31, 0x00, 0x00, 0x00, 0x04, 0x00, 0x00, 0x00, 0x01, 0x00, 0x00, 0x00,
  0x46, 0x00, 0x00, 0x00, 0x46, 0x00, 0x00, 0x00, 0x08, 0x00, 0x00, 0x00,
  0xe8, 0xa6, 0xff, 0xff, 0x32, 0xf0, 0xff, 0xff, 0x00, 0x00, 0x00, 0x01,
  0x02, 0x00, 0x00, 0x00, 0x24, 0x00, 0x00, 0x00, 0x18, 0x00, 0x00, 0x00,
  0x04, 0x00, 0x00, 0x00, 0x98, 0xf3, 0xff, 0xff, 0x01, 0x00, 0x00, 0x00,
  0x01, 0x00, 0x00, 0x00, 0x00, 0x00, 0x00, 0x01, 0x01, 0x00, 0x00, 0x00,
  0x5f, 0x00, 0x00, 0x00, 0x03, 0x00, 0x00, 0x00, 0x5e, 0x00, 0x00, 0x00,
  0x1e, 0x00, 0x00, 0x00, 0x03, 0x00, 0x00, 0x00, 0x98, 0xa7, 0xff, 0xff,
  0x60, 0x00, 0x00, 0x00, 0x60, 0x00, 0x00, 0x00, 0x20, 0x00, 0x00, 0x00,
  0x68, 0x00, 0x00, 0x00, 0x04, 0x00, 0x00, 0x00, 0x04, 0x00, 0x00, 0x00,
  0xff, 0xff, 0xff, 0xff, 0x46, 0x00, 0x00, 0x00, 0x46, 0x00, 0x00, 0x00,
  0x08, 0x00, 0x00, 0x00, 0x31, 0x00, 0x00, 0x00, 0x52, 0x65, 0x6c, 0x75,
  0x5f, 0x32, 0x3b, 0x42, 0x69, 0x61, 0x73, 0x41, 0x64, 0x64, 0x5f, 0x37,
  0x3b, 0x64, 0x65, 0x70, 0x74, 0x68, 0x77, 0x69, 0x73, 0x65, 0x5f, 0x31,
  0x37, 0x3b, 0x43, 0x6f, 0x6e, 0x76, 0x32, 0x44, 0x5f, 0x37, 0x3b, 0x63,
  0x6f, 0x6e, 0x76, 0x5f, 0x33, 0x5f, 0x30, 0x5f, 0x62, 0x00, 0x00, 0x00,
  0x04, 0x00, 0x00, 0x00, 0x01, 0x00, 0x00, 0x00, 0x46, 0x00, 0x00, 0x00,
  0x46, 0x00, 0x00, 0x00, 0x08, 0x00, 0x00, 0x00, 0xa4, 0xa7, 0xff, 0xff,
  0xee, 0xf0, 0xff, 0xff, 0x00, 0x00, 0x00, 0x02, 0x01, 0x00, 0x00, 0x00,
  0x24, 0x00, 0x00, 0x00, 0x18, 0x00, 0x00, 0x00, 0x04, 0x00, 0x00, 0x00,
  0xe0, 0xf0, 0xff, 0xff, 0x01, 0x00, 0x00, 0x00, 0x01, 0x00, 0x00, 0x00,
  0x01, 0x00, 0x00, 0x00, 0x01, 0x00, 0x00, 0x00, 0x5e, 0x00, 0x00, 0x00,
  0x03, 0x00, 0x00, 0x00, 0x5d, 0x00, 0x00, 0x00, 0x1d, 0x00, 0x00, 0x00,
  0x2b, 0x00, 0x00, 0x00, 0x54, 0xa8, 0xff, 0xff, 0x3c, 0x00, 0x00, 0x00,
  0x5f, 0x00, 0x00, 0x00, 0x20, 0x00, 0x00, 0x00, 0x44, 0x00, 0x00, 0x00,
  0x04, 0x00, 0x00, 0x00, 0x04, 0x00, 0x00, 0x00, 0xff, 0xff, 0xff, 0xff,
  0x46, 0x00, 0x00, 0x00, 0x46, 0x00, 0x00, 0x00, 0x06, 0x00, 0x00, 0x00,
  0x0d, 0x00, 0x00, 0x00, 0x64, 0x65, 0x70, 0x74, 0x68, 0x77, 0x69, 0x73,
  0x65, 0x5f, 0x31, 0x35, 0x31, 0x00, 0x00, 0x00, 0x04, 0x00, 0x00, 0x00,
  0x01, 0x00, 0x00, 0x00, 0x46, 0x00, 0x00, 0x00, 0x46, 0x00, 0x00, 0x00,
  0x06, 0x00, 0x00, 0x00, 0x3c, 0xa8, 0xff, 0xff, 0x86, 0xf1, 0xff, 0xff,
  0x00, 0x00, 0x00, 0x02, 0x01, 0x00, 0x00, 0x00, 0x24, 0x00, 0x00, 0x00,
  0x18, 0x00, 0x00, 0x00, 0x04, 0x00, 0x00, 0x00, 0x78, 0xf1, 0xff, 0xff,
  0x01, 0x00, 0x00, 0x00, 0x01, 0x00, 0x00, 0x00, 0x01, 0x00, 0x00, 0x00,
  0x01, 0x00, 0x00, 0x00, 0x5d, 0x00, 0x00, 0x00, 0x03, 0x00, 0x00, 0x00,
  0x5c, 0x00, 0x00, 0x00, 0x1c, 0x00, 0x00, 0x00, 0x2b, 0x00, 0x00, 0x00,
  0xec, 0xa8, 0xff, 0xff, 0x3c, 0x00, 0x00, 0x00, 0x5e, 0x00, 0x00, 0x00,
  0x20, 0x00, 0x00, 0x00, 0x44, 0x00, 0x00, 0x00, 0x04, 0x00, 0x00, 0x00,
  0x04, 0x00, 0x00, 0x00, 0xff, 0xff, 0xff, 0xff, 0x46, 0x00, 0x00, 0x00,
  0x46, 0x00, 0x00, 0x00, 0x06, 0x00, 0x00, 0x00, 0x0d, 0x00, 0x00, 0x00,
  0x64, 0x65, 0x70, 0x74, 0x68, 0x77, 0x69, 0x73, 0x65, 0x5f, 0x31, 0x34,
  0x31, 0x00, 0x00, 0x00, 0x04, 0x00, 0x00, 0x00, 0x01, 0x00, 0x00, 0x00,
  0x46, 0x00, 0x00, 0x00, 0x46, 0x00, 0x00, 0x00, 0x06, 0x00, 0x00, 0x00,
  0xd4, 0xa8, 0xff, 0xff, 0x1e, 0xf2, 0xff, 0xff, 0x00, 0x00, 0x00, 0x0b,
  0x03, 0x00, 0x00, 0x00, 0x18, 0x00, 0x00, 0x00, 0x0c, 0x00, 0x00, 0x00,
  0x04, 0x00, 0x00, 0x00, 0xf0, 0xa8, 0xff, 0xff, 0x01, 0x00, 0x00, 0x00,
  0x5c, 0x00, 0x00, 0x00, 0x02, 0x00, 0x00, 0x00, 0x5b, 0x00, 0x00, 0x00,
  0x58, 0x00, 0x00, 0x00, 0x74, 0xa9, 0xff, 0xff, 0x34, 0x00, 0x00, 0x00,
  0x5d, 0x00, 0x00, 0x00, 0x20, 0x00, 0x00, 0x00, 0x3c, 0x00, 0x00, 0x00,
  0x04, 0x00, 0x00, 0x00, 0x04, 0x00, 0x00, 0x00, 0xff, 0xff, 0xff, 0xff,
  0x46, 0x00, 0x00, 0x00, 0x46, 0x00, 0x00, 0x00, 0x06, 0x00, 0x00, 0x00,
  0x05, 0x00, 0x00, 0x00, 0x41, 0x64, 0x64, 0x5f, 0x31, 0x00, 0x00, 0x00,
  0x04, 0x00, 0x00, 0x00, 0x01, 0x00, 0x00, 0x00, 0x46, 0x00, 0x00, 0x00,
  0x46, 0x00, 0x00, 0x00, 0x06, 0x00, 0x00, 0x00, 0x54, 0xa9, 0xff, 0xff,
  0x9e, 0xf2, 0xff, 0xff, 0x00, 0x00, 0x00, 0x01, 0x02, 0x00, 0x00, 0x00,
  0x20, 0x00, 0x00, 0x00, 0x14, 0x00, 0x00, 0x00, 0x04, 0x00, 0x00, 0x00,
  0xfe, 0xf3, 0xff, 0xff, 0x01, 0x00, 0x00, 0x00, 0x01, 0x00, 0x00, 0x00,
  0x01, 0x00, 0x00, 0x00, 0x5b, 0x00, 0x00, 0x00, 0x03, 0x00, 0x00, 0x00,
  0x5a, 0x00, 0x00, 0x00, 0x1b, 0x00, 0x00, 0x00, 0x40, 0x00, 0x00, 0x00,
  0x00, 0xaa, 0xff, 0xff, 0x58, 0x00, 0x00, 0x00, 0x5c, 0x00, 0x00, 0x00,
  0x20, 0x00, 0x00, 0x00, 0x60, 0x00, 0x00, 0x00, 0x04, 0x00, 0x00, 0x00,
  0x04, 0x00, 0x00, 0x00, 0xff, 0xff, 0xff, 0xff, 0x46, 0x00, 0x00, 0x00,
  0x46, 0x00, 0x00, 0x00, 0x06, 0x00, 0x00, 0x00, 0x2b, 0x00, 0x00, 0x00,
  0x42, 0x69, 0x61, 0x73, 0x41, 0x64, 0x64, 0x5f, 0x36, 0x3b, 0x64, 0x65,
  0x70, 0x74, 0x68, 0x77, 0x69, 0x73, 0x65, 0x5f, 0x32, 0x33, 0x3b, 0x43,
  0x6f, 0x6e, 0x76, 0x32, 0x44, 0x5f, 0x36, 0x3b, 0x63, 0x6f, 0x6e, 0x76,
  0x5f, 0x32, 0x5f, 0x31, 0x5f, 0x62, 0x31, 0x00, 0x04, 0x00, 0x00, 0x00,
  0x01, 0x00, 0x00, 0x00, 0x46, 0x00, 0x00, 0x00, 0x46, 0x00, 0x00, 0x00,
  0x06, 0x00, 0x00, 0x00, 0x04, 0xaa, 0xff, 0xff, 0x4e, 0xf3, 0xff, 0xff,
  0x00, 0x00, 0x00, 0x02, 0x01, 0x00, 0x00, 0x00, 0x24, 0x00, 0x00, 0x00,
  0x18, 0x00, 0x00, 0x00, 0x04, 0x00, 0x00, 0x00, 0x40, 0xf3, 0xff, 0xff,
  0x01, 0x00, 0x00, 0x00, 0x01, 0x00, 0x00, 0x00, 0x01, 0x00, 0x00, 0x00,
  0x01, 0x00, 0x00, 0x00, 0x5a, 0x00, 0x00, 0x00, 0x03, 0x00, 0x00, 0x00,
  0x59, 0x00, 0x00, 0x00, 0x1a, 0x00, 0x00, 0x00, 0x36, 0x00, 0x00, 0x00,
  0xb4, 0xaa, 0xff, 0xff, 0x3c, 0x00, 0x00, 0x00, 0x5b, 0x00, 0x00, 0x00,
  0x20, 0x00, 0x00, 0x00, 0x44, 0x00, 0x00, 0x00, 0x04, 0x00, 0x00, 0x00,
  0x04, 0x00, 0x00, 0x00, 0xff, 0xff, 0xff, 0xff, 0x46, 0x00, 0x00, 0x00,
  0x46, 0x00, 0x00, 0x00, 0x09, 0x00, 0x00, 0x00, 0x0d, 0x00, 0x00, 0x00,
  0x64, 0x65, 0x70, 0x74, 0x68, 0x77, 0x69, 0x73, 0x65, 0x5f, 0x31, 0x33,
  0x31, 0x00, 0x00, 0x00, 0x04, 0x00, 0x00, 0x00, 0x01, 0x00, 0x00, 0x00,
  0x46, 0x00, 0x00, 0x00, 0x46, 0x00, 0x00, 0x00, 0x09, 0x00, 0x00, 0x00,
  0x9c, 0xaa, 0xff, 0xff, 0xe6, 0xf3, 0xff, 0xff, 0x00, 0x00, 0x00, 0x02,
  0x01, 0x00, 0x00, 0x00, 0x24, 0x00, 0x00, 0x00, 0x18, 0x00, 0x00, 0x00,
  0x04, 0x00, 0x00, 0x00, 0xd8, 0xf3, 0xff, 0xff, 0x01, 0x00, 0x00, 0x00,
  0x01, 0x00, 0x00, 0x00, 0x01, 0x00, 0x00, 0x00, 0x01, 0x00, 0x00, 0x00,
  0x59, 0x00, 0x00, 0x00, 0x03, 0x00, 0x00, 0x00, 0x52, 0x00, 0x00, 0x00,
  0x19, 0x00, 0x00, 0x00, 0x36, 0x00, 0x00, 0x00, 0x4c, 0xab, 0xff, 0xff,
  0x3c, 0x00, 0x00, 0x00, 0x5a, 0x00, 0x00, 0x00, 0x20, 0x00, 0x00, 0x00,
  0x44, 0x00, 0x00, 0x00, 0x04, 0x00, 0x00, 0x00, 0x04, 0x00, 0x00, 0x00,
  0xff, 0xff, 0xff, 0xff, 0x46, 0x00, 0x00, 0x00, 0x46, 0x00, 0x00, 0x00,
  0x09, 0x00, 0x00, 0x00, 0x0d, 0x00, 0x00, 0x00, 0x64, 0x65, 0x70, 0x74,
  0x68, 0x77, 0x69, 0x73, 0x65, 0x5f, 0x31, 0x32, 0x31, 0x00, 0x00, 0x00,
  0x04, 0x00, 0x00, 0x00, 0x01, 0x00, 0x00, 0x00, 0x46, 0x00, 0x00, 0x00,
  0x46, 0x00, 0x00, 0x00, 0x09, 0x00, 0x00, 0x00, 0x34, 0xab, 0xff, 0xff,
  0x7e, 0xf4, 0xff, 0xff, 0x00, 0x00, 0x00, 0x01, 0x02, 0x00, 0x00, 0x00,
  0x20, 0x00, 0x00, 0x00, 0x14, 0x00, 0x00, 0x00, 0x04, 0x00, 0x00, 0x00,
  0xde, 0xf5, 0xff, 0xff, 0x01, 0x00, 0x00, 0x00, 0x01, 0x00, 0x00, 0x00,
  0x01, 0x00, 0x00, 0x00, 0x58, 0x00, 0x00, 0x00, 0x03, 0x00, 0x00, 0x00,
  0x57, 0x00, 0x00, 0x00, 0x18, 0x00, 0x00, 0x00, 0x40, 0x00, 0x00, 0x00,
  0xe0, 0xab, 0xff, 0xff, 0x58, 0x00, 0x00, 0x00, 0x59, 0x00, 0x00, 0x00,
  0x20, 0x00, 0x00, 0x00, 0x60, 0x00, 0x00, 0x00, 0x04, 0x00, 0x00, 0x00,
  0x04, 0x00, 0x00, 0x00, 0xff, 0xff, 0xff, 0xff, 0x46, 0x00, 0x00, 0x00,
  0x46, 0x00, 0x00, 0x00, 0x06, 0x00, 0x00, 0x00, 0x2a, 0x00, 0x00, 0x00,
  0x42, 0x69, 0x61, 0x73, 0x41, 0x64, 0x64, 0x5f, 0x35, 0x3b, 0x64, 0x65,
  0x70, 0x74, 0x68, 0x77, 0x69, 0x73, 0x65, 0x5f, 0x32, 0x33, 0x3b, 0x43,
  0x6f, 0x6e, 0x76, 0x32, 0x44, 0x5f, 0x35, 0x3b, 0x63, 0x6f, 0x6e, 0x76,
  0x5f, 0x32, 0x5f, 0x31, 0x5f, 0x62, 0x00, 0x00, 0x04, 0x00, 0x00, 0x00,
  0x01, 0x00, 0x00, 0x00, 0x46, 0x00, 0x00, 0x00, 0x46, 0x00, 0x00, 0x00,
  0x06, 0x00, 0x00, 0x00, 0xe4, 0xab, 0xff, 0xff, 0x2e, 0xf5, 0xff, 0xff,
  0x00, 0x00, 0x00, 0x02, 0x01, 0x00, 0x00, 0x00, 0x24, 0x00, 0x00, 0x00,
  0x18, 0x00, 0x00, 0x00, 0x04, 0x00, 0x00, 0x00, 0x20, 0xf5, 0xff, 0xff,
  0x01, 0x00, 0x00, 0x00, 0x01, 0x00, 0x00, 0x00, 0x01, 0x00, 0x00, 0x00,
  0x01, 0x00, 0x00, 0x00, 0x57, 0x00, 0x00, 0x00, 0x03, 0x00, 0x00, 0x00,
  0x56, 0x00, 0x00, 0x00, 0x17, 0x00, 0x00, 0x00, 0x20, 0x00, 0x00, 0x00,
  0x94, 0xac, 0xff, 0xff, 0x3c, 0x00, 0x00, 0x00, 0x58, 0x00, 0x00, 0x00,
  0x20, 0x00, 0x00, 0x00, 0x44, 0x00, 0x00, 0x00, 0x04, 0x00, 0x00, 0x00,
  0x04, 0x00, 0x00, 0x00, 0xff, 0xff, 0xff, 0xff, 0x46, 0x00, 0x00, 0x00,
  0x46, 0x00, 0x00, 0x00, 0x08, 0x00, 0x00, 0x00, 0x0d, 0x00, 0x00, 0x00,
  0x64, 0x65, 0x70, 0x74, 0x68, 0x77, 0x69, 0x73, 0x65, 0x5f, 0x31, 0x31,
  0x31, 0x00, 0x00, 0x00, 0x04, 0x00, 0x00, 0x00, 0x01, 0x00, 0x00, 0x00,
  0x46, 0x00, 0x00, 0x00, 0x46, 0x00, 0x00, 0x00, 0x08, 0x00, 0x00, 0x00,
  0x7c, 0xac, 0xff, 0xff, 0xc6, 0xf5, 0xff, 0xff, 0x00, 0x00, 0x00, 0x02,
  0x01, 0x00, 0x00, 0x00, 0x24, 0x00, 0x00, 0x00, 0x18, 0x00, 0x00, 0x00,
  0x04, 0x00, 0x00, 0x00, 0xb8, 0xf5, 0xff, 0xff, 0x01, 0x00, 0x00, 0x00,
  0x01, 0x00, 0x00, 0x00, 0x01, 0x00, 0x00, 0x00, 0x01, 0x00, 0x00, 0x00,
  0x56, 0x00, 0x00, 0x00, 0x03, 0x00, 0x00, 0x00, 0x55, 0x00, 0x00, 0x00,
  0x16, 0x00, 0x00, 0x00, 0x20, 0x00, 0x00, 0x00, 0x2c, 0xad, 0xff, 0xff,
  0x3c, 0x00, 0x00, 0x00, 0x57, 0x00, 0x00, 0x00, 0x20, 0x00, 0x00, 0x00,
  0x44, 0x00, 0x00, 0x00, 0x04, 0x00, 0x00, 0x00, 0x04, 0x00, 0x00, 0x00,
  0xff, 0xff, 0xff, 0xff, 0x46, 0x00, 0x00, 0x00, 0x46, 0x00, 0x00, 0x00,
  0x08, 0x00, 0x00, 0x00, 0x0d, 0x00, 0x00, 0x00, 0x64, 0x65, 0x70, 0x74,
  0x68, 0x77, 0x69, 0x73, 0x65, 0x5f, 0x31, 0x30, 0x31, 0x00, 0x00, 0x00,
  0x04, 0x00, 0x00, 0x00, 0x01, 0x00, 0x00, 0x00, 0x46, 0x00, 0x00, 0x00,
  0x46, 0x00, 0x00, 0x00, 0x08, 0x00, 0x00, 0x00, 0x14, 0xad, 0xff, 0xff,
  0x5e, 0xf6, 0xff, 0xff, 0x00, 0x00, 0x00, 0x01, 0x02, 0x00, 0x00, 0x00,
  0x24, 0x00, 0x00, 0x00, 0x18, 0x00, 0x00, 0x00, 0x04, 0x00, 0x00, 0x00,
  0xc4, 0xf9, 0xff, 0xff, 0x01, 0x00, 0x00, 0x00, 0x01, 0x00, 0x00, 0x00,
  0x00, 0x00, 0x00, 0x01, 0x01, 0x00, 0x00, 0x00, 0x55, 0x00, 0x00, 0x00,
  0x03, 0x00, 0x00, 0x00, 0x54, 0x00, 0x00, 0x00, 0x15, 0x00, 0x00, 0x00,
  0x04, 0x00, 0x00, 0x00, 0xc4, 0xad, 0xff, 0xff, 0x60, 0x00, 0x00, 0x00,
  0x56, 0x00, 0x00, 0x00, 0x20, 0x00, 0x00, 0x00, 0x68, 0x00, 0x00, 0x00,
  0x04, 0x00, 0x00, 0x00, 0x04, 0x00, 0x00, 0x00, 0xff, 0xff, 0xff, 0xff,
  0x46, 0x00, 0x00, 0x00, 0x46, 0x00, 0x00, 0x00, 0x08, 0x00, 0x00, 0x00,
  0x31, 0x00, 0x00, 0x00, 0x52, 0x65, 0x6c, 0x75, 0x5f, 0x31, 0x3b, 0x42,
  0x69, 0x61, 0x73, 0x41, 0x64, 0x64, 0x5f, 0x34, 0x3b, 0x64, 0x65, 0x70,
  0x74, 0x68, 0x77, 0x69, 0x73, 0x65, 0x5f, 0x31, 0x37, 0x3b, 0x43, 0x6f,
  0x6e, 0x76, 0x32, 0x44, 0x5f, 0x34, 0x3b, 0x63, 0x6f, 0x6e, 0x76, 0x5f,
  0x32, 0x5f, 0x30, 0x5f, 0x62, 0x00, 0x00, 0x00, 0x04, 0x00, 0x00, 0x00,
  0x01, 0x00, 0x00, 0x00, 0x46, 0x00, 0x00, 0x00, 0x46, 0x00, 0x00, 0x00,
  0x08, 0x00, 0x00, 0x00, 0xd0, 0xad, 0xff, 0xff, 0x1a, 0xf7, 0xff, 0xff,
  0x00, 0x00, 0x00, 0x02, 0x01, 0x00, 0x00, 0x00, 0x24, 0x00, 0x00, 0x00,
  0x18, 0x00, 0x00, 0x00, 0x04, 0x00, 0x00, 0x00, 0x0c, 0xf7, 0xff, 0xff,
  0x01, 0x00, 0x00, 0x00, 0x01, 0x00, 0x00, 0x00, 0x01, 0x00, 0x00, 0x00,
  0x01, 0x00, 0x00, 0x00, 0x54, 0x00, 0x00, 0x00, 0x03, 0x00, 0x00, 0x00,
  0x53, 0x00, 0x00, 0x00, 0x14, 0x00, 0x00, 0x00, 0x36, 0x00, 0x00, 0x00,
  0x80, 0xae, 0xff, 0xff, 0x3c, 0x00, 0x00, 0x00, 0x55, 0x00, 0x00, 0x00,
  0x20, 0x00, 0x00, 0x00, 0x44, 0x00, 0x00, 0x00, 0x04, 0x00, 0x00, 0x00,
  0x04, 0x00, 0x00, 0x00, 0xff, 0xff, 0xff, 0xff, 0x46, 0x00, 0x00, 0x00,
  0x46, 0x00, 0x00, 0x00, 0x09, 0x00, 0x00, 0x00, 0x0c, 0x00, 0x00, 0x00,
  0x64, 0x65, 0x70, 0x74, 0x68, 0x77, 0x69, 0x73, 0x65, 0x5f, 0x39, 0x31,
  0x00, 0x00, 0x00, 0x00, 0x04, 0x00, 0x00, 0x00, 0x01, 0x00, 0x00, 0x00,
  0x46, 0x00, 0x00, 0x00, 0x46, 0x00, 0x00, 0x00, 0x09, 0x00, 0x00, 0x00,
  0x68, 0xae, 0xff, 0xff, 0xb2, 0xf7, 0xff, 0xff, 0x00, 0x00, 0x00, 0x02,
  0x01, 0x00, 0x00, 0x00, 0x24, 0x00, 0x00, 0x00, 0x18, 0x00, 0x00, 0x00,
  0x04, 0x00, 0x00, 0x00, 0xa4, 0xf7, 0xff, 0xff, 0x01, 0x00, 0x00, 0x00,
  0x01, 0x00, 0x00, 0x00, 0x01, 0x00, 0x00, 0x00, 0x01, 0x00, 0x00, 0x00,
  0x53, 0x00, 0x00, 0x00, 0x03, 0x00, 0x00, 0x00, 0x52, 0x00, 0x00, 0x00,
  0x13, 0x00, 0x00, 0x00, 0x36, 0x00, 0x00, 0x00, 0x18, 0xaf, 0xff, 0xff,
  0x3c, 0x00, 0x00, 0x00, 0x54, 0x00, 0x00, 0x00, 0x20, 0x00, 0x00, 0x00,
  0x44, 0x00, 0x00, 0x00, 0x04, 0x00, 0x00, 0x00, 0x04, 0x00, 0x00, 0x00,
  0xff, 0xff, 0xff, 0xff, 0x46, 0x00, 0x00, 0x00, 0x46, 0x00, 0x00, 0x00,
  0x09, 0x00, 0x00, 0x00, 0x0c, 0x00, 0x00, 0x00, 0x64, 0x65, 0x70, 0x74,
  0x68, 0x77, 0x69, 0x73, 0x65, 0x5f, 0x38, 0x31, 0x00, 0x00, 0x00, 0x00,
  0x04, 0x00, 0x00, 0x00, 0x01, 0x00, 0x00, 0x00, 0x46, 0x00, 0x00, 0x00,
  0x46, 0x00, 0x00, 0x00, 0x09, 0x00, 0x00, 0x00, 0x00, 0xaf, 0xff, 0xff,
  0x4a, 0xf8, 0xff, 0xff, 0x00, 0x00, 0x00, 0x0b, 0x03, 0x00, 0x00, 0x00,
  0x18, 0x00, 0x00, 0x00, 0x0c, 0x00, 0x00, 0x00, 0x04, 0x00, 0x00, 0x00,
  0x1c, 0xaf, 0xff, 0xff, 0x01, 0x00, 0x00, 0x00, 0x52, 0x00, 0x00, 0x00,
  0x02, 0x00, 0x00, 0x00, 0x51, 0x00, 0x00, 0x00, 0x4e, 0x00, 0x00, 0x00,
  0x00, 0x00, 0x0a, 0x00, 0x08, 0x00, 0x00, 0x00, 0x00, 0x00, 0x04, 0x00,
  0x0a, 0x00, 0x00, 0x00, 0x01, 0x00, 0x00, 0x00, 0xb4, 0xaf, 0xff, 0xff,
  0x30, 0x00, 0x00, 0x00, 0x53, 0x00, 0x00, 0x00, 0x20, 0x00, 0x00, 0x00,
  0x38, 0x00, 0x00, 0x00, 0x04, 0x00, 0x00, 0x00, 0x04, 0x00, 0x00, 0x00,
  0xff, 0xff, 0xff, 0xff, 0x46, 0x00, 0x00, 0x00, 0x46, 0x00, 0x00, 0x00,
  0x09, 0x00, 0x00, 0x00, 0x03, 0x00, 0x00, 0x00, 0x41, 0x64, 0x64, 0x00,
  0x04, 0x00, 0x00, 0x00, 0x01, 0x00, 0x00, 0x00, 0x46, 0x00, 0x00, 0x00,
  0x46, 0x00, 0x00, 0x00, 0x09, 0x00, 0x00, 0x00, 0x90, 0xaf, 0xff, 0xff,
  0xda, 0xf8, 0xff, 0xff, 0x00, 0x00, 0x00, 0x01, 0x02, 0x00, 0x00, 0x00,
  0x20, 0x00, 0x00, 0x00, 0x14, 0x00, 0x00, 0x00, 0x04, 0x00, 0x00, 0x00,
  0x3a, 0xfa, 0xff, 0xff, 0x01, 0x00, 0x00, 0x00, 0x01, 0x00, 0x00, 0x00,
  0x01, 0x00, 0x00, 0x00, 0x51, 0x00, 0x00, 0x00, 0x03, 0x00, 0x00, 0x00,
  0x50, 0x00, 0x00, 0x00, 0x12, 0x00, 0x00, 0x00, 0x3f, 0x00, 0x00, 0x00,
  0x3c, 0xb0, 0xff, 0xff, 0x58, 0x00, 0x00, 0x00, 0x52, 0x00, 0x00, 0x00,
  0x20, 0x00, 0x00, 0x00, 0x60, 0x00, 0x00, 0x00, 0x04, 0x00, 0x00, 0x00,
  0x04, 0x00, 0x00, 0x00, 0xff, 0xff, 0xff, 0xff, 0x46, 0x00, 0x00, 0x00,
  0x46, 0x00, 0x00, 0x00, 0x09, 0x00, 0x00, 0x00, 0x2b, 0x00, 0x00, 0x00,
  0x42, 0x69, 0x61, 0x73, 0x41, 0x64, 0x64, 0x5f, 0x33, 0x3b, 0x64, 0x65,
  0x70, 0x74, 0x68, 0x77, 0x69, 0x73, 0x65, 0x5f, 0x32, 0x39, 0x3b, 0x43,
  0x6f, 0x6e, 0x76, 0x32, 0x44, 0x5f, 0x33, 0x3b, 0x63, 0x6f, 0x6e, 0x76,
  0x5f, 0x31, 0x5f, 0x31, 0x5f, 0x62, 0x31, 0x00, 0x04, 0x00, 0x00, 0x00,
  0x01, 0x00, 0x00, 0x00, 0x46, 0x00, 0x00, 0x00, 0x46, 0x00, 0x00, 0x00,
  0x09, 0x00, 0x00, 0x00, 0x40, 0xb0, 0xff, 0xff, 0x8a, 0xf9, 0xff, 0xff,
  0x00, 0x00, 0x00, 0x02, 0x01, 0x00, 0x00, 0x00, 0x24, 0x00, 0x00, 0x00,
  0x18, 0x00, 0x00, 0x00, 0x04, 0x00, 0x00, 0x00, 0x7c, 0xf9, 0xff, 0xff,
  0x01, 0x00, 0x00, 0x00, 0x01, 0x00, 0x00, 0x00, 0x01, 0x00, 0x00, 0x00,
  0x01, 0x00, 0x00, 0x00, 0x50, 0x00, 0x00, 0x00, 0x03, 0x00, 0x00, 0x00,
  0x4f, 0x00, 0x00, 0x00, 0x11, 0x00, 0x00, 0x00, 0x3a, 0x00, 0x00, 0x00,
  0xf0, 0xb0, 0xff, 0xff, 0x3c, 0x00, 0x00, 0x00, 0x51, 0x00, 0x00, 0x00,
  0x20, 0x00, 0x00, 0x00, 0x44, 0x00, 0x00, 0x00, 0x04, 0x00, 0x00, 0x00,
  0x04, 0x00, 0x00, 0x00, 0xff, 0xff, 0xff, 0xff, 0x46, 0x00, 0x00, 0x00,
  0x46, 0x00, 0x00, 0x00, 0x0e, 0x00, 0x00, 0x00, 0x0c, 0x00, 0x00, 0x00,
  0x64, 0x65, 0x70, 0x74, 0x68, 0x77, 0x69, 0x73, 0x65, 0x5f, 0x37, 0x31,
  0x00, 0x00, 0x00, 0x00, 0x04, 0x00, 0x00, 0x00, 0x01, 0x00, 0x00, 0x00,
  0x46, 0x00, 0x00, 0x00, 0x46, 0x00, 0x00, 0x00, 0x0e, 0x00, 0x00, 0x00,
  0xd8, 0xb0, 0xff, 0xff, 0x22, 0xfa, 0xff, 0xff, 0x00, 0x00, 0x00, 0x02,
  0x01, 0x00, 0x00, 0x00, 0x24, 0x00, 0x00, 0x00, 0x18, 0x00, 0x00, 0x00,
  0x04, 0x00, 0x00, 0x00, 0x14, 0xfa, 0xff, 0xff, 0x01, 0x00, 0x00, 0x00,
  0x01, 0x00, 0x00, 0x00, 0x01, 0x00, 0x00, 0x00, 0x01, 0x00, 0x00, 0x00,
  0x4f, 0x00, 0x00, 0x00, 0x03, 0x00, 0x00, 0x00, 0x48, 0x00, 0x00, 0x00,
  0x10, 0x00, 0x00, 0x00, 0x3a, 0x00, 0x00, 0x00, 0x88, 0xb1, 0xff, 0xff,
  0x3c, 0x00, 0x00, 0x00, 0x50, 0x00, 0x00, 0x00, 0x20, 0x00, 0x00, 0x00,
  0x44, 0x00, 0x00, 0x00, 0x04, 0x00, 0x00, 0x00, 0x04, 0x00, 0x00, 0x00,
  0xff, 0xff, 0xff, 0xff, 0x46, 0x00, 0x00, 0x00, 0x46, 0x00, 0x00, 0x00,
  0x0e, 0x00, 0x00, 0x00, 0x0c, 0x00, 0x00, 0x00, 0x64, 0x65, 0x70, 0x74,
  0x68, 0x77, 0x69, 0x73, 0x65, 0x5f, 0x36, 0x31, 0x00, 0x00, 0x00, 0x00,
  0x04, 0x00, 0x00, 0x00, 0x01, 0x00, 0x00, 0x00, 0x46, 0x00, 0x00, 0x00,
  0x46, 0x00, 0x00, 0x00, 0x0e, 0x00, 0x00, 0x00, 0x70, 0xb1, 0xff, 0xff,
  0xba, 0xfa, 0xff, 0xff, 0x00, 0x00, 0x00, 0x01, 0x02, 0x00, 0x00, 0x00,
  0x20, 0x00, 0x00, 0x00, 0x14, 0x00, 0x00, 0x00, 0x04, 0x00, 0x00, 0x00,
  0x1a, 0xfc, 0xff, 0xff, 0x01, 0x00, 0x00, 0x00, 0x01, 0x00, 0x00, 0x00,
  0x01, 0x00, 0x00, 0x00, 0x4e, 0x00, 0x00, 0x00, 0x03, 0x00, 0x00, 0x00,
  0x4d, 0x00, 0x00, 0x00, 0x0f, 0x00, 0x00, 0x00, 0x3f, 0x00, 0x00, 0x00,
  0x1c, 0xb2, 0xff, 0xff, 0x58, 0x00, 0x00, 0x00, 0x4f, 0x00, 0x00, 0x00,
  0x20, 0x00, 0x00, 0x00, 0x60, 0x00, 0x00, 0x00, 0x04, 0x00, 0x00, 0x00,
  0x04, 0x00, 0x00, 0x00, 0xff, 0xff, 0xff, 0xff, 0x46, 0x00, 0x00, 0x00,
  0x46, 0x00, 0x00, 0x00, 0x09, 0x00, 0x00, 0x00, 0x2a, 0x00, 0x00, 0x00,
  0x42, 0x69, 0x61, 0x73, 0x41, 0x64, 0x64, 0x5f, 0x32, 0x3b, 0x64, 0x65,
  0x70, 0x74, 0x68, 0x77, 0x69, 0x73, 0x65, 0x5f, 0x32, 0x39, 0x3b, 0x43,
  0x6f, 0x6e, 0x76, 0x32, 0x44, 0x5f, 0x32, 0x3b, 0x63, 0x6f, 0x6e, 0x76,
  0x5f, 0x31, 0x5f, 0x31, 0x5f, 0x62, 0x00, 0x00, 0x04, 0x00, 0x00, 0x00,
  0x01, 0x00, 0x00, 0x00, 0x46, 0x00, 0x00, 0x00, 0x46, 0x00, 0x00, 0x00,
  0x09, 0x00, 0x00, 0x00, 0x20, 0xb2, 0xff, 0xff, 0x6a, 0xfb, 0xff, 0xff,
  0x00, 0x00, 0x00, 0x02, 0x01, 0x00, 0x00, 0x00, 0x24, 0x00, 0x00, 0x00,
  0x18, 0x00, 0x00, 0x00, 0x04, 0x00, 0x00, 0x00, 0x5c, 0xfb, 0xff, 0xff,
  0x01, 0x00, 0x00, 0x00, 0x01, 0x00, 0x00, 0x00, 0x01, 0x00, 0x00, 0x00,
  0x01, 0x00, 0x00, 0x00, 0x4d, 0x00, 0x00, 0x00, 0x03, 0x00, 0x00, 0x00,
  0x4c, 0x00, 0x00, 0x00, 0x0e, 0x00, 0x00, 0x00, 0x27, 0x00, 0x00, 0x00,
  0xd0, 0xb2, 0xff, 0xff, 0x3c, 0x00, 0x00, 0x00, 0x4e, 0x00, 0x00, 0x00,
  0x20, 0x00, 0x00, 0x00, 0x44, 0x00, 0x00, 0x00, 0x04, 0x00, 0x00, 0x00,
  0x04, 0x00, 0x00, 0x00, 0xff, 0xff, 0xff, 0xff, 0x46, 0x00, 0x00, 0x00,
  0x46, 0x00, 0x00, 0x00, 0x0c, 0x00, 0x00, 0x00, 0x0c, 0x00, 0x00, 0x00,
  0x64, 0x65, 0x70, 0x74, 0x68, 0x77, 0x69, 0x73, 0x65, 0x5f, 0x35, 0x31,
  0x00, 0x00, 0x00, 0x00, 0x04, 0x00, 0x00, 0x00, 0x01, 0x00, 0x00, 0x00,
  0x46, 0x00, 0x00, 0x00, 0x46, 0x00, 0x00, 0x00, 0x0c, 0x00, 0x00, 0x00,
  0xb8, 0xb2, 0xff, 0xff, 0x02, 0xfc, 0xff, 0xff, 0x00, 0x00, 0x00, 0x02,
  0x01, 0x00, 0x00, 0x00, 0x24, 0x00, 0x00, 0x00, 0x18, 0x00, 0x00, 0x00,
  0x04, 0x00, 0x00, 0x00, 0xf4, 0xfb, 0xff, 0xff, 0x01, 0x00, 0x00, 0x00,
  0x01, 0x00, 0x00, 0x00, 0x01, 0x00, 0x00, 0x00, 0x01, 0x00, 0x00, 0x00,
  0x4c, 0x00, 0x00, 0x00, 0x03, 0x00, 0x00, 0x00, 0x4b, 0x00, 0x00, 0x00,
  0x0d, 0x00, 0x00, 0x00, 0x27, 0x00, 0x00, 0x00, 0x68, 0xb3, 0xff, 0xff,
  0x3c, 0x00, 0x00, 0x00, 0x4d, 0x00, 0x00, 0x00, 0x20, 0x00, 0x00, 0x00,
  0x44, 0x00, 0x00, 0x00, 0x04, 0x00, 0x00, 0x00, 0x04, 0x00, 0x00, 0x00,
  0xff, 0xff, 0xff, 0xff, 0x46, 0x00, 0x00, 0x00, 0x46, 0x00, 0x00, 0x00,
  0x0c, 0x00, 0x00, 0x00, 0x0c, 0x00, 0x00, 0x00, 0x64, 0x65, 0x70, 0x74,
  0x68, 0x77, 0x69, 0x73, 0x65, 0x5f, 0x34, 0x31, 0x00, 0x00, 0x00, 0x00,
  0x04, 0x00, 0x00, 0x00, 0x01, 0x00, 0x00, 0x00, 0x46, 0x00, 0x00, 0x00,
  0x46, 0x00, 0x00, 0x00, 0x0c, 0x00, 0x00, 0x00, 0x50, 0xb3, 0xff, 0xff,
  0x9a, 0xfc, 0xff, 0xff, 0x00, 0x00, 0x00, 0x01, 0x02, 0x00, 0x00, 0x00,
  0x30, 0x00, 0x00, 0x00, 0x24, 0x00, 0x00, 0x00, 0x10, 0x00, 0x00, 0x00,
  0x0c, 0x00, 0x10, 0x00, 0x00, 0x00, 0x04, 0x00, 0x08, 0x00, 0x0f, 0x00,
  0x0c, 0x00, 0x00, 0x00, 0x01, 0x00, 0x00, 0x00, 0x01, 0x00, 0x00, 0x00,
  0x00, 0x00, 0x00, 0x01, 0x01, 0x00, 0x00, 0x00, 0x4b, 0x00, 0x00, 0x00,
  0x03, 0x00, 0x00, 0x00, 0x4a, 0x00, 0x00, 0x00, 0x0c, 0x00, 0x00, 0x00,
  0x05, 0x00, 0x00, 0x00, 0x0c, 0xb4, 0xff, 0xff, 0x5c, 0x00, 0x00, 0x00,
  0x4c, 0x00, 0x00, 0x00, 0x20, 0x00, 0x00, 0x00, 0x64, 0x00, 0x00, 0x00,
  0x04, 0x00, 0x00, 0x00, 0x04, 0x00, 0x00, 0x00, 0xff, 0xff, 0xff, 0xff,
  0x46, 0x00, 0x00, 0x00, 0x46, 0x00, 0x00, 0x00, 0x0c, 0x00, 0x00, 0x00,
  0x2f, 0x00, 0x00, 0x00, 0x52, 0x65, 0x6c, 0x75, 0x3b, 0x42, 0x69, 0x61,
  0x73, 0x41, 0x64, 0x64, 0x5f, 0x31, 0x3b, 0x64, 0x65, 0x70, 0x74, 0x68,
  0x77, 0x69, 0x73, 0x65, 0x5f, 0x32, 0x31, 0x3b, 0x43, 0x6f, 0x6e, 0x76,
  0x32, 0x44, 0x5f, 0x31, 0x3b, 0x63, 0x6f, 0x6e, 0x76, 0x5f, 0x31, 0x5f,
  0x30, 0x5f, 0x62, 0x00, 0x04, 0x00, 0x00, 0x00, 0x01, 0x00, 0x00, 0x00,
  0x46, 0x00, 0x00, 0x00, 0x46, 0x00, 0x00, 0x00, 0x0c, 0x00, 0x00, 0x00,
  0x14, 0xb4, 0xff, 0xff, 0x5e, 0xfd, 0xff, 0xff, 0x00, 0x00, 0x00, 0x02,
  0x01, 0x00, 0x00, 0x00, 0x24, 0x00, 0x00, 0x00, 0x18, 0x00, 0x00, 0x00,
  0x04, 0x00, 0x00, 0x00, 0x50, 0xfd, 0xff, 0xff, 0x01, 0x00, 0x00, 0x00,
  0x01, 0x00, 0x00, 0x00, 0x01, 0x00, 0x00, 0x00, 0x01, 0x00, 0x00, 0x00,
  0x4a, 0x00, 0x00, 0x00, 0x03, 0x00, 0x00, 0x00, 0x49, 0x00, 0x00, 0x00,
  0x0b, 0x00, 0x00, 0x00, 0x3a, 0x00, 0x00, 0x00, 0xc4, 0xb4, 0xff, 0xff,
  0x3c, 0x00, 0x00, 0x00, 0x4b, 0x00, 0x00, 0x00, 0x20, 0x00, 0x00, 0x00,
  0x44, 0x00, 0x00, 0x00, 0x04, 0x00, 0x00, 0x00, 0x04, 0x00, 0x00, 0x00,
  0xff, 0xff, 0xff, 0xff, 0x46, 0x00, 0x00, 0x00, 0x46, 0x00, 0x00, 0x00,
  0x0e, 0x00, 0x00, 0x00, 0x0c, 0x00, 0x00, 0x00, 0x64, 0x65, 0x70, 0x74,
  0x68, 0x77, 0x69, 0x73, 0x65, 0x5f, 0x33, 0x32, 0x00, 0x00, 0x00, 0x00,
  0x04, 0x00, 0x00, 0x00, 0x01, 0x00, 0x00, 0x00, 0x46, 0x00, 0x00, 0x00,
  0x46, 0x00, 0x00, 0x00, 0x0e, 0x00, 0x00, 0x00, 0xac, 0xb4, 0xff, 0xff,
  0xf6, 0xfd, 0xff, 0xff, 0x00, 0x00, 0x00, 0x02, 0x01, 0x00, 0x00, 0x00,
  0x24, 0x00, 0x00, 0x00, 0x18, 0x00, 0x00, 0x00, 0x04, 0x00, 0x00, 0x00,
  0xe8, 0xfd, 0xff, 0xff, 0x01, 0x00, 0x00, 0x00, 0x01, 0x00, 0x00, 0x00,
  0x01, 0x00, 0x00, 0x00, 0x01, 0x00, 0x00, 0x00, 0x49, 0x00, 0x00, 0x00,
  0x03, 0x00, 0x00, 0x00, 0x48, 0x00, 0x00, 0x00, 0x0a, 0x00, 0x00, 0x00,
  0x3a, 0x00, 0x00, 0x00, 0x5c, 0xb5, 0xff, 0xff, 0x3c, 0x00, 0x00, 0x00,
  0x4a, 0x00, 0x00, 0x00, 0x20, 0x00, 0x00, 0x00, 0x44, 0x00, 0x00, 0x00,
  0x04, 0x00, 0x00, 0x00, 0x04, 0x00, 0x00, 0x00, 0xff, 0xff, 0xff, 0xff,
  0x46, 0x00, 0x00, 0x00, 0x46, 0x00, 0x00, 0x00, 0x0e, 0x00, 0x00, 0x00,
  0x0d, 0x00, 0x00, 0x00, 0x64, 0x65, 0x70, 0x74, 0x68, 0x77, 0x69, 0x73,
  0x65, 0x5f, 0x32, 0x31, 0x30, 0x00, 0x00, 0x00, 0x04, 0x00, 0x00, 0x00,
  0x01, 0x00, 0x00, 0x00, 0x46, 0x00, 0x00, 0x00, 0x46, 0x00, 0x00, 0x00,
  0x0e, 0x00, 0x00, 0x00, 0x58, 0xb6, 0xff, 0xff, 0x00, 0x00, 0x0e, 0x00,
  0x1a, 0x00, 0x08, 0x00, 0x0c, 0x00, 0x10, 0x00, 0x07, 0x00, 0x14, 0x00,
  0x0e, 0x00, 0x00, 0x00, 0x00, 0x00, 0x00, 0x01, 0x02, 0x00, 0x00, 0x00,
  0x2c, 0x00, 0x00, 0x00, 0x20, 0x00, 0x00, 0x00, 0x10, 0x00, 0x00, 0x00,
  0x00, 0x00, 0x0a, 0x00, 0x0c, 0x00, 0x00, 0x00, 0x04, 0x00, 0x08, 0x00,
  0x0a, 0x00, 0x00, 0x00, 0x01, 0x00, 0x00, 0x00, 0x01, 0x00, 0x00, 0x00,
  0x01, 0x00, 0x00, 0x00, 0x48, 0x00, 0x00, 0x00, 0x03, 0x00, 0x00, 0x00,
  0x47, 0x00, 0x00, 0x00, 0x09, 0x00, 0x00, 0x00, 0x3e, 0x00, 0x00, 0x00,
  0xe0, 0xfd, 0xff, 0xff, 0x03, 0x00, 0x00, 0x00, 0x00, 0x00, 0x00, 0x03,
  0x01, 0x00, 0x00, 0x00, 0x1c, 0xb6, 0xff, 0xff, 0x54, 0x00, 0x00, 0x00,
  0x49, 0x00, 0x00, 0x00, 0x20, 0x00, 0x00, 0x00, 0x5c, 0x00, 0x00, 0x00,
  0x04, 0x00, 0x00, 0x00, 0x04, 0x00, 0x00, 0x00, 0xff, 0xff, 0xff, 0xff,
  0x46, 0x00, 0x00, 0x00, 0x46, 0x00, 0x00, 0x00, 0x0e, 0x00, 0x00, 0x00,
  0x25, 0x00, 0x00, 0x00, 0x42, 0x69, 0x61, 0x73, 0x41, 0x64, 0x64, 0x3b,
  0x64, 0x65, 0x70, 0x74, 0x68, 0x77, 0x69, 0x73, 0x65, 0x5f, 0x33, 0x31,
  0x3b, 0x43, 0x6f, 0x6e, 0x76, 0x32, 0x44, 0x3b, 0x63, 0x6f, 0x6e, 0x76,
  0x5f, 0x30, 0x5f, 0x62, 0x31, 0x00, 0x00, 0x00, 0x04, 0x00, 0x00, 0x00,
  0x01, 0x00, 0x00, 0x00, 0x46, 0x00, 0x00, 0x00, 0x46, 0x00, 0x00, 0x00,
  0x0e, 0x00, 0x00, 0x00, 0x1c, 0xb6, 0xff, 0xff, 0x66, 0xff, 0xff, 0xff,
  0x00, 0x00, 0x00, 0x02, 0x01, 0x00, 0x00, 0x00, 0x24, 0x00, 0x00, 0x00,
  0x18, 0x00, 0x00, 0x00, 0x04, 0x00, 0x00, 0x00, 0x58, 0xff, 0xff, 0xff,
  0x01, 0x00, 0x00, 0x00, 0x01, 0x00, 0x00, 0x00, 0x01, 0x00, 0x00, 0x00,
  0x01, 0x00, 0x00, 0x00, 0x47, 0x00, 0x00, 0x00, 0x03, 0x00, 0x00, 0x00,
  0x46, 0x00, 0x00, 0x00, 0x08, 0x00, 0x00, 0x00, 0x3c, 0x00, 0x00, 0x00,
  0xcc, 0xb6, 0xff, 0xff, 0x3c, 0x00, 0x00, 0x00, 0x48, 0x00, 0x00, 0x00,
  0x20, 0x00, 0x00, 0x00, 0x44, 0x00, 0x00, 0x00, 0x04, 0x00, 0x00, 0x00,
  0x04, 0x00, 0x00, 0x00, 0xff, 0xff, 0xff, 0xff, 0x46, 0x00, 0x00, 0x00,
  0x46, 0x00, 0x00, 0x00, 0x01, 0x00, 0x00, 0x00, 0x0d, 0x00, 0x00, 0x00,
  0x64, 0x65, 0x70, 0x74, 0x68, 0x77, 0x69, 0x73, 0x65, 0x5f, 0x31, 0x31,
  0x30, 0x00, 0x00, 0x00, 0x04, 0x00, 0x00, 0x00, 0x01, 0x00, 0x00, 0x00,
  0x46, 0x00, 0x00, 0x00, 0x46, 0x00, 0x00, 0x00, 0x01, 0x00, 0x00, 0x00,
  0xc8, 0xb7, 0xff, 0xff, 0x00, 0x00, 0x0e, 0x00, 0x18, 0x00, 0x08, 0x00,
  0x0c, 0x00, 0x10, 0x00, 0x07, 0x00, 0x14, 0x00, 0x0e, 0x00, 0x00, 0x00,
  0x00, 0x00, 0x00, 0x02, 0x01, 0x00, 0x00, 0x00, 0x30, 0x00, 0x00, 0x00,
  0x24, 0x00, 0x00, 0x00, 0x10, 0x00, 0x00, 0x00, 0x0c, 0x00, 0x10, 0x00,
  0x00, 0x00, 0x08, 0x00, 0x0c, 0x00, 0x04, 0x00, 0x0c, 0x00, 0x00, 0x00,
  0x01, 0x00, 0x00, 0x00, 0x01, 0x00, 0x00, 0x00, 0x01, 0x00, 0x00, 0x00,
  0x01, 0x00, 0x00, 0x00, 0x46, 0x00, 0x00, 0x00, 0x03, 0x00, 0x00, 0x00,
  0x45, 0x00, 0x00, 0x00, 0x07, 0x00, 0x00, 0x00, 0x3c, 0x00, 0x00, 0x00,
  0x54, 0xff, 0xff, 0xff, 0x04, 0x00, 0x00, 0x00, 0x00, 0x00, 0x00, 0x04,
  0x01, 0x00, 0x00, 0x00, 0x90, 0xb7, 0xff, 0xff, 0x38, 0x00, 0x00, 0x00,
  0x47, 0x00, 0x00, 0x00, 0x20, 0x00, 0x00, 0x00, 0x40, 0x00, 0x00, 0x00,
  0x04, 0x00, 0x00, 0x00, 0x04, 0x00, 0x00, 0x00, 0xff, 0xff, 0xff, 0xff,
  0x46, 0x00, 0x00, 0x00, 0x46, 0x00, 0x00, 0x00, 0x01, 0x00, 0x00, 0x00,
  0x0a, 0x00, 0x00, 0x00, 0x64, 0x65, 0x70, 0x74, 0x68, 0x77, 0x69, 0x73,
  0x65, 0x31, 0x00, 0x00, 0x04, 0x00, 0x00, 0x00, 0x01, 0x00, 0x00, 0x00,
  0x46, 0x00, 0x00, 0x00, 0x46, 0x00, 0x00, 0x00, 0x01, 0x00, 0x00, 0x00,
  0x88, 0xb8, 0xff, 0xff, 0x00, 0x00, 0x0e, 0x00, 0x16, 0x00, 0x00, 0x00,
  0x08, 0x00, 0x0c, 0x00, 0x07, 0x00, 0x10, 0x00, 0x0e, 0x00, 0x00, 0x00,
  0x00, 0x00, 0x00, 0x4d, 0x24, 0x00, 0x00, 0x00, 0x18, 0x00, 0x00, 0x00,
  0x0c, 0x00, 0x00, 0x00, 0x00, 0x00, 0x06, 0x00, 0x08, 0x00, 0x07, 0x00,
  0x06, 0x00, 0x00, 0x00, 0x00, 0x00, 0x00, 0x01, 0x01, 0x00, 0x00, 0x00,
  0x45, 0x00, 0x00, 0x00, 0x02, 0x00, 0x00, 0x00, 0x00, 0x00, 0x00, 0x00,
  0x06, 0x00, 0x00, 0x00, 0x0c, 0x00, 0x10, 0x00, 0x0b, 0x00, 0x00, 0x00,
  0x0c, 0x00, 0x04, 0x00, 0x0c, 0x00, 0x00, 0x00, 0x64, 0x00, 0x00, 0x00,
  0x00, 0x00, 0x00, 0x64, 0x01, 0x00, 0x00, 0x00, 0x48, 0xb8, 0xff, 0xff,
  0x38, 0x00, 0x00, 0x00, 0x46, 0x00, 0x00, 0x00, 0x20, 0x00, 0x00, 0x00,
  0x40, 0x00, 0x00, 0x00, 0x04, 0x00, 0x00, 0x00, 0x04, 0x00, 0x00, 0x00,
  0xff, 0xff, 0xff, 0xff, 0x46, 0x00, 0x00, 0x00, 0x46, 0x00, 0x00, 0x00,
  0x01, 0x00, 0x00, 0x00, 0x09, 0x00, 0x00, 0x00, 0x4d, 0x69, 0x72, 0x72,
  0x6f, 0x72, 0x50, 0x61, 0x64, 0x00, 0x00, 0x00, 0x04, 0x00, 0x00, 0x00,
  0x01, 0x00, 0x00, 0x00, 0x46, 0x00, 0x00, 0x00, 0x46, 0x00, 0x00, 0x00,
  0x01, 0x00, 0x00, 0x00, 0x2c, 0xb8, 0xff, 0xff, 0x3a, 0xb9, 0xff, 0xff,
  0x04, 0x00, 0x00, 0x00, 0x04, 0x00, 0x00, 0x00, 0x68, 0xcc, 0x2f, 0xb6,
  0xea, 0xb8, 0xff, 0xff, 0x34, 0x00, 0x00, 0x00, 0x45, 0x00, 0x00, 0x00,
  0x08, 0x00, 0x00, 0x00, 0x30, 0x00, 0x00, 0x00, 0x1d, 0x00, 0x00, 0x00,
  0x42, 0x69, 0x61, 0x73, 0x41, 0x64, 0x64, 0x5f, 0x31, 0x35, 0x3b, 0x43,
  0x6f, 0x6e, 0x76, 0x32, 0x44, 0x5f, 0x31, 0x35, 0x3b, 0x63, 0x6f, 0x6e,
  0x76, 0x5f, 0x36, 0x5f, 0x62, 0x00, 0x00, 0x00, 0x01, 0x00, 0x00, 0x00,
  0x01, 0x00, 0x00, 0x00, 0x80, 0xb8, 0xff, 0xff, 0x8e, 0xb9, 0xff, 0xff,
  0x04, 0x00, 0x00, 0x00, 0x38, 0x00, 0x00, 0x00, 0x80, 0x99, 0x99, 0xbc,
  0x27, 0x0b, 0xb3, 0xbb, 0xc3, 0xf9, 0xbc, 0x3c, 0xf0, 0x4d, 0x45, 0xbd,
  0xe1, 0x3c, 0x9e, 0xbc, 0x28, 0xd4, 0x02, 0x3d, 0xf2, 0xf3, 0x2e, 0x3d,
  0x52, 0x87, 0x7d, 0x3d, 0x2f, 0x3a, 0x77, 0x3d, 0x00, 0xdf, 0x11, 0xb9,
  0x86, 0x31, 0x23, 0x3c, 0x56, 0xab, 0x2f, 0xbc, 0x50, 0x39, 0xfa, 0x3c,
  0x84, 0xf4, 0x81, 0xbc, 0x72, 0xb9, 0xff, 0xff, 0x44, 0x00, 0x00, 0x00,
  0x44, 0x00, 0x00, 0x00, 0x08, 0x00, 0x00, 0x00, 0x40, 0x00, 0x00, 0x00,
  0x2c, 0x00, 0x00, 0x00, 0x42, 0x69, 0x61, 0x73, 0x41, 0x64, 0x64, 0x5f,
  0x31, 0x34, 0x3b, 0x64, 0x65, 0x70, 0x74, 0x68, 0x77, 0x69, 0x73, 0x65,
  0x5f, 0x33, 0x31, 0x3b, 0x43, 0x6f, 0x6e, 0x76, 0x32, 0x44, 0x5f, 0x31,
  0x34, 0x3b, 0x63, 0x6f, 0x6e, 0x76, 0x5f, 0x35, 0x5f, 0x31, 0x5f, 0x62,
  0x00, 0x00, 0x00, 0x00, 0x01, 0x00, 0x00, 0x00, 0x0e, 0x00, 0x00, 0x00,
  0x18, 0xb9, 0xff, 0xff, 0x26, 0xba, 0xff, 0xff, 0x04, 0x00, 0x00, 0x00,
  0x24, 0x00, 0x00, 0x00, 0x93, 0x05, 0x01, 0x3d, 0xb5, 0xf0, 0xa3, 0x3d,
  0x07, 0x84, 0xa5, 0x3d, 0xff, 0x32, 0xfa, 0x3e, 0x5f, 0xf1, 0x78, 0x3d,
  0xf9, 0x16, 0x52, 0x3d, 0xeb, 0x27, 0x73, 0xbe, 0xf1, 0xe0, 0xdf, 0x3c,
  0x23, 0x59, 0xc1, 0x3d, 0xf6, 0xb9, 0xff, 0xff, 0x44, 0x00, 0x00, 0x00,
  0x43, 0x00, 0x00, 0x00, 0x08, 0x00, 0x00, 0x00, 0x40, 0x00, 0x00, 0x00,
  0x2c, 0x00, 0x00, 0x00, 0x42, 0x69, 0x61, 0x73, 0x41, 0x64, 0x64, 0x5f,
  0x31, 0x31, 0x3b, 0x64, 0x65, 0x70, 0x74, 0x68, 0x77, 0x69, 0x73, 0x65,
  0x5f, 0x32, 0x39, 0x3b, 0x43, 0x6f, 0x6e, 0x76, 0x32, 0x44, 0x5f, 0x31,
  0x31, 0x3b, 0x63, 0x6f, 0x6e, 0x76, 0x5f, 0x34, 0x5f, 0x31, 0x5f, 0x62,
  0x00, 0x00, 0x00, 0x00, 0x01, 0x00, 0x00, 0x00, 0x09, 0x00, 0x00, 0x00,
  0x9c, 0xb9, 0xff, 0xff, 0xaa, 0xba, 0xff, 0xff, 0x04, 0x00, 0x00, 0x00,
  0x18, 0x00, 0x00, 0x00, 0x38, 0x7a, 0x55, 0x3d, 0x83, 0xd3, 0x27, 0x3e,
  0xa7, 0x13, 0xa2, 0x3d, 0x5c, 0x72, 0x4b, 0x3e, 0x58, 0x04, 0xef, 0x3c,
  0xcd, 0xc6, 0x4d, 0x3e, 0x6e, 0xba, 0xff, 0xff, 0x40, 0x00, 0x00, 0x00,
  0x42, 0x00, 0x00, 0x00, 0x08, 0x00, 0x00, 0x00, 0x3c, 0x00, 0x00, 0x00,
  0x2a, 0x00, 0x00, 0x00, 0x42, 0x69, 0x61, 0x73, 0x41, 0x64, 0x64, 0x5f,
  0x38, 0x3b, 0x64, 0x65, 0x70, 0x74, 0x68, 0x77, 0x69, 0x73, 0x65, 0x5f,
  0x32, 0x33, 0x3b, 0x43, 0x6f, 0x6e, 0x76, 0x32, 0x44, 0x5f, 0x38, 0x3b,
  0x63, 0x6f, 0x6e, 0x76, 0x5f, 0x33, 0x5f, 0x31, 0x5f, 0x62, 0x00, 0x00,
  0x01, 0x00, 0x00, 0x00, 0x06, 0x00, 0x00, 0x00, 0x10, 0xba, 0xff, 0xff,
  0x1e, 0xbb, 0xff, 0xff, 0x04, 0x00, 0x00, 0x00, 0x18, 0x00, 0x00, 0x00,
  0x57, 0xe2, 0xab, 0xbd, 0x5a, 0x1b, 0x15, 0xbd, 0x6c, 0xeb, 0xd5, 0x3c,
  0x46, 0xf2, 0x1e, 0xbc, 0x84, 0xd9, 0x94, 0xbd, 0xfe, 0xa1, 0xc4, 0x3c,
  0xe2, 0xba, 0xff, 0xff, 0x40, 0x00, 0x00, 0x00, 0x41, 0x00, 0x00, 0x00,
  0x08, 0x00, 0x00, 0x00, 0x3c, 0x00, 0x00, 0x00, 0x2a, 0x00, 0x00, 0x00,
  0x42, 0x69, 0x61, 0x73, 0x41, 0x64, 0x64, 0x5f, 0x36, 0x3b, 0x64, 0x65,
  0x70, 0x74, 0x68, 0x77, 0x69, 0x73, 0x65, 0x5f, 0x32, 0x33, 0x3b, 0x43,
  0x6f, 0x6e, 0x76, 0x32, 0x44, 0x5f, 0x36, 0x3b, 0x63, 0x6f, 0x6e, 0x76,
  0x5f, 0x32, 0x5f, 0x31, 0x5f, 0x62, 0x00, 0x00, 0x01, 0x00, 0x00, 0x00,
  0x06, 0x00, 0x00, 0x00, 0x84, 0xba, 0xff, 0xff, 0x92, 0xbb, 0xff, 0xff,
  0x04, 0x00, 0x00, 0x00, 0x24, 0x00, 0x00, 0x00, 0x61, 0x57, 0xe8, 0x3e,
  0x13, 0x26, 0xa7, 0x3d, 0x95, 0x02, 0xa4, 0x3d, 0x23, 0x18, 0x2e, 0xbd,
  0x21, 0xcb, 0xff, 0x3c, 0xf9, 0x16, 0x74, 0xbc, 0xb2, 0xa7, 0x5a, 0x3e,
  0x4b, 0x98, 0x95, 0x3d, 0xb1, 0xab, 0xe1, 0x3c, 0x62, 0xbb, 0xff, 0xff,
  0x40, 0x00, 0x00, 0x00, 0x40, 0x00, 0x00, 0x00, 0x08, 0x00, 0x00, 0x00,
  0x3c, 0x00, 0x00, 0x00, 0x2a, 0x00, 0x00, 0x00, 0x42, 0x69, 0x61, 0x73,
  0x41, 0x64, 0x64, 0x5f, 0x33, 0x3b, 0x64, 0x65, 0x70, 0x74, 0x68, 0x77,
  0x69, 0x73, 0x65, 0x5f, 0x32, 0x39, 0x3b, 0x43, 0x6f, 0x6e, 0x76, 0x32,
  0x44, 0x5f, 0x33, 0x3b, 0x63, 0x6f, 0x6e, 0x76, 0x5f, 0x31, 0x5f, 0x31,
  0x5f, 0x62, 0x00, 0x00, 0x01, 0x00, 0x00, 0x00, 0x09, 0x00, 0x00, 0x00,
  0x04, 0xbb, 0xff, 0xff, 0x12, 0xbc, 0xff, 0xff, 0x04, 0x00, 0x00, 0x00,
  0x38, 0x00, 0x00, 0x00, 0x10, 0x14, 0x4e, 0xbe, 0x65, 0xb6, 0xad, 0xbd,
  0x89, 0xd8, 0xd2, 0x3d, 0x27, 0x90, 0xa1, 0xbe, 0xcf, 0x9c, 0x7e, 0xbe,
  0x6b, 0x4a, 0xe5, 0x3e, 0x67, 0xd6, 0x56, 0xbe, 0x4a, 0x5c, 0x89, 0x3e,
  0x0f, 0x60, 0x68, 0x3e, 0xc2, 0xc6, 0x44, 0x3e, 0xc6, 0xfa, 0xb3, 0xbc,
  0xcd, 0xed, 0xbe, 0x3f, 0x9c, 0x1f, 0x1c, 0x3e, 0xf8, 0x81, 0xaf, 0xbe,
  0xf6, 0xbb, 0xff, 0xff, 0x3c, 0x00, 0x00, 0x00, 0x3f, 0x00, 0x00, 0x00,
  0x08, 0x00, 0x00, 0x00, 0x38, 0x00, 0x00, 0x00, 0x24, 0x00, 0x00, 0x00,
  0x42, 0x69, 0x61, 0x73, 0x41, 0x64, 0x64, 0x3b, 0x64, 0x65, 0x70, 0x74,
  0x68, 0x77, 0x69, 0x73, 0x65, 0x5f, 0x33, 0x31, 0x3b, 0x43, 0x6f, 0x6e,
  0x76, 0x32, 0x44, 0x3b, 0x63, 0x6f, 0x6e, 0x76, 0x5f, 0x30, 0x5f, 0x62,
  0x00, 0x00, 0x00, 0x00, 0x01, 0x00, 0x00, 0x00, 0x0e, 0x00, 0x00, 0x00,
  0x94, 0xbb, 0xff, 0xff, 0xa2, 0xbc, 0xff, 0xff, 0x04, 0x00, 0x00, 0x00,
  0x38, 0x00, 0x00, 0x00, 0x38, 0x0c, 0x21, 0xbe, 0x11, 0xad, 0x13, 0x3f,
  0x58, 0x86, 0x9a, 0x3e, 0x5a, 0x54, 0xaa, 0x3e, 0xc4, 0x6f, 0x6d, 0x3e,
  0xf0, 0x94, 0xbd, 0xbe, 0x0a, 0x2b, 0xea, 0xbe, 0xb0, 0x98, 0x86, 0xbe,
  0x58, 0x62, 0x45, 0x3e, 0xfa, 0x69, 0x84, 0x3e, 0xbb, 0x9c, 0x4b, 0xbe,
  0x51, 0x6d, 0x07, 0x3e, 0x25, 0xd7, 0x24, 0x3e, 0xa1, 0x9d, 0xc3, 0x3e,
  0x86, 0xbc, 0xff, 0xff, 0x20, 0x00, 0x00, 0x00, 0x3e, 0x00, 0x00, 0x00,
  0x08, 0x00, 0x00, 0x00, 0x28, 0x00, 0x00, 0x00, 0x0a, 0x00, 0x00, 0x00,
  0x43, 0x6f, 0x6e, 0x76, 0x32, 0x44, 0x5f, 0x31, 0x35, 0x31, 0x00, 0x00,
  0x04, 0x00, 0x00, 0x00, 0x01, 0x00, 0x00, 0x00, 0x01, 0x00, 0x00, 0x00,
  0x01, 0x00, 0x00, 0x00, 0x0e, 0x00, 0x00, 0x00, 0x14, 0xbc, 0xff, 0xff,
  0x22, 0xbd, 0xff, 0xff, 0x04, 0x00, 0x00, 0x00, 0x04, 0x00, 0x00, 0x00,
  0x00, 0x00, 0x00, 0x00, 0xd2, 0xbc, 0xff, 0xff, 0x20, 0x00, 0x00, 0x00,
  0x3d, 0x00, 0x00, 0x00, 0x08, 0x00, 0x00, 0x00, 0x1c, 0x00, 0x00, 0x00,
  0x09, 0x00, 0x00, 0x00, 0x43, 0x6f, 0x6e, 0x76, 0x32, 0x44, 0x5f, 0x31,
  0x35, 0x00, 0x00, 0x00, 0x01, 0x00, 0x00, 0x00, 0x01, 0x00, 0x00, 0x00,
  0x54, 0xbc, 0xff, 0xff, 0x62, 0xbd, 0xff, 0xff, 0x04, 0x00, 0x00, 0x00,
  0x88, 0x01, 0x00, 0x00, 0x1b, 0x96, 0xb9, 0xbd, 0x67, 0xeb, 0x01, 0x3d,
  0x54, 0x91, 0x29, 0x3e, 0x1b, 0xa3, 0x91, 0x3d, 0x95, 0xf6, 0x37, 0x3e,
  0xea, 0x96, 0x83, 0xbd, 0xef, 0x66, 0x2d, 0x3e, 0x3f, 0xa2, 0x90, 0x3d,
  0xd6, 0x73, 0x09, 0x3e, 0x0f, 0xa9, 0x3c, 0x3d, 0xee, 0x1c, 0x55, 0xbd,
  0xe0, 0x84, 0xb2, 0x3c, 0x70, 0x22, 0x5c, 0x3d, 0x60, 0xa0, 0x80, 0x3b,
  0x97, 0xc2, 0xf3, 0xbd, 0x32, 0x27, 0xd5, 0xbd, 0xe2, 0x14, 0x8f, 0x3d,
  0x3e, 0xa7, 0xfb, 0x3d, 0x68, 0xbd, 0x97, 0xbe, 0x02, 0x4c, 0x5f, 0x3d,
  0xa9, 0xa3, 0x29, 0xbe, 0x44, 0x41, 0xf1, 0xbd, 0x58, 0xeb, 0x2b, 0x3e,
  0x7c, 0x58, 0x06, 0x3d, 0xc2, 0x90, 0x23, 0x3e, 0x5a, 0xa8, 0x93, 0xbc,
  0x30, 0x39, 0xae, 0xbd, 0xcb, 0xee, 0x0e, 0x3e, 0x78, 0xad, 0x99, 0x3d,
  0x3f, 0x7a, 0x6f, 0xbe, 0x49, 0xbf, 0x16, 0xbd, 0x84, 0x2c, 0x43, 0x3e,
  0x8c, 0x02, 0x3a, 0x3e, 0xce, 0x53, 0x59, 0x3c, 0x3e, 0xc7, 0x4a, 0x3e,
  0x20, 0x12, 0x23, 0x3e, 0x0c, 0xb1, 0x4f, 0xbd, 0x79, 0x6e, 0x0e, 0xbe,
  0x08, 0x93, 0x42, 0x3e, 0x1b, 0x72, 0x22, 0x3e, 0x1d, 0x3b, 0x8d, 0x3d,
  0x4c, 0x25, 0xce, 0x3e, 0xd9, 0x62, 0x0d, 0xbc, 0x7c, 0xa4, 0xf4, 0xbd,
  0x79, 0x1b, 0x1e, 0x3d, 0xb3, 0xfe, 0x70, 0x3d, 0x51, 0x46, 0x0f, 0xbc,
  0xff, 0x3d, 0x46, 0xbd, 0x7b, 0x25, 0x1b, 0xbe, 0x43, 0xe5, 0x28, 0xbe,
  0x40, 0x38, 0x42, 0xbe, 0x29, 0x13, 0x86, 0x3e, 0x61, 0x72, 0x43, 0xbe,
  0x17, 0xd1, 0x45, 0xbe, 0x11, 0xfa, 0x06, 0x3e, 0x88, 0xbe, 0xba, 0x3e,
  0xf8, 0xa9, 0x93, 0x3e, 0x77, 0x04, 0x66, 0x3e, 0xa6, 0x45, 0x30, 0xbe,
  0x23, 0xa7, 0x56, 0xbd, 0x27, 0xe3, 0x9d, 0x3d, 0xd0, 0x16, 0xf6, 0x3d,
  0x83, 0x8a, 0xcf, 0xbc, 0xd5, 0xf4, 0xb2, 0x3d, 0x6e, 0x1d, 0x88, 0x3e,
  0x0c, 0x2e, 0x9d, 0xbe, 0x64, 0xbc, 0xe1, 0xbd, 0xce, 0xed, 0x6e, 0x3e,
  0xd5, 0x8a, 0xd4, 0xbe, 0xe0, 0x41, 0xa1, 0x3d, 0x44, 0xa8, 0x70, 0xbe,
  0x57, 0xfa, 0xa5, 0xbd, 0x08, 0x36, 0x60, 0xbd, 0x09, 0xd9, 0xbf, 0x3c,
  0x11, 0x1a, 0xed, 0x3d, 0x7a, 0xb5, 0x1c, 0xbe, 0xd4, 0x61, 0x7f, 0x3d,
  0x49, 0x01, 0x33, 0x3b, 0x41, 0xc9, 0x13, 0x3d, 0xb5, 0xbd, 0x19, 0x3e,
  0xc0, 0x56, 0xd0, 0xbd, 0xf3, 0xf0, 0x86, 0xbd, 0x5e, 0x42, 0x8e, 0xbd,
  0xb6, 0x9b, 0xbf, 0xbd, 0x02, 0x0f, 0xe2, 0x3d, 0x7b, 0x1e, 0x80, 0x3c,
  0x5c, 0x9c, 0xeb, 0x3d, 0x0d, 0xc0, 0xc2, 0x3c, 0x08, 0x4f, 0x39, 0xbe,
  0xfb, 0xc3, 0xea, 0x3d, 0xd6, 0xf9, 0xb1, 0xbd, 0x44, 0xad, 0x1c, 0xbd,
  0x00, 0x52, 0x27, 0xbd, 0xf4, 0x60, 0x2e, 0xbd, 0xc6, 0xc8, 0xc8, 0x3d,
  0x40, 0xd5, 0xd5, 0xbd, 0xf6, 0x72, 0x3d, 0x3e, 0x96, 0xd0, 0x98, 0x3d,
  0x96, 0xbe, 0xff, 0xff, 0x24, 0x00, 0x00, 0x00, 0x3c, 0x00, 0x00, 0x00,
  0x08, 0x00, 0x00, 0x00, 0x2c, 0x00, 0x00, 0x00, 0x0d, 0x00, 0x00, 0x00,
  0x64, 0x65, 0x70, 0x74, 0x68, 0x77, 0x69, 0x73, 0x65, 0x5f, 0x33, 0x31,
  0x31, 0x00, 0x00, 0x00, 0x04, 0x00, 0x00, 0x00, 0x01, 0x00, 0x00, 0x00,
  0x01, 0x00, 0x00, 0x00, 0x07, 0x00, 0x00, 0x00, 0x0e, 0x00, 0x00, 0x00,
  0x28, 0xbe, 0xff, 0xff, 0x36, 0xbf, 0xff, 0xff, 0x04, 0x00, 0x00, 0x00,
  0x38, 0x00, 0x00, 0x00, 0x00, 0x00, 0x00, 0x00, 0x00, 0x00, 0x00, 0x00,
  0x00, 0x00, 0x00, 0x00, 0x00, 0x00, 0x00, 0x00, 0x00, 0x00, 0x00, 0x00,
  0x00, 0x00, 0x00, 0x00, 0x00, 0x00, 0x00, 0x00, 0x00, 0x00, 0x00, 0x00,
  0x00, 0x00, 0x00, 0x00, 0x00, 0x00, 0x00, 0x00, 0x00, 0x00, 0x00, 0x00,
  0x00, 0x00, 0x00, 0x00, 0x00, 0x00, 0x00, 0x00, 0x00, 0x00, 0x00, 0x00,
  0x1a, 0xbf, 0xff, 0xff, 0x24, 0x00, 0x00, 0x00, 0x3b, 0x00, 0x00, 0x00,
  0x08, 0x00, 0x00, 0x00, 0x20, 0x00, 0x00, 0x00, 0x0c, 0x00, 0x00, 0x00,
  0x64, 0x65, 0x70, 0x74, 0x68, 0x77, 0x69, 0x73, 0x65, 0x5f, 0x33, 0x31,
  0x00, 0x00, 0x00, 0x00, 0x01, 0x00, 0x00, 0x00, 0x0e, 0x00, 0x00, 0x00,
  0xa0, 0xbe, 0xff, 0xff, 0xae, 0xbf, 0xff, 0xff, 0x04, 0x00, 0x00, 0x00,
  0x88, 0x01, 0x00, 0x00, 0x12, 0xef, 0x61, 0xbc, 0xef, 0x4d, 0x45, 0xbe,
  0x16, 0xfd, 0xba, 0xbd, 0x41, 0xc5, 0x2f, 0xbb, 0x4e, 0xa6, 0x9d, 0xbc,
  0x22, 0x23, 0xb5, 0x3c, 0x4b, 0xa8, 0x2e, 0x3c, 0x8a, 0x32, 0x49, 0x3d,
  0x35, 0x47, 0x3b, 0xbd, 0x75, 0x5d, 0x21, 0xbd, 0x49, 0x46, 0xad, 0x3b,
  0xc2, 0xd3, 0xca, 0x3d, 0x59, 0xac, 0x16, 0xbe, 0x5f, 0x9a, 0x2a, 0x3d,
  0xaa, 0x2e, 0x1c, 0x3d, 0x93, 0xf7, 0xf6, 0x3d, 0x0f, 0xb5, 0x0c, 0x3e,
  0xe6, 0x8b, 0x1d, 0xbe, 0x0c, 0x58, 0x08, 0x3d, 0x51, 0x7b, 0xa4, 0xbb,
  0x82, 0xe4, 0x8c, 0xbb, 0xc6, 0x33, 0xbe, 0x3c, 0x09, 0x25, 0x13, 0x3d,
  0x32, 0x09, 0x4e, 0x3d, 0x95, 0xa7, 0xbe, 0x3d, 0xa2, 0x45, 0x5c, 0xbd,
  0xcd, 0xf2, 0x35, 0x3e, 0xac, 0x35, 0x0e, 0xbe, 0xf5, 0x4d, 0xab, 0xbe,
  0x08, 0xea, 0x10, 0x3e, 0x29, 0xd5, 0x89, 0x3b, 0x41, 0xe4, 0x3e, 0x3e,
  0xcb, 0x83, 0x9c, 0xbd, 0x50, 0x7e, 0x19, 0x3c, 0x28, 0x4f, 0xc8, 0xbc,
  0x2e, 0x8a, 0xd9, 0x3d, 0x03, 0xfd, 0x43, 0xbe, 0x83, 0x78, 0x80, 0x3d,
  0x54, 0xa7, 0x50, 0xbe, 0xb3, 0xa7, 0x4b, 0xbe, 0x8a, 0x7c, 0xf8, 0xbd,
  0xa6, 0x58, 0x57, 0x3e, 0x6d, 0x02, 0xee, 0x3d, 0x87, 0xd7, 0x11, 0xbe,
  0xc5, 0x57, 0x97, 0xbc, 0x6d, 0xcf, 0xd2, 0xbd, 0x66, 0x96, 0xec, 0x3d,
  0x38, 0x47, 0xa4, 0x3e, 0xba, 0xe1, 0x80, 0x3e, 0xae, 0xe9, 0x4c, 0x3e,
  0xa6, 0x32, 0x7d, 0x3e, 0xdf, 0x03, 0xe6, 0xbd, 0x2a, 0xcc, 0xca, 0x3e,
  0x3c, 0x96, 0x3f, 0x3e, 0x73, 0xcf, 0xc8, 0xbc, 0xc3, 0xaa, 0x7f, 0xbe,
  0x99, 0x0b, 0xa5, 0x3d, 0x20, 0x73, 0x75, 0x3e, 0x42, 0x0e, 0x37, 0xbe,
  0x65, 0x50, 0x42, 0x3e, 0x47, 0x29, 0x99, 0xbe, 0x2b, 0xb6, 0x37, 0x3e,
  0x90, 0x3b, 0xe6, 0x3d, 0xa4, 0x08, 0x92, 0x3d, 0x1d, 0xb9, 0xab, 0xbd,
  0x16, 0x51, 0xad, 0xbe, 0x3d, 0x5d, 0x3d, 0xbd, 0xa9, 0xdf, 0xad, 0xbc,
  0x16, 0xf0, 0x50, 0x3e, 0xc6, 0xbe, 0x68, 0x3e, 0x65, 0x10, 0x4f, 0xbd,
  0xb7, 0xbe, 0x3c, 0xbd, 0x92, 0x5e, 0x11, 0xbe, 0x30, 0x89, 0xea, 0xbd,
  0xbc, 0xda, 0x24, 0xbe, 0xd6, 0xa1, 0xe7, 0xbd, 0x24, 0xf9, 0x82, 0xbd,
  0xca, 0xce, 0xca, 0xbc, 0x7d, 0xfe, 0x59, 0x3e, 0xee, 0xaa, 0xd3, 0xbd,
  0xf0, 0x8d, 0x21, 0x3d, 0x2b, 0xd1, 0xf3, 0x3e, 0x55, 0xa2, 0x21, 0xbe,
  0x9e, 0x84, 0x1d, 0xbe, 0x10, 0x01, 0x42, 0xbe, 0xa0, 0xa0, 0x47, 0xbe,
  0x74, 0x53, 0x02, 0x3d, 0x61, 0x10, 0x01, 0xbd, 0x61, 0x03, 0x3f, 0xbd,
  0x43, 0x6b, 0x89, 0xbc, 0x49, 0x00, 0xf1, 0x3b, 0x37, 0x5c, 0x0c, 0x3d,
  0x26, 0xde, 0x3b, 0xbe, 0xbf, 0x85, 0x32, 0xbd, 0x4e, 0x09, 0x36, 0xbd,
  0x80, 0xa7, 0x93, 0x3d, 0x45, 0xf7, 0x99, 0xbb, 0xc4, 0xb7, 0x8a, 0x3d,
  0xe2, 0xc0, 0xff, 0xff, 0x24, 0x00, 0x00, 0x00, 0x3a, 0x00, 0x00, 0x00,
  0x08, 0x00, 0x00, 0x00, 0x2c, 0x00, 0x00, 0x00, 0x0c, 0x00, 0x00, 0x00,
  0x64, 0x65, 0x70, 0x74, 0x68, 0x77, 0x69, 0x73, 0x65, 0x5f, 0x33, 0x30,
  0x00, 0x00, 0x00, 0x00, 0x04, 0x00, 0x00, 0x00, 0x01, 0x00, 0x00, 0x00,
  0x07, 0x00, 0x00, 0x00, 0x01, 0x00, 0x00, 0x00, 0x0e, 0x00, 0x00, 0x00,
  0x74, 0xc0, 0xff, 0xff, 0x82, 0xc1, 0xff, 0xff, 0x04, 0x00, 0x00, 0x00,
  0xf8, 0x01, 0x00, 0x00, 0x1a, 0xce, 0x8a, 0xbe, 0x06, 0x8b, 0xad, 0x3e,
  0x7b, 0x81, 0x04, 0x3f, 0x04, 0x6b, 0x08, 0x3f, 0x9f, 0xca, 0xae, 0xbe,
  0xb0, 0x7d, 0xa1, 0xbb, 0x3c, 0xbb, 0x51, 0x3e, 0x58, 0xe4, 0xfd, 0x3d,
  0xf8, 0xc7, 0x0e, 0xbf, 0xde, 0xed, 0x97, 0xbd, 0x46, 0xac, 0x29, 0x3c,
  0x4e, 0xd4, 0x42, 0x3e, 0xb8, 0xa6, 0xe7, 0x3d, 0x25, 0xfd, 0x20, 0x3f,
  0x86, 0x22, 0x0a, 0xbe, 0x71, 0x95, 0x10, 0x3e, 0x66, 0xad, 0xcc, 0xbd,
  0xa4, 0xe1, 0x9f, 0x3d, 0x74, 0x73, 0xa2, 0xbe, 0xc0, 0xc9, 0x48, 0xbe,
  0xbd, 0xd5, 0x17, 0x3e, 0xa1, 0x53, 0xff, 0xbe, 0x9a, 0x0c, 0xfd, 0xbe,
  0x14, 0x22, 0xa2, 0xbd, 0xdc, 0x5e, 0x2e, 0xbe, 0x5f, 0x11, 0x3c, 0x3e,
  0xc9, 0x66, 0x92, 0xbe, 0xd9, 0x40, 0x0b, 0xbf, 0x94, 0x5b, 0x03, 0x3f,
  0x1f, 0x6f, 0x29, 0x3e, 0x8e, 0xe0, 0xec, 0xbe, 0x8e, 0x75, 0xeb, 0xbe,
  0xa9, 0x64, 0x02, 0xbe, 0xdd, 0xb2, 0xb6, 0xbf, 0x95, 0xb6, 0x8f, 0xbe,
  0x07, 0x04, 0x95, 0x3f, 0x56, 0xbb, 0xcd, 0x3e, 0xc2, 0xe9, 0xc7, 0x3a,
  0x92, 0x54, 0x64, 0x3d, 0x44, 0xc6, 0x4d, 0xbf, 0x8d, 0x19, 0x7d, 0xbe,
  0xce, 0x4f, 0x62, 0xbe, 0x9f, 0x52, 0x8f, 0x3d, 0x3e, 0x4a, 0xc4, 0x3e,
  0x57, 0x79, 0xbf, 0xbe, 0x7b, 0xe1, 0xf0, 0xbd, 0xbc, 0x01, 0x4a, 0xbd,
  0xbb, 0x63, 0x47, 0x3e, 0xca, 0x22, 0x0d, 0x3d, 0xc8, 0x2c, 0xb6, 0xbe,
  0x8a, 0x54, 0xba, 0x3e, 0x91, 0x3a, 0x84, 0xbe, 0x6c, 0x60, 0x36, 0xbf,
  0x73, 0x7b, 0xb6, 0xbd, 0xc5, 0x6f, 0x07, 0x3e, 0xef, 0x70, 0xaf, 0x3d,
  0xb6, 0x9f, 0x04, 0xbf, 0xfd, 0x48, 0x51, 0x3e, 0x11, 0x0e, 0xca, 0xbe,
  0xfa, 0xa2, 0x70, 0x3e, 0x9e, 0xe7, 0x6b, 0xbc, 0x3c, 0x33, 0x03, 0xbd,
  0x23, 0xcb, 0x39, 0x3d, 0xc6, 0xe0, 0xe6, 0xbd, 0x59, 0x39, 0x71, 0xbe,
  0xcc, 0x06, 0x66, 0xbf, 0xdd, 0x83, 0x55, 0xbf, 0x32, 0x7d, 0x00, 0xbf,
  0x35, 0x9e, 0xbd, 0xbd, 0x0d, 0xce, 0x9f, 0x3e, 0x55, 0xc7, 0x8e, 0xbe,
  0xcf, 0xe6, 0x82, 0x3d, 0xf3, 0xe4, 0x81, 0x3e, 0x27, 0x13, 0x2a, 0xbf,
  0x93, 0x4c, 0xa7, 0xbe, 0x07, 0x03, 0x12, 0xbe, 0x7a, 0x03, 0x31, 0xbe,
  0xd5, 0x5a, 0x3e, 0xbf, 0x09, 0xfb, 0x0b, 0x3d, 0xee, 0xb1, 0xe3, 0xbe,
  0x44, 0x7c, 0xea, 0x3e, 0x54, 0x36, 0xb3, 0x3e, 0xbf, 0xaa, 0x9b, 0x3e,
  0xbe, 0x9b, 0x8b, 0x3d, 0xf8, 0x9c, 0xb7, 0x3e, 0x9b, 0x50, 0xa3, 0x3e,
  0xd7, 0xd5, 0x5f, 0x3e, 0xeb, 0x6b, 0x34, 0xbf, 0x06, 0x37, 0x01, 0xbe,
  0xd6, 0x3b, 0xde, 0xbc, 0x45, 0xe0, 0x76, 0x3e, 0xde, 0x7a, 0xc9, 0x3e,
  0xa7, 0x35, 0x26, 0xbf, 0xba, 0x12, 0x31, 0x3f, 0x81, 0xf6, 0x02, 0x3e,
  0x84, 0x42, 0x47, 0xbf, 0x9d, 0xa2, 0xf6, 0x3e, 0x43, 0x22, 0xb4, 0xbe,
  0x38, 0x5a, 0x5f, 0x3f, 0x5f, 0x3d, 0x3c, 0x3e, 0xc5, 0x68, 0xba, 0xbd,
  0x8b, 0x53, 0x62, 0x3f, 0x97, 0xa9, 0x09, 0xbf, 0xbc, 0x3c, 0x3d, 0x3e,
  0x63, 0x57, 0x26, 0xbe, 0x46, 0x24, 0x85, 0xbf, 0x49, 0x26, 0x39, 0xbe,
  0x28, 0x2c, 0x93, 0xbe, 0xef, 0x50, 0xc2, 0xbd, 0x37, 0x13, 0x82, 0xbd,
  0xe5, 0x55, 0xd8, 0x3d, 0xa9, 0x80, 0xc8, 0x3e, 0xa0, 0x8c, 0x4a, 0x3e,
  0x7a, 0x09, 0xa0, 0xbf, 0xe5, 0x15, 0x2b, 0x3f, 0x79, 0x98, 0x0f, 0xbf,
  0x6b, 0xe3, 0x9f, 0xbe, 0xc9, 0xf5, 0x3c, 0x3e, 0xf2, 0x1f, 0x64, 0xbf,
  0xb5, 0x57, 0x88, 0x3e, 0x93, 0x62, 0x87, 0xbe, 0xeb, 0x87, 0x91, 0x3d,
  0x52, 0xe5, 0x08, 0xbf, 0x0b, 0xe7, 0xb7, 0x3d, 0x29, 0x3c, 0xa0, 0x3e,
  0x90, 0x07, 0xff, 0x3d, 0x26, 0xc3, 0xff, 0xff, 0x20, 0x00, 0x00, 0x00,
  0x39, 0x00, 0x00, 0x00, 0x08, 0x00, 0x00, 0x00, 0x28, 0x00, 0x00, 0x00,
  0x09, 0x00, 0x00, 0x00, 0x43, 0x6f, 0x6e, 0x76, 0x32, 0x44, 0x5f, 0x31,
  0x34, 0x00, 0x00, 0x00, 0x04, 0x00, 0x00, 0x00, 0x0e, 0x00, 0x00, 0x00,
  0x01, 0x00, 0x00, 0x00, 0x01, 0x00, 0x00, 0x00, 0x09, 0x00, 0x00, 0x00,
  0xb4, 0xc2, 0xff, 0xff, 0xc2, 0xc3, 0xff, 0xff, 0x04, 0x00, 0x00, 0x00,
  0xb4, 0x00, 0x00, 0x00, 0xa2, 0x18, 0x5a, 0xbc, 0xc0, 0x0a, 0x46, 0xbd,
  0xbe, 0x2a, 0x16, 0xbe, 0x0d, 0x0f, 0xb8, 0x3d, 0x8e, 0x27, 0xc7, 0x3c,
  0xda, 0x02, 0xfe, 0xbc, 0x2d, 0xd2, 0xb0, 0x3c, 0x29, 0x76, 0x10, 0x3e,
  0x32, 0x4d, 0x00, 0xbe, 0x68, 0x43, 0x24, 0x3e, 0x41, 0xc0, 0xa9, 0x3d,
  0x37, 0xc2, 0x3d, 0x3e, 0xfa, 0x55, 0xb1, 0xbd, 0x23, 0xa2, 0x26, 0x3e,
  0x02, 0x68, 0xa0, 0xbd, 0x0e, 0x83, 0x2e, 0x3e, 0xbd, 0x50, 0x48, 0xbe,
  0x92, 0x36, 0x80, 0x3e, 0x55, 0xf3, 0x78, 0xbe, 0xfa, 0xa4, 0x0c, 0x3f,
  0x34, 0xb1, 0x86, 0x3e, 0x1c, 0x55, 0x51, 0xbd, 0xf7, 0xd3, 0x7d, 0xbe,
  0xae, 0x96, 0x95, 0x3d, 0x38, 0x41, 0xbb, 0xbe, 0x53, 0x51, 0x9a, 0x3d,
  0xf1, 0xaa, 0x88, 0xbe, 0x68, 0xd0, 0xa8, 0xbd, 0x82, 0x82, 0x49, 0xbe,
  0xcf, 0xd1, 0xd5, 0xbd, 0x60, 0xd6, 0xc8, 0x3e, 0x74, 0x2b, 0xe5, 0xbe,
  0xe2, 0xdb, 0xc0, 0xbe, 0x7d, 0xcc, 0x59, 0x3e, 0x01, 0xb8, 0x7e, 0xbd,
  0x1d, 0x18, 0x2c, 0x3e, 0xf3, 0x4f, 0xa0, 0x3e, 0x18, 0x39, 0x92, 0x3d,
  0xbe, 0xc8, 0x3e, 0xbd, 0xe0, 0x02, 0x51, 0xbe, 0x48, 0x04, 0x16, 0x3c,
  0x89, 0x0d, 0xe0, 0x3d, 0x59, 0xcf, 0x5f, 0x3a, 0xb6, 0x4e, 0x3b, 0xbe,
  0xc2, 0x55, 0x04, 0xbe, 0x22, 0xc4, 0xff, 0xff, 0x24, 0x00, 0x00, 0x00,
  0x38, 0x00, 0x00, 0x00, 0x08, 0x00, 0x00, 0x00, 0x2c, 0x00, 0x00, 0x00,
  0x0d, 0x00, 0x00, 0x00, 0x64, 0x65, 0x70, 0x74, 0x68, 0x77, 0x69, 0x73,
  0x65, 0x5f, 0x32, 0x39, 0x31, 0x00, 0x00, 0x00, 0x04, 0x00, 0x00, 0x00,
  0x01, 0x00, 0x00, 0x00, 0x01, 0x00, 0x00, 0x00, 0x05, 0x00, 0x00, 0x00,
  0x09, 0x00, 0x00, 0x00, 0xb4, 0xc3, 0xff, 0xff, 0xc2, 0xc4, 0xff, 0xff,
  0x04, 0x00, 0x00, 0x00, 0x24, 0x00, 0x00, 0x00, 0x00, 0x00, 0x00, 0x00,
  0x00, 0x00, 0x00, 0x00, 0x00, 0x00, 0x00, 0x00, 0x00, 0x00, 0x00, 0x00,
  0x00, 0x00, 0x00, 0x00, 0x00, 0x00, 0x00, 0x00, 0x00, 0x00, 0x00, 0x00,
  0x00, 0x00, 0x00, 0x00, 0x00, 0x00, 0x00, 0x00, 0x92, 0xc4, 0xff, 0xff,
  0x24, 0x00, 0x00, 0x00, 0x37, 0x00, 0x00, 0x00, 0x08, 0x00, 0x00, 0x00,
  0x20, 0x00, 0x00, 0x00, 0x0c, 0x00, 0x00, 0x00, 0x64, 0x65, 0x70, 0x74,
  0x68, 0x77, 0x69, 0x73, 0x65, 0x5f, 0x32, 0x39, 0x00, 0x00, 0x00, 0x00,
  0x01, 0x00, 0x00, 0x00, 0x09, 0x00, 0x00, 0x00, 0x18, 0xc4, 0xff, 0xff,
  0x26, 0xc5, 0xff, 0xff, 0x04, 0x00, 0x00, 0x00, 0xb4, 0x00, 0x00, 0x00,
  0xba, 0x59, 0x0c, 0xbe, 0x08, 0x5e, 0x9d, 0x3e, 0x4c, 0x63, 0xa2, 0xbd,
  0xff, 0x7f, 0xdd, 0x3d, 0x84, 0x91, 0x41, 0x3e, 0x5c, 0x7f, 0x8d, 0xbd,
  0x4e, 0xfc, 0x57, 0x3d, 0xcb, 0xc2, 0x42, 0x3e, 0xf5, 0xea, 0xd9, 0x3e,
  0x37, 0x0a, 0x84, 0xbe, 0x50, 0x3e, 0xaf, 0x3c, 0x69, 0xe2, 0x0f, 0x3e,
  0x77, 0xc3, 0x9b, 0xbd, 0x36, 0xe5, 0xa9, 0xbe, 0x3a, 0xc0, 0x46, 0x3d,
  0x6b, 0x28, 0x20, 0x3c, 0x51, 0xc5, 0x6f, 0xbe, 0xaa, 0xaa, 0xed, 0x3d,
  0xf5, 0x82, 0x3d, 0x3e, 0xaf, 0x54, 0xc5, 0xbe, 0xce, 0xd7, 0x4d, 0xbe,
  0x23, 0x4a, 0xd1, 0xbe, 0xef, 0x67, 0x52, 0x3e, 0x14, 0xef, 0x2c, 0x3e,
  0x2a, 0x2d, 0x2c, 0x3e, 0x1b, 0x54, 0x5f, 0xbe, 0x3d, 0xf0, 0xd8, 0xbc,
  0xab, 0x45, 0x9e, 0xbd, 0x0f, 0x1f, 0x5e, 0x3d, 0x4d, 0x04, 0x84, 0x3e,
  0x7e, 0x29, 0xff, 0x3e, 0x57, 0xc1, 0x87, 0xbe, 0xb7, 0xf4, 0xb5, 0x3e,
  0x34, 0xed, 0x61, 0xbe, 0xdd, 0x3f, 0x90, 0xbd, 0x21, 0x2c, 0xc7, 0x3e,
  0xd7, 0x1a, 0x93, 0x3e, 0x0f, 0x80, 0xf6, 0x3d, 0xc9, 0x9f, 0x63, 0xbe,
  0x8c, 0x08, 0x59, 0xbd, 0xd8, 0x06, 0x9f, 0x3e, 0x95, 0x4f, 0x64, 0x3e,
  0x09, 0xa8, 0x41, 0x3d, 0x87, 0x0b, 0xd4, 0x3d, 0x22, 0xf5, 0x2d, 0x3d,
  0x86, 0xc5, 0xff, 0xff, 0x24, 0x00, 0x00, 0x00, 0x36, 0x00, 0x00, 0x00,
  0x08, 0x00, 0x00, 0x00, 0x2c, 0x00, 0x00, 0x00, 0x0c, 0x00, 0x00, 0x00,
  0x64, 0x65, 0x70, 0x74, 0x68, 0x77, 0x69, 0x73, 0x65, 0x5f, 0x32, 0x38,
  0x00, 0x00, 0x00, 0x00, 0x04, 0x00, 0x00, 0x00, 0x01, 0x00, 0x00, 0x00,
  0x05, 0x00, 0x00, 0x00, 0x01, 0x00, 0x00, 0x00, 0x09, 0x00, 0x00, 0x00,
  0x18, 0xc5, 0xff, 0xff, 0x26, 0xc6, 0xff, 0xff, 0x04, 0x00, 0x00, 0x00,
  0x28, 0x04, 0x00, 0x00, 0xd3, 0x22, 0xac, 0xbd, 0xa0, 0xb9, 0x02, 0x3f,
  0x0c, 0x21, 0x1e, 0xbf, 0x2d, 0xb9, 0x0c, 0x3e, 0x8e, 0xca, 0xd3, 0xbe,
  0x1b, 0x2e, 0x4b, 0xbd, 0xb0, 0x4e, 0x90, 0x3e, 0x52, 0xe6, 0xc0, 0x3e,
  0x6e, 0x2c, 0xe7, 0xbe, 0xe0, 0x4e, 0xa2, 0x3c, 0xe1, 0x08, 0xc8, 0x3d,
  0xd3, 0xd3, 0x3d, 0x3e, 0x22, 0xc1, 0xac, 0x3e, 0x42, 0x4a, 0x37, 0x3f,
  0xe2, 0xd0, 0x43, 0x3e, 0xda, 0x61, 0x21, 0xbe, 0x1d, 0xf3, 0xe6, 0x3d,
  0x42, 0x95, 0x52, 0xbe, 0x5c, 0x12, 0xf4, 0xbd, 0x60, 0xf5, 0x48, 0x3d,
  0x6d, 0x1e, 0x0b, 0xbd, 0x7d, 0x2c, 0xb9, 0x3d, 0x47, 0x6d, 0xa5, 0xbb,
  0x76, 0xdc, 0xad, 0xbd, 0x01, 0x9a, 0x14, 0x3b, 0x9c, 0x70, 0x18, 0x3e,
  0xeb, 0x70, 0x31, 0xbe, 0x8c, 0x93, 0xb5, 0xbd, 0x3f, 0x92, 0x5b, 0xba,
  0x87, 0xf4, 0x11, 0xbe, 0xd0, 0xca, 0x02, 0xbc, 0x20, 0xff, 0xdf, 0xbd,
  0x69, 0x6c, 0xb8, 0x3e, 0x62, 0xf8, 0xfe, 0xbc, 0xbe, 0x24, 0x3e, 0x3d,
  0x23, 0xc1, 0x1b, 0xbb, 0xb3, 0x99, 0x82, 0xbd, 0xd9, 0xb7, 0x86, 0xbd,
  0x71, 0xe9, 0x29, 0x3e, 0x0d, 0xd6, 0x2c, 0xbd, 0xb6, 0x17, 0x9c, 0x3e,
  0x54, 0xe7, 0xb4, 0x3e, 0xbf, 0x33, 0x33, 0x3f, 0x18, 0x52, 0xd1, 0x3c,
  0xc9, 0x95, 0x9d, 0xbd, 0xa4, 0x65, 0x62, 0x3d, 0x76, 0x69, 0x00, 0x3e,
  0x8b, 0x05, 0xe3, 0x3e, 0x79, 0x9a, 0x97, 0x3f, 0xaa, 0x38, 0x63, 0xbe,
  0xdd, 0x8d, 0xac, 0x3e, 0x46, 0x9c, 0xb5, 0x3e, 0xec, 0xd3, 0x03, 0x3f,
  0x95, 0x48, 0xec, 0x3d, 0xe9, 0xee, 0x70, 0xbf, 0x1a, 0x8e, 0x69, 0x3e,
  0x2a, 0xe0, 0x17, 0x3d, 0x10, 0x38, 0x4c, 0x3e, 0xb0, 0xc4, 0x0e, 0xbf,
  0xa6, 0x1a, 0x89, 0x3f, 0x95, 0x4d, 0x32, 0xbd, 0x19, 0x09, 0x00, 0xbf,
  0x14, 0x64, 0xb7, 0x3e, 0x8d, 0xdf, 0xea, 0x3f, 0x7f, 0xe4, 0x6a, 0x3e,
  0x36, 0xa9, 0x7d, 0xbe, 0x97, 0x82, 0x4b, 0x3c, 0x84, 0x8a, 0x84, 0xbe,
  0x1f, 0x38, 0xf7, 0xbe, 0x28, 0x76, 0x34, 0xbb, 0x5b, 0xed, 0x13, 0xbf,
  0x96, 0x43, 0x80, 0x3e, 0x80, 0xbb, 0xa2, 0xbc, 0xee, 0x69, 0x69, 0x3e,
  0xab, 0xf9, 0x9f, 0x3e, 0xcc, 0x16, 0x4d, 0xbd, 0x21, 0x79, 0x93, 0xbe,
  0x86, 0x0a, 0x2e, 0xbd, 0x50, 0x08, 0xb7, 0x3e, 0xdd, 0x86, 0x3f, 0x3e,
  0x9b, 0x2f, 0x26, 0xbf, 0xec, 0xf0, 0x6f, 0xbf, 0xee, 0xe3, 0x61, 0x3f,
  0xa4, 0xce, 0x8e, 0x3e, 0xe9, 0x48, 0x69, 0xbe, 0xf8, 0xab, 0x81, 0xbf,
  0x39, 0x6b, 0x6a, 0x3e, 0x5f, 0x65, 0x53, 0xbe, 0x63, 0x92, 0xcf, 0x3e,
  0x07, 0x6e, 0x0b, 0xbf, 0x67, 0x9b, 0xb5, 0x3e, 0x97, 0xb1, 0xe3, 0xbd,
  0x3e, 0xa2, 0xc9, 0x3e, 0xfb, 0xe7, 0xed, 0xbd, 0xa4, 0xda, 0x98, 0xbc,
  0xc8, 0x28, 0x5c, 0x3d, 0xcd, 0xc8, 0x14, 0x3f, 0x39, 0x6c, 0x1e, 0x3f,
  0xc0, 0x51, 0xf6, 0xbd, 0x94, 0x7a, 0x7a, 0x3c, 0x20, 0xa5, 0x7a, 0x3d,
  0xeb, 0xb5, 0x72, 0x3e, 0x96, 0x18, 0x3f, 0xbf, 0x06, 0x12, 0xa9, 0x3e,
  0xef, 0xb5, 0x21, 0x3e, 0xdc, 0x88, 0x61, 0xbf, 0x58, 0x0a, 0xd2, 0xbe,
  0x51, 0x16, 0x50, 0xbf, 0xef, 0x99, 0x28, 0x3f, 0x55, 0x59, 0x94, 0xbf,
  0xd1, 0x07, 0xbc, 0x3e, 0x1c, 0x77, 0x0b, 0xbe, 0x85, 0x08, 0x55, 0x3d,
  0x59, 0x9e, 0x40, 0x3f, 0x95, 0x60, 0x32, 0xbf, 0xca, 0xea, 0x86, 0x3f,
  0x8d, 0xfe, 0x51, 0x3f, 0xe1, 0x21, 0x55, 0x3e, 0xa5, 0xa4, 0x4e, 0xbe,
  0xfb, 0x30, 0x60, 0x3e, 0x00, 0xf0, 0xc9, 0x3e, 0x3b, 0xcb, 0x14, 0x3f,
  0x87, 0x6f, 0x16, 0x3f, 0x43, 0x05, 0x32, 0xbf, 0x21, 0x51, 0x55, 0x3f,
  0x09, 0x89, 0x54, 0xbf, 0x3f, 0x6c, 0x49, 0xbe, 0x64, 0xa2, 0x17, 0xbf,
  0x8a, 0xb8, 0xa2, 0x3e, 0x2a, 0x66, 0x26, 0x3e, 0x1e, 0xbc, 0x5e, 0x3f,
  0xed, 0x67, 0x28, 0xbe, 0xda, 0x00, 0x11, 0x3f, 0x12, 0x2d, 0x1f, 0xbf,
  0x38, 0x60, 0x3f, 0xc0, 0x11, 0x92, 0x0c, 0xbf, 0x45, 0xaa, 0xb9, 0xbe,
  0x20, 0x00, 0xda, 0x3d, 0x66, 0x88, 0xfe, 0xbd, 0xa8, 0xfe, 0x2e, 0xbe,
  0x72, 0x97, 0xce, 0x3e, 0x3e, 0xc1, 0xbf, 0x3e, 0xd3, 0x37, 0xb0, 0x3e,
  0x1b, 0x00, 0x01, 0xbf, 0xef, 0x38, 0xdc, 0x3d, 0xc5, 0x9c, 0xfc, 0xbd,
  0x35, 0x6f, 0x8e, 0x3f, 0xfa, 0x79, 0x5b, 0xbe, 0xaa, 0x74, 0x60, 0xbe,
  0xab, 0xc6, 0x0f, 0x3f, 0xcc, 0x81, 0xb3, 0xbe, 0x6e, 0x37, 0xc9, 0x3c,
  0xe8, 0xba, 0x21, 0x3e, 0xde, 0x05, 0x1b, 0x3f, 0x5f, 0x80, 0x1e, 0xbf,
  0xef, 0x20, 0xd7, 0x3c, 0xfc, 0x20, 0x3f, 0x3e, 0xb6, 0x2a, 0xbf, 0x3d,
  0x5f, 0x76, 0xf0, 0xbd, 0xf3, 0xf7, 0x95, 0x3e, 0x22, 0x62, 0xef, 0x3e,
  0xed, 0x4d, 0x74, 0x3e, 0x49, 0xe5, 0x2e, 0x3e, 0x09, 0xdc, 0xf1, 0x3c,
  0xcc, 0xab, 0xb6, 0xbe, 0xa0, 0x0a, 0x3d, 0x3f, 0x5b, 0xb2, 0x3f, 0xbe,
  0xc8, 0xdb, 0x92, 0x3e, 0xc4, 0xfb, 0x71, 0xbe, 0xb8, 0x11, 0x00, 0xbe,
  0x3a, 0x87, 0x27, 0x3f, 0x05, 0x88, 0x4a, 0x3e, 0x5a, 0xff, 0x17, 0x3f,
  0x5a, 0x8a, 0x40, 0x3e, 0x2c, 0x94, 0x19, 0x3f, 0x31, 0xc9, 0x49, 0xbf,
  0xb6, 0x89, 0x1f, 0x3e, 0x4b, 0x84, 0x20, 0x3f, 0xbf, 0xf4, 0xe0, 0xbe,
  0x4c, 0x97, 0xda, 0x3d, 0x3f, 0x0e, 0xbe, 0x3e, 0x08, 0xbf, 0x8b, 0xbf,
  0xe3, 0x1a, 0x07, 0x3e, 0x97, 0xe3, 0x2c, 0x3f, 0xe1, 0x59, 0x68, 0xbf,
  0xf6, 0x1f, 0x8b, 0xbe, 0xb1, 0x90, 0xc7, 0xbe, 0x42, 0xb2, 0x5b, 0x3f,
  0xa2, 0x7b, 0x06, 0xbe, 0xc8, 0x12, 0x15, 0xbf, 0x93, 0x9b, 0x4f, 0x3f,
  0x13, 0xa7, 0x51, 0xbf, 0x96, 0xc8, 0x21, 0xbe, 0x85, 0xf0, 0xf4, 0x3d,
  0xa6, 0x8a, 0x1c, 0xbf, 0xca, 0x9a, 0xa1, 0xbe, 0x1c, 0x7d, 0xfe, 0x3d,
  0xbe, 0xde, 0xae, 0xbe, 0x70, 0x26, 0x75, 0x3b, 0x74, 0x5e, 0x16, 0x3d,
  0x10, 0xe5, 0x73, 0xbe, 0xfb, 0x77, 0xf8, 0xbe, 0xd7, 0x75, 0x16, 0xbf,
  0xde, 0xf4, 0xe5, 0x3e, 0x7b, 0x6c, 0x2a, 0xbf, 0xa8, 0x46, 0x50, 0xbe,
  0xcb, 0x31, 0x81, 0xbf, 0x40, 0x0d, 0x03, 0x3e, 0x0d, 0xfd, 0x80, 0x3e,
  0xd0, 0x97, 0xd6, 0xbe, 0x14, 0x40, 0x61, 0x3e, 0x5f, 0x1e, 0xc9, 0xbd,
  0xd3, 0x7f, 0x54, 0xbd, 0x2d, 0xa9, 0xaf, 0x3e, 0xbd, 0x36, 0xcb, 0xbe,
  0x3a, 0x9c, 0x21, 0xbe, 0xac, 0x8c, 0x9d, 0xbe, 0x24, 0xbf, 0xdd, 0xbe,
  0x2b, 0x0b, 0xcb, 0x3e, 0xa4, 0x88, 0xeb, 0x3e, 0x10, 0x0f, 0x6c, 0x3e,
  0xa4, 0x26, 0xac, 0xbe, 0x6d, 0xa9, 0xb3, 0x3e, 0x1d, 0x16, 0xf8, 0x3e,
  0xdc, 0xdf, 0x2e, 0xbe, 0x8b, 0x4c, 0x36, 0xbf, 0xed, 0x8d, 0x6d, 0xbf,
  0x8e, 0x50, 0x03, 0x3f, 0x2a, 0xc5, 0x1c, 0xbe, 0x28, 0x1c, 0xbe, 0xbe,
  0x5a, 0x00, 0x0c, 0xbc, 0x7d, 0xf0, 0x23, 0xbf, 0xae, 0xfc, 0x0f, 0xbf,
  0x33, 0x0f, 0x5b, 0xbe, 0x91, 0xb4, 0x96, 0x3b, 0xe8, 0xc0, 0xb9, 0xbe,
  0xdc, 0x1d, 0x2a, 0x3e, 0x71, 0xec, 0xd3, 0x3b, 0x38, 0xf5, 0xb7, 0xbe,
  0xf4, 0x06, 0x3c, 0x3d, 0x0e, 0x39, 0x11, 0xbf, 0xd9, 0x67, 0x45, 0x3e,
  0x5b, 0x32, 0x02, 0xbf, 0x0b, 0x4f, 0x8b, 0x3f, 0x9f, 0xea, 0x06, 0x3f,
  0x56, 0x5d, 0x6c, 0x3f, 0x11, 0x04, 0x23, 0x3d, 0x57, 0x4b, 0xb1, 0x3e,
  0xf3, 0xbd, 0x32, 0xbf, 0x44, 0xb9, 0x86, 0x3e, 0x0e, 0x22, 0x00, 0xbe,
  0xf7, 0x8b, 0x93, 0x3f, 0x3a, 0x02, 0xca, 0x3d, 0xf0, 0xb2, 0x16, 0xbf,
  0xb2, 0x8f, 0x90, 0x3d, 0xe8, 0x7a, 0x97, 0xbd, 0xb5, 0xf1, 0xea, 0xbd,
  0x75, 0x7e, 0x97, 0x3e, 0x95, 0xcd, 0xdf, 0x3d, 0xea, 0x56, 0x89, 0x3d,
  0xff, 0xf8, 0x34, 0xbd, 0x0b, 0x2c, 0x5c, 0x3d, 0xa8, 0xfe, 0xf8, 0x3d,
  0xef, 0xd5, 0x99, 0xbc, 0x4f, 0xce, 0x20, 0x3f, 0x10, 0x61, 0x9c, 0xbe,
  0xfa, 0xc9, 0xff, 0xff, 0x20, 0x00, 0x00, 0x00, 0x35, 0x00, 0x00, 0x00,
  0x08, 0x00, 0x00, 0x00, 0x28, 0x00, 0x00, 0x00, 0x09, 0x00, 0x00, 0x00,
  0x43, 0x6f, 0x6e, 0x76, 0x32, 0x44, 0x5f, 0x31, 0x33, 0x00, 0x00, 0x00,
  0x04, 0x00, 0x00, 0x00, 0x0e, 0x00, 0x00, 0x00, 0x01, 0x00, 0x00, 0x00,
  0x01, 0x00, 0x00, 0x00, 0x13, 0x00, 0x00, 0x00, 0x88, 0xc9, 0xff, 0xff,
  0x96, 0xca, 0xff, 0xff, 0x04, 0x00, 0x00, 0x00, 0x7c, 0x01, 0x00, 0x00,
  0xd0, 0x6a, 0x2b, 0x3e, 0x73, 0x83, 0x1d, 0x3d, 0xa5, 0xa9, 0xb6, 0xbd,
  0x30, 0x3a, 0x24, 0x3e, 0x17, 0xc6, 0x93, 0xbd, 0xac, 0xf5, 0xe2, 0x3d,
  0xa0, 0x6e, 0x03, 0x3e, 0xbd, 0x98, 0x91, 0x3e, 0x1c, 0xae, 0x8c, 0x3e,
  0x7f, 0xfc, 0x15, 0x3e, 0x00, 0x75, 0x5e, 0xbe, 0x95, 0xe8, 0x4f, 0xbd,
  0x33, 0xbf, 0x75, 0x3e, 0x8e, 0x45, 0x62, 0x3e, 0xf9, 0x50, 0x9e, 0x3e,
  0x25, 0x9c, 0x3b, 0xbe, 0xec, 0x61, 0xcb, 0x3e, 0x2d, 0x50, 0xaa, 0x3d,
  0xc9, 0xbf, 0x4b, 0xbe, 0xfe, 0x73, 0xb5, 0xb8, 0xfc, 0x9c, 0x77, 0xbc,
  0xf8, 0x1d, 0x82, 0xbd, 0x18, 0x68, 0x5e, 0x3e, 0x1e, 0xa8, 0xaa, 0x3d,
  0xf7, 0xa8, 0xcc, 0x3d, 0x66, 0x3e, 0x16, 0xbe, 0x59, 0xc7, 0x9a, 0xbd,
  0xd2, 0xd5, 0x79, 0xbe, 0xb9, 0x82, 0xdd, 0xbd, 0x6c, 0x03, 0x28, 0xbe,
  0x0f, 0x88, 0x13, 0x3e, 0x0a, 0xff, 0x48, 0xbe, 0x02, 0x5c, 0x15, 0xbe,
  0x43, 0x0d, 0xdb, 0xbe, 0xab, 0x64, 0x04, 0xbf, 0xb0, 0x32, 0xfd, 0xbe,
  0x19, 0x82, 0xb0, 0xbe, 0x13, 0x78, 0xcb, 0x3e, 0x63, 0x0a, 0x7e, 0xbe,
  0xaf, 0x81, 0x28, 0x3e, 0x16, 0x10, 0x95, 0x3e, 0xb1, 0x7f, 0xba, 0xbe,
  0x4b, 0x37, 0x3c, 0xbe, 0x9d, 0xd8, 0x8e, 0xbe, 0xeb, 0xc3, 0xa5, 0x3e,
  0x9e, 0x7b, 0x33, 0xbe, 0xb2, 0x6f, 0xc5, 0xbb, 0xfb, 0xd3, 0x45, 0xbe,
  0xcf, 0x6d, 0x0f, 0x3f, 0x54, 0x48, 0xec, 0x3b, 0xc5, 0x6f, 0x70, 0x3d,
  0x87, 0xf2, 0x85, 0x3e, 0xef, 0x68, 0xb6, 0x3e, 0x79, 0x4f, 0xc2, 0xbd,
  0x86, 0xf2, 0x9c, 0x3e, 0xac, 0xc5, 0x21, 0x3e, 0x1a, 0x9c, 0xa3, 0xbd,
  0x5b, 0xa2, 0xaf, 0x3e, 0x6b, 0x14, 0x8d, 0x3e, 0x2b, 0x9a, 0xd3, 0xbe,
  0xda, 0xbe, 0x69, 0x3d, 0x61, 0x55, 0xbd, 0x3e, 0x78, 0xf0, 0x9a, 0x3e,
  0x36, 0x78, 0xc3, 0xbe, 0x53, 0x7a, 0x3f, 0x3e, 0x01, 0xf3, 0x8a, 0x3d,
  0x0c, 0x88, 0x1d, 0x3e, 0x32, 0x65, 0xd5, 0xbe, 0xd4, 0xe4, 0x83, 0xbe,
  0x35, 0x6d, 0xbf, 0x3d, 0x44, 0x92, 0xe0, 0x3c, 0xad, 0x7d, 0x3e, 0xbe,
  0xc5, 0xa4, 0x6e, 0xbe, 0x86, 0xf2, 0x97, 0xbd, 0x3f, 0x1a, 0x1a, 0xbe,
  0xd5, 0x54, 0xb6, 0xbc, 0x6a, 0x17, 0x98, 0xbe, 0xe1, 0x11, 0x69, 0x3e,
  0x4d, 0xa8, 0x97, 0x3e, 0x70, 0xa8, 0xac, 0x3c, 0xa9, 0x99, 0x0f, 0xbe,
  0x19, 0x43, 0x13, 0xbe, 0x62, 0xd6, 0xd9, 0x3d, 0xbb, 0xfd, 0xb3, 0xbe,
  0x18, 0x4f, 0x02, 0x3e, 0xbb, 0x98, 0x5d, 0xbe, 0xa9, 0xed, 0xdd, 0x3d,
  0x57, 0xbb, 0xe0, 0x3d, 0xd3, 0x36, 0x4f, 0xbe, 0x9d, 0x9c, 0x3e, 0x3d,
  0x00, 0x93, 0x34, 0xbe, 0xb9, 0xc2, 0x81, 0x3c, 0x7d, 0x88, 0x83, 0xbe,
  0x37, 0xff, 0x4d, 0xbe, 0x7d, 0xb1, 0xfb, 0x3d, 0xbe, 0xcb, 0xff, 0xff,
  0x24, 0x00, 0x00, 0x00, 0x34, 0x00, 0x00, 0x00, 0x08, 0x00, 0x00, 0x00,
  0x2c, 0x00, 0x00, 0x00, 0x0d, 0x00, 0x00, 0x00, 0x64, 0x65, 0x70, 0x74,
  0x68, 0x77, 0x69, 0x73, 0x65, 0x5f, 0x32, 0x37, 0x31, 0x00, 0x00, 0x00,
  0x04, 0x00, 0x00, 0x00, 0x01, 0x00, 0x00, 0x00, 0x01, 0x00, 0x00, 0x00,
  0x05, 0x00, 0x00, 0x00, 0x13, 0x00, 0x00, 0x00, 0x50, 0xcb, 0xff, 0xff,
  0x5e, 0xcc, 0xff, 0xff, 0x04, 0x00, 0x00, 0x00, 0x4c, 0x00, 0x00, 0x00,
  0x00, 0x00, 0x00, 0x00, 0x00, 0x00, 0x00, 0x00, 0x00, 0x00, 0x00, 0x00,
  0x00, 0x00, 0x00, 0x00, 0x00, 0x00, 0x00, 0x00, 0x00, 0x00, 0x00, 0x00,
  0x00, 0x00, 0x00, 0x00, 0x00, 0x00, 0x00, 0x00, 0x00, 0x00, 0x00, 0x00,
  0x00, 0x00, 0x00, 0x00, 0x00, 0x00, 0x00, 0x00, 0x00, 0x00, 0x00, 0x00,
  0x00, 0x00, 0x00, 0x00, 0x00, 0x00, 0x00, 0x00, 0x00, 0x00, 0x00, 0x00,
  0x00, 0x00, 0x00, 0x00, 0x00, 0x00, 0x00, 0x00, 0x00, 0x00, 0x00, 0x00,
  0x00, 0x00, 0x00, 0x00, 0x56, 0xcc, 0xff, 0xff, 0x24, 0x00, 0x00, 0x00,
  0x33, 0x00, 0x00, 0x00, 0x08, 0x00, 0x00, 0x00, 0x20, 0x00, 0x00, 0x00,
  0x0c, 0x00, 0x00, 0x00, 0x64, 0x65, 0x70, 0x74, 0x68, 0x77, 0x69, 0x73,
  0x65, 0x5f, 0x32, 0x37, 0x00, 0x00, 0x00, 0x00, 0x01, 0x00, 0x00, 0x00,
  0x13, 0x00, 0x00, 0x00, 0xdc, 0xcb, 0xff, 0xff, 0xea, 0xcc, 0xff, 0xff,
  0x04, 0x00, 0x00, 0x00, 0x7c, 0x01, 0x00, 0x00, 0xae, 0xe1, 0x3f, 0xbd,
  0xdd, 0x1f, 0x07, 0x3e, 0xb1, 0x09, 0xa5, 0xbc, 0xe8, 0x1c, 0x6a, 0x3c,
  0x8d, 0x5d, 0x2d, 0xbd, 0x81, 0x3e, 0x82, 0x3e, 0x0c, 0xcc, 0x3b, 0xbd,
  0xdf, 0xac, 0x6d, 0x3c, 0x84, 0x6e, 0x7d, 0x3b, 0x4d, 0x81, 0x87, 0xbd,
  0x48, 0xf1, 0x35, 0x3d, 0x2e, 0x4b, 0xae, 0xbc, 0x80, 0x51, 0x8f, 0x3c,
  0xe6, 0xaf, 0x27, 0xbe, 0x5f, 0xfc, 0x08, 0x3c, 0x46, 0x06, 0xf3, 0xbe,
  0xe0, 0x40, 0xa8, 0xbc, 0x61, 0xa6, 0xff, 0x3d, 0xb6, 0x0e, 0x8e, 0xbd,
  0x50, 0x14, 0xa7, 0x3d, 0x6c, 0xce, 0xfc, 0xbd, 0x4f, 0xc3, 0x42, 0x3a,
  0xb3, 0x12, 0xaa, 0xbd, 0xc4, 0x0a, 0xc7, 0x3e, 0x3f, 0xdd, 0x13, 0x3f,
  0x13, 0x91, 0xfb, 0xbd, 0x5d, 0xfe, 0x4e, 0xbe, 0x40, 0xc7, 0x15, 0xbe,
  0x1c, 0x45, 0xf3, 0x3d, 0xc5, 0x51, 0x8b, 0xbd, 0x81, 0xeb, 0x3b, 0x3d,
  0x4e, 0x88, 0xe3, 0xbd, 0x79, 0x40, 0x2f, 0xbe, 0x3f, 0x71, 0x23, 0x3e,
  0x2e, 0xf4, 0x8e, 0xbc, 0xda, 0x96, 0xc0, 0xbd, 0x71, 0xa4, 0x80, 0xbe,
  0x7c, 0x3a, 0x15, 0x3e, 0x08, 0xf3, 0xfd, 0xbe, 0xd5, 0x24, 0x95, 0xbe,
  0x21, 0xe9, 0x79, 0xbd, 0x8f, 0xc2, 0xbf, 0x3e, 0x1c, 0xae, 0x76, 0x3e,
  0x20, 0x1e, 0x47, 0x3e, 0xc4, 0x29, 0xd1, 0xbe, 0x8a, 0xc1, 0xd6, 0x3e,
  0x4d, 0x8d, 0x31, 0x3e, 0x24, 0x54, 0xad, 0x3e, 0x1f, 0xb5, 0xc9, 0x3e,
  0x9e, 0x05, 0xf9, 0x3d, 0x91, 0xa9, 0x91, 0x3e, 0x21, 0xbd, 0x5a, 0xbe,
  0x1e, 0x78, 0x0c, 0x3f, 0x6f, 0x00, 0x91, 0xbe, 0x19, 0x4a, 0xb4, 0xbe,
  0xf1, 0x3b, 0xa7, 0xbe, 0x77, 0xc1, 0xfc, 0xbe, 0xfd, 0xfb, 0xd8, 0xbe,
  0x27, 0x4c, 0x8d, 0x3e, 0xd4, 0x76, 0x4b, 0xbf, 0x24, 0xf7, 0x26, 0x3e,
  0xec, 0x40, 0x74, 0xbe, 0x80, 0x83, 0x41, 0xbd, 0x9e, 0x84, 0xad, 0x3e,
  0xaa, 0xd5, 0x7f, 0x3e, 0xd5, 0x6d, 0x99, 0xbf, 0x2d, 0xfd, 0x34, 0x3e,
  0x71, 0x8e, 0x11, 0x3e, 0x26, 0x44, 0x1b, 0x3f, 0x34, 0x13, 0xd2, 0x3e,
  0x0c, 0xf4, 0x02, 0xbe, 0x3e, 0x72, 0xc3, 0x3d, 0xb2, 0x5f, 0x63, 0x3e,
  0xc5, 0x1f, 0x9c, 0xbe, 0xff, 0x79, 0x30, 0x3e, 0x3a, 0x15, 0x95, 0xbd,
  0x62, 0x9c, 0x7d, 0x3b, 0x98, 0xae, 0xf8, 0xbe, 0x2f, 0xab, 0x2e, 0xbe,
  0x2d, 0x45, 0xb3, 0xbd, 0x32, 0xf3, 0x31, 0x3e, 0x6f, 0x41, 0xaa, 0x3d,
  0x23, 0x39, 0x32, 0xbe, 0xae, 0xde, 0xcf, 0x3d, 0xd4, 0x38, 0x80, 0x3d,
  0xba, 0x57, 0x0b, 0xbd, 0x36, 0xe1, 0xf4, 0x3c, 0x5a, 0x0a, 0xa8, 0xbd,
  0x5e, 0xa0, 0x11, 0x3c, 0xb7, 0x2d, 0x84, 0x3e, 0x12, 0xaa, 0x56, 0xbd,
  0xc6, 0xad, 0xdd, 0x3e, 0x7d, 0x1c, 0x10, 0x3e, 0x0a, 0x19, 0x83, 0xbe,
  0xf7, 0x2f, 0xb0, 0xbd, 0x12, 0xce, 0xff, 0xff, 0x24, 0x00, 0x00, 0x00,
  0x32, 0x00, 0x00, 0x00, 0x08, 0x00, 0x00, 0x00, 0x2c, 0x00, 0x00, 0x00,
  0x0c, 0x00, 0x00, 0x00, 0x64, 0x65, 0x70, 0x74, 0x68, 0x77, 0x69, 0x73,
  0x65, 0x5f, 0x32, 0x36, 0x00, 0x00, 0x00, 0x00, 0x04, 0x00, 0x00, 0x00,
  0x01, 0x00, 0x00, 0x00, 0x05, 0x00, 0x00, 0x00, 0x01, 0x00, 0x00, 0x00,
  0x13, 0x00, 0x00, 0x00, 0xa4, 0xcd, 0xff, 0xff, 0xb2, 0xce, 0xff, 0xff,
  0x04, 0x00, 0x00, 0x00, 0xac, 0x02, 0x00, 0x00, 0x50, 0xa1, 0xe5, 0xbe,
  0xcb, 0x04, 0x35, 0x3f, 0x63, 0x31, 0x3d, 0x3e, 0xe7, 0x9a, 0x0d, 0xbf,
  0xe7, 0x9e, 0x89, 0xbe, 0xdf, 0x3b, 0xbb, 0x3e, 0xb7, 0x63, 0x79, 0x3d,
  0xcd, 0x94, 0x09, 0x3e, 0xbf, 0x6e, 0x47, 0xbf, 0x2f, 0x68, 0x07, 0x3f,
  0x4b, 0xb3, 0x0f, 0xbe, 0x80, 0x24, 0x9d, 0xbe, 0x2e, 0x80, 0x7b, 0x3e,
  0x5e, 0x4c, 0x51, 0x3f, 0xd0, 0xdc, 0x4e, 0x3f, 0x06, 0x53, 0x99, 0x3e,
  0x01, 0xf9, 0xff, 0x3e, 0xef, 0x7f, 0xf7, 0x3d, 0xcc, 0x5c, 0x3a, 0xbf,
  0x72, 0x62, 0x3c, 0x3f, 0xe8, 0x4e, 0x04, 0x3c, 0xb4, 0xea, 0xdb, 0xbe,
  0xd8, 0xf9, 0x97, 0x3d, 0x32, 0xac, 0xe9, 0x3c, 0xe3, 0xee, 0xa5, 0x3e,
  0xd2, 0xdc, 0xb6, 0xbb, 0x28, 0x60, 0x92, 0xbe, 0x78, 0x86, 0x8d, 0xbe,
  0xa3, 0x37, 0x5c, 0x3f, 0xb6, 0xc4, 0x97, 0xbe, 0x97, 0x2e, 0xd2, 0x3c,
  0x83, 0x73, 0x2e, 0xbd, 0xf9, 0x94, 0x61, 0x3e, 0x6e, 0xbf, 0xf2, 0xbd,
  0x16, 0x12, 0xb2, 0xbd, 0x46, 0x4f, 0xa1, 0x3d, 0xcb, 0x5b, 0xa3, 0xbf,
  0xaa, 0x5c, 0xa8, 0xbb, 0xbd, 0xc1, 0x5d, 0xbb, 0x88, 0xf7, 0xca, 0x3d,
  0xcf, 0xef, 0x3a, 0x3e, 0xad, 0xc0, 0x47, 0x3f, 0xb0, 0x06, 0x24, 0x3e,
  0x45, 0x33, 0x85, 0x3e, 0x89, 0xb8, 0x6f, 0xbe, 0xe8, 0x88, 0x94, 0xbe,
  0x07, 0x77, 0x0f, 0x3f, 0x72, 0x26, 0x7b, 0x3f, 0x11, 0x77, 0x8c, 0xbe,
  0x06, 0xc8, 0x98, 0xbe, 0x24, 0x4b, 0xaa, 0xbe, 0x5b, 0xff, 0xa5, 0x3c,
  0xb3, 0x79, 0xc9, 0x3d, 0xe0, 0x99, 0x18, 0x3f, 0xc2, 0xd9, 0x1b, 0x3f,
  0xbf, 0x50, 0x7f, 0xbe, 0x1f, 0x8c, 0x00, 0x3f, 0x3c, 0xaf, 0x2f, 0x3b,
  0xdc, 0x64, 0x63, 0xbe, 0xc5, 0x70, 0x40, 0xbf, 0x6e, 0x4a, 0xd4, 0x3e,
  0xea, 0xf2, 0xc1, 0x3d, 0xab, 0x85, 0x9e, 0x3e, 0x92, 0x7e, 0x40, 0x3f,
  0x99, 0x44, 0x8f, 0xbe, 0x4b, 0xd5, 0x33, 0xbd, 0xc3, 0x6f, 0xfa, 0xbc,
  0xf4, 0x68, 0xd8, 0xbe, 0xe5, 0x63, 0x1f, 0xbd, 0x63, 0x2e, 0x8c, 0xbe,
  0x41, 0x12, 0x49, 0x3e, 0x1b, 0xc8, 0x5e, 0x3f, 0x19, 0xbd, 0x27, 0xbe,
  0xc6, 0x8d, 0x1c, 0xbf, 0xc2, 0xb9, 0x09, 0x3f, 0x45, 0x1d, 0x84, 0xbd,
  0xf1, 0x1b, 0x11, 0xbe, 0xd8, 0x9c, 0xb9, 0x3d, 0xa6, 0x5d, 0x97, 0xbf,
  0x08, 0xba, 0x9c, 0x3d, 0xb6, 0xa0, 0x38, 0x3e, 0xe3, 0x1f, 0xbb, 0x3e,
  0xd5, 0xb5, 0xb0, 0xbe, 0x18, 0xc0, 0xe0, 0x3e, 0x92, 0xd1, 0xd4, 0xbe,
  0x1c, 0x40, 0x03, 0xbf, 0xfa, 0x8c, 0x80, 0x3e, 0xe8, 0xca, 0x15, 0xbf,
  0xd3, 0x27, 0x82, 0x3e, 0xd5, 0x83, 0xb4, 0x3e, 0xe7, 0xbf, 0x2b, 0xbf,
  0xdd, 0x8d, 0x37, 0xbf, 0xd5, 0x46, 0x94, 0xbe, 0xf1, 0xe2, 0x00, 0x3f,
  0xa8, 0x95, 0x67, 0x3e, 0x2d, 0x80, 0x73, 0x3e, 0x60, 0xf0, 0xd8, 0x3e,
