const unsigned char sr4by3_2_tflite[] = {
  0x20, 0x00, 0x00, 0x00, 0x54, 0x46, 0x4c, 0x33, 0x00, 0x00, 0x00, 0x00, 0x00,
  0x00, 0x12, 0x00, 0x1c, 0x00, 0x18, 0x00, 0x14, 0x00, 0x10, 0x00, 0x0c, 0x00,
  0x08, 0x00, 0x00, 0x00, 0x04, 0x00, 0x12, 0x00, 0x00, 0x00, 0x18, 0x00, 0x00,
  0x00, 0x48, 0x00, 0x00, 0x00, 0x34, 0x1d, 0x00, 0x00, 0x44, 0x1d, 0x00, 0x00,
  0xb4, 0xa4, 0x00, 0x00, 0x03, 0x00, 0x00, 0x00, 0x01, 0x00, 0x00, 0x00, 0x0c,
  0x00, 0x00, 0x00, 0x08, 0x00, 0x0c, 0x00, 0x08, 0x00, 0x04, 0x00, 0x08, 0x00,
  0x00, 0x00, 0x91, 0x00, 0x00, 0x00, 0x04, 0x00, 0x00, 0x00, 0x13, 0x00, 0x00,
  0x00, 0x6d, 0x69, 0x6e, 0x5f, 0x72, 0x75, 0x6e, 0x74, 0x69, 0x6d, 0x65, 0x5f,
  0x76, 0x65, 0x72, 0x73, 0x69, 0x6f, 0x6e, 0x00, 0x92, 0x00, 0x00, 0x00, 0xe8,
  0x1c, 0x00, 0x00, 0xe0, 0x1c, 0x00, 0x00, 0xa8, 0x1c, 0x00, 0x00, 0x68, 0x1c,
  0x00, 0x00, 0x20, 0x1c, 0x00, 0x00, 0xc8, 0x1b, 0x00, 0x00, 0x58, 0x1b, 0x00,
  0x00, 0xd0, 0x1a, 0x00, 0x00, 0xa0, 0x1a, 0x00, 0x00, 0x88, 0x1a, 0x00, 0x00,
  0x70, 0x1a, 0x00, 0x00, 0x4c, 0x1a, 0x00, 0x00, 0xd8, 0x19, 0x00, 0x00, 0x64,
  0x19, 0x00, 0x00, 0x28, 0x18, 0x00, 0x00, 0xcc, 0x17, 0x00, 0x00, 0x70, 0x17,
  0x00, 0x00, 0x7c, 0x16, 0x00, 0x00, 0x08, 0x16, 0x00, 0x00, 0x58, 0x15, 0x00,
  0x00, 0xe4, 0x14, 0x00, 0x00, 0xa8, 0x13, 0x00, 0x00, 0x4c, 0x13, 0x00, 0x00,
  0xf0, 0x12, 0x00, 0x00, 0x2c, 0x12, 0x00, 0x00, 0xe0, 0x11, 0x00, 0x00, 0x94,
  0x11, 0x00, 0x00, 0xf4, 0x10, 0x00, 0x00, 0x98, 0x10, 0x00, 0x00, 0x10, 0x10,
  0x00, 0x00, 0xb4, 0x0f, 0x00, 0x00, 0xf0, 0x0e, 0x00, 0x00, 0xa4, 0x0e, 0x00,
  0x00, 0x58, 0x0e, 0x00, 0x00, 0xdc, 0x0d, 0x00, 0x00, 0x9c, 0x0d, 0x00, 0x00,
  0x5c, 0x0d, 0x00, 0x00, 0xf8, 0x0c, 0x00, 0x00, 0xac, 0x0c, 0x00, 0x00, 0x3c,
  0x0c, 0x00, 0x00, 0xf0, 0x0b, 0x00, 0x00, 0x74, 0x0b, 0x00, 0x00, 0x34, 0x0b,
  0x00, 0x00, 0xf4, 0x0a, 0x00, 0x00, 0xa4, 0x0a, 0x00, 0x00, 0x70, 0x0a, 0x00,
  0x00, 0x3c, 0x0a, 0x00, 0x00, 0xf8, 0x09, 0x00, 0x00, 0xb8, 0x09, 0x00, 0x00,
  0x60, 0x09, 0x00, 0x00, 0x20, 0x09, 0x00, 0x00, 0xd0, 0x08, 0x00, 0x00, 0x9c,
  0x08, 0x00, 0x00, 0x68, 0x08, 0x00, 0x00, 0x34, 0x08, 0x00, 0x00, 0x08, 0x08,
  0x00, 0x00, 0xdc, 0x07, 0x00, 0x00, 0xb0, 0x07, 0x00, 0x00, 0x7c, 0x07, 0x00,
  0x00, 0x34, 0x07, 0x00, 0x00, 0x00, 0x07, 0x00, 0x00, 0xcc, 0x06, 0x00, 0x00,
  0xa0, 0x06, 0x00, 0x00, 0x74, 0x06, 0x00, 0x00, 0x48, 0x06, 0x00, 0x00, 0x1c,
  0x06, 0x00, 0x00, 0xf0, 0x05, 0x00, 0x00, 0xc4, 0x05, 0x00, 0x00, 0x90, 0x05,
  0x00, 0x00, 0x58, 0x05, 0x00, 0x00, 0x24, 0x05, 0x00, 0x00, 0x0c, 0x05, 0x00,
  0x00, 0xf4, 0x04, 0x00, 0x00, 0x44, 0x04, 0x00, 0x00, 0xbc, 0x03, 0x00, 0x00,
  0x4c, 0x03, 0x00, 0x00, 0xf4, 0x02, 0x00, 0x00, 0xac, 0x02, 0x00, 0x00, 0x74,
  0x02, 0x00, 0x00, 0x3c, 0x02, 0x00, 0x00, 0x24, 0x02, 0x00, 0x00, 0x1c, 0x02,
  0x00, 0x00, 0x14, 0x02, 0x00, 0x00, 0x0c, 0x02, 0x00, 0x00, 0x04, 0x02, 0x00,
  0x00, 0xfc, 0x01, 0x00, 0x00, 0xf4, 0x01, 0x00, 0x00, 0xec, 0x01, 0x00, 0x00,
  0xe4, 0x01, 0x00, 0x00, 0xdc, 0x01, 0x00, 0x00, 0xd4, 0x01, 0x00, 0x00, 0xcc,
  0x01, 0x00, 0x00, 0xc4, 0x01, 0x00, 0x00, 0xbc, 0x01, 0x00, 0x00, 0xb4, 0x01,
  0x00, 0x00, 0xac, 0x01, 0x00, 0x00, 0xa4, 0x01, 0x00, 0x00, 0x9c, 0x01, 0x00,
  0x00, 0x94, 0x01, 0x00, 0x00, 0x8c, 0x01, 0x00, 0x00, 0x84, 0x01, 0x00, 0x00,
  0x7c, 0x01, 0x00, 0x00, 0x74, 0x01, 0x00, 0x00, 0x6c, 0x01, 0x00, 0x00, 0x64,
  0x01, 0x00, 0x00, 0x5c, 0x01, 0x00, 0x00, 0x54, 0x01, 0x00, 0x00, 0x4c, 0x01,
  0x00, 0x00, 0x44, 0x01, 0x00, 0x00, 0x3c, 0x01, 0x00, 0x00, 0x34, 0x01, 0x00,
  0x00, 0x2c, 0x01, 0x00, 0x00, 0x24, 0x01, 0x00, 0x00, 0x1c, 0x01, 0x00, 0x00,
  0x14, 0x01, 0x00, 0x00, 0x0c, 0x01, 0x00, 0x00, 0x04, 0x01, 0x00, 0x00, 0xfc,
  0x00, 0x00, 0x00, 0xf4, 0x00, 0x00, 0x00, 0xec, 0x00, 0x00, 0x00, 0xe4, 0x00,
  0x00, 0x00, 0xdc, 0x00, 0x00, 0x00, 0xd4, 0x00, 0x00, 0x00, 0xcc, 0x00, 0x00,
  0x00, 0xc4, 0x00, 0x00, 0x00, 0xbc, 0x00, 0x00, 0x00, 0xb4, 0x00, 0x00, 0x00,
  0xac, 0x00, 0x00, 0x00, 0xa4, 0x00, 0x00, 0x00, 0x9c, 0x00, 0x00, 0x00, 0x94,
  0x00, 0x00, 0x00, 0x8c, 0x00, 0x00, 0x00, 0x84, 0x00, 0x00, 0x00, 0x7c, 0x00,
  0x00, 0x00, 0x74, 0x00, 0x00, 0x00, 0x6c, 0x00, 0x00, 0x00, 0x64, 0x00, 0x00,
  0x00, 0x5c, 0x00, 0x00, 0x00, 0x54, 0x00, 0x00, 0x00, 0x4c, 0x00, 0x00, 0x00,
  0x44, 0x00, 0x00, 0x00, 0x3c, 0x00, 0x00, 0x00, 0x34, 0x00, 0x00, 0x00, 0x2c,
  0x00, 0x00, 0x00, 0x24, 0x00, 0x00, 0x00, 0x04, 0x00, 0x00, 0x00, 0x9e, 0xe5,
  0xff, 0xff, 0x04, 0x00, 0x00, 0x00, 0x10, 0x00, 0x00, 0x00, 0x31, 0x2e, 0x35,
  0x2e, 0x30, 0x00, 0x00, 0x00, 0x00, 0x00, 0x00, 0x00, 0x00, 0x00, 0x00, 0x00,
  0xd8, 0x62, 0xff, 0xff, 0xdc, 0x62, 0xff, 0xff, 0xe0, 0x62, 0xff, 0xff, 0xe4,
  0x62, 0xff, 0xff, 0xe8, 0x62, 0xff, 0xff, 0xec, 0x62, 0xff, 0xff, 0xf0, 0x62,
  0xff, 0xff, 0xf4, 0x62, 0xff, 0xff, 0xf8, 0x62, 0xff, 0xff, 0xfc, 0x62, 0xff,
  0xff, 0x00, 0x63, 0xff, 0xff, 0x04, 0x63, 0xff, 0xff, 0x08, 0x63, 0xff, 0xff,
  0x0c, 0x63, 0xff, 0xff, 0x10, 0x63, 0xff, 0xff, 0x14, 0x63, 0xff, 0xff, 0x18,
  0x63, 0xff, 0xff, 0x1c, 0x63, 0xff, 0xff, 0x20, 0x63, 0xff, 0xff, 0x24, 0x63,
  0xff, 0xff, 0x28, 0x63, 0xff, 0xff, 0x2c, 0x63, 0xff, 0xff, 0x30, 0x63, 0xff,
  0xff, 0x34, 0x63, 0xff, 0xff, 0x38, 0x63, 0xff, 0xff, 0x3c, 0x63, 0xff, 0xff,
  0x40, 0x63, 0xff, 0xff, 0x44, 0x63, 0xff, 0xff, 0x48, 0x63, 0xff, 0xff, 0x4c,
  0x63, 0xff, 0xff, 0x50, 0x63, 0xff, 0xff, 0x54, 0x63, 0xff, 0xff, 0x58, 0x63,
  0xff, 0xff, 0x5c, 0x63, 0xff, 0xff, 0x60, 0x63, 0xff, 0xff, 0x64, 0x63, 0xff,
  0xff, 0x68, 0x63, 0xff, 0xff, 0x6c, 0x63, 0xff, 0xff, 0x70, 0x63, 0xff, 0xff,
  0x74, 0x63, 0xff, 0xff, 0x78, 0x63, 0xff, 0xff, 0x7c, 0x63, 0xff, 0xff, 0x80,
  0x63, 0xff, 0xff, 0x84, 0x63, 0xff, 0xff, 0x88, 0x63, 0xff, 0xff, 0x8c, 0x63,
  0xff, 0xff, 0x90, 0x63, 0xff, 0xff, 0x94, 0x63, 0xff, 0xff, 0x98, 0x63, 0xff,
  0xff, 0x9c, 0x63, 0xff, 0xff, 0xa0, 0x63, 0xff, 0xff, 0xa4, 0x63, 0xff, 0xff,
  0xa8, 0x63, 0xff, 0xff, 0xac, 0x63, 0xff, 0xff, 0xb0, 0x63, 0xff, 0xff, 0xb4,
  0x63, 0xff, 0xff, 0xb8, 0x63, 0xff, 0xff, 0xbc, 0x63, 0xff, 0xff, 0xc0, 0x63,
  0xff, 0xff, 0xc4, 0x63, 0xff, 0xff, 0xc8, 0x63, 0xff, 0xff, 0xcc, 0x63, 0xff,
  0xff, 0xd0, 0x63, 0xff, 0xff, 0xd4, 0x63, 0xff, 0xff, 0xba, 0xe6, 0xff, 0xff,
  0x04, 0x00, 0x00, 0x00, 0x08, 0x00, 0x00, 0x00, 0xbf, 0xf8, 0xff, 0xff, 0xff,
  0xff, 0xff, 0xff, 0xce, 0xe6, 0xff, 0xff, 0x04, 0x00, 0x00, 0x00, 0x28, 0x00,
  0x00, 0x00, 0xde, 0xf0, 0xff, 0xff, 0xff, 0xff, 0xff, 0xff, 0x0a, 0xd9, 0xff,
  0xff, 0xff, 0xff, 0xff, 0xff, 0x99, 0xdd, 0xff, 0xff, 0xff, 0xff, 0xff, 0xff,
  0x9a, 0xcc, 0xfb, 0xff, 0xff, 0xff, 0xff, 0xff, 0x34, 0x2f, 0xfc, 0xff, 0xff,
  0xff, 0xff, 0xff, 0x02, 0xe7, 0xff, 0xff, 0x04, 0x00, 0x00, 0x00, 0x28, 0x00,
  0x00, 0x00, 0x28, 0xf6, 0xff, 0xff, 0xff, 0xff, 0xff, 0xff, 0x38, 0xbf, 0xff,
  0xff, 0xff, 0xff, 0xff, 0xff, 0xf7, 0xae, 0xff, 0xff, 0xff, 0xff, 0xff, 0xff,
  0x1b, 0xd5, 0x00, 0x00, 0x00, 0x00, 0x00, 0x00, 0x52, 0x1c, 0x01, 0x00, 0x00,
  0x00, 0x00, 0x00, 0x36, 0xe7, 0xff, 0xff, 0x04, 0x00, 0x00, 0x00, 0x38, 0x00,
  0x00, 0x00, 0xbe, 0x17, 0x00, 0x00, 0x00, 0x00, 0x00, 0x00, 0xed, 0xf3, 0xff,
  0xff, 0xff, 0xff, 0xff, 0xff, 0xb3, 0x60, 0x00, 0x00, 0x00, 0x00, 0x00, 0x00,
  0x54, 0x42, 0x00, 0x00, 0x00, 0x00, 0x00, 0x00, 0xe1, 0x4c, 0x00, 0x00, 0x00,
  0x00, 0x00, 0x00, 0xf6, 0x0b, 0x00, 0x00, 0x00, 0x00, 0x00, 0x00, 0x0a, 0x86,
  0xff, 0xff, 0xff, 0xff, 0xff, 0xff, 0x7a, 0xe7, 0xff, 0xff, 0x04, 0x00, 0x00,
  0x00, 0x48, 0x00, 0x00, 0x00, 0x32, 0x12, 0x00, 0x00, 0x00, 0x00, 0x00, 0x00,
  0x55, 0xed, 0xff, 0xff, 0xff, 0xff, 0xff, 0xff, 0x63, 0x0d, 0x00, 0x00, 0x00,
  0x00, 0x00, 0x00, 0xe8, 0xe8, 0xff, 0xff, 0xff, 0xff, 0xff, 0xff, 0x6b, 0xef,
  0xff, 0xff, 0xff, 0xff, 0xff, 0xff, 0xce, 0xeb, 0xff, 0xff, 0xff, 0xff, 0xff,
  0xff, 0x65, 0x06, 0x00, 0x00, 0x00, 0x00, 0x00, 0x00, 0x05, 0x04, 0x00, 0x00,
  0x00, 0x00, 0x00, 0x00, 0xc9, 0xd2, 0xff, 0xff, 0xff, 0xff, 0xff, 0xff, 0xce,
  0xe7, 0xff, 0xff, 0x04, 0x00, 0x00, 0x00, 0x60, 0x00, 0x00, 0x00, 0x8d, 0xf9,
  0xff, 0xff, 0xff, 0xff, 0xff, 0xff, 0xf2, 0xe8, 0xff, 0xff, 0xff, 0xff, 0xff,
  0xff, 0x9b, 0x1e, 0x00, 0x00, 0x00, 0x00, 0x00, 0x00, 0x2d, 0xea, 0xff, 0xff,
  0xff, 0xff, 0xff, 0xff, 0xbe, 0x09, 0x00, 0x00, 0x00, 0x00, 0x00, 0x00, 0xff,
  0xfe, 0xff, 0xff, 0xff, 0xff, 0xff, 0xff, 0xc7, 0xeb, 0xff, 0xff, 0xff, 0xff,
  0xff, 0xff, 0x29, 0xf9, 0xff, 0xff, 0xff, 0xff, 0xff, 0xff, 0xf4, 0xec, 0xff,
  0xff, 0xff, 0xff, 0xff, 0xff, 0x26, 0x00, 0x00, 0x00, 0x00, 0x00, 0x00, 0x00,
  0xb4, 0x40, 0x00, 0x00, 0x00, 0x00, 0x00, 0x00, 0xd2, 0xce, 0xff, 0xff, 0xff,
  0xff, 0xff, 0xff, 0x3a, 0xe8, 0xff, 0xff, 0x04, 0x00, 0x00, 0x00, 0x78, 0x00,
  0x00, 0x00, 0x68, 0x10, 0x00, 0x00, 0x00, 0x00, 0x00, 0x00, 0xa1, 0x15, 0x00,
  0x00, 0x00, 0x00, 0x00, 0x00, 0xff, 0x74, 0x00, 0x00, 0x00, 0x00, 0x00, 0x00,
  0xb6, 0xeb, 0xff, 0xff, 0xff, 0xff, 0xff, 0xff, 0x0f, 0x4d, 0x00, 0x00, 0x00,
  0x00, 0x00, 0x00, 0x37, 0x09, 0x00, 0x00, 0x00, 0x00, 0x00, 0x00, 0x50, 0x0d,
  0x00, 0x00, 0x00, 0x00, 0x00, 0x00, 0xbb, 0x06, 0x00, 0x00, 0x00, 0x00, 0x00,
  0x00, 0xb2, 0x02, 0x00, 0x00, 0x00, 0x00, 0x00, 0x00, 0x65, 0xbe, 0xff, 0xff,
  0xff, 0xff, 0xff, 0xff, 0xab, 0xf3, 0xff, 0xff, 0xff, 0xff, 0xff, 0xff, 0xf4,
  0xf3, 0xff, 0xff, 0xff, 0xff, 0xff, 0xff, 0x75, 0xf4, 0xff, 0xff, 0xff, 0xff,
  0xff, 0xff, 0xe0, 0xe2, 0xff, 0xff, 0xff, 0xff, 0xff, 0xff, 0xed, 0xea, 0xff,
  0xff, 0xff, 0xff, 0xff, 0xff, 0xbe, 0xe8, 0xff, 0xff, 0x04, 0x00, 0x00, 0x00,
  0xa0, 0x00, 0x00, 0x00, 0x0b, 0xc1, 0xff, 0xff, 0xff, 0xff, 0xff, 0xff, 0xda,
  0xe8, 0xfc, 0xff, 0xff, 0xff, 0xff, 0xff, 0x02, 0x7e, 0x0a, 0x00, 0x00, 0x00,
  0x00, 0x00, 0x43, 0x32, 0xeb, 0xff, 0xff, 0xff, 0xff, 0xff, 0x85, 0x96, 0x04,
  0x00, 0x00, 0x00, 0x00, 0x00, 0x11, 0xcc, 0xff, 0xff, 0xff, 0xff, 0xff, 0xff,
  0x28, 0x12, 0xff, 0xff, 0xff, 0xff, 0xff, 0xff, 0x37, 0xd4, 0xe7, 0xff, 0xff,
  0xff, 0xff, 0xff, 0x96, 0xc3, 0xfe, 0xff, 0xff, 0xff, 0xff, 0xff, 0x79, 0xec,
  0x02, 0x00, 0x00, 0x00, 0x00, 0x00, 0x37, 0xd3, 0xff, 0xff, 0xff, 0xff, 0xff,
  0xff, 0xcb, 0x6d, 0xfe, 0xff, 0xff, 0xff, 0xff, 0xff, 0x09, 0x73, 0xfd, 0xff,
  0xff, 0xff, 0xff, 0xff, 0x0e, 0xaa, 0xe9, 0xff, 0xff, 0xff, 0xff, 0xff, 0xfb,
  0x7f, 0xff, 0xff, 0xff, 0xff, 0xff, 0xff, 0xcf, 0xfa, 0x00, 0x00, 0x00, 0x00,
  0x00, 0x00, 0xdb, 0x45, 0x08, 0x00, 0x00, 0x00, 0x00, 0x00, 0x78, 0xd2, 0x35,
  0x03, 0x00, 0x00, 0x00, 0x00, 0x09, 0x9f, 0xfe, 0xff, 0xff, 0xff, 0xff, 0xff,
  0xd5, 0xd5, 0x00, 0x00, 0x00, 0x00, 0x00, 0x00, 0x6a, 0xe9, 0xff, 0xff, 0x04,
  0x00, 0x00, 0x00, 0x05, 0x00, 0x00, 0x00, 0xae, 0x44, 0xb8, 0x5d, 0x7f, 0x00,
  0x00, 0x00, 0x7e, 0xe9, 0xff, 0xff, 0x04, 0x00, 0x00, 0x00, 0x08, 0x00, 0x00,
  0x00, 0x00, 0x00, 0x00, 0x00, 0x00, 0x00, 0x00, 0x00, 0x92, 0xe9, 0xff, 0xff,
  0x04, 0x00, 0x00, 0x00, 0x23, 0x00, 0x00, 0x00, 0xea, 0x16, 0xe0, 0xe6, 0x01,
  0x05, 0xf9, 0x15, 0x9e, 0x0a, 0x17, 0x55, 0xd6, 0x3e, 0x02, 0x81, 0x7f, 0x7f,
  0x2a, 0x7f, 0x5d, 0x26, 0x0f, 0xc9, 0xed, 0xd7, 0xd2, 0xd7, 0x7f, 0xfc, 0xde,
  0x0d, 0xd6, 0x92, 0x03, 0x00, 0xc2, 0xe9, 0xff, 0xff, 0x04, 0x00, 0x00, 0x00,
  0x28, 0x00, 0x00, 0x00, 0x00, 0x00, 0x00, 0x00, 0x00, 0x00, 0x00, 0x00, 0x00,
  0x00, 0x00, 0x00, 0x00, 0x00, 0x00, 0x00, 0x00, 0x00, 0x00, 0x00, 0x00, 0x00,
  0x00, 0x00, 0x00, 0x00, 0x00, 0x00, 0x00, 0x00, 0x00, 0x00, 0x00, 0x00, 0x00,
  0x00, 0x00, 0x00, 0x00, 0x00, 0xf6, 0xe9, 0xff, 0xff, 0x04, 0x00, 0x00, 0x00,
  0x23, 0x00, 0x00, 0x00, 0x19, 0x7f, 0x41, 0x2e, 0x05, 0x56, 0xc9, 0x7f, 0x7f,
  0x26, 0x7f, 0xdf, 0x6f, 0x72, 0x2d, 0x30, 0xdc, 0x22, 0xbf, 0x81, 0x1f, 0x35,
  0xcd, 0x15, 0x2b, 0x01, 0x0b, 0x0f, 0x10, 0xfc, 0xfa, 0xfb, 0xf7, 0x03, 0xfa,
  0x00, 0x26, 0xea, 0xff, 0xff, 0x04, 0x00, 0x00, 0x00, 0x19, 0x00, 0x00, 0x00,
  0xb8, 0x27, 0xe8, 0xea, 0x81, 0x35, 0x4f, 0x2a, 0x81, 0x00, 0x54, 0xb4, 0xd5,
  0x81, 0x25, 0xc7, 0xdd, 0x17, 0x81, 0x8f, 0xb4, 0x1c, 0x81, 0x5c, 0xaf, 0x00,
  0x00, 0x00, 0x4e, 0xea, 0xff, 0xff, 0x04, 0x00, 0x00, 0x00, 0x19, 0x00, 0x00,
  0x00, 0x1f, 0xe1, 0x06, 0xe5, 0xf8, 0x7f, 0x30, 0xf4, 0x10, 0xfd, 0x45, 0x48,
  0x7f, 0x7f, 0x81, 0xe0, 0x7f, 0x40, 0x56, 0xb8, 0x17, 0x13, 0x2b, 0x09, 0xf6,
  0x00, 0x00, 0x00, 0x76, 0xea, 0xff, 0xff, 0x04, 0x00, 0x00, 0x00, 0x19, 0x00,
  0x00, 0x00, 0x02, 0xfc, 0x5c, 0xf1, 0xd9, 0xde, 0x5a, 0xa2, 0xc4, 0x50, 0x81,
  0xb7, 0x7f, 0x50, 0x87, 0xf8, 0x81, 0x9c, 0x81, 0x7f, 0xe5, 0x56, 0x4c, 0x17,
  0xee, 0x00, 0x00, 0x00, 0x9e, 0xea, 0xff, 0xff, 0x04, 0x00, 0x00, 0x00, 0x19,
  0x00, 0x00, 0x00, 0x04, 0x0a, 0x2c, 0x28, 0x81, 0x35, 0xc4, 0x71, 0xc7, 0x81,
  0xf6, 0x81, 0xa9, 0x85, 0xe4, 0x68, 0x65, 0x7f, 0xac, 0x3e, 0xd2, 0xaf, 0x81,
  0x82, 0xd8, 0x00, 0x00, 0x00, 0xc6, 0xea, 0xff, 0xff, 0x04, 0x00, 0x00, 0x00,
  0x19, 0x00, 0x00, 0x00, 0x15, 0x16, 0x2c, 0x16, 0xe9, 0x2a, 0x37, 0x36, 0x4a,
  0xa7, 0x7f, 0x5e, 0x7f, 0x7f, 0x81, 0x51, 0x7f, 0x32, 0x43, 0x62, 0x1e, 0x51,
  0xd9, 0xec, 0x04, 0x00, 0x00, 0x00, 0xee, 0xea, 0xff, 0xff, 0x04, 0x00, 0x00,
  0x00, 0x19, 0x00, 0x00, 0x00, 0x11, 0x78, 0x26, 0x06, 0xd5, 0x7f, 0x9e, 0xe3,
  0x77, 0x4c, 0xc2, 0x15, 0x81, 0x7f, 0xda, 0x96, 0x81, 0x30, 0x1b, 0xca, 0x9c,
  0x45, 0xf4, 0xe0, 0x81, 0x00, 0x00, 0x00, 0x16, 0xeb, 0xff, 0xff, 0x04, 0x00,
  0x00, 0x00, 0x23, 0x00, 0x00, 0x00, 0x79, 0x95, 0x7b, 0x18, 0x2f, 0x98, 0x81,
  0x81, 0x77, 0xf9, 0x2f, 0x26, 0xdf, 0xa9, 0xd9, 0x2d, 0xee, 0x49, 0x7f, 0xe4,
  0xad, 0xc2, 0x05, 0xcb, 0x5d, 0x7f, 0x8e, 0xfa, 0xc5, 0x7f, 0x08, 0xe1, 0xee,
  0xb8, 0x13, 0x00, 0x46, 0xeb, 0xff, 0xff, 0x04, 0x00, 0x00, 0x00, 0x23, 0x00,
  0x00, 0x00, 0xdb, 0xfc, 0x9b, 0xed, 0xde, 0x11, 0xc6, 0xfe, 0x08, 0x78, 0xa2,
  0x32, 0xc8, 0x51, 0x50, 0xc9, 0x74, 0x2d, 0x05, 0x70, 0xb3, 0x7f, 0x7f, 0x40,
  0x7f, 0x81, 0x7f, 0x81, 0x12, 0x43, 0x81, 0x3c, 0xaf, 0x22, 0x2f, 0x00, 0x76,
  0xeb, 0xff, 0xff, 0x04, 0x00, 0x00, 0x00, 0x38, 0x00, 0x00, 0x00, 0x00, 0x00,
  0x00, 0x00, 0x00, 0x00, 0x00, 0x00, 0x00, 0x00, 0x00, 0x00, 0x00, 0x00, 0x00,
  0x00, 0x00, 0x00, 0x00, 0x00, 0x00, 0x00, 0x00, 0x00, 0x00, 0x00, 0x00, 0x00,
  0x00, 0x00, 0x00, 0x00, 0x00, 0x00, 0x00, 0x00, 0x00, 0x00, 0x00, 0x00, 0x00,
  0x00, 0x00, 0x00, 0x00, 0x00, 0x00, 0x00, 0x00, 0x00, 0x00, 0x00, 0x00, 0x00,
  0x00, 0x00, 0xba, 0xeb, 0xff, 0xff, 0x04, 0x00, 0x00, 0x00, 0x23, 0x00, 0x00,
  0x00, 0xc3, 0xc1, 0xf9, 0x25, 0x2c, 0x75, 0xe4, 0x81, 0x81, 0xf5, 0xe6, 0xdf,
  0xaa, 0x39, 0xae, 0xe0, 0x05, 0xa4, 0x7f, 0x81, 0x81, 0xe7, 0x02, 0x7f, 0x81,
  0x55, 0xb2, 0x78, 0xe3, 0xf2, 0xe4, 0xc8, 0xf0, 0xe5, 0x18, 0x00, 0xea, 0xeb,
  0xff, 0xff, 0x04, 0x00, 0x00, 0x00, 0x19, 0x00, 0x00, 0x00, 0x04, 0x81, 0xf2,
  0xe3, 0x0d, 0xf3, 0x0f, 0x7f, 0x22, 0xba, 0x81, 0x08, 0x1b, 0xf6, 0xf1, 0xd5,
  0x11, 0x81, 0x3d, 0x21, 0x08, 0x7f, 0xff, 0xc9, 0xef, 0x00, 0x00, 0x00, 0x12,
  0xec, 0xff, 0xff, 0x04, 0x00, 0x00, 0x00, 0x19, 0x00, 0x00, 0x00, 0xb4, 0x55,
  0xec, 0x27, 0x81, 0x12, 0x9b, 0x68, 0x57, 0x45, 0x3f, 0x43, 0x81, 0x09, 0xe9,
  0x81, 0x81, 0x45, 0x81, 0xb3, 0x74, 0x5d, 0x0c, 0x28, 0xa9, 0x00, 0x00, 0x00,
  0x3a, 0xec, 0xff, 0xff, 0x04, 0x00, 0x00, 0x00, 0x19, 0x00, 0x00, 0x00, 0xef,
  0x06, 0x41, 0xe9, 0x42, 0x39, 0x7f, 0x0d, 0x45, 0x4e, 0xca, 0x25, 0x7b, 0x81,
  0x07, 0x81, 0xfd, 0x34, 0x3f, 0x7f, 0xe8, 0x06, 0x7f, 0xee, 0x40, 0x00, 0x00,
  0x00, 0x62, 0xec, 0xff, 0xff, 0x04, 0x00, 0x00, 0x00, 0x23, 0x00, 0x00, 0x00,
  0xdd, 0x0f, 0x81, 0xe3, 0x03, 0x3f, 0xb6, 0xda, 0xee, 0x81, 0xf0, 0x00, 0x4e,
  0x1d, 0xc4, 0xda, 0xe7, 0x7f, 0xee, 0x19, 0x9a, 0x34, 0x15, 0x05, 0xda, 0x81,
  0xe5, 0xec, 0x9f, 0x5b, 0xf0, 0x7f, 0x13, 0x27, 0x66, 0x00, 0x92, 0xec, 0xff,
  0xff, 0x04, 0x00, 0x00, 0x00, 0x23, 0x00, 0x00, 0x00, 0x56, 0x81, 0x06, 0xc0,
  0x26, 0xa4, 0x33, 0x1e, 0x7b, 0x2f, 0x7f, 0x81, 0x01, 0xb6, 0x7f, 0xab, 0x81,
  0x0c, 0x23, 0x7f, 0x7f, 0x3a, 0xed, 0x2a, 0xec, 0x38, 0xfa, 0x92, 0x7b, 0x95,
  0xef, 0x64, 0x08, 0xf5, 0x33, 0x00, 0xc2, 0xec, 0xff, 0xff, 0x04, 0x00, 0x00,
  0x00, 0x23, 0x00, 0x00, 0x00, 0x81, 0x32, 0x04, 0xc0, 0x4c, 0x0e, 0xd5, 0xfd,
  0xa8, 0xd8, 0x91, 0x92, 0x65, 0xf5, 0xc1, 0x1f, 0x81, 0x81, 0x7f, 0x7f, 0x81,
  0xec, 0x81, 0x19, 0xc8, 0xbf, 0x3b, 0xe8, 0x31, 0xfa, 0xf1, 0xc0, 0x13, 0x32,
  0xfa, 0x00, 0xf2, 0xec, 0xff, 0xff, 0x04, 0x00, 0x00, 0x00, 0x3f, 0x00, 0x00,
  0x00, 0xcc, 0xf9, 0xf3, 0x08, 0xc9, 0x1f, 0x81, 0x3c, 0x18, 0xfd, 0x29, 0x00,
  0x59, 0x06, 0xf1, 0xfd, 0x12, 0x7f, 0xb9, 0xef, 0x0f, 0xcf, 0x29, 0xe8, 0x81,
  0xc9, 0xf3, 0xeb, 0x65, 0x9d, 0xe4, 0x17, 0x81, 0x99, 0xba, 0x30, 0x6f, 0x05,
  0xff, 0x66, 0xea, 0x53, 0x7f, 0x0d, 0x57, 0x13, 0x30, 0x88, 0xe2, 0x7f, 0xea,
  0x97, 0xeb, 0x13, 0x8c, 0xfe, 0xcd, 0x8d, 0xee, 0x83, 0x2b, 0x7f, 0x00, 0x00,
  0x3e, 0xed, 0xff, 0xff, 0x04, 0x00, 0x00, 0x00, 0x2d, 0x00, 0x00, 0x00, 0xed,
  0xd2, 0xea, 0xd9, 0xdf, 0xd8, 0xfc, 0xfc, 0x03, 0xf9, 0xbd, 0x18, 0x96, 0xf8,
  0x7f, 0x05, 0xb1, 0x30, 0x81, 0x81, 0x81, 0x81, 0x7f, 0xf7, 0xff, 0xe5, 0x7f,
  0xd0, 0x10, 0x09, 0xc0, 0x2a, 0x73, 0x7f, 0x81, 0x1b, 0xd1, 0xd9, 0xf7, 0xc0,
  0x19, 0xcf, 0xc0, 0x94, 0x19, 0x00, 0x00, 0x00, 0x7a, 0xed, 0xff, 0xff, 0x04,
  0x00, 0x00, 0x00, 0x48, 0x00, 0x00, 0x00, 0x00, 0x00, 0x00, 0x00, 0x00, 0x00,
  0x00, 0x00, 0x00, 0x00, 0x00, 0x00, 0x00, 0x00, 0x00, 0x00, 0x00, 0x00, 0x00,
  0x00, 0x00, 0x00, 0x00, 0x00, 0x00, 0x00, 0x00, 0x00, 0x00, 0x00, 0x00, 0x00,
  0x00, 0x00, 0x00, 0x00, 0x00, 0x00, 0x00, 0x00, 0x00, 0x00, 0x00, 0x00, 0x00,
  0x00, 0x00, 0x00, 0x00, 0x00, 0x00, 0x00, 0x00, 0x00, 0x00, 0x00, 0x00, 0x00,
  0x00, 0x00, 0x00, 0x00, 0x00, 0x00, 0x00, 0x00, 0x00, 0x00, 0x00, 0x00, 0x00,
  0x00, 0xce, 0xed, 0xff, 0xff, 0x04, 0x00, 0x00, 0x00, 0x2d, 0x00, 0x00, 0x00,
  0x7f, 0x44, 0x11, 0x83, 0xef, 0xcc, 0xf1, 0xff, 0x38, 0x7c, 0x7f, 0x0d, 0x81,
  0x65, 0x81, 0x81, 0x81, 0x81, 0xf1, 0x7a, 0x7f, 0x52, 0x81, 0xe4, 0xc2, 0x55,
  0xbd, 0x07, 0x37, 0xf7, 0xc6, 0x47, 0x07, 0xfb, 0x2f, 0xfb, 0x0d, 0xf7, 0xe5,
  0xf5, 0xe2, 0xf3, 0x04, 0x46, 0x0a, 0x00, 0x00, 0x00, 0x0a, 0xee, 0xff, 0xff,
  0x04, 0x00, 0x00, 0x00, 0x31, 0x00, 0x00, 0x00, 0xef, 0x37, 0xb0, 0x29, 0x81,
  0x58, 0x2d, 0x7f, 0x33, 0xdb, 0x4e, 0x0f, 0xb3, 0xaa, 0x81, 0xc0, 0x50, 0xee,
  0xda, 0x20, 0x18, 0x81, 0x3f, 0x08, 0x6c, 0xd0, 0x52, 0xd5, 0x19, 0x1e, 0xe2,
  0x41, 0x12, 0xb6, 0x81, 0x1e, 0xfa, 0x0f, 0x10, 0x7f, 0xfb, 0xe2, 0xb7, 0x0a,
  0x7f, 0xd8, 0xd3, 0x0e, 0x20, 0x00, 0x00, 0x00, 0x4a, 0xee, 0xff, 0xff, 0x04,
  0x00, 0x00, 0x00, 0x23, 0x00, 0x00, 0x00, 0xdf, 0xe5, 0x1a, 0xe5, 0xf9, 0xf6,
  0x0b, 0xe0, 0x74, 0xef, 0x26, 0x67, 0xfd, 0xfc, 0x81, 0x35, 0x81, 0x59, 0xaa,
  0xa6, 0x6f, 0x96, 0x4e, 0xc5, 0x7f, 0x7f, 0x81, 0x7f, 0xce, 0x7f, 0xf4, 0x29,
  0x0c, 0x0f, 0x2a, 0x00, 0x7a, 0xee, 0xff, 0xff, 0x04, 0x00, 0x00, 0x00, 0x23,
  0x00, 0x00, 0x00, 0x7f, 0xff, 0x81, 0x1b, 0xbe, 0x65, 0x58, 0x82, 0x7f, 0xf6,
  0x81, 0xc0, 0x81, 0xd9, 0x0a, 0x34, 0x02, 0xd9, 0x81, 0x03, 0x81, 0xe3, 0xe9,
  0xdd, 0x16, 0xee, 0x62, 0x0b, 0xeb, 0x08, 0x0a, 0xfc, 0xd6, 0xb6, 0x27, 0x00,
  0xaa, 0xee, 0xff, 0xff, 0x04, 0x00, 0x00, 0x00, 0x3f, 0x00, 0x00, 0x00, 0xd7,
  0xd0, 0x4d, 0x40, 0x81, 0x20, 0x3d, 0x0d, 0xf3, 0x81, 0xcb, 0x7e, 0xd7, 0x74,
  0x8c, 0x0f, 0x15, 0xe4, 0x7f, 0xa6, 0xbd, 0x04, 0xbe, 0xfb, 0x03, 0xe8, 0xdf,
  0x81, 0xba, 0x29, 0xb8, 0x19, 0xa2, 0xfc, 0xdc, 0x68, 0xe9, 0x0c, 0xee, 0x81,
  0x9b, 0xfe, 0x0c, 0xcb, 0xf2, 0xe8, 0xbf, 0xf3, 0x83, 0xec, 0x07, 0x76, 0x7f,
  0x36, 0xef, 0x37, 0xc1, 0x92, 0xea, 0xe3, 0xd9, 0x29, 0x81, 0x00, 0xf6, 0xee,
  0xff, 0xff, 0x04, 0x00, 0x00, 0x00, 0x2d, 0x00, 0x00, 0x00, 0x42, 0x7f, 0xb2,
  0x81, 0x19, 0x64, 0xf2, 0x7f, 0xce, 0x7f, 0x3d, 0x81, 0xc5, 0x81, 0x81, 0x7f,
  0x59, 0x81, 0x6c, 0x98, 0xb8, 0x8d, 0xbe, 0x86, 0x17, 0x7a, 0xde, 0x14, 0x18,
  0xbe, 0x02, 0xf7, 0x2c, 0x2f, 0x17, 0xa3, 0x0f, 0xe6, 0xb4, 0xca, 0xf3, 0xa4,
  0xf5, 0x30, 0x0f, 0x00, 0x00, 0x00, 0x32, 0xef, 0xff, 0xff, 0x04, 0x00, 0x00,
  0x00, 0x2d, 0x00, 0x00, 0x00, 0x14, 0xeb, 0xb7, 0xeb, 0x22, 0x14, 0x2d, 0x5c,
  0x08, 0x3a, 0x7f, 0x8c, 0x7f, 0x34, 0xce, 0xfe, 0x7f, 0x36, 0x7f, 0xc7, 0x81,
  0x51, 0x7f, 0xc2, 0x81, 0x6d, 0x7f, 0x3b, 0xe1, 0xe3, 0x11, 0x59, 0x81, 0xf0,
  0xf7, 0x47, 0x0c, 0x0c, 0xfb, 0x04, 0x1c, 0x3f, 0xf7, 0x30, 0xfe, 0x00, 0x00,
  0x00, 0x6e, 0xef, 0xff, 0xff, 0x04, 0x00, 0x00, 0x00, 0x6c, 0x00, 0x00, 0x00,
  0xae, 0xba, 0x95, 0x24, 0x7f, 0x32, 0x32, 0x1c, 0xc0, 0xd9, 0xff, 0x4a, 0x39,
  0x52, 0x14, 0xfc, 0x4f, 0xf8, 0x21, 0xd6, 0xc9, 0x33, 0x7f, 0xff, 0x60, 0xd9,
  0xed, 0x81, 0xd0, 0xfb, 0x3a, 0x39, 0xd6, 0xd0, 0xc8, 0x71, 0x3d, 0xd0, 0xf3,
  0xdb, 0x34, 0x11, 0xce, 0x12, 0x81, 0xc5, 0x0b, 0xcb, 0xaa, 0x0b, 0x1b, 0xf9,
  0x25, 0xae, 0xb2, 0xf8, 0xf0, 0x81, 0xed, 0xad, 0x67, 0x5d, 0x58, 0x02, 0x56,
  0xe2, 0x4e, 0x81, 0x5b, 0x4f, 0x9b, 0xa7, 0x0c, 0x4f, 0x1b, 0x68, 0x20, 0x84,
  0xf6, 0xbb, 0x7f, 0x05, 0x01, 0x2a, 0x09, 0xc2, 0x81, 0xd3, 0x48, 0xe9, 0xd6,
  0x21, 0x3a, 0x18, 0xce, 0x03, 0x29, 0x8c, 0xde, 0x85, 0x0b, 0xd9, 0x92, 0x42,
  0xe4, 0x48, 0xfb, 0x81, 0xe6, 0xef, 0xff, 0xff, 0x04, 0x00, 0x00, 0x00, 0x3c,
  0x00, 0x00, 0x00, 0x96, 0xc4, 0x41, 0xe7, 0x7f, 0x0b, 0x14, 0x7f, 0x04, 0x89,
  0xf3, 0x00, 0xd4, 0x9e, 0xa5, 0xa5, 0xa8, 0x7f, 0x33, 0xd1, 0x88, 0x7f, 0x2c,
  0x17, 0x7f, 0x90, 0xff, 0x77, 0xbd, 0x0c, 0x7f, 0x26, 0x81, 0xd3, 0x81, 0x7f,
  0xe2, 0x7f, 0x20, 0x81, 0x59, 0x1b, 0xd9, 0xc5, 0xd0, 0xff, 0xfe, 0xc1, 0x7c,
  0x8d, 0x81, 0x16, 0x85, 0xf0, 0x06, 0x07, 0x1b, 0x1f, 0x22, 0x0a, 0x2e, 0xf0,
  0xff, 0xff, 0x04, 0x00, 0x00, 0x00, 0x60, 0x00, 0x00, 0x00, 0x00, 0x00, 0x00,
  0x00, 0x00, 0x00, 0x00, 0x00, 0x00, 0x00, 0x00, 0x00, 0x00, 0x00, 0x00, 0x00,
  0x00, 0x00, 0x00, 0x00, 0x00, 0x00, 0x00, 0x00, 0x00, 0x00, 0x00, 0x00, 0x00,
  0x00, 0x00, 0x00, 0x00, 0x00, 0x00, 0x00, 0x00, 0x00, 0x00, 0x00, 0x00, 0x00,
  0x00, 0x00, 0x00, 0x00, 0x00, 0x00, 0x00, 0x00, 0x00, 0x00, 0x00, 0x00, 0x00,
  0x00, 0x00, 0x00, 0x00, 0x00, 0x00, 0x00, 0x00, 0x00, 0x00, 0x00, 0x00, 0x00,
  0x00, 0x00, 0x00, 0x00, 0x00, 0x00, 0x00, 0x00, 0x00, 0x00, 0x00, 0x00, 0x00,
  0x00, 0x00, 0x00, 0x00, 0x00, 0x00, 0x00, 0x00, 0x00, 0x00, 0x00, 0x00, 0x00,
  0x00, 0x00, 0x9a, 0xf0, 0xff, 0xff, 0x04, 0x00, 0x00, 0x00, 0x3c, 0x00, 0x00,
  0x00, 0xf4, 0xe5, 0xe7, 0xd1, 0xfb, 0x7f, 0xc9, 0x09, 0x7f, 0x3a, 0x7f, 0x3b,
  0xca, 0x81, 0x73, 0x7f, 0x81, 0x7f, 0x7f, 0x7f, 0x5d, 0x7f, 0x49, 0x81, 0x81,
  0x9a, 0x7f, 0x04, 0x8d, 0xd1, 0xd2, 0x6f, 0xee, 0x3f, 0xce, 0x44, 0xdf, 0xd7,
  0x35, 0xff, 0xec, 0xb7, 0xaf, 0x32, 0x13, 0xf3, 0xcf, 0x12, 0x0f, 0x1c, 0xd7,
  0x04, 0x04, 0x08, 0xcf, 0xc4, 0xf6, 0xe5, 0x0e, 0xf2, 0xe2, 0xf0, 0xff, 0xff,
  0x04, 0x00, 0x00, 0x00, 0x51, 0x00, 0x00, 0x00, 0xd7, 0xd6, 0xa0, 0x01, 0x18,
  0xa7, 0x2b, 0x20, 0x7f, 0x51, 0x7f, 0xdb, 0x59, 0x41, 0x26, 0xd3, 0xd5, 0x53,
  0xd1, 0x93, 0xfb, 0x39, 0x7f, 0x14, 0x06, 0x42, 0xd1, 0xde, 0x01, 0x48, 0x1e,
  0x2d, 0x9a, 0xe7, 0x81, 0xd0, 0x0d, 0xdb, 0xff, 0x00, 0xfb, 0x66, 0x0f, 0x81,
  0x3c, 0xf1, 0x37, 0x4b, 0x70, 0x7b, 0x8b, 0x81, 0xb0, 0x9f, 0xeb, 0x45, 0x3c,
  0x46, 0x31, 0xdc, 0x7f, 0x29, 0xd1, 0x7f, 0x3a, 0xd0, 0x00, 0x0f, 0x47, 0x30,
  0xb0, 0x2f, 0x27, 0xbb, 0xb9, 0xbc, 0xe3, 0x61, 0xcf, 0x81, 0x1e, 0x00, 0x00,
  0x00, 0x42, 0xf1, 0xff, 0xff, 0x04, 0x00, 0x00, 0x00, 0x2d, 0x00, 0x00, 0x00,
  0x81, 0xc4, 0x2a, 0x4c, 0x07, 0xfa, 0xfd, 0x61, 0x64, 0x5a, 0xe0, 0x7f, 0x7f,
  0x64, 0x7f, 0x81, 0x7b, 0x7f, 0x70, 0x7f, 0xc9, 0x07, 0x7f, 0xd4, 0x16, 0x7f,
  0x31, 0xf3, 0xc0, 0xb8, 0xf6, 0x05, 0x07, 0x0b, 0x25, 0x10, 0xf3, 0xfd, 0x1e,
  0xf9, 0xe5, 0xfa, 0xea, 0x21, 0x1a, 0x00, 0x00, 0x00, 0x7e, 0xf1, 0xff, 0xff,
  0x04, 0x00, 0x00, 0x00, 0x2d, 0x00, 0x00, 0x00, 0x07, 0x2a, 0xeb, 0xeb, 0x0f,
  0xfb, 0xcb, 0xe5, 0xd3, 0x7f, 0x7f, 0x11, 0xde, 0x7f, 0x00, 0x6e, 0xb8, 0xad,
  0x25, 0x67, 0x81, 0x81, 0xe2, 0x81, 0x81, 0x81, 0x81, 0xc5, 0xdb, 0x0d, 0x05,
  0x02, 0x13, 0x32, 0xbe, 0xc8, 0xfd, 0x1d, 0x01, 0x03, 0xf2, 0xfa, 0xef, 0x05,
  0xc3, 0x00, 0x00, 0x00, 0xba, 0xf1, 0xff, 0xff, 0x04, 0x00, 0x00, 0x00, 0x6c,
  0x00, 0x00, 0x00, 0x68, 0xe0, 0x6b, 0xe8, 0xc0, 0xdc, 0xd1, 0xd5, 0x81, 0xf3,
  0x8d, 0x09, 0x03, 0x70, 0xb4, 0x0b, 0x4d, 0x11, 0x09, 0x64, 0x81, 0xd5, 0xe5,
  0x00, 0x24, 0x50, 0x32, 0xf5, 0x18, 0x09, 0x2e, 0x23, 0x3b, 0x48, 0x35, 0x81,
  0x6d, 0xf5, 0xbd, 0xd9, 0xea, 0xa1, 0xb3, 0xf2, 0x55, 0x4d, 0x7f, 0x3a, 0xd4,
  0x81, 0x77, 0xf7, 0xd6, 0xa8, 0xab, 0x10, 0x2e, 0x44, 0x2f, 0x1d, 0xed, 0x3b,
  0xf7, 0xf5, 0xc4, 0xa2, 0xb8, 0x81, 0x03, 0x45, 0xb8, 0x6b, 0xff, 0x15, 0xe6,
  0x34, 0x20, 0x21, 0x15, 0x52, 0xeb, 0x81, 0x67, 0x93, 0xad, 0xf9, 0xef, 0x90,
  0x23, 0x81, 0x1e, 0x13, 0x24, 0xf6, 0xf2, 0xf6, 0x03, 0xe0, 0x0f, 0xea, 0x7f,
  0xf7, 0x23, 0xea, 0x26, 0x0b, 0xec, 0xa9, 0x32, 0xf2, 0xff, 0xff, 0x04, 0x00,
  0x00, 0x00, 0x3c, 0x00, 0x00, 0x00, 0x11, 0xf2, 0xb8, 0x02, 0xfe, 0x15, 0x30,
  0x42, 0x27, 0xb4, 0xf9, 0x24, 0x1d, 0x61, 0x82, 0xf9, 0x81, 0xee, 0x0b, 0xff,
  0xc9, 0xe5, 0xde, 0x61, 0x15, 0x7f, 0x4b, 0x79, 0x68, 0x81, 0xe7, 0x7f, 0x81,
  0x83, 0xec, 0x81, 0x81, 0x5a, 0x7f, 0x7f, 0x36, 0xbf, 0x81, 0x2a, 0x39, 0x81,
  0x7f, 0xaa, 0xd7, 0xeb, 0x1e, 0x47, 0xde, 0x17, 0x01, 0x25, 0xe9, 0xcb, 0x50,
  0xd2, 0x7a, 0xf2, 0xff, 0xff, 0x04, 0x00, 0x00, 0x00, 0x3c, 0x00, 0x00, 0x00,
  0xf5, 0x0e, 0x4c, 0xc6, 0x01, 0x41, 0xa3, 0xf4, 0x1c, 0xff, 0x7f, 0x39, 0x1a,
  0x4f, 0x1a, 0x7f, 0x7f, 0x7f, 0x57, 0xbf, 0x2f, 0xb1, 0x6a, 0x7f, 0x7f, 0x7f,
  0xbb, 0xe5, 0x6b, 0x0f, 0x7f, 0x81, 0x81, 0x81, 0xe4, 0x6d, 0xdf, 0x33, 0x81,
  0x0a, 0x09, 0xdd, 0xc9, 0xcf, 0xad, 0xa7, 0xf2, 0x16, 0xc2, 0xe2, 0x8a, 0xe1,
  0xf7, 0x04, 0xea, 0x24, 0xdc, 0x09, 0x28, 0xef, 0xc2, 0xf2, 0xff, 0xff, 0x04,
  0x00, 0x00, 0x00, 0xb4, 0x00, 0x00, 0x00, 0xf6, 0xcd, 0x7c, 0x1b, 0x1b, 0x4a,
  0x50, 0xef, 0xf3, 0x78, 0x13, 0x04, 0x20, 0x7f, 0x1d, 0x5a, 0x84, 0x0b, 0x0b,
  0xba, 0x09, 0x31, 0x19, 0xe4, 0x1f, 0x7f, 0xe6, 0x97, 0xe3, 0x62, 0x55, 0xa3,
  0xed, 0xbe, 0xf9, 0x5d, 0x47, 0x1c, 0xdc, 0x7f, 0x31, 0xbc, 0xd1, 0xe4, 0x31,
  0xb1, 0x0c, 0x19, 0x4b, 0xed, 0xe0, 0xbf, 0x17, 0x3e, 0xb5, 0x81, 0x33, 0xc0,
  0x75, 0x07, 0xa6, 0xdb, 0x0b, 0x47, 0xe7, 0x81, 0xe2, 0x25, 0x49, 0xb8, 0xbf,
  0x35, 0x30, 0xdf, 0xd7, 0x51, 0x81, 0xc1, 0xf0, 0xc9, 0xf7, 0xb3, 0xf4, 0xd2,
  0xef, 0x20, 0x01, 0xd8, 0x02, 0x7e, 0x44, 0xa3, 0xd7, 0x2b, 0x8e, 0x54, 0x81,
  0x9f, 0xc6, 0x54, 0x39, 0x2c, 0x0d, 0xfc, 0x4d, 0x29, 0xea, 0x81, 0x50, 0xe1,
  0xe4, 0xcc, 0x38, 0x2b, 0xee, 0x08, 0xf9, 0x3f, 0xcf, 0x64, 0xac, 0x0e, 0x11,
  0x7f, 0x1a, 0x8e, 0x35, 0x11, 0x56, 0xda, 0xf1, 0xcd, 0x3e, 0x29, 0xdf, 0xe1,
  0x81, 0x42, 0x17, 0x5f, 0x32, 0x2a, 0x2d, 0x3a, 0x0c, 0xcf, 0x31, 0xcf, 0x64,
  0xeb, 0xda, 0xf2, 0xf0, 0xf5, 0xfa, 0xaf, 0xf0, 0x7f, 0x3c, 0xcd, 0x00, 0xbf,
  0xe5, 0xdf, 0x13, 0x81, 0xa5, 0x54, 0x79, 0x00, 0x1b, 0x0f, 0xe5, 0xf5, 0x5f,
  0x2a, 0x5c, 0x59, 0x09, 0x3f, 0x82, 0xf3, 0xff, 0xff, 0x04, 0x00, 0x00, 0x00,
  0x4b, 0x00, 0x00, 0x00, 0xf6, 0xa8, 0xad, 0x09, 0xe2, 0x7f, 0x30, 0x12, 0x3a,
  0x81, 0x7f, 0xfc, 0xae, 0xc3, 0x7f, 0x2b, 0xbc, 0x50, 0xdd, 0x81, 0xb8, 0x7f,
  0x81, 0xde, 0x06, 0xe5, 0x73, 0x4e, 0x2b, 0x75, 0x7f, 0x81, 0x1f, 0x41, 0x02,
  0x93, 0xb3, 0xf5, 0x7f, 0x3b, 0xcf, 0x81, 0x7f, 0x2f, 0x75, 0xc5, 0xeb, 0xf3,
  0x81, 0x60, 0x08, 0x2d, 0xf4, 0xd8, 0x2c, 0xb7, 0x44, 0x33, 0x7f, 0x66, 0xef,
  0x06, 0x81, 0x11, 0x41, 0x1b, 0x48, 0x08, 0x73, 0xf9, 0x63, 0x4c, 0xf6, 0x42,
  0xdc, 0x00, 0xda, 0xf3, 0xff, 0xff, 0x04, 0x00, 0x00, 0x00, 0x78, 0x00, 0x00,
  0x00, 0x00, 0x00, 0x00, 0x00, 0x00, 0x00, 0x00, 0x00, 0x00, 0x00, 0x00, 0x00,
  0x00, 0x00, 0x00, 0x00, 0x00, 0x00, 0x00, 0x00, 0x00, 0x00, 0x00, 0x00, 0x00,
  0x00, 0x00, 0x00, 0x00, 0x00, 0x00, 0x00, 0x00, 0x00, 0x00, 0x00, 0x00, 0x00,
  0x00, 0x00, 0x00, 0x00, 0x00, 0x00, 0x00, 0x00, 0x00, 0x00, 0x00, 0x00, 0x00,
  0x00, 0x00, 0x00, 0x00, 0x00, 0x00, 0x00, 0x00, 0x00, 0x00, 0x00, 0x00, 0x00,
  0x00, 0x00, 0x00, 0x00, 0x00, 0x00, 0x00, 0x00, 0x00, 0x00, 0x00, 0x00, 0x00,
  0x00, 0x00, 0x00, 0x00, 0x00, 0x00, 0x00, 0x00, 0x00, 0x00, 0x00, 0x00, 0x00,
  0x00, 0x00, 0x00, 0x00, 0x00, 0x00, 0x00, 0x00, 0x00, 0x00, 0x00, 0x00, 0x00,
  0x00, 0x00, 0x00, 0x00, 0x00, 0x00, 0x00, 0x00, 0x00, 0x00, 0x00, 0x00, 0x00,
  0x00, 0x00, 0x00, 0x00, 0x5e, 0xf4, 0xff, 0xff, 0x04, 0x00, 0x00, 0x00, 0x4b,
  0x00, 0x00, 0x00, 0x15, 0x28, 0x0e, 0xd1, 0x6f, 0xbd, 0x81, 0x45, 0xfb, 0x19,
  0x25, 0x29, 0x23, 0xd5, 0x81, 0x64, 0x81, 0xe2, 0x88, 0xa0, 0x8a, 0x8c, 0xeb,
  0xf5, 0x7f, 0x7f, 0x13, 0x6a, 0x81, 0x4e, 0x7f, 0x6b, 0x63, 0x81, 0x81, 0x81,
  0x19, 0xd9, 0xd5, 0x07, 0x77, 0x81, 0xd9, 0x92, 0xf0, 0xb8, 0xce, 0x81, 0x43,
  0x25, 0x86, 0xa2, 0xd3, 0x81, 0x22, 0xc0, 0x08, 0x7f, 0x1a, 0x11, 0x0c, 0x00,
  0x01, 0x12, 0xb8, 0x2a, 0xd5, 0x81, 0xdf, 0xf3, 0x0a, 0xcb, 0x03, 0xfe, 0x05,
  0x00, 0xb6, 0xf4, 0xff, 0xff, 0x04, 0x00, 0x00, 0x00, 0x90, 0x00, 0x00, 0x00,
  0x04, 0xff, 0xfd, 0x5a, 0xdb, 0xce, 0xf5, 0xd4, 0x66, 0xf8, 0x7f, 0xfa, 0xe1,
  0x11, 0x81, 0x05, 0xd8, 0x5e, 0xf0, 0xe3, 0x54, 0xc2, 0x36, 0x65, 0x10, 0x39,
  0xc1, 0x26, 0xf0, 0x7f, 0x51, 0xfe, 0x4d, 0xb7, 0xee, 0x37, 0x17, 0xd3, 0x81,
  0x0b, 0x06, 0x3b, 0xf2, 0xad, 0x1d, 0x54, 0x4b, 0x04, 0x05, 0x81, 0x20, 0xb3,
  0xd7, 0xde, 0xa8, 0xef, 0x99, 0x45, 0xf4, 0xad, 0xd8, 0xfc, 0x81, 0xd4, 0x24,
  0x25, 0x1a, 0xfb, 0x09, 0xe6, 0xf6, 0x0c, 0xa2, 0x0d, 0x09, 0xa0, 0x47, 0x21,
  0x7f, 0x29, 0x33, 0x88, 0xe1, 0x20, 0x01, 0x81, 0xd4, 0x0f, 0xbd, 0x0e, 0x64,
  0x13, 0x07, 0xa1, 0xa7, 0x03, 0x21, 0xc9, 0x81, 0xf2, 0xf3, 0xb6, 0xcf, 0xec,
  0xd0, 0x31, 0x01, 0xd8, 0xf3, 0xf5, 0x0b, 0x0a, 0x81, 0xf8, 0x2c, 0x9f, 0x1e,
  0x05, 0x04, 0xf8, 0x3c, 0xe7, 0x7a, 0x25, 0x81, 0xb8, 0xa8, 0xe3, 0xda, 0x02,
  0x41, 0xe5, 0xd5, 0xf8, 0x7f, 0xd3, 0x04, 0xdc, 0x04, 0x1b, 0xf6, 0xc5, 0x0e,
  0xaa, 0x52, 0xf5, 0xff, 0xff, 0x04, 0x00, 0x00, 0x00, 0x3c, 0x00, 0x00, 0x00,
  0xe9, 0x18, 0x02, 0x0c, 0x38, 0x1e, 0x05, 0x29, 0x1c, 0xf5, 0x3a, 0x31, 0x26,
  0x4f, 0x04, 0x0d, 0x8f, 0xe8, 0x7f, 0x64, 0x26, 0x36, 0x7f, 0x0c, 0x81, 0x40,
  0x81, 0x7f, 0x81, 0x7f, 0xb6, 0x7f, 0x7f, 0x7f, 0x58, 0x81, 0xeb, 0x7f, 0xdf,
  0x4b, 0xe3, 0x2f, 0x31, 0x45, 0x44, 0x3e, 0x49, 0xe8, 0x09, 0xdf, 0x02, 0x1b,
  0x0c, 0xf9, 0x53, 0x14, 0x0f, 0xf1, 0x4b, 0xf7, 0x9a, 0xf5, 0xff, 0xff, 0x04,
  0x00, 0x00, 0x00, 0x3c, 0x00, 0x00, 0x00, 0xf2, 0xff, 0x08, 0x36, 0x79, 0x09,
  0xe4, 0x7f, 0x06, 0xa8, 0x7f, 0xfe, 0x5b, 0x81, 0x81, 0xd4, 0x81, 0x20, 0x81,
  0x70, 0x7f, 0x7f, 0x1b, 0x1c, 0xc4, 0xd4, 0xff, 0xcf, 0x58, 0x81, 0x65, 0x44,
  0x50, 0xce, 0x5e, 0x7f, 0x7f, 0x04, 0x05, 0x81, 0xfd, 0x1a, 0x83, 0x44, 0xef,
  0x19, 0x6d, 0xe8, 0xc3, 0xe4, 0x02, 0x22, 0xdf, 0x11, 0x26, 0x16, 0x13, 0xd8,
  0x0b, 0x12, 0xe2, 0xf5, 0xff, 0xff, 0x04, 0x00, 0x00, 0x00, 0xb4, 0x00, 0x00,
  0x00, 0xbd, 0x9a, 0x25, 0x0c, 0x23, 0x28, 0x0f, 0x81, 0xff, 0x33, 0xc8, 0xaf,
  0x0e, 0xa1, 0x39, 0x00, 0x28, 0xff, 0x81, 0x0e, 0x1f, 0x76, 0xf8, 0xbe, 0xf4,
  0xd6, 0xf6, 0x8c, 0xd4, 0xea, 0xfb, 0x0c, 0x81, 0x00, 0x14, 0x00, 0xf2, 0x0b,
  0x00, 0x33, 0xfb, 0x04, 0x0b, 0xf4, 0xf2, 0x7f, 0x7d, 0x0e, 0xb9, 0x17, 0xe4,
  0x54, 0x1b, 0x4c, 0xdb, 0x5f, 0x66, 0x26, 0x2d, 0x15, 0x14, 0x21, 0x46, 0xf3,
  0xf4, 0x7f, 0xce, 0xfc, 0x0f, 0x7c, 0xea, 0xf7, 0xfc, 0x01, 0xed, 0x7f, 0x15,
  0x21, 0x10, 0x69, 0xef, 0xb1, 0x18, 0x15, 0x2b, 0x0f, 0x03, 0x2d, 0x27, 0xf8,
  0x32, 0x5f, 0x0d, 0xd2, 0xf8, 0xcc, 0x4c, 0x3e, 0x1e, 0xb9, 0xfe, 0x7f, 0x4c,
  0xc8, 0x91, 0xd2, 0x6f, 0xfc, 0x14, 0xfe, 0x28, 0x3f, 0x93, 0x7f, 0xde, 0xfe,
  0x16, 0xf4, 0x6b, 0xae, 0x08, 0x49, 0x10, 0x1c, 0x0d, 0x02, 0x30, 0x13, 0xbf,
  0xe8, 0x4d, 0x3d, 0xad, 0x3f, 0x7f, 0xd8, 0xcb, 0xaa, 0xe7, 0x81, 0x1c, 0x06,
  0x99, 0xf6, 0x27, 0x00, 0xe2, 0xd9, 0xbc, 0xf0, 0x1d, 0x5e, 0xb3, 0xe8, 0xb2,
  0xa8, 0x23, 0xe5, 0x72, 0x0f, 0x81, 0xe4, 0xd2, 0x5b, 0x12, 0x1a, 0xfa, 0x01,
  0x81, 0x29, 0xfe, 0xb8, 0x07, 0x84, 0x1b, 0xf1, 0xe4, 0xe7, 0xf3, 0x10, 0xa2,
  0xf6, 0xff, 0xff, 0x04, 0x00, 0x00, 0x00, 0x4b, 0x00, 0x00, 0x00, 0xed, 0xdf,
  0xfa, 0x0f, 0xfc, 0xfb, 0x52, 0xf1, 0xdc, 0x61, 0xc5, 0xb9, 0xc7, 0xdc, 0xb0,
  0x81, 0x96, 0x81, 0xa3, 0x81, 0x54, 0x81, 0x7f, 0x83, 0x6a, 0xd4, 0xb1, 0x81,
  0x81, 0x81, 0xd9, 0x81, 0xcb, 0x6d, 0xe3, 0x7f, 0x34, 0x63, 0xc9, 0x18, 0x81,
  0x81, 0xe2, 0xb1, 0x48, 0x08, 0xf4, 0x00, 0x81, 0x0e, 0x1a, 0x56, 0xde, 0x7f,
  0x7f, 0xff, 0xd4, 0x6d, 0xe4, 0xc7, 0x0a, 0x1b, 0x01, 0x29, 0xd3, 0x09, 0xdb,
  0x11, 0x5c, 0xce, 0xe1, 0x02, 0x08, 0x0e, 0x08, 0x00, 0xfa, 0xf6, 0xff, 0xff,
  0x04, 0x00, 0x00, 0x00, 0x4b, 0x00, 0x00, 0x00, 0xfd, 0xfc, 0xf6, 0xe1, 0x2a,
  0xc1, 0xf0, 0x27, 0xe6, 0xe2, 0xfb, 0xe5, 0x10, 0xff, 0x12, 0x9b, 0x42, 0xec,
  0x9b, 0x50, 0xd7, 0xe5, 0x66, 0xa3, 0xf8, 0x8a, 0xe1, 0xf1, 0x24, 0x4c, 0x81,
  0x7f, 0x96, 0x81, 0x7f, 0x21, 0xd6, 0x81, 0x81, 0x7f, 0xb8, 0xd6, 0x7f, 0x44,
  0x7f, 0x71, 0x6f, 0x81, 0xe1, 0x37, 0x08, 0x81, 0x0d, 0xbe, 0x5d, 0x7f, 0x81,
  0x26, 0x7f, 0xce, 0x00, 0x89, 0x08, 0x13, 0x04, 0x7f, 0xf8, 0xcd, 0xe8, 0x39,
  0x6f, 0xf9, 0x19, 0x21, 0x0f, 0x00, 0x52, 0xf7, 0xff, 0xff, 0x04, 0x00, 0x00,
  0x00, 0x2c, 0x01, 0x00, 0x00, 0x56, 0xee, 0xd7, 0x56, 0xce, 0x60, 0xdc, 0x10,
  0xaf, 0xd2, 0x7f, 0x01, 0xf3, 0xfd, 0xe4, 0x57, 0xc1, 0xf1, 0x5d, 0x5c, 0xb9,
  0x81, 0x9c, 0x51, 0x4f, 0xa0, 0xf6, 0x0b, 0x16, 0x03, 0x09, 0x5b, 0x0f, 0xd7,
  0xd0, 0xe0, 0x34, 0x9e, 0xe7, 0x27, 0xf0, 0x34, 0x41, 0x79, 0xf3, 0x25, 0x1b,
  0xf1, 0x12, 0xa9, 0xf0, 0x02, 0x25, 0x81, 0x00, 0x30, 0xd8, 0x34, 0x2e, 0xf0,
  0x0a, 0x30, 0xf9, 0x14, 0x1f, 0xe6, 0x19, 0x16, 0x01, 0xea, 0x7f, 0xed, 0x28,
  0x1f, 0xd8, 0xe6, 0x98, 0x06, 0x24, 0x0e, 0x18, 0x22, 0xdb, 0x4f, 0x5a, 0xf3,
  0xb7, 0xd7, 0xe7, 0xdd, 0x20, 0x81, 0x1a, 0xa8, 0x35, 0x94, 0xbf, 0x2e, 0x13,
  0xe5, 0xff, 0xd2, 0xdf, 0x10, 0x7f, 0x1e, 0xf5, 0xc7, 0x09, 0x1b, 0x38, 0x04,
  0xf5, 0x3f, 0x79, 0x22, 0xe5, 0xfa, 0x05, 0x94, 0xf0, 0x10, 0x25, 0xe2, 0xcc,
  0x24, 0x99, 0x9c, 0x19, 0xf5, 0xe4, 0xd8, 0x0d, 0x0e, 0xec, 0xff, 0x53, 0x7f,
  0xfb, 0xdf, 0x0e, 0xd5, 0x1c, 0x7f, 0x2f, 0xe8, 0x55, 0xcb, 0xdc, 0xcd, 0xbb,
  0xab, 0xe7, 0x42, 0x89, 0x2c, 0x3f, 0x15, 0x02, 0x36, 0x07, 0x1a, 0x81, 0xe6,
  0x1a, 0x16, 0x22, 0xdf, 0x36, 0x56, 0xa4, 0x28, 0x35, 0xf3, 0x06, 0xe1, 0x20,
  0xdf, 0xbd, 0xf9, 0xe0, 0x3f, 0x9e, 0x14, 0x1c, 0xd8, 0x23, 0x0e, 0x01, 0x0e,
  0x4a, 0xed, 0x57, 0x7f, 0x0c, 0x0f, 0xc9, 0x0d, 0x33, 0x07, 0xd6, 0x9d, 0xfe,
  0x1e, 0xb0, 0x10, 0xe5, 0xbd, 0x18, 0x70, 0x42, 0x81, 0xfc, 0x04, 0x11, 0x23,
  0xe7, 0xe1, 0xfd, 0xdd, 0xe4, 0x2a, 0x81, 0xc9, 0x05, 0x2f, 0xfe, 0xa1, 0x47,
  0x09, 0xab, 0x2d, 0x12, 0x04, 0x11, 0xda, 0x76, 0x2b, 0x9d, 0x1d, 0x42, 0x09,
  0x20, 0x81, 0x32, 0x16, 0x06, 0xca, 0xe1, 0x06, 0x09, 0x0c, 0xc9, 0x97, 0x23,
  0xc3, 0x15, 0xf5, 0xce, 0x19, 0xbc, 0xf8, 0x17, 0xde, 0x36, 0x0b, 0x7e, 0xdb,
  0x54, 0x49, 0xe7, 0xf8, 0x7f, 0xf9, 0x17, 0xff, 0xb8, 0x0e, 0xbe, 0x1f, 0xd9,
  0xb8, 0xf4, 0xd8, 0xab, 0xaa, 0xa1, 0x8d, 0xd7, 0x13, 0x10, 0xb8, 0x13, 0xf9,
  0xe8, 0x81, 0x18, 0x13, 0xa5, 0x28, 0x8a, 0xf8, 0xff, 0xff, 0x04, 0x00, 0x00,
  0x00, 0x64, 0x00, 0x00, 0x00, 0xb5, 0x03, 0x81, 0xb0, 0x97, 0xe2, 0x1a, 0x81,
  0x2c, 0x86, 0x29, 0x0f, 0xfa, 0x7f, 0x59, 0xde, 0x29, 0xb8, 0x3e, 0xfc, 0x18,
  0xcc, 0xc7, 0xfb, 0xf4, 0xf2, 0xfb, 0x29, 0x28, 0x81, 0x13, 0xf9, 0x1a, 0x42,
  0x7f, 0xe6, 0x23, 0x7f, 0x10, 0x09, 0x7f, 0xdd, 0x18, 0x41, 0x7f, 0x7f, 0x66,
  0x0f, 0x81, 0x54, 0x81, 0x7f, 0x7f, 0x14, 0x36, 0x81, 0x7f, 0x0d, 0x81, 0x81,
  0x9a, 0x7f, 0x21, 0x7f, 0x7f, 0xf5, 0x81, 0x2d, 0x3d, 0xa1, 0x0b, 0x8a, 0xa4,
  0x1a, 0x49, 0xef, 0x39, 0xe4, 0x18, 0xca, 0x84, 0xdf, 0xf6, 0x16, 0x27, 0xad,
  0x1f, 0x16, 0xf0, 0xf3, 0xf4, 0xd0, 0x69, 0x0e, 0x24, 0xb5, 0x45, 0xb0, 0x09,
  0xf7, 0xfa, 0xf8, 0xff, 0xff, 0x04, 0x00, 0x00, 0x00, 0xa0, 0x00, 0x00, 0x00,
  0x00, 0x00, 0x00, 0x00, 0x00, 0x00, 0x00, 0x00, 0x00, 0x00, 0x00, 0x00, 0x00,
  0x00, 0x00, 0x00, 0x00, 0x00, 0x00, 0x00, 0x00, 0x00, 0x00, 0x00, 0x00, 0x00,
  0x00, 0x00, 0x00, 0x00, 0x00, 0x00, 0x00, 0x00, 0x00, 0x00, 0x00, 0x00, 0x00,
  0x00, 0x00, 0x00, 0x00, 0x00, 0x00, 0x00, 0x00, 0x00, 0x00, 0x00, 0x00, 0x00,
  0x00, 0x00, 0x00, 0x00, 0x00, 0x00, 0x00, 0x00, 0x00, 0x00, 0x00, 0x00, 0x00,
  0x00, 0x00, 0x00, 0x00, 0x00, 0x00, 0x00, 0x00, 0x00, 0x00, 0x00, 0x00, 0x00,
  0x00, 0x00, 0x00, 0x00, 0x00, 0x00, 0x00, 0x00, 0x00, 0x00, 0x00, 0x00, 0x00,
  0x00, 0x00, 0x00, 0x00, 0x00, 0x00, 0x00, 0x00, 0x00, 0x00, 0x00, 0x00, 0x00,
  0x00, 0x00, 0x00, 0x00, 0x00, 0x00, 0x00, 0x00, 0x00, 0x00, 0x00, 0x00, 0x00,
  0x00, 0x00, 0x00, 0x00, 0x00, 0x00, 0x00, 0x00, 0x00, 0x00, 0x00, 0x00, 0x00,
  0x00, 0x00, 0x00, 0x00, 0x00, 0x00, 0x00, 0x00, 0x00, 0x00, 0x00, 0x00, 0x00,
  0x00, 0x00, 0x00, 0x00, 0x00, 0x00, 0x00, 0x00, 0x00, 0x00, 0x00, 0x00, 0x00,
  0x00, 0x00, 0x00, 0x00, 0xa6, 0xf9, 0xff, 0xff, 0x04, 0x00, 0x00, 0x00, 0x64,
  0x00, 0x00, 0x00, 0x7f, 0x15, 0x06, 0xed, 0xd2, 0xe0, 0x66, 0x15, 0xd5, 0xd4,
  0xf5, 0x26, 0x31, 0xf6, 0xb1, 0x34, 0x18, 0x2f, 0x0b, 0xd0, 0xfd, 0x4b, 0x7f,
  0xd3, 0x7f, 0x23, 0x81, 0xf0, 0xec, 0xca, 0xfd, 0x43, 0x47, 0x0c, 0x18, 0x02,
  0x0b, 0xf5, 0x1e, 0xf8, 0x99, 0x81, 0xe5, 0xc5, 0xb7, 0x30, 0xda, 0x81, 0xdc,
  0x7f, 0xdb, 0x03, 0xcd, 0x7f, 0x0a, 0x81, 0x2c, 0xb4, 0xb6, 0x5d, 0x9c, 0xbd,
  0x97, 0xb0, 0x35, 0x81, 0x64, 0xad, 0x81, 0x76, 0x7f, 0x28, 0x88, 0x4c, 0xc1,
  0x2b, 0x81, 0xa7, 0x7f, 0x7f, 0x22, 0x78, 0x96, 0x81, 0xbf, 0xfc, 0xfc, 0xd2,
  0xf1, 0xd3, 0xc9, 0x81, 0x7f, 0x32, 0x7f, 0x23, 0x2c, 0x81, 0x18, 0x7b, 0x16,
  0xfa, 0xff, 0xff, 0x04, 0x00, 0x00, 0x00, 0xe1, 0x00, 0x00, 0x00, 0xca, 0x13,
  0xfb, 0x31, 0x30, 0x1f, 0x7f, 0x46, 0x29, 0xff, 0xdf, 0xf0, 0xd0, 0xf6, 0xdf,
  0x60, 0xc7, 0x81, 0x04, 0xe2, 0xd0, 0xc9, 0xd0, 0x51, 0xc4, 0xb1, 0x15, 0xe7,
  0x8d, 0x26, 0x20, 0x11, 0x27, 0x0b, 0xe4, 0xe9, 0x7f, 0x12, 0x00, 0x1b, 0xf6,
  0xdd, 0xe3, 0xe5, 0xf3, 0xe5, 0x18, 0xfd, 0x8c, 0x04, 0xa5, 0x56, 0xcf, 0x64,
  0x28, 0xd4, 0xcc, 0x7f, 0x4e, 0xd5, 0xe5, 0x9b, 0xe6, 0xc3, 0x16, 0xd5, 0x33,
  0x81, 0x52, 0xff, 0x6f, 0xca, 0x33, 0x03, 0x6a, 0xdf, 0xbd, 0xf1, 0x04, 0x1a,
  0x01, 0xe8, 0x01, 0x07, 0x81, 0x29, 0xf8, 0x04, 0x12, 0x6a, 0x14, 0xfe, 0xcc,
  0xe9, 0xec, 0x81, 0x14, 0xbb, 0xc1, 0xdd, 0x48, 0x14, 0x16, 0x08, 0x06, 0x07,
  0xf8, 0x4c, 0x4a, 0x23, 0x31, 0x0d, 0x12, 0x1f, 0xf1, 0x81, 0x5f, 0x9d, 0xa3,
  0x0a, 0x36, 0x36, 0x52, 0xda, 0xb2, 0x13, 0x81, 0xba, 0xea, 0xed, 0x20, 0xd5,
  0x13, 0x1c, 0x03, 0xd9, 0x30, 0x02, 0xbf, 0x29, 0x15, 0x1e, 0x1d, 0xfb, 0x06,
  0xc6, 0xbf, 0x3f, 0x81, 0x15, 0x59, 0xb6, 0x48, 0xdb, 0xcd, 0x1d, 0x7f, 0x2e,
  0x00, 0xf5, 0x16, 0x15, 0x05, 0xe3, 0x14, 0x53, 0xd7, 0xb5, 0xd4, 0xb1, 0x81,
  0xf5, 0xbf, 0x8f, 0xe7, 0x23, 0x3b, 0xef, 0xe4, 0x0f, 0xd4, 0xcf, 0x1a, 0x17,
  0xc8, 0x11, 0xd8, 0xb9, 0x1f, 0x31, 0x3a, 0x43, 0x0f, 0x7f, 0x07, 0x7f, 0x30,
  0x33, 0x9f, 0x8f, 0xed, 0xc2, 0xee, 0xe9, 0x3d, 0xf9, 0xf9, 0x64, 0xfd, 0x05,
  0x59, 0xaa, 0xeb, 0xc6, 0x15, 0xfa, 0x18, 0x81, 0x3a, 0x1a, 0xd6, 0x45, 0x10,
  0xc4, 0xa1, 0x00, 0x00, 0x00, 0x06, 0xfb, 0xff, 0xff, 0x04, 0x00, 0x00, 0x00,
  0x4b, 0x00, 0x00, 0x00, 0xf1, 0xdd, 0xf4, 0xf8, 0x11, 0x09, 0x06, 0x10, 0xfd,
  0xcb, 0x25, 0x14, 0x05, 0xfe, 0x0a, 0xc5, 0x6d, 0xc2, 0x09, 0x57, 0x47, 0x05,
  0xe2, 0x05, 0x7f, 0x63, 0xf9, 0xe8, 0x15, 0xd7, 0x81, 0x81, 0x81, 0x7f, 0x7f,
  0x7f, 0x8f, 0x81, 0x1d, 0xd2, 0x7f, 0x25, 0x81, 0x44, 0x81, 0x27, 0xb7, 0xf6,
  0xfc, 0xe9, 0x17, 0x81, 0xfd, 0x7f, 0x3a, 0x56, 0x81, 0xfe, 0x7f, 0xf8, 0xff,
  0x92, 0xed, 0x17, 0x00, 0x31, 0x2c, 0xea, 0x17, 0x0d, 0x0c, 0x1e, 0xee, 0x79,
  0x14, 0x00, 0x5e, 0xfb, 0xff, 0xff, 0x04, 0x00, 0x00, 0x00, 0x4b, 0x00, 0x00,
  0x00, 0xfd, 0x55, 0xf3, 0xfb, 0xfb, 0xe6, 0x08, 0x01, 0xf7, 0x2c, 0x02, 0xf9,
  0xfd, 0xff, 0x27, 0x0d, 0x81, 0x7f, 0x09, 0xfb, 0xdc, 0xdc, 0x0e, 0x81, 0x81,
  0xf4, 0xf7, 0x24, 0xdc, 0xa1, 0xd9, 0xfd, 0xc3, 0xcf, 0x21, 0x48, 0xf4, 0x3f,
  0x38, 0x59, 0xf5, 0x61, 0xfb, 0x81, 0x7f, 0x7f, 0x12, 0x2f, 0x88, 0x81, 0x81,
  0x7f, 0x93, 0x15, 0x3f, 0xe6, 0x7f, 0x7f, 0x0c, 0xc5, 0x2a, 0x2e, 0xea, 0x7f,
  0xf0, 0x2e, 0x12, 0x7f, 0x14, 0x0f, 0x81, 0xe0, 0x8f, 0x00, 0x04, 0x00, 0xb6,
  0xfb, 0xff, 0xff, 0x04, 0x00, 0x00, 0x00, 0x2c, 0x01, 0x00, 0x00, 0xf9, 0xee,
  0x1c, 0x4f, 0xe2, 0x08, 0xec, 0x27, 0x1f, 0x3d, 0x0b, 0x87, 0x49, 0x26, 0x03,
  0x97, 0x81, 0xff, 0xf8, 0x36, 0xdd, 0x02, 0xe8, 0x7f, 0xdc, 0xea, 0xe7, 0x90,
  0x3e, 0xf2, 0xfe, 0x02, 0xfd, 0x14, 0xf8, 0x0c, 0x12, 0xfb, 0xf9, 0xef, 0x24,
  0xc4, 0xc7, 0xa9, 0x75, 0x06, 0xef, 0x34, 0x00, 0xa0, 0x24, 0x31, 0xfa, 0x81,
  0xdf, 0xde, 0xf1, 0xe5, 0xef, 0xff, 0x7f, 0x0a, 0xd4, 0x32, 0xa3, 0xf8, 0xf0,
  0x32, 0xf9, 0xca, 0xec, 0xf9, 0xcf, 0x1c, 0x01, 0x26, 0xf8, 0xf4, 0xdb, 0xf7,
  0xff, 0x2a, 0x24, 0x08, 0xfb, 0x16, 0x05, 0xc8, 0x07, 0xbb, 0x04, 0x7f, 0x1d,
  0x57, 0xf9, 0x78, 0x72, 0xfe, 0x21, 0xb1, 0xc6, 0x2c, 0xce, 0xa3, 0x2b, 0xff,
  0x65, 0xfe, 0x1c, 0xbe, 0xfb, 0x26, 0x0b, 0x7f, 0xda, 0xdb, 0x0b, 0xad, 0x32,
  0xc1, 0x21, 0x23, 0xe1, 0xed, 0x22, 0x1f, 0x2a, 0x68, 0xe5, 0x3f, 0x7f, 0xf7,
  0xd9, 0x0d, 0x97, 0xf2, 0xe4, 0x07, 0x02, 0xf1, 0x68, 0xed, 0x1c, 0xa4, 0xd1,
  0xfd, 0xa2, 0xec, 0xc0, 0x62, 0x15, 0xfc, 0xb2, 0xf5, 0xfe, 0x1b, 0x09, 0x30,
  0x81, 0xeb, 0xed, 0x20, 0x40, 0xe5, 0x5a, 0x0a, 0xac, 0x0a, 0xec, 0xd3, 0x27,
  0x02, 0xa1, 0x81, 0x2d, 0x2a, 0xd9, 0xf9, 0xf5, 0x10, 0xf2, 0xf6, 0x5e, 0xc7,
  0x07, 0x03, 0xf3, 0x0b, 0x25, 0x07, 0xff, 0x03, 0xf9, 0x1f, 0x13, 0x06, 0x11,
  0x81, 0xf4, 0xbf, 0x40, 0xf4, 0x2a, 0xb2, 0xe6, 0x03, 0xc6, 0x10, 0xff, 0x81,
  0xfa, 0xff, 0xce, 0xc3, 0xff, 0x14, 0xf5, 0x07, 0x8a, 0x0b, 0x07, 0xd7, 0x59,
  0x15, 0xdd, 0xce, 0x98, 0x24, 0xfe, 0x4b, 0xda, 0xae, 0xf4, 0x9f, 0x1b, 0x1f,
  0x81, 0x0e, 0xf9, 0x0d, 0x81, 0xfb, 0x0e, 0xf7, 0x51, 0xf0, 0x5d, 0xd2, 0x1e,
  0x22, 0x06, 0x05, 0xf6, 0xdd, 0x04, 0xd7, 0x07, 0x14, 0x2e, 0x1e, 0x07, 0x7f,
  0x13, 0xed, 0x03, 0x01, 0x07, 0xfb, 0xfe, 0x05, 0xfa, 0xf3, 0xe5, 0xe2, 0xfe,
  0xe6, 0x40, 0xfd, 0x08, 0x0b, 0x41, 0x0b, 0x05, 0x6f, 0x59, 0xab, 0xee, 0x23,
  0xfa, 0xe7, 0xe0, 0x03, 0x7f, 0x55, 0x28, 0xda, 0xf6, 0xe6, 0xef, 0x1e, 0xee,
  0xfc, 0xff, 0xff, 0x04, 0x00, 0x00, 0x00, 0x64, 0x00, 0x00, 0x00, 0x03, 0x7f,
  0xca, 0x81, 0xf8, 0x0c, 0xd7, 0xf1, 0x4c, 0x65, 0xca, 0xc8, 0xfe, 0x8e, 0xed,
  0x0a, 0x4e, 0x5c, 0x0a, 0x25, 0xfb, 0xd4, 0x81, 0x01, 0xde, 0xac, 0x21, 0x6f,
  0x7f, 0x81, 0x7f, 0xca, 0x5b, 0xfe, 0x7f, 0x60, 0x81, 0x59, 0xbb, 0x43, 0x7f,
  0xc0, 0xc8, 0x7d, 0x81, 0x7f, 0x81, 0x3e, 0xcb, 0xc6, 0x78, 0x7f, 0x81, 0x81,
  0x47, 0x81, 0x53, 0x37, 0x7f, 0x81, 0x06, 0xf8, 0xe0, 0x54, 0x01, 0x0d, 0xf9,
  0x81, 0xa8, 0x00, 0x20, 0xeb, 0x29, 0x03, 0x13, 0xfb, 0xe7, 0x36, 0xf6, 0x73,
  0x1e, 0xf9, 0x43, 0xf4, 0xdb, 0x14, 0x96, 0x1e, 0xe0, 0x13, 0x0b, 0xf9, 0xd4,
  0x21, 0x11, 0x23, 0xfa, 0x7f, 0x09, 0x9a, 0x5e, 0xfd, 0xff, 0xff, 0x04, 0x00,
  0x00, 0x00, 0x64, 0x00, 0x00, 0x00, 0xc0, 0x0f, 0xef, 0xe1, 0x14, 0xff, 0xef,
  0x9f, 0x7f, 0xf4, 0xec, 0x00, 0xe8, 0x02, 0x11, 0x01, 0x2c, 0x81, 0x3b, 0xf3,
  0x81, 0xf2, 0x51, 0xb8, 0x2d, 0xf3, 0xd5, 0x2e, 0xd8, 0xc1, 0x31, 0xfa, 0xf6,
  0xf7, 0x2e, 0x52, 0x32, 0x24, 0x23, 0x81, 0x5b, 0x28, 0x7f, 0x81, 0xc6, 0xed,
  0x7f, 0x77, 0x11, 0x7f, 0x96, 0x7f, 0xfc, 0x78, 0x3b, 0x20, 0x7f, 0xb8, 0x81,
  0xd6, 0x01, 0x81, 0xb3, 0x95, 0x81, 0xee, 0xcb, 0x47, 0x13, 0xb2, 0x81, 0x16,
  0x7f, 0xae, 0xc2, 0x81, 0x59, 0x24, 0x4a, 0x41, 0x4d, 0xf0, 0x2c, 0x44, 0x6a,
  0x81, 0x04, 0x81, 0xc0, 0x06, 0x0e, 0xfb, 0x86, 0x81, 0x7f, 0x17, 0xda, 0x5d,
  0xe1, 0x06, 0xce, 0xfd, 0xff, 0xff, 0x04, 0x00, 0x00, 0x00, 0x14, 0x00, 0x00,
  0x00, 0x81, 0x81, 0x7f, 0x81, 0x7f, 0x81, 0x81, 0x7f, 0x81, 0x81, 0x81, 0x7f,
  0x81, 0x81, 0x81, 0x81, 0x7f, 0x7f, 0x81, 0x81, 0xee, 0xfd, 0xff, 0xff, 0x04,
  0x00, 0x00, 0x00, 0x07, 0x00, 0x00, 0x00, 0x00, 0x04, 0xfc, 0x7f, 0xe2, 0xf6,
  0x01, 0x00, 0x02, 0xfe, 0xff, 0xff, 0x04, 0x00, 0x00, 0x00, 0x07, 0x00, 0x00,
  0x00, 0xff, 0x00, 0x07, 0xf0, 0x33, 0x81, 0xe4, 0x00, 0x16, 0xfe, 0xff, 0xff,
  0x04, 0x00, 0x00, 0x00, 0x20, 0x00, 0x00, 0x00, 0x00, 0x00, 0x00, 0x00, 0x00,
  0x00, 0x00, 0x00, 0x03, 0x00, 0x00, 0x00, 0x03, 0x00, 0x00, 0x00, 0x03, 0x00,
  0x00, 0x00, 0x03, 0x00, 0x00, 0x00, 0x00, 0x00, 0x00, 0x00, 0x00, 0x00, 0x00,
  0x00, 0x42, 0xfe, 0xff, 0xff, 0x04, 0x00, 0x00, 0x00, 0x78, 0x00, 0x00, 0x00,
  0x43, 0x89, 0xff, 0xff, 0xff, 0xff, 0xff, 0xff, 0x65, 0x02, 0x01, 0x00, 0x00,
  0x00, 0x00, 0x00, 0xc9, 0xa6, 0x00, 0x00, 0x00, 0x00, 0x00, 0x00, 0x11, 0x95,
  0x00, 0x00, 0x00, 0x00, 0x00, 0x00, 0x37, 0x4b, 0xff, 0xff, 0xff, 0xff, 0xff,
  0xff, 0xf9, 0x9b, 0xff, 0xff, 0xff, 0xff, 0xff, 0xff, 0x56, 0xb7, 0xff, 0xff,
  0xff, 0xff, 0xff, 0xff, 0x24, 0x81, 0xfe, 0xff, 0xff, 0xff, 0xff, 0xff, 0x6f,
  0x21, 0x00, 0x00, 0x00, 0x00, 0x00, 0x00, 0x7a, 0xea, 0xff, 0xff, 0xff, 0xff,
  0xff, 0xff, 0x18, 0x9d, 0xff, 0xff, 0xff, 0xff, 0xff, 0xff, 0xc2, 0x14, 0x00,
  0x00, 0x00, 0x00, 0x00, 0x00, 0x9c, 0x0f, 0x00, 0x00, 0x00, 0x00, 0x00, 0x00,
  0xcf, 0xf2, 0xff, 0xff, 0xff, 0xff, 0xff, 0xff, 0x30, 0x65, 0x00, 0x00, 0x00,
  0x00, 0x00, 0x00, 0xc6, 0xfe, 0xff, 0xff, 0x04, 0x00, 0x00, 0x00, 0x60, 0x00,
  0x00, 0x00, 0xad, 0xa2, 0x00, 0x00, 0x00, 0x00, 0x00, 0x00, 0x1d, 0xa3, 0xff,
  0xff, 0xff, 0xff, 0xff, 0xff, 0x80, 0x8e, 0xff, 0xff, 0xff, 0xff, 0xff, 0xff,
  0x65, 0xf0, 0xff, 0xff, 0xff, 0xff, 0xff, 0xff, 0xcd, 0x47, 0x00, 0x00, 0x00,
  0x00, 0x00, 0x00, 0xd9, 0xab, 0xff, 0xff, 0xff, 0xff, 0xff, 0xff, 0x8a, 0x02,
  0x00, 0x00, 0x00, 0x00, 0x00, 0x00, 0xff, 0xe6, 0xff, 0xff, 0xff, 0xff, 0xff,
  0xff, 0xf9, 0x10, 0x00, 0x00, 0x00, 0x00, 0x00, 0x00, 0x5a, 0x73, 0xff, 0xff,
  0xff, 0xff, 0xff, 0xff, 0x96, 0x38, 0x00, 0x00, 0x00, 0x00, 0x00, 0x00, 0x43,
  0xd5, 0xff, 0xff, 0xff, 0xff, 0xff, 0xff, 0x32, 0xff, 0xff, 0xff, 0x04, 0x00,
  0x00, 0x00, 0x48, 0x00, 0x00, 0x00, 0x99, 0xaa, 0xff, 0xff, 0xff, 0xff, 0xff,
  0xff, 0x63, 0xf0, 0xff, 0xff, 0xff, 0xff, 0xff, 0xff, 0x6c, 0x11, 0x00, 0x00,
  0x00, 0x00, 0x00, 0x00, 0x22, 0x0c, 0x00, 0x00, 0x00, 0x00, 0x00, 0x00, 0x50,
  0xfd, 0xff, 0xff, 0xff, 0xff, 0xff, 0xff, 0x79, 0x85, 0xff, 0xff, 0xff, 0xff,
  0xff, 0xff, 0xfc, 0xf0, 0xff, 0xff, 0xff, 0xff, 0xff, 0xff, 0x29, 0x04, 0x00,
  0x00, 0x00, 0x00, 0x00, 0x00, 0x31, 0xf5, 0xff, 0xff, 0xff, 0xff, 0xff, 0xff,
  0x86, 0xff, 0xff, 0xff, 0x04, 0x00, 0x00, 0x00, 0x38, 0x00, 0x00, 0x00, 0x93,
  0xdf, 0x00, 0x00, 0x00, 0x00, 0x00, 0x00, 0xc4, 0x94, 0xff, 0xff, 0xff, 0xff,
  0xff, 0xff, 0x26, 0x32, 0x00, 0x00, 0x00, 0x00, 0x00, 0x00, 0xd1, 0xd9, 0x00,
  0x00, 0x00, 0x00, 0x00, 0x00, 0xf5, 0x9d, 0xff, 0xff, 0xff, 0xff, 0xff, 0xff,
  0x79, 0x01, 0x00, 0x00, 0x00, 0x00, 0x00, 0x00, 0x79, 0x32, 0x00, 0x00, 0x00,
  0x00, 0x00, 0x00, 0xca, 0xff, 0xff, 0xff, 0x04, 0x00, 0x00, 0x00, 0x28, 0x00,
  0x00, 0x00, 0x69, 0x68, 0xfe, 0xff, 0xff, 0xff, 0xff, 0xff, 0xe2, 0x6c, 0xf6,
  0xff, 0xff, 0xff, 0xff, 0xff, 0xc2, 0x68, 0xfc, 0xff, 0xff, 0xff, 0xff, 0xff,
  0x4c, 0x6e, 0xf9, 0xff, 0xff, 0xff, 0xff, 0xff, 0x49, 0xe5, 0xff, 0xff, 0xff,
  0xff, 0xff, 0xff, 0x00, 0x00, 0x06, 0x00, 0x08, 0x00, 0x04, 0x00, 0x06, 0x00,
  0x00, 0x00, 0x04, 0x00, 0x00, 0x00, 0x28, 0x00, 0x00, 0x00, 0x1b, 0xb0, 0xf4,
  0xff, 0xff, 0xff, 0xff, 0xff, 0xf3, 0xe1, 0xfc, 0xff, 0xff, 0xff, 0xff, 0xff,
  0x77, 0x11, 0xf9, 0xff, 0xff, 0xff, 0xff, 0xff, 0x3e, 0xd9, 0xff, 0xff, 0xff,
  0xff, 0xff, 0xff, 0x61, 0x87, 0x00, 0x00, 0x00, 0x00, 0x00, 0x00, 0x58, 0x7d,
  0xff, 0xff, 0x5c, 0x7d, 0xff, 0xff, 0x0f, 0x00, 0x00, 0x00, 0x4d, 0x4c, 0x49,
  0x52, 0x20, 0x43, 0x6f, 0x6e, 0x76, 0x65, 0x72, 0x74, 0x65, 0x64, 0x2e, 0x00,
  0x01, 0x00, 0x00, 0x00, 0x14, 0x00, 0x00, 0x00, 0x00, 0x00, 0x0e, 0x00, 0x18,
  0x00, 0x14, 0x00, 0x10, 0x00, 0x0c, 0x00, 0x08, 0x00, 0x04, 0x00, 0x0e, 0x00,
  0x00, 0x00, 0x14, 0x00, 0x00, 0x00, 0x1c, 0x00, 0x00, 0x00, 0x50, 0x11, 0x00,
  0x00, 0x54, 0x11, 0x00, 0x00, 0x58, 0x11, 0x00, 0x00, 0x04, 0x00, 0x00, 0x00,
  0x6d, 0x61, 0x69, 0x6e, 0x00, 0x00, 0x00, 0x00, 0x42, 0x00, 0x00, 0x00, 0x14,
  0x11, 0x00, 0x00, 0xd8, 0x10, 0x00, 0x00, 0x78, 0x10, 0x00, 0x00, 0x24, 0x10,
  0x00, 0x00, 0xd8, 0x0f, 0x00, 0x00, 0x94, 0x0f, 0x00, 0x00, 0x50, 0x0f, 0x00,
  0x00, 0x00, 0x0f, 0x00, 0x00, 0xbc, 0x0e, 0x00, 0x00, 0x78, 0x0e, 0x00, 0x00,
  0x38, 0x0e, 0x00, 0x00, 0xf4, 0x0d, 0x00, 0x00, 0xb0, 0x0d, 0x00, 0x00, 0x70,
  0x0d, 0x00, 0x00, 0x30, 0x0d, 0x00, 0x00, 0xec, 0x0c, 0x00, 0x00, 0xa8, 0x0c,
  0x00, 0x00, 0x64, 0x0c, 0x00, 0x00, 0x20, 0x0c, 0x00, 0x00, 0xdc, 0x0b, 0x00,
  0x00, 0x9c, 0x0b, 0x00, 0x00, 0x58, 0x0b, 0x00, 0x00, 0x14, 0x0b, 0x00, 0x00,
  0xd4, 0x0a, 0x00, 0x00, 0x9c, 0x0a, 0x00, 0x00, 0x58, 0x0a, 0x00, 0x00, 0x14,
  0x0a, 0x00, 0x00, 0xd0, 0x09, 0x00, 0x00, 0x8c, 0x09, 0x00, 0x00, 0x48, 0x09,
  0x00, 0x00, 0x08, 0x09, 0x00, 0x00, 0xc4, 0x08, 0x00, 0x00, 0x80, 0x08, 0x00,
  0x00, 0x40, 0x08, 0x00, 0x00, 0x08, 0x08, 0x00, 0x00, 0xc4, 0x07, 0x00, 0x00,
  0x80, 0x07, 0x00, 0x00, 0x3c, 0x07, 0x00, 0x00, 0xf8, 0x06, 0x00, 0x00, 0xb4,
  0x06, 0x00, 0x00, 0x74, 0x06, 0x00, 0x00, 0x30, 0x06, 0x00, 0x00, 0xec, 0x05,
  0x00, 0x00, 0xac, 0x05, 0x00, 0x00, 0x74, 0x05, 0x00, 0x00, 0x30, 0x05, 0x00,
  0x00, 0xec, 0x04, 0x00, 0x00, 0xa8, 0x04, 0x00, 0x00, 0x64, 0x04, 0x00, 0x00,
  0x20, 0x04, 0x00, 0x00, 0xe0, 0x03, 0x00, 0x00, 0x9c, 0x03, 0x00, 0x00, 0x58,
  0x03, 0x00, 0x00, 0x18, 0x03, 0x00, 0x00, 0xe0, 0x02, 0x00, 0x00, 0x9c, 0x02,
  0x00, 0x00, 0x58, 0x02, 0x00, 0x00, 0x14, 0x02, 0x00, 0x00, 0xd0, 0x01, 0x00,
  0x00, 0x8c, 0x01, 0x00, 0x00, 0x4c, 0x01, 0x00, 0x00, 0x14, 0x01, 0x00, 0x00,
  0xc0, 0x00, 0x00, 0x00, 0x78, 0x00, 0x00, 0x00, 0x28, 0x00, 0x00, 0x00, 0x04,
  0x00, 0x00, 0x00, 0xfe, 0xef, 0xff, 0xff, 0x0c, 0x00, 0x00, 0x00, 0x10, 0x00,
  0x00, 0x00, 0x05, 0x00, 0x00, 0x00, 0x01, 0x00, 0x00, 0x00, 0x91, 0x00, 0x00,
  0x00, 0x01, 0x00, 0x00, 0x00, 0x8f, 0x00, 0x00, 0x00, 0xb6, 0xf0, 0xff, 0xff,
  0x20, 0x00, 0x00, 0x00, 0x00, 0x00, 0x00, 0x01, 0x28, 0x00, 0x00, 0x00, 0x2c,
  0x00, 0x00, 0x00, 0x02, 0x00, 0x00, 0x00, 0x00, 0x00, 0x0a, 0x00, 0x10, 0x00,
  0x0f, 0x00, 0x08, 0x00, 0x04, 0x00, 0x0a, 0x00, 0x00, 0x00, 0x01, 0x00, 0x00,
  0x00, 0x01, 0x00, 0x00, 0x00, 0x00, 0x00, 0x00, 0x01, 0x01, 0x00, 0x00, 0x00,
  0x8f, 0x00, 0x00, 0x00, 0x03, 0x00, 0x00, 0x00, 0x8e, 0x00, 0x00, 0x00, 0x47,
  0x00, 0x00, 0x00, 0x4f, 0x00, 0x00, 0x00, 0x02, 0xf1, 0xff, 0xff, 0x14, 0x00,
  0x00, 0x00, 0x00, 0x00, 0x00, 0x02, 0x20, 0x00, 0x00, 0x00, 0x24, 0x00, 0x00,
  0x00, 0x01, 0x00, 0x00, 0x00, 0xbc, 0xff, 0xff, 0xff, 0x01, 0x00, 0x00, 0x00,
  0x01, 0x00, 0x00, 0x00, 0x01, 0x00, 0x00, 0x00, 0x00, 0x00, 0x00, 0x01, 0x01,
  0x00, 0x00, 0x00, 0x8e, 0x00, 0x00, 0x00, 0x03, 0x00, 0x00, 0x00, 0x8d, 0x00,
  0x00, 0x00, 0x45, 0x00, 0x00, 0x00, 0x44, 0x00, 0x00, 0x00, 0x46, 0xf1, 0xff,
  0xff, 0x20, 0x00, 0x00, 0x00, 0x00, 0x00, 0x00, 0x02, 0x2c, 0x00, 0x00, 0x00,
  0x30, 0x00, 0x00, 0x00, 0x01, 0x00, 0x00, 0x00, 0x0c, 0x00, 0x14, 0x00, 0x13,
  0x00, 0x0c, 0x00, 0x08, 0x00, 0x04, 0x00, 0x0c, 0x00, 0x00, 0x00, 0x01, 0x00,
  0x00, 0x00, 0x01, 0x00, 0x00, 0x00, 0x01, 0x00, 0x00, 0x00, 0x00, 0x00, 0x00,
  0x01, 0x01, 0x00, 0x00, 0x00, 0x8d, 0x00, 0x00, 0x00, 0x03, 0x00, 0x00, 0x00,
  0x8c, 0x00, 0x00, 0x00, 0x43, 0x00, 0x00, 0x00, 0x44, 0x00, 0x00, 0x00, 0x96,
  0xf1, 0xff, 0xff, 0x14, 0x00, 0x00, 0x00, 0x00, 0x00, 0x00, 0x0b, 0x14, 0x00,
  0x00, 0x00, 0x18, 0x00, 0x00, 0x00, 0x03, 0x00, 0x00, 0x00, 0xa0, 0xf4, 0xff,
  0xff, 0x00, 0x00, 0x00, 0x00, 0x01, 0x00, 0x00, 0x00, 0x8c, 0x00, 0x00, 0x00,
  0x02, 0x00, 0x00, 0x00, 0x85, 0x00, 0x00, 0x00, 0x8b, 0x00, 0x00, 0x00, 0xca,
  0xf1, 0xff, 0xff, 0x14, 0x00, 0x00, 0x00, 0x00, 0x00, 0x00, 0x01, 0x18, 0x00,
  0x00, 0x00, 0x1c, 0x00, 0x00, 0x00, 0x02, 0x00, 0x00, 0x00, 0x52, 0xf2, 0xff,
  0xff, 0x01, 0x00, 0x00, 0x00, 0x01, 0x00, 0x00, 0x00, 0x01, 0x00, 0x00, 0x00,
  0x8b, 0x00, 0x00, 0x00, 0x03, 0x00, 0x00, 0x00, 0x8a, 0x00, 0x00, 0x00, 0x42,
  0x00, 0x00, 0x00, 0x4e, 0x00, 0x00, 0x00, 0x06, 0xf2, 0xff, 0xff, 0x14, 0x00,
  0x00, 0x00, 0x00, 0x00, 0x00, 0x02, 0x1c, 0x00, 0x00, 0x00, 0x20, 0x00, 0x00,
  0x00, 0x01, 0x00, 0x00, 0x00, 0xf8, 0xf1, 0xff, 0xff, 0x01, 0x00, 0x00, 0x00,
  0x01, 0x00, 0x00, 0x00, 0x01, 0x00, 0x00, 0x00, 0x01, 0x00, 0x00, 0x00, 0x8a,
  0x00, 0x00, 0x00, 0x03, 0x00, 0x00, 0x00, 0x89, 0x00, 0x00, 0x00, 0x41, 0x00,
  0x00, 0x00, 0x44, 0x00, 0x00, 0x00, 0x46, 0xf2, 0xff, 0xff, 0x14, 0x00, 0x00,
  0x00, 0x00, 0x00, 0x00, 0x02, 0x1c, 0x00, 0x00, 0x00, 0x20, 0x00, 0x00, 0x00,
  0x01, 0x00, 0x00, 0x00, 0x38, 0xf2, 0xff, 0xff, 0x01, 0x00, 0x00, 0x00, 0x01,
  0x00, 0x00, 0x00, 0x01, 0x00, 0x00, 0x00, 0x01, 0x00, 0x00, 0x00, 0x89, 0x00,
  0x00, 0x00, 0x03, 0x00, 0x00, 0x00, 0x88, 0x00, 0x00, 0x00, 0x40, 0x00, 0x00,
  0x00, 0x44, 0x00, 0x00, 0x00, 0x86, 0xf2, 0xff, 0xff, 0x14, 0x00, 0x00, 0x00,
  0x00, 0x00, 0x00, 0x01, 0x1c, 0x00, 0x00, 0x00, 0x20, 0x00, 0x00, 0x00, 0x02,
  0x00, 0x00, 0x00, 0xdc, 0xf3, 0xff, 0xff, 0x00, 0x00, 0x00, 0x01, 0x01, 0x00,
  0x00, 0x00, 0x01, 0x00, 0x00, 0x00, 0x01, 0x00, 0x00, 0x00, 0x88, 0x00, 0x00,
  0x00, 0x03, 0x00, 0x00, 0x00, 0x87, 0x00, 0x00, 0x00, 0x3f, 0x00, 0x00, 0x00,
  0x01, 0x00, 0x00, 0x00, 0xc6, 0xf2, 0xff, 0xff, 0x14, 0x00, 0x00, 0x00, 0x00,
  0x00, 0x00, 0x02, 0x1c, 0x00, 0x00, 0x00, 0x20, 0x00, 0x00, 0x00, 0x01, 0x00,
  0x00, 0x00, 0xb8, 0xf2, 0xff, 0xff, 0x01, 0x00, 0x00, 0x00, 0x01, 0x00, 0x00,
  0x00, 0x01, 0x00, 0x00, 0x00, 0x01, 0x00, 0x00, 0x00, 0x87, 0x00, 0x00, 0x00,
  0x03, 0x00, 0x00, 0x00, 0x86, 0x00, 0x00, 0x00, 0x3e, 0x00, 0x00, 0x00, 0x44,
  0x00, 0x00, 0x00, 0x06, 0xf3, 0xff, 0xff, 0x14, 0x00, 0x00, 0x00, 0x00, 0x00,
  0x00, 0x02, 0x1c, 0x00, 0x00, 0x00, 0x20, 0x00, 0x00, 0x00, 0x01, 0x00, 0x00,
  0x00, 0xf8, 0xf2, 0xff, 0xff, 0x01, 0x00, 0x00, 0x00, 0x01, 0x00, 0x00, 0x00,
  0x01, 0x00, 0x00, 0x00, 0x01, 0x00, 0x00, 0x00, 0x86, 0x00, 0x00, 0x00, 0x03,
  0x00, 0x00, 0x00, 0x85, 0x00, 0x00, 0x00, 0x3d, 0x00, 0x00, 0x00, 0x44, 0x00,
  0x00, 0x00, 0x46, 0xf3, 0xff, 0xff, 0x14, 0x00, 0x00, 0x00, 0x00, 0x00, 0x00,
  0x0b, 0x14, 0x00, 0x00, 0x00, 0x18, 0x00, 0x00, 0x00, 0x03, 0x00, 0x00, 0x00,
  0x50, 0xf6, 0xff, 0xff, 0x00, 0x00, 0x00, 0x00, 0x01, 0x00, 0x00, 0x00, 0x85,
  0x00, 0x00, 0x00, 0x02, 0x00, 0x00, 0x00, 0x84, 0x00, 0x00, 0x00, 0x81, 0x00,
  0x00, 0x00, 0x7a, 0xf3, 0xff, 0xff, 0x14, 0x00, 0x00, 0x00, 0x00, 0x00, 0x00,
  0x01, 0x18, 0x00, 0x00, 0x00, 0x1c, 0x00, 0x00, 0x00, 0x02, 0x00, 0x00, 0x00,
  0x02, 0xf4, 0xff, 0xff, 0x01, 0x00, 0x00, 0x00, 0x01, 0x00, 0x00, 0x00, 0x01,
  0x00, 0x00, 0x00, 0x84, 0x00, 0x00, 0x00, 0x03, 0x00, 0x00, 0x00, 0x83, 0x00,
  0x00, 0x00, 0x3c, 0x00, 0x00, 0x00, 0x4d, 0x00, 0x00, 0x00, 0xb6, 0xf3, 0xff,
  0xff, 0x14, 0x00, 0x00, 0x00, 0x00, 0x00, 0x00, 0x02, 0x1c, 0x00, 0x00, 0x00,
  0x20, 0x00, 0x00, 0x00, 0x01, 0x00, 0x00, 0x00, 0xa8, 0xf3, 0xff, 0xff, 0x01,
  0x00, 0x00, 0x00, 0x01, 0x00, 0x00, 0x00, 0x01, 0x00, 0x00, 0x00, 0x01, 0x00,
  0x00, 0x00, 0x83, 0x00, 0x00, 0x00, 0x03, 0x00, 0x00, 0x00, 0x82, 0x00, 0x00,
  0x00, 0x3b, 0x00, 0x00, 0x00, 0x3a, 0x00, 0x00, 0x00, 0xf6, 0xf3, 0xff, 0xff,
  0x14, 0x00, 0x00, 0x00, 0x00, 0x00, 0x00, 0x02, 0x1c, 0x00, 0x00, 0x00, 0x20,
  0x00, 0x00, 0x00, 0x01, 0x00, 0x00, 0x00, 0xe8, 0xf3, 0xff, 0xff, 0x01, 0x00,
  0x00, 0x00, 0x01, 0x00, 0x00, 0x00, 0x01, 0x00, 0x00, 0x00, 0x01, 0x00, 0x00,
  0x00, 0x82, 0x00, 0x00, 0x00, 0x03, 0x00, 0x00, 0x00, 0x7b, 0x00, 0x00, 0x00,
  0x39, 0x00, 0x00, 0x00, 0x3a, 0x00, 0x00, 0x00, 0x36, 0xf4, 0xff, 0xff, 0x14,
  0x00, 0x00, 0x00, 0x00, 0x00, 0x00, 0x01, 0x18, 0x00, 0x00, 0x00, 0x1c, 0x00,
  0x00, 0x00, 0x02, 0x00, 0x00, 0x00, 0xbe, 0xf4, 0xff, 0xff, 0x01, 0x00, 0x00,
  0x00, 0x01, 0x00, 0x00, 0x00, 0x01, 0x00, 0x00, 0x00, 0x81, 0x00, 0x00, 0x00,
  0x03, 0x00, 0x00, 0x00, 0x80, 0x00, 0x00, 0x00, 0x38, 0x00, 0x00, 0x00, 0x4d,
  0x00, 0x00, 0x00, 0x72, 0xf4, 0xff, 0xff, 0x14, 0x00, 0x00, 0x00, 0x00, 0x00,
  0x00, 0x02, 0x1c, 0x00, 0x00, 0x00, 0x20, 0x00, 0x00, 0x00, 0x01, 0x00, 0x00,
  0x00, 0x64, 0xf4, 0xff, 0xff, 0x01, 0x00, 0x00, 0x00, 0x01, 0x00, 0x00, 0x00,
  0x01, 0x00, 0x00, 0x00, 0x01, 0x00, 0x00, 0x00, 0x80, 0x00, 0x00, 0x00, 0x03,
  0x00, 0x00, 0x00, 0x7f, 0x00, 0x00, 0x00, 0x37, 0x00, 0x00, 0x00, 0x44, 0x00,
  0x00, 0x00, 0xb2, 0xf4, 0xff, 0xff, 0x14, 0x00, 0x00, 0x00, 0x00, 0x00, 0x00,
  0x02, 0x1c, 0x00, 0x00, 0x00, 0x20, 0x00, 0x00, 0x00, 0x01, 0x00, 0x00, 0x00,
  0xa4, 0xf4, 0xff, 0xff, 0x01, 0x00, 0x00, 0x00, 0x01, 0x00, 0x00, 0x00, 0x01,
  0x00, 0x00, 0x00, 0x01, 0x00, 0x00, 0x00, 0x7f, 0x00, 0x00, 0x00, 0x03, 0x00,
  0x00, 0x00, 0x7e, 0x00, 0x00, 0x00, 0x36, 0x00, 0x00, 0x00, 0x44, 0x00, 0x00,
  0x00, 0xf2, 0xf4, 0xff, 0xff, 0x14, 0x00, 0x00, 0x00, 0x00, 0x00, 0x00, 0x01,
  0x1c, 0x00, 0x00, 0x00, 0x20, 0x00, 0x00, 0x00, 0x02, 0x00, 0x00, 0x00, 0x48,
  0xf6, 0xff, 0xff, 0x00, 0x00, 0x00, 0x01, 0x01, 0x00, 0x00, 0x00, 0x01, 0x00,
  0x00, 0x00, 0x01, 0x00, 0x00, 0x00, 0x7e, 0x00, 0x00, 0x00, 0x03, 0x00, 0x00,
  0x00, 0x7d, 0x00, 0x00, 0x00, 0x35, 0x00, 0x00, 0x00, 0x02, 0x00, 0x00, 0x00,
  0x32, 0xf5, 0xff, 0xff, 0x14, 0x00, 0x00, 0x00, 0x00, 0x00, 0x00, 0x02, 0x1c,
  0x00, 0x00, 0x00, 0x20, 0x00, 0x00, 0x00, 0x01, 0x00, 0x00, 0x00, 0x24, 0xf5,
  0xff, 0xff, 0x01, 0x00, 0x00, 0x00, 0x01, 0x00, 0x00, 0x00, 0x01, 0x00, 0x00,
  0x00, 0x01, 0x00, 0x00, 0x00, 0x7d, 0x00, 0x00, 0x00, 0x03, 0x00, 0x00, 0x00,
  0x7c, 0x00, 0x00, 0x00, 0x34, 0x00, 0x00, 0x00, 0x3a, 0x00, 0x00, 0x00, 0x72,
  0xf5, 0xff, 0xff, 0x14, 0x00, 0x00, 0x00, 0x00, 0x00, 0x00, 0x02, 0x1c, 0x00,
  0x00, 0x00, 0x20, 0x00, 0x00, 0x00, 0x01, 0x00, 0x00, 0x00, 0x64, 0xf5, 0xff,
  0xff, 0x01, 0x00, 0x00, 0x00, 0x01, 0x00, 0x00, 0x00, 0x01, 0x00, 0x00, 0x00,
  0x01, 0x00, 0x00, 0x00, 0x7c, 0x00, 0x00, 0x00, 0x03, 0x00, 0x00, 0x00, 0x7b,
  0x00, 0x00, 0x00, 0x33, 0x00, 0x00, 0x00, 0x3a, 0x00, 0x00, 0x00, 0xb2, 0xf5,
  0xff, 0xff, 0x14, 0x00, 0x00, 0x00, 0x00, 0x00, 0x00, 0x0b, 0x14, 0x00, 0x00,
  0x00, 0x18, 0x00, 0x00, 0x00, 0x03, 0x00, 0x00, 0x00, 0xbc, 0xf8, 0xff, 0xff,
  0x00, 0x00, 0x00, 0x00, 0x01, 0x00, 0x00, 0x00, 0x7b, 0x00, 0x00, 0x00, 0x02,
  0x00, 0x00, 0x00, 0x7a, 0x00, 0x00, 0x00, 0x77, 0x00, 0x00, 0x00, 0xe6, 0xf5,
  0xff, 0xff, 0x14, 0x00, 0x00, 0x00, 0x00, 0x00, 0x00, 0x01, 0x18, 0x00, 0x00,
  0x00, 0x1c, 0x00, 0x00, 0x00, 0x02, 0x00, 0x00, 0x00, 0x6e, 0xf6, 0xff, 0xff,
  0x01, 0x00, 0x00, 0x00, 0x01, 0x00, 0x00, 0x00, 0x01, 0x00, 0x00, 0x00, 0x7a,
  0x00, 0x00, 0x00, 0x03, 0x00, 0x00, 0x00, 0x79, 0x00, 0x00, 0x00, 0x32, 0x00,
  0x00, 0x00, 0x4c, 0x00, 0x00, 0x00, 0x22, 0xf6, 0xff, 0xff, 0x14, 0x00, 0x00,
  0x00, 0x00, 0x00, 0x00, 0x02, 0x1c, 0x00, 0x00, 0x00, 0x20, 0x00, 0x00, 0x00,
  0x01, 0x00, 0x00, 0x00, 0x14, 0xf6, 0xff, 0xff, 0x01, 0x00, 0x00, 0x00, 0x01,
  0x00, 0x00, 0x00, 0x01, 0x00, 0x00, 0x00, 0x01, 0x00, 0x00, 0x00, 0x79, 0x00,
  0x00, 0x00, 0x03, 0x00, 0x00, 0x00, 0x78, 0x00, 0x00, 0x00, 0x31, 0x00, 0x00,
  0x00, 0x30, 0x00, 0x00, 0x00, 0x62, 0xf6, 0xff, 0xff, 0x14, 0x00, 0x00, 0x00,
  0x00, 0x00, 0x00, 0x02, 0x1c, 0x00, 0x00, 0x00, 0x20, 0x00, 0x00, 0x00, 0x01,
  0x00, 0x00, 0x00, 0x54, 0xf6, 0xff, 0xff, 0x01, 0x00, 0x00, 0x00, 0x01, 0x00,
  0x00, 0x00, 0x01, 0x00, 0x00, 0x00, 0x01, 0x00, 0x00, 0x00, 0x78, 0x00, 0x00,
  0x00, 0x03, 0x00, 0x00, 0x00, 0x71, 0x00, 0x00, 0x00, 0x2f, 0x00, 0x00, 0x00,
  0x30, 0x00, 0x00, 0x00, 0xa2, 0xf6, 0xff, 0xff, 0x14, 0x00, 0x00, 0x00, 0x00,
  0x00, 0x00, 0x01, 0x18, 0x00, 0x00, 0x00, 0x1c, 0x00, 0x00, 0x00, 0x02, 0x00,
  0x00, 0x00, 0x2a, 0xf7, 0xff, 0xff, 0x01, 0x00, 0x00, 0x00, 0x01, 0x00, 0x00,
  0x00, 0x01, 0x00, 0x00, 0x00, 0x77, 0x00, 0x00, 0x00, 0x03, 0x00, 0x00, 0x00,
  0x76, 0x00, 0x00, 0x00, 0x2e, 0x00, 0x00, 0x00, 0x4c, 0x00, 0x00, 0x00, 0xde,
  0xf6, 0xff, 0xff, 0x14, 0x00, 0x00, 0x00, 0x00, 0x00, 0x00, 0x02, 0x1c, 0x00,
  0x00, 0x00, 0x20, 0x00, 0x00, 0x00, 0x01, 0x00, 0x00, 0x00, 0xd0, 0xf6, 0xff,
  0xff, 0x01, 0x00, 0x00, 0x00, 0x01, 0x00, 0x00, 0x00, 0x01, 0x00, 0x00, 0x00,
  0x01, 0x00, 0x00, 0x00, 0x76, 0x00, 0x00, 0x00, 0x03, 0x00, 0x00, 0x00, 0x75,
  0x00, 0x00, 0x00, 0x2d, 0x00, 0x00, 0x00, 0x3a, 0x00, 0x00, 0x00, 0x1e, 0xf7,
  0xff, 0xff, 0x14, 0x00, 0x00, 0x00, 0x00, 0x00, 0x00, 0x02, 0x1c, 0x00, 0x00,
  0x00, 0x20, 0x00, 0x00, 0x00, 0x01, 0x00, 0x00, 0x00, 0x10, 0xf7, 0xff, 0xff,
  0x01, 0x00, 0x00, 0x00, 0x01, 0x00, 0x00, 0x00, 0x01, 0x00, 0x00, 0x00, 0x01,
  0x00, 0x00, 0x00, 0x75, 0x00, 0x00, 0x00, 0x03, 0x00, 0x00, 0x00, 0x74, 0x00,
  0x00, 0x00, 0x2c, 0x00, 0x00, 0x00, 0x3a, 0x00, 0x00, 0x00, 0x5e, 0xf7, 0xff,
  0xff, 0x14, 0x00, 0x00, 0x00, 0x00, 0x00, 0x00, 0x01, 0x1c, 0x00, 0x00, 0x00,
  0x20, 0x00, 0x00, 0x00, 0x02, 0x00, 0x00, 0x00, 0xb4, 0xf8, 0xff, 0xff, 0x00,
  0x00, 0x00, 0x01, 0x01, 0x00, 0x00, 0x00, 0x01, 0x00, 0x00, 0x00, 0x01, 0x00,
  0x00, 0x00, 0x74, 0x00, 0x00, 0x00, 0x03, 0x00, 0x00, 0x00, 0x73, 0x00, 0x00,
  0x00, 0x2b, 0x00, 0x00, 0x00, 0x03, 0x00, 0x00, 0x00, 0x9e, 0xf7, 0xff, 0xff,
  0x14, 0x00, 0x00, 0x00, 0x00, 0x00, 0x00, 0x02, 0x1c, 0x00, 0x00, 0x00, 0x20,
  0x00, 0x00, 0x00, 0x01, 0x00, 0x00, 0x00, 0x90, 0xf7, 0xff, 0xff, 0x01, 0x00,
  0x00, 0x00, 0x01, 0x00, 0x00, 0x00, 0x01, 0x00, 0x00, 0x00, 0x01, 0x00, 0x00,
  0x00, 0x73, 0x00, 0x00, 0x00, 0x03, 0x00, 0x00, 0x00, 0x72, 0x00, 0x00, 0x00,
  0x2a, 0x00, 0x00, 0x00, 0x30, 0x00, 0x00, 0x00, 0xde, 0xf7, 0xff, 0xff, 0x14,
  0x00, 0x00, 0x00, 0x00, 0x00, 0x00, 0x02, 0x1c, 0x00, 0x00, 0x00, 0x20, 0x00,
  0x00, 0x00, 0x01, 0x00, 0x00, 0x00, 0xd0, 0xf7, 0xff, 0xff, 0x01, 0x00, 0x00,
  0x00, 0x01, 0x00, 0x00, 0x00, 0x01, 0x00, 0x00, 0x00, 0x01, 0x00, 0x00, 0x00,
  0x72, 0x00, 0x00, 0x00, 0x03, 0x00, 0x00, 0x00, 0x71, 0x00, 0x00, 0x00, 0x29,
  0x00, 0x00, 0x00, 0x30, 0x00, 0x00, 0x00, 0x1e, 0xf8, 0xff, 0xff, 0x14, 0x00,
  0x00, 0x00, 0x00, 0x00, 0x00, 0x0b, 0x14, 0x00, 0x00, 0x00, 0x18, 0x00, 0x00,
  0x00, 0x03, 0x00, 0x00, 0x00, 0x28, 0xfb, 0xff, 0xff, 0x00, 0x00, 0x00, 0x00,
  0x01, 0x00, 0x00, 0x00, 0x71, 0x00, 0x00, 0x00, 0x02, 0x00, 0x00, 0x00, 0x70,
  0x00, 0x00, 0x00, 0x6d, 0x00, 0x00, 0x00, 0x52, 0xf8, 0xff, 0xff, 0x14, 0x00,
  0x00, 0x00, 0x00, 0x00, 0x00, 0x01, 0x18, 0x00, 0x00, 0x00, 0x1c, 0x00, 0x00,
  0x00, 0x02, 0x00, 0x00, 0x00, 0xda, 0xf8, 0xff, 0xff, 0x01, 0x00, 0x00, 0x00,
  0x01, 0x00, 0x00, 0x00, 0x01, 0x00, 0x00, 0x00, 0x70, 0x00, 0x00, 0x00, 0x03,
  0x00, 0x00, 0x00, 0x6f, 0x00, 0x00, 0x00, 0x28, 0x00, 0x00, 0x00, 0x4b, 0x00,
  0x00, 0x00, 0x8e, 0xf8, 0xff, 0xff, 0x14, 0x00, 0x00, 0x00, 0x00, 0x00, 0x00,
  0x02, 0x1c, 0x00, 0x00, 0x00, 0x20, 0x00, 0x00, 0x00, 0x01, 0x00, 0x00, 0x00,
  0x80, 0xf8, 0xff, 0xff, 0x01, 0x00, 0x00, 0x00, 0x01, 0x00, 0x00, 0x00, 0x01,
  0x00, 0x00, 0x00, 0x01, 0x00, 0x00, 0x00, 0x6f, 0x00, 0x00, 0x00, 0x03, 0x00,
  0x00, 0x00, 0x6e, 0x00, 0x00, 0x00, 0x27, 0x00, 0x00, 0x00, 0x26, 0x00, 0x00,
  0x00, 0xce, 0xf8, 0xff, 0xff, 0x14, 0x00, 0x00, 0x00, 0x00, 0x00, 0x00, 0x02,
  0x1c, 0x00, 0x00, 0x00, 0x20, 0x00, 0x00, 0x00, 0x01, 0x00, 0x00, 0x00, 0xc0,
  0xf8, 0xff, 0xff, 0x01, 0x00, 0x00, 0x00, 0x01, 0x00, 0x00, 0x00, 0x01, 0x00,
  0x00, 0x00, 0x01, 0x00, 0x00, 0x00, 0x6e, 0x00, 0x00, 0x00, 0x03, 0x00, 0x00,
  0x00, 0x67, 0x00, 0x00, 0x00, 0x25, 0x00, 0x00, 0x00, 0x26, 0x00, 0x00, 0x00,
  0x0e, 0xf9, 0xff, 0xff, 0x14, 0x00, 0x00, 0x00, 0x00, 0x00, 0x00, 0x01, 0x18,
  0x00, 0x00, 0x00, 0x1c, 0x00, 0x00, 0x00, 0x02, 0x00, 0x00, 0x00, 0x96, 0xf9,
  0xff, 0xff, 0x01, 0x00, 0x00, 0x00, 0x01, 0x00, 0x00, 0x00, 0x01, 0x00, 0x00,
  0x00, 0x6d, 0x00, 0x00, 0x00, 0x03, 0x00, 0x00, 0x00, 0x6c, 0x00, 0x00, 0x00,
  0x24, 0x00, 0x00, 0x00, 0x4b, 0x00, 0x00, 0x00, 0x4a, 0xf9, 0xff, 0xff, 0x14,
  0x00, 0x00, 0x00, 0x00, 0x00, 0x00, 0x02, 0x1c, 0x00, 0x00, 0x00, 0x20, 0x00,
  0x00, 0x00, 0x01, 0x00, 0x00, 0x00, 0x3c, 0xf9, 0xff, 0xff, 0x01, 0x00, 0x00,
  0x00, 0x01, 0x00, 0x00, 0x00, 0x01, 0x00, 0x00, 0x00, 0x01, 0x00, 0x00, 0x00,
  0x6c, 0x00, 0x00, 0x00, 0x03, 0x00, 0x00, 0x00, 0x6b, 0x00, 0x00, 0x00, 0x23,
  0x00, 0x00, 0x00, 0x30, 0x00, 0x00, 0x00, 0x8a, 0xf9, 0xff, 0xff, 0x14, 0x00,
  0x00, 0x00, 0x00, 0x00, 0x00, 0x02, 0x1c, 0x00, 0x00, 0x00, 0x20, 0x00, 0x00,
  0x00, 0x01, 0x00, 0x00, 0x00, 0x7c, 0xf9, 0xff, 0xff, 0x01, 0x00, 0x00, 0x00,
  0x01, 0x00, 0x00, 0x00, 0x01, 0x00, 0x00, 0x00, 0x01, 0x00, 0x00, 0x00, 0x6b,
  0x00, 0x00, 0x00, 0x03, 0x00, 0x00, 0x00, 0x6a, 0x00, 0x00, 0x00, 0x22, 0x00,
  0x00, 0x00, 0x30, 0x00, 0x00, 0x00, 0xca, 0xf9, 0xff, 0xff, 0x14, 0x00, 0x00,
  0x00, 0x00, 0x00, 0x00, 0x01, 0x1c, 0x00, 0x00, 0x00, 0x20, 0x00, 0x00, 0x00,
  0x02, 0x00, 0x00, 0x00, 0x20, 0xfb, 0xff, 0xff, 0x00, 0x00, 0x00, 0x01, 0x01,
  0x00, 0x00, 0x00, 0x01, 0x00, 0x00, 0x00, 0x01, 0x00, 0x00, 0x00, 0x6a, 0x00,
  0x00, 0x00, 0x03, 0x00, 0x00, 0x00, 0x69, 0x00, 0x00, 0x00, 0x21, 0x00, 0x00,
  0x00, 0x04, 0x00, 0x00, 0x00, 0x0a, 0xfa, 0xff, 0xff, 0x14, 0x00, 0x00, 0x00,
  0x00, 0x00, 0x00, 0x02, 0x1c, 0x00, 0x00, 0x00, 0x20, 0x00, 0x00, 0x00, 0x01,
  0x00, 0x00, 0x00, 0xfc, 0xf9, 0xff, 0xff, 0x01, 0x00, 0x00, 0x00, 0x01, 0x00,
  0x00, 0x00, 0x01, 0x00, 0x00, 0x00, 0x01, 0x00, 0x00, 0x00, 0x69, 0x00, 0x00,
  0x00, 0x03, 0x00, 0x00, 0x00, 0x68, 0x00, 0x00, 0x00, 0x20, 0x00, 0x00, 0x00,
  0x26, 0x00, 0x00, 0x00, 0x4a, 0xfa, 0xff, 0xff, 0x14, 0x00, 0x00, 0x00, 0x00,
  0x00, 0x00, 0x02, 0x1c, 0x00, 0x00, 0x00, 0x20, 0x00, 0x00, 0x00, 0x01, 0x00,
  0x00, 0x00, 0x3c, 0xfa, 0xff, 0xff, 0x01, 0x00, 0x00, 0x00, 0x01, 0x00, 0x00,
  0x00, 0x01, 0x00, 0x00, 0x00, 0x01, 0x00, 0x00, 0x00, 0x68, 0x00, 0x00, 0x00,
  0x03, 0x00, 0x00, 0x00, 0x67, 0x00, 0x00, 0x00, 0x1f, 0x00, 0x00, 0x00, 0x26,
  0x00, 0x00, 0x00, 0x8a, 0xfa, 0xff, 0xff, 0x14, 0x00, 0x00, 0x00, 0x00, 0x00,
  0x00, 0x0b, 0x14, 0x00, 0x00, 0x00, 0x18, 0x00, 0x00, 0x00, 0x03, 0x00, 0x00,
  0x00, 0x94, 0xfd, 0xff, 0xff, 0x00, 0x00, 0x00, 0x00, 0x01, 0x00, 0x00, 0x00,
  0x67, 0x00, 0x00, 0x00, 0x02, 0x00, 0x00, 0x00, 0x66, 0x00, 0x00, 0x00, 0x63,
  0x00, 0x00, 0x00, 0xbe, 0xfa, 0xff, 0xff, 0x14, 0x00, 0x00, 0x00, 0x00, 0x00,
  0x00, 0x01, 0x18, 0x00, 0x00, 0x00, 0x1c, 0x00, 0x00, 0x00, 0x02, 0x00, 0x00,
  0x00, 0x46, 0xfb, 0xff, 0xff, 0x01, 0x00, 0x00, 0x00, 0x01, 0x00, 0x00, 0x00,
  0x01, 0x00, 0x00, 0x00, 0x66, 0x00, 0x00, 0x00, 0x03, 0x00, 0x00, 0x00, 0x65,
  0x00, 0x00, 0x00, 0x1e, 0x00, 0x00, 0x00, 0x4a, 0x00, 0x00, 0x00, 0xfa, 0xfa,
  0xff, 0xff, 0x14, 0x00, 0x00, 0x00, 0x00, 0x00, 0x00, 0x02, 0x1c, 0x00, 0x00,
  0x00, 0x20, 0x00, 0x00, 0x00, 0x01, 0x00, 0x00, 0x00, 0xec, 0xfa, 0xff, 0xff,
  0x01, 0x00, 0x00, 0x00, 0x01, 0x00, 0x00, 0x00, 0x01, 0x00, 0x00, 0x00, 0x01,
  0x00, 0x00, 0x00, 0x65, 0x00, 0x00, 0x00, 0x03, 0x00, 0x00, 0x00, 0x64, 0x00,
  0x00, 0x00, 0x1d, 0x00, 0x00, 0x00, 0x1c, 0x00, 0x00, 0x00, 0x3a, 0xfb, 0xff,
  0xff, 0x14, 0x00, 0x00, 0x00, 0x00, 0x00, 0x00, 0x02, 0x1c, 0x00, 0x00, 0x00,
  0x20, 0x00, 0x00, 0x00, 0x01, 0x00, 0x00, 0x00, 0x2c, 0xfb, 0xff, 0xff, 0x01,
  0x00, 0x00, 0x00, 0x01, 0x00, 0x00, 0x00, 0x01, 0x00, 0x00, 0x00, 0x01, 0x00,
  0x00, 0x00, 0x64, 0x00, 0x00, 0x00, 0x03, 0x00, 0x00, 0x00, 0x5d, 0x00, 0x00,
  0x00, 0x1b, 0x00, 0x00, 0x00, 0x1c, 0x00, 0x00, 0x00, 0x7a, 0xfb, 0xff, 0xff,
  0x14, 0x00, 0x00, 0x00, 0x00, 0x00, 0x00, 0x01, 0x18, 0x00, 0x00, 0x00, 0x1c,
  0x00, 0x00, 0x00, 0x02, 0x00, 0x00, 0x00, 0x02, 0xfc, 0xff, 0xff, 0x01, 0x00,
  0x00, 0x00, 0x01, 0x00, 0x00, 0x00, 0x01, 0x00, 0x00, 0x00, 0x63, 0x00, 0x00,
  0x00, 0x03, 0x00, 0x00, 0x00, 0x62, 0x00, 0x00, 0x00, 0x1a, 0x00, 0x00, 0x00,
  0x4a, 0x00, 0x00, 0x00, 0xb6, 0xfb, 0xff, 0xff, 0x14, 0x00, 0x00, 0x00, 0x00,
  0x00, 0x00, 0x02, 0x1c, 0x00, 0x00, 0x00, 0x20, 0x00, 0x00, 0x00, 0x01, 0x00,
  0x00, 0x00, 0xa8, 0xfb, 0xff, 0xff, 0x01, 0x00, 0x00, 0x00, 0x01, 0x00, 0x00,
  0x00, 0x01, 0x00, 0x00, 0x00, 0x01, 0x00, 0x00, 0x00, 0x62, 0x00, 0x00, 0x00,
  0x03, 0x00, 0x00, 0x00, 0x61, 0x00, 0x00, 0x00, 0x19, 0x00, 0x00, 0x00, 0x26,
  0x00, 0x00, 0x00, 0xf6, 0xfb, 0xff, 0xff, 0x14, 0x00, 0x00, 0x00, 0x00, 0x00,
  0x00, 0x02, 0x1c, 0x00, 0x00, 0x00, 0x20, 0x00, 0x00, 0x00, 0x01, 0x00, 0x00,
  0x00, 0xe8, 0xfb, 0xff, 0xff, 0x01, 0x00, 0x00, 0x00, 0x01, 0x00, 0x00, 0x00,
  0x01, 0x00, 0x00, 0x00, 0x01, 0x00, 0x00, 0x00, 0x61, 0x00, 0x00, 0x00, 0x03,
  0x00, 0x00, 0x00, 0x60, 0x00, 0x00, 0x00, 0x18, 0x00, 0x00, 0x00, 0x26, 0x00,
  0x00, 0x00, 0x36, 0xfc, 0xff, 0xff, 0x14, 0x00, 0x00, 0x00, 0x00, 0x00, 0x00,
  0x01, 0x1c, 0x00, 0x00, 0x00, 0x20, 0x00, 0x00, 0x00, 0x02, 0x00, 0x00, 0x00,
  0x8c, 0xfd, 0xff, 0xff, 0x00, 0x00, 0x00, 0x01, 0x01, 0x00, 0x00, 0x00, 0x01,
  0x00, 0x00, 0x00, 0x01, 0x00, 0x00, 0x00, 0x60, 0x00, 0x00, 0x00, 0x03, 0x00,
  0x00, 0x00, 0x5f, 0x00, 0x00, 0x00, 0x17, 0x00, 0x00, 0x00, 0x05, 0x00, 0x00,
  0x00, 0x76, 0xfc, 0xff, 0xff, 0x14, 0x00, 0x00, 0x00, 0x00, 0x00, 0x00, 0x02,
  0x1c, 0x00, 0x00, 0x00, 0x20, 0x00, 0x00, 0x00, 0x01, 0x00, 0x00, 0x00, 0x68,
  0xfc, 0xff, 0xff, 0x01, 0x00, 0x00, 0x00, 0x01, 0x00, 0x00, 0x00, 0x01, 0x00,
  0x00, 0x00, 0x01, 0x00, 0x00, 0x00, 0x5f, 0x00, 0x00, 0x00, 0x03, 0x00, 0x00,
  0x00, 0x5e, 0x00, 0x00, 0x00, 0x16, 0x00, 0x00, 0x00, 0x1c, 0x00, 0x00, 0x00,
  0xb6, 0xfc, 0xff, 0xff, 0x14, 0x00, 0x00, 0x00, 0x00, 0x00, 0x00, 0x02, 0x1c,
  0x00, 0x00, 0x00, 0x20, 0x00, 0x00, 0x00, 0x01, 0x00, 0x00, 0x00, 0xa8, 0xfc,
  0xff, 0xff, 0x01, 0x00, 0x00, 0x00, 0x01, 0x00, 0x00, 0x00, 0x01, 0x00, 0x00,
  0x00, 0x01, 0x00, 0x00, 0x00, 0x5e, 0x00, 0x00, 0x00, 0x03, 0x00, 0x00, 0x00,
  0x5d, 0x00, 0x00, 0x00, 0x15, 0x00, 0x00, 0x00, 0x1c, 0x00, 0x00, 0x00, 0xf6,
  0xfc, 0xff, 0xff, 0x1c, 0x00, 0x00, 0x00, 0x00, 0x00, 0x00, 0x0b, 0x1c, 0x00,
  0x00, 0x00, 0x20, 0x00, 0x00, 0x00, 0x03, 0x00, 0x00, 0x00, 0x08, 0x00, 0x08,
  0x00, 0x00, 0x00, 0x07, 0x00, 0x08, 0x00, 0x00, 0x00, 0x00, 0x00, 0x00, 0x00,
  0x01, 0x00, 0x00, 0x00, 0x5d, 0x00, 0x00, 0x00, 0x02, 0x00, 0x00, 0x00, 0x5c,
  0x00, 0x00, 0x00, 0x59, 0x00, 0x00, 0x00, 0x32, 0xfd, 0xff, 0xff, 0x14, 0x00,
  0x00, 0x00, 0x00, 0x00, 0x00, 0x01, 0x18, 0x00, 0x00, 0x00, 0x1c, 0x00, 0x00,
  0x00, 0x02, 0x00, 0x00, 0x00, 0xba, 0xfd, 0xff, 0xff, 0x01, 0x00, 0x00, 0x00,
  0x01, 0x00, 0x00, 0x00, 0x01, 0x00, 0x00, 0x00, 0x5c, 0x00, 0x00, 0x00, 0x03,
  0x00, 0x00, 0x00, 0x5b, 0x00, 0x00, 0x00, 0x14, 0x00, 0x00, 0x00, 0x49, 0x00,
  0x00, 0x00, 0x6e, 0xfd, 0xff, 0xff, 0x14, 0x00, 0x00, 0x00, 0x00, 0x00, 0x00,
  0x02, 0x1c, 0x00, 0x00, 0x00, 0x20, 0x00, 0x00, 0x00, 0x01, 0x00, 0x00, 0x00,
  0x60, 0xfd, 0xff, 0xff, 0x01, 0x00, 0x00, 0x00, 0x01, 0x00, 0x00, 0x00, 0x01,
  0x00, 0x00, 0x00, 0x01, 0x00, 0x00, 0x00, 0x5b, 0x00, 0x00, 0x00, 0x03, 0x00,
  0x00, 0x00, 0x5a, 0x00, 0x00, 0x00, 0x13, 0x00, 0x00, 0x00, 0x12, 0x00, 0x00,
  0x00, 0xae, 0xfd, 0xff, 0xff, 0x14, 0x00, 0x00, 0x00, 0x00, 0x00, 0x00, 0x02,
  0x1c, 0x00, 0x00, 0x00, 0x20, 0x00, 0x00, 0x00, 0x01, 0x00, 0x00, 0x00, 0xa0,
  0xfd, 0xff, 0xff, 0x01, 0x00, 0x00, 0x00, 0x01, 0x00, 0x00, 0x00, 0x01, 0x00,
  0x00, 0x00, 0x01, 0x00, 0x00, 0x00, 0x5a, 0x00, 0x00, 0x00, 0x03, 0x00, 0x00,
  0x00, 0x53, 0x00, 0x00, 0x00, 0x11, 0x00, 0x00, 0x00, 0x12, 0x00, 0x00, 0x00,
  0xee, 0xfd, 0xff, 0xff, 0x14, 0x00, 0x00, 0x00, 0x00, 0x00, 0x00, 0x01, 0x18,
  0x00, 0x00, 0x00, 0x1c, 0x00, 0x00, 0x00, 0x02, 0x00, 0x00, 0x00, 0x76, 0xfe,
  0xff, 0xff, 0x01, 0x00, 0x00, 0x00, 0x01, 0x00, 0x00, 0x00, 0x01, 0x00, 0x00,
  0x00, 0x59, 0x00, 0x00, 0x00, 0x03, 0x00, 0x00, 0x00, 0x58, 0x00, 0x00, 0x00,
  0x10, 0x00, 0x00, 0x00, 0x49, 0x00, 0x00, 0x00, 0x2a, 0xfe, 0xff, 0xff, 0x14,
  0x00, 0x00, 0x00, 0x00, 0x00, 0x00, 0x02, 0x1c, 0x00, 0x00, 0x00, 0x20, 0x00,
  0x00, 0x00, 0x01, 0x00, 0x00, 0x00, 0x1c, 0xfe, 0xff, 0xff, 0x01, 0x00, 0x00,
  0x00, 0x01, 0x00, 0x00, 0x00, 0x01, 0x00, 0x00, 0x00, 0x01, 0x00, 0x00, 0x00,
  0x58, 0x00, 0x00, 0x00, 0x03, 0x00, 0x00, 0x00, 0x57, 0x00, 0x00, 0x00, 0x0f,
  0x00, 0x00, 0x00, 0x1c, 0x00, 0x00, 0x00, 0x6a, 0xfe, 0xff, 0xff, 0x14, 0x00,
  0x00, 0x00, 0x00, 0x00, 0x00, 0x02, 0x1c, 0x00, 0x00, 0x00, 0x20, 0x00, 0x00,
  0x00, 0x01, 0x00, 0x00, 0x00, 0x5c, 0xfe, 0xff, 0xff, 0x01, 0x00, 0x00, 0x00,
  0x01, 0x00, 0x00, 0x00, 0x01, 0x00, 0x00, 0x00, 0x01, 0x00, 0x00, 0x00, 0x57,
  0x00, 0x00, 0x00, 0x03, 0x00, 0x00, 0x00, 0x56, 0x00, 0x00, 0x00, 0x0e, 0x00,
  0x00, 0x00, 0x1c, 0x00, 0x00, 0x00, 0xaa, 0xfe, 0xff, 0xff, 0x20, 0x00, 0x00,
  0x00, 0x00, 0x00, 0x00, 0x01, 0x28, 0x00, 0x00, 0x00, 0x2c, 0x00, 0x00, 0x00,
  0x02, 0x00, 0x00, 0x00, 0x0c, 0x00, 0x10, 0x00, 0x00, 0x00, 0x0c, 0x00, 0x08,
  0x00, 0x07, 0x00, 0x0c, 0x00, 0x00, 0x00, 0x00, 0x00, 0x00, 0x01, 0x01, 0x00,
  0x00, 0x00, 0x01, 0x00, 0x00, 0x00, 0x01, 0x00, 0x00, 0x00, 0x56, 0x00, 0x00,
  0x00, 0x03, 0x00, 0x00, 0x00, 0x55, 0x00, 0x00, 0x00, 0x0d, 0x00, 0x00, 0x00,
  0x06, 0x00, 0x00, 0x00, 0xf6, 0xfe, 0xff, 0xff, 0x14, 0x00, 0x00, 0x00, 0x00,
  0x00, 0x00, 0x02, 0x1c, 0x00, 0x00, 0x00, 0x20, 0x00, 0x00, 0x00, 0x01, 0x00,
  0x00, 0x00, 0xe8, 0xfe, 0xff, 0xff, 0x01, 0x00, 0x00, 0x00, 0x01, 0x00, 0x00,
  0x00, 0x01, 0x00, 0x00, 0x00, 0x01, 0x00, 0x00, 0x00, 0x55, 0x00, 0x00, 0x00,
  0x03, 0x00, 0x00, 0x00, 0x54, 0x00, 0x00, 0x00, 0x0c, 0x00, 0x00, 0x00, 0x12,
  0x00, 0x00, 0x00, 0x36, 0xff, 0xff, 0xff, 0x14, 0x00, 0x00, 0x00, 0x00, 0x00,
  0x00, 0x02, 0x1c, 0x00, 0x00, 0x00, 0x20, 0x00, 0x00, 0x00, 0x01, 0x00, 0x00,
  0x00, 0x28, 0xff, 0xff, 0xff, 0x01, 0x00, 0x00, 0x00, 0x01, 0x00, 0x00, 0x00,
  0x01, 0x00, 0x00, 0x00, 0x01, 0x00, 0x00, 0x00, 0x54, 0x00, 0x00, 0x00, 0x03,
  0x00, 0x00, 0x00, 0x53, 0x00, 0x00, 0x00, 0x0b, 0x00, 0x00, 0x00, 0x12, 0x00,
  0x00, 0x00, 0x76, 0xff, 0xff, 0xff, 0x20, 0x00, 0x00, 0x00, 0x00, 0x00, 0x00,
  0x01, 0x24, 0x00, 0x00, 0x00, 0x28, 0x00, 0x00, 0x00, 0x02, 0x00, 0x00, 0x00,
  0x00, 0x00, 0x0a, 0x00, 0x0c, 0x00, 0x00, 0x00, 0x08, 0x00, 0x04, 0x00, 0x0a,
  0x00, 0x00, 0x00, 0x01, 0x00, 0x00, 0x00, 0x01, 0x00, 0x00, 0x00, 0x01, 0x00,
  0x00, 0x00, 0x53, 0x00, 0x00, 0x00, 0x03, 0x00, 0x00, 0x00, 0x52, 0x00, 0x00,
  0x00, 0x0a, 0x00, 0x00, 0x00, 0x48, 0x00, 0x00, 0x00, 0xbe, 0xff, 0xff, 0xff,
  0x14, 0x00, 0x00, 0x00, 0x00, 0x00, 0x00, 0x02, 0x1c, 0x00, 0x00, 0x00, 0x20,
  0x00, 0x00, 0x00, 0x01, 0x00, 0x00, 0x00, 0xb0, 0xff, 0xff, 0xff, 0x01, 0x00,
  0x00, 0x00, 0x01, 0x00, 0x00, 0x00, 0x01, 0x00, 0x00, 0x00, 0x01, 0x00, 0x00,
  0x00, 0x52, 0x00, 0x00, 0x00, 0x03, 0x00, 0x00, 0x00, 0x51, 0x00, 0x00, 0x00,
  0x09, 0x00, 0x00, 0x00, 0x46, 0x00, 0x00, 0x00, 0x00, 0x00, 0x0e, 0x00, 0x18,
  0x00, 0x14, 0x00, 0x10, 0x00, 0x0c, 0x00, 0x0b, 0x00, 0x04, 0x00, 0x0e, 0x00,
  0x00, 0x00, 0x20, 0x00, 0x00, 0x00, 0x00, 0x00, 0x00, 0x02, 0x28, 0x00, 0x00,
  0x00, 0x2c, 0x00, 0x00, 0x00, 0x01, 0x00, 0x00, 0x00, 0x0c, 0x00, 0x10, 0x00,
  0x00, 0x00, 0x0c, 0x00, 0x08, 0x00, 0x04, 0x00, 0x0c, 0x00, 0x00, 0x00, 0x01,
  0x00, 0x00, 0x00, 0x01, 0x00, 0x00, 0x00, 0x01, 0x00, 0x00, 0x00, 0x01, 0x00,
  0x00, 0x00, 0x51, 0x00, 0x00, 0x00, 0x03, 0x00, 0x00, 0x00, 0x50, 0x00, 0x00,
  0x00, 0x08, 0x00, 0x00, 0x00, 0x46, 0x00, 0x00, 0x00, 0x00, 0x00, 0x0e, 0x00,
  0x14, 0x00, 0x00, 0x00, 0x10, 0x00, 0x0c, 0x00, 0x0b, 0x00, 0x04, 0x00, 0x0e,
  0x00, 0x00, 0x00, 0x10, 0x00, 0x00, 0x00, 0x00, 0x00, 0x00, 0x16, 0x0c, 0x00,
  0x00, 0x00, 0x10, 0x00, 0x00, 0x00, 0xa4, 0x8e, 0xff, 0xff, 0x01, 0x00, 0x00,
  0x00, 0x50, 0x00, 0x00, 0x00, 0x02, 0x00, 0x00, 0x00, 0x00, 0x00, 0x00, 0x00,
  0x07, 0x00, 0x00, 0x00, 0x00, 0x00, 0x0a, 0x00, 0x10, 0x00, 0x0c, 0x00, 0x08,
  0x00, 0x04, 0x00, 0x0a, 0x00, 0x00, 0x00, 0x0c, 0x00, 0x00, 0x00, 0x10, 0x00,
  0x00, 0x00, 0x04, 0x00, 0x00, 0x00, 0x01, 0x00, 0x00, 0x00, 0x00, 0x00, 0x00,
  0x00, 0x01, 0x00, 0x00, 0x00, 0x90, 0x00, 0x00, 0x00, 0x01, 0x00, 0x00, 0x00,
  0x91, 0x00, 0x00, 0x00, 0x01, 0x00, 0x00, 0x00, 0x90, 0x00, 0x00, 0x00, 0x92,
  0x00, 0x00, 0x00, 0x60, 0x75, 0x00, 0x00, 0xbc, 0x74, 0x00, 0x00, 0x34, 0x74,
  0x00, 0x00, 0x98, 0x73, 0x00, 0x00, 0xe4, 0x72, 0x00, 0x00, 0x08, 0x72, 0x00,
  0x00, 0x0c, 0x71, 0x00, 0x00, 0xd0, 0x70, 0x00, 0x00, 0x3c, 0x70, 0x00, 0x00,
  0xbc, 0x6f, 0x00, 0x00, 0xcc, 0x6d, 0x00, 0x00, 0xd4, 0x6b, 0x00, 0x00, 0xd8,
  0x69, 0x00, 0x00, 0x48, 0x68, 0x00, 0x00, 0xb0, 0x66, 0x00, 0x00, 0x1c, 0x65,
  0x00, 0x00, 0x8c, 0x63, 0x00, 0x00, 0x94, 0x61, 0x00, 0x00, 0x5c, 0x60, 0x00,
  0x00, 0x5c, 0x5e, 0x00, 0x00, 0xcc, 0x5c, 0x00, 0x00, 0x34, 0x5b, 0x00, 0x00,
  0xa0, 0x59, 0x00, 0x00, 0x48, 0x58, 0x00, 0x00, 0xe8, 0x56, 0x00, 0x00, 0x8c,
  0x55, 0x00, 0x00, 0x34, 0x54, 0x00, 0x00, 0x9c, 0x52, 0x00, 0x00, 0x9c, 0x51,
  0x00, 0x00, 0x04, 0x50, 0x00, 0x00, 0xac, 0x4e, 0x00, 0x00, 0x4c, 0x4d, 0x00,
  0x00, 0xf0, 0x4b, 0x00, 0x00, 0xd8, 0x4a, 0x00, 0x00, 0xb8, 0x49, 0x00, 0x00,
  0x94, 0x48, 0x00, 0x00, 0x7c, 0x47, 0x00, 0x00, 0x1c, 0x46, 0x00, 0x00, 0x3c,
  0x45, 0x00, 0x00, 0xdc, 0x43, 0x00, 0x00, 0xc4, 0x42, 0x00, 0x00, 0xa4, 0x41,
  0x00, 0x00, 0x80, 0x40, 0x00, 0x00, 0x90, 0x3f, 0x00, 0x00, 0x98, 0x3e, 0x00,
  0x00, 0x9c, 0x3d, 0x00, 0x00, 0xac, 0x3c, 0x00, 0x00, 0x8c, 0x3b, 0x00, 0x00,
  0xd4, 0x3a, 0x00, 0x00, 0xb4, 0x39, 0x00, 0x00, 0xc4, 0x38, 0x00, 0x00, 0xcc,
  0x37, 0x00, 0x00, 0xd0, 0x36, 0x00, 0x00, 0x08, 0x36, 0x00, 0x00, 0x38, 0x35,
  0x00, 0x00, 0x64, 0x34, 0x00, 0x00, 0x9c, 0x33, 0x00, 0x00, 0xa4, 0x32, 0x00,
  0x00, 0x04, 0x32, 0x00, 0x00, 0x0c, 0x31, 0x00, 0x00, 0x44, 0x30, 0x00, 0x00,
  0x74, 0x2f, 0x00, 0x00, 0xa0, 0x2e, 0x00, 0x00, 0xd8, 0x2d, 0x00, 0x00, 0x08,
  0x2d, 0x00, 0x00, 0x34, 0x2c, 0x00, 0x00, 0x6c, 0x2b, 0x00, 0x00, 0x9c, 0x2a,
  0x00, 0x00, 0x14, 0x2a, 0x00, 0x00, 0x44, 0x29, 0x00, 0x00, 0xec, 0x28, 0x00,
  0x00, 0x70, 0x28, 0x00, 0x00, 0x1c, 0x27, 0x00, 0x00, 0x00, 0x26, 0x00, 0x00,
  0x04, 0x25, 0x00, 0x00, 0x30, 0x24, 0x00, 0x00, 0x6c, 0x23, 0x00, 0x00, 0xc0,
  0x22, 0x00, 0x00, 0x14, 0x22, 0x00, 0x00, 0xa8, 0x21, 0x00, 0x00, 0x34, 0x21,
  0x00, 0x00, 0xb8, 0x20, 0x00, 0x00, 0x3c, 0x20, 0x00, 0x00, 0xa8, 0x1f, 0x00,
  0x00, 0x2c, 0x1f, 0x00, 0x00, 0xb0, 0x1e, 0x00, 0x00, 0x14, 0x1e, 0x00, 0x00,
  0x98, 0x1d, 0x00, 0x00, 0x1c, 0x1d, 0x00, 0x00, 0x80, 0x1c, 0x00, 0x00, 0x04,
  0x1c, 0x00, 0x00, 0x88, 0x1b, 0x00, 0x00, 0xec, 0x1a, 0x00, 0x00, 0x78, 0x1a,
  0x00, 0x00, 0xfc, 0x19, 0x00, 0x00, 0x80, 0x19, 0x00, 0x00, 0xdc, 0x18, 0x00,
  0x00, 0x60, 0x18, 0x00, 0x00, 0xe4, 0x17, 0x00, 0x00, 0x48, 0x17, 0x00, 0x00,
  0xcc, 0x16, 0x00, 0x00, 0x50, 0x16, 0x00, 0x00, 0xb4, 0x15, 0x00, 0x00, 0x40,
  0x15, 0x00, 0x00, 0xc4, 0x14, 0x00, 0x00, 0x48, 0x14, 0x00, 0x00, 0xa4, 0x13,
  0x00, 0x00, 0x28, 0x13, 0x00, 0x00, 0xac, 0x12, 0x00, 0x00, 0x10, 0x12, 0x00,
  0x00, 0x94, 0x11, 0x00, 0x00, 0x18, 0x11, 0x00, 0x00, 0x7c, 0x10, 0x00, 0x00,
  0x08, 0x10, 0x00, 0x00, 0x8c, 0x0f, 0x00, 0x00, 0x10, 0x0f, 0x00, 0x00, 0x6c,
  0x0e, 0x00, 0x00, 0xf0, 0x0d, 0x00, 0x00, 0x74, 0x0d, 0x00, 0x00, 0xd8, 0x0c,
  0x00, 0x00, 0x5c, 0x0c, 0x00, 0x00, 0xe0, 0x0b, 0x00, 0x00, 0x44, 0x0b, 0x00,
  0x00, 0xd0, 0x0a, 0x00, 0x00, 0x54, 0x0a, 0x00, 0x00, 0xd8, 0x09, 0x00, 0x00,
  0x34, 0x09, 0x00, 0x00, 0xb8, 0x08, 0x00, 0x00, 0x3c, 0x08, 0x00, 0x00, 0xa0,
  0x07, 0x00, 0x00, 0x24, 0x07, 0x00, 0x00, 0xa8, 0x06, 0x00, 0x00, 0x0c, 0x06,
  0x00, 0x00, 0x98, 0x05, 0x00, 0x00, 0x1c, 0x05, 0x00, 0x00, 0xa0, 0x04, 0x00,
  0x00, 0xfc, 0x03, 0x00, 0x00, 0x80, 0x03, 0x00, 0x00, 0x04, 0x03, 0x00, 0x00,
  0x68, 0x02, 0x00, 0x00, 0xf4, 0x01, 0x00, 0x00, 0x78, 0x01, 0x00, 0x00, 0xfc,
  0x00, 0x00, 0x00, 0x78, 0x00, 0x00, 0x00, 0x44, 0x00, 0x00, 0x00, 0x04, 0x00,
  0x00, 0x00, 0xd0, 0xff, 0xff, 0xff, 0x08, 0x00, 0x00, 0x00, 0x14, 0x00, 0x00,
  0x00, 0x0a, 0x00, 0x00, 0x00, 0x42, 0x69, 0x61, 0x73, 0x41, 0x64, 0x64, 0x5f,
  0x31, 0x38, 0x00, 0x00, 0x04, 0x00, 0x00, 0x00, 0x01, 0x00, 0x00, 0x00, 0x38,
  0x04, 0x00, 0x00, 0x80, 0x07, 0x00, 0x00, 0x01, 0x00, 0x00, 0x00, 0x0c, 0x00,
  0x0c, 0x00, 0x08, 0x00, 0x00, 0x00, 0x00, 0x00, 0x04, 0x00, 0x0c, 0x00, 0x00,
  0x00, 0x08, 0x00, 0x00, 0x00, 0x14, 0x00, 0x00, 0x00, 0x0b, 0x00, 0x00, 0x00,
  0x50, 0x6c, 0x61, 0x63, 0x65, 0x68, 0x6f, 0x6c, 0x64, 0x65, 0x72, 0x00, 0x04,
  0x00, 0x00, 0x00, 0x01, 0x00, 0x00, 0x00, 0x38, 0x04, 0x00, 0x00, 0x80, 0x07,
  0x00, 0x00, 0x01, 0x00, 0x00, 0x00, 0x62, 0x8d, 0xff, 0xff, 0x14, 0x00, 0x00,
  0x00, 0x4c, 0x00, 0x00, 0x00, 0x90, 0x00, 0x00, 0x00, 0x00, 0x00, 0x00, 0x07,
  0x58, 0x00, 0x00, 0x00, 0x54, 0x8d, 0xff, 0xff, 0x10, 0x00, 0x00, 0x00, 0x1c,
  0x00, 0x00, 0x00, 0x20, 0x00, 0x00, 0x00, 0x24, 0x00, 0x00, 0x00, 0x01, 0x00,
  0x00, 0x00, 0x00, 0x00, 0x00, 0x00, 0x00, 0x00, 0x00, 0x00, 0x00, 0x00, 0x00,
  0x00, 0x01, 0x00, 0x00, 0x00, 0x1a, 0xbe, 0xb2, 0x36, 0x01, 0x00, 0x00, 0x00,
  0x12, 0xe6, 0x15, 0x3e, 0x01, 0x00, 0x00, 0x00, 0xb5, 0xbc, 0x32, 0xbe, 0x10,
  0x00, 0x00, 0x00, 0x42, 0x69, 0x61, 0x73, 0x41, 0x64, 0x64, 0x5f, 0x31, 0x38,
  0x5f, 0x69, 0x6e, 0x74, 0x31, 0x36, 0x00, 0x00, 0x00, 0x00, 0x04, 0x00, 0x00,
  0x00, 0x01, 0x00, 0x00, 0x00, 0x38, 0x04, 0x00, 0x00, 0x80, 0x07, 0x00, 0x00,
  0x01, 0x00, 0x00, 0x00, 0xe2, 0x8d, 0xff, 0xff, 0x14, 0x00, 0x00, 0x00, 0x48,
  0x00, 0x00, 0x00, 0x8f, 0x00, 0x00, 0x00, 0x00, 0x00, 0x00, 0x07, 0x50, 0x00,
  0x00, 0x00, 0xd4, 0x8d, 0xff, 0xff, 0x10, 0x00, 0x00, 0x00, 0x18, 0x00, 0x00,
  0x00, 0x1c, 0x00, 0x00, 0x00, 0x20, 0x00, 0x00, 0x00, 0x01, 0x00, 0x00, 0x00,
  0x00, 0x00, 0x00, 0x00, 0x00, 0x00, 0x00, 0x00, 0x01, 0x00, 0x00, 0x00, 0x1e,
  0x6e, 0xf3, 0x38, 0x01, 0x00, 0x00, 0x00, 0xc3, 0x49, 0x6b, 0x40, 0x01, 0x00,
  0x00, 0x00, 0x37, 0x6c, 0x73, 0xc0, 0x0d, 0x00, 0x00, 0x00, 0x64, 0x65, 0x70,
  0x74, 0x68, 0x77, 0x69, 0x73, 0x65, 0x5f, 0x33, 0x37, 0x32, 0x00, 0x00, 0x00,
  0x04, 0x00, 0x00, 0x00, 0x01, 0x00, 0x00, 0x00, 0x38, 0x04, 0x00, 0x00, 0x80,
  0x07, 0x00, 0x00, 0x05, 0x00, 0x00, 0x00, 0x5a, 0x8e, 0xff, 0xff, 0x14, 0x00,
  0x00, 0x00, 0x48, 0x00, 0x00, 0x00, 0x8e, 0x00, 0x00, 0x00, 0x00, 0x00, 0x00,
  0x07, 0x50, 0x00, 0x00, 0x00, 0x4c, 0x8e, 0xff, 0xff, 0x10, 0x00, 0x00, 0x00,
  0x18, 0x00, 0x00, 0x00, 0x1c, 0x00, 0x00, 0x00, 0x20, 0x00, 0x00, 0x00, 0x01,
  0x00, 0x00, 0x00, 0x00, 0x00, 0x00, 0x00, 0x00, 0x00, 0x00, 0x00, 0x01, 0x00,
  0x00, 0x00, 0x0b, 0xaa, 0xbf, 0x39, 0x01, 0x00, 0x00, 0x00, 0xa2, 0x3a, 0x33,
  0x41, 0x01, 0x00, 0x00, 0x00, 0x8c, 0xa8, 0x3f, 0xc1, 0x0d, 0x00, 0x00, 0x00,
  0x64, 0x65, 0x70, 0x74, 0x68, 0x77, 0x69, 0x73, 0x65, 0x5f, 0x33, 0x36, 0x31,
  0x00, 0x00, 0x00, 0x04, 0x00, 0x00, 0x00, 0x01, 0x00, 0x00, 0x00, 0x38, 0x04,
  0x00, 0x00, 0x86, 0x07, 0x00, 0x00, 0x05, 0x00, 0x00, 0x00, 0xd2, 0x8e, 0xff,
  0xff, 0x14, 0x00, 0x00, 0x00, 0x48, 0x00, 0x00, 0x00, 0x8d, 0x00, 0x00, 0x00,
  0x00, 0x00, 0x00, 0x07, 0x48, 0x00, 0x00, 0x00, 0xc4, 0x8e, 0xff, 0xff, 0x10,
  0x00, 0x00, 0x00, 0x18, 0x00, 0x00, 0x00, 0x1c, 0x00, 0x00, 0x00, 0x20, 0x00,
  0x00, 0x00, 0x01, 0x00, 0x00, 0x00, 0x00, 0x00, 0x00, 0x00, 0x00, 0x00, 0x00,
  0x00, 0x01, 0x00, 0x00, 0x00, 0xc6, 0xd2, 0x88, 0x3a, 0x01, 0x00, 0x00, 0x00,
  0xb4, 0xd1, 0x08, 0x42, 0x01, 0x00, 0x00, 0x00, 0x26, 0x68, 0xea, 0xc1, 0x05,
  0x00, 0x00, 0x00, 0x41, 0x64, 0x64, 0x5f, 0x35, 0x00, 0x00, 0x00, 0x04, 0x00,
  0x00, 0x00, 0x01, 0x00, 0x00, 0x00, 0x3e, 0x04, 0x00, 0x00, 0x86, 0x07, 0x00,
  0x00, 0x05, 0x00, 0x00, 0x00, 0x42, 0x8f, 0xff, 0xff, 0x14, 0x00, 0x00, 0x00,
  0x48, 0x00, 0x00, 0x00, 0x8c, 0x00, 0x00, 0x00, 0x00, 0x00, 0x00, 0x07, 0x70,
  0x00, 0x00, 0x00, 0x34, 0x8f, 0xff, 0xff, 0x10, 0x00, 0x00, 0x00, 0x18, 0x00,
  0x00, 0x00, 0x1c, 0x00, 0x00, 0x00, 0x20, 0x00, 0x00, 0x00, 0x01, 0x00, 0x00,
  0x00, 0x00, 0x00, 0x00, 0x00, 0x00, 0x00, 0x00, 0x00, 0x01, 0x00, 0x00, 0x00,
  0x70, 0xd4, 0x55, 0x3a, 0x01, 0x00, 0x00, 0x00, 0xc4, 0xd2, 0xd5, 0x41, 0x01,
  0x00, 0x00, 0x00, 0xe8, 0xd0, 0xb9, 0xc1, 0x2d, 0x00, 0x00, 0x00, 0x42, 0x69,
  0x61, 0x73, 0x41, 0x64, 0x64, 0x5f, 0x31, 0x37, 0x3b, 0x64, 0x65, 0x70, 0x74,
  0x68, 0x77, 0x69, 0x73, 0x65, 0x5f, 0x33, 0x37, 0x3b, 0x43, 0x6f, 0x6e, 0x76,
  0x32, 0x44, 0x5f, 0x31, 0x37, 0x3b, 0x63, 0x6f, 0x6e, 0x76, 0x5f, 0x36, 0x5f,
  0x31, 0x5f, 0x62, 0x31, 0x00, 0x00, 0x00, 0x04, 0x00, 0x00, 0x00, 0x01, 0x00,
  0x00, 0x00, 0x3e, 0x04, 0x00, 0x00, 0x86, 0x07, 0x00, 0x00, 0x05, 0x00, 0x00,
  0x00, 0xda, 0x8f, 0xff, 0xff, 0x14, 0x00, 0x00, 0x00, 0x48, 0x00, 0x00, 0x00,
  0x8b, 0x00, 0x00, 0x00, 0x00, 0x00, 0x00, 0x07, 0x50, 0x00, 0x00, 0x00, 0xcc,
  0x8f, 0xff, 0xff, 0x10, 0x00, 0x00, 0x00, 0x18, 0x00, 0x00, 0x00, 0x1c, 0x00,
  0x00, 0x00, 0x20, 0x00, 0x00, 0x00, 0x01, 0x00, 0x00, 0x00, 0x00, 0x00, 0x00,
  0x00, 0x00, 0x00, 0x00, 0x00, 0x01, 0x00, 0x00, 0x00, 0xa7, 0x4a, 0xbe, 0x39,
  0x01, 0x00, 0x00, 0x00, 0x73, 0x2d, 0x15, 0x41, 0x01, 0x00, 0x00, 0x00, 0x2a,
  0x49, 0x3e, 0xc1, 0x0d, 0x00, 0x00, 0x00, 0x64, 0x65, 0x70, 0x74, 0x68, 0x77,
  0x69, 0x73, 0x65, 0x5f, 0x33, 0x35, 0x31, 0x00, 0x00, 0x00, 0x04, 0x00, 0x00,
  0x00, 0x01, 0x00, 0x00, 0x00, 0x3e, 0x04, 0x00, 0x00, 0x86, 0x07, 0x00, 0x00,
  0x05, 0x00, 0x00, 0x00, 0x52, 0x90, 0xff, 0xff, 0x14, 0x00, 0x00, 0x00, 0x48,
  0x00, 0x00, 0x00, 0x8a, 0x00, 0x00, 0x00, 0x00, 0x00, 0x00, 0x07, 0x50, 0x00,
  0x00, 0x00, 0x44, 0x90, 0xff, 0xff, 0x10, 0x00, 0x00, 0x00, 0x18, 0x00, 0x00,
  0x00, 0x1c, 0x00, 0x00, 0x00, 0x20, 0x00, 0x00, 0x00, 0x01, 0x00, 0x00, 0x00,
  0x00, 0x00, 0x00, 0x00, 0x00, 0x00, 0x00, 0x00, 0x01, 0x00, 0x00, 0x00, 0xf0,
  0x58, 0xde, 0x39, 0x01, 0x00, 0x00, 0x00, 0xe6, 0x50, 0x25, 0x41, 0x01, 0x00,
  0x00, 0x00, 0x33, 0x57, 0x5e, 0xc1, 0x0d, 0x00, 0x00, 0x00, 0x64, 0x65, 0x70,
  0x74, 0x68, 0x77, 0x69, 0x73, 0x65, 0x5f, 0x33, 0x34, 0x31, 0x00, 0x00, 0x00,
  0x04, 0x00, 0x00, 0x00, 0x01, 0x00, 0x00, 0x00, 0x3e, 0x04, 0x00, 0x00, 0x86,
  0x07, 0x00, 0x00, 0x05, 0x00, 0x00, 0x00, 0xca, 0x90, 0xff, 0xff, 0x14, 0x00,
  0x00, 0x00, 0x4c, 0x00, 0x00, 0x00, 0x89, 0x00, 0x00, 0x00, 0x00, 0x00, 0x00,
  0x07, 0x78, 0x00, 0x00, 0x00, 0xbc, 0x90, 0xff, 0xff, 0x10, 0x00, 0x00, 0x00,
  0x1c, 0x00, 0x00, 0x00, 0x20, 0x00, 0x00, 0x00, 0x24, 0x00, 0x00, 0x00, 0x01,
  0x00, 0x00, 0x00, 0x00, 0x00, 0x00, 0x00, 0x00, 0x00, 0x00, 0x00, 0x00, 0x00,
  0x00, 0x00, 0x01, 0x00, 0x00, 0x00, 0x7a, 0xcd, 0x65, 0x3a, 0x01, 0x00, 0x00,
  0x00, 0xae, 0xcb, 0xe5, 0x41, 0x01, 0x00, 0x00, 0x00, 0x00, 0x00, 0x00, 0x00,
  0x33, 0x00, 0x00, 0x00, 0x52, 0x65, 0x6c, 0x75, 0x5f, 0x35, 0x3b, 0x42, 0x69,
  0x61, 0x73, 0x41, 0x64, 0x64, 0x5f, 0x31, 0x36, 0x3b, 0x64, 0x65, 0x70, 0x74,
  0x68, 0x77, 0x69, 0x73, 0x65, 0x5f, 0x33, 0x37, 0x3b, 0x43, 0x6f, 0x6e, 0x76,
  0x32, 0x44, 0x5f, 0x31, 0x36, 0x3b, 0x63, 0x6f, 0x6e, 0x76, 0x5f, 0x36, 0x5f,
  0x30, 0x5f, 0x62, 0x00, 0x04, 0x00, 0x00, 0x00, 0x01, 0x00, 0x00, 0x00, 0x3e,
  0x04, 0x00, 0x00, 0x86, 0x07, 0x00, 0x00, 0x05, 0x00, 0x00, 0x00, 0x6a, 0x91,
  0xff, 0xff, 0x14, 0x00, 0x00, 0x00, 0x48, 0x00, 0x00, 0x00, 0x88, 0x00, 0x00,
  0x00, 0x00, 0x00, 0x00, 0x07, 0x50, 0x00, 0x00, 0x00, 0x5c, 0x91, 0xff, 0xff,
  0x10, 0x00, 0x00, 0x00, 0x18, 0x00, 0x00, 0x00, 0x1c, 0x00, 0x00, 0x00, 0x20,
  0x00, 0x00, 0x00, 0x01, 0x00, 0x00, 0x00, 0x00, 0x00, 0x00, 0x00, 0x00, 0x00,
  0x00, 0x00, 0x01, 0x00, 0x00, 0x00, 0xa1, 0xc5, 0xf5, 0x39, 0x01, 0x00, 0x00,
  0x00, 0x65, 0x8c, 0x4e, 0x41, 0x01, 0x00, 0x00, 0x00, 0xb5, 0xc3, 0x75, 0xc1,
  0x0d, 0x00, 0x00, 0x00, 0x64, 0x65, 0x70, 0x74, 0x68, 0x77, 0x69, 0x73, 0x65,
  0x5f, 0x33, 0x33, 0x31, 0x00, 0x00, 0x00, 0x04, 0x00, 0x00, 0x00, 0x01, 0x00,
  0x00, 0x00, 0x3e, 0x04, 0x00, 0x00, 0x86, 0x07, 0x00, 0x00, 0x05, 0x00, 0x00,
  0x00, 0xe2, 0x91, 0xff, 0xff, 0x14, 0x00, 0x00, 0x00, 0x48, 0x00, 0x00, 0x00,
  0x87, 0x00, 0x00, 0x00, 0x00, 0x00, 0x00, 0x07, 0x50, 0x00, 0x00, 0x00, 0xd4,
  0x91, 0xff, 0xff, 0x10, 0x00, 0x00, 0x00, 0x18, 0x00, 0x00, 0x00, 0x1c, 0x00,
  0x00, 0x00, 0x20, 0x00, 0x00, 0x00, 0x01, 0x00, 0x00, 0x00, 0x00, 0x00, 0x00,
  0x00, 0x00, 0x00, 0x00, 0x00, 0x01, 0x00, 0x00, 0x00, 0x6f, 0x2d, 0x1b, 0x3a,
  0x01, 0x00, 0x00, 0x00, 0x39, 0x2c, 0x9b, 0x41, 0x01, 0x00, 0x00, 0x00, 0x66,
  0x67, 0x74, 0xc1, 0x0d, 0x00, 0x00, 0x00, 0x64, 0x65, 0x70, 0x74, 0x68, 0x77,
  0x69, 0x73, 0x65, 0x5f, 0x33, 0x32, 0x31, 0x00, 0x00, 0x00, 0x04, 0x00, 0x00,
  0x00, 0x01, 0x00, 0x00, 0x00, 0x3e, 0x04, 0x00, 0x00, 0x86, 0x07, 0x00, 0x00,
  0x05, 0x00, 0x00, 0x00, 0x5a, 0x92, 0xff, 0xff, 0x14, 0x00, 0x00, 0x00, 0x48,
  0x00, 0x00, 0x00, 0x86, 0x00, 0x00, 0x00, 0x00, 0x00, 0x00, 0x07, 0x48, 0x00,
  0x00, 0x00, 0x4c, 0x92, 0xff, 0xff, 0x10, 0x00, 0x00, 0x00, 0x18, 0x00, 0x00,
  0x00, 0x1c, 0x00, 0x00, 0x00, 0x20, 0x00, 0x00, 0x00, 0x01, 0x00, 0x00, 0x00,
  0x00, 0x00, 0x00, 0x00, 0x00, 0x00, 0x00, 0x00, 0x01, 0x00, 0x00, 0x00, 0x2b,
  0x5a, 0x1e, 0x3a, 0x01, 0x00, 0x00, 0x00, 0x7b, 0x2b, 0x83, 0x41, 0x01, 0x00,
  0x00, 0x00, 0xee, 0x58, 0x9e, 0xc1, 0x05, 0x00, 0x00, 0x00, 0x41, 0x64, 0x64,
  0x5f, 0x34, 0x00, 0x00, 0x00, 0x04, 0x00, 0x00, 0x00, 0x01, 0x00, 0x00, 0x00,
  0x3e, 0x04, 0x00, 0x00, 0x86, 0x07, 0x00, 0x00, 0x05, 0x00, 0x00, 0x00, 0xca,
  0x92, 0xff, 0xff, 0x14, 0x00, 0x00, 0x00, 0x48, 0x00, 0x00, 0x00, 0x85, 0x00,
  0x00, 0x00, 0x00, 0x00, 0x00, 0x07, 0x70, 0x00, 0x00, 0x00, 0xbc, 0x92, 0xff,
  0xff, 0x10, 0x00, 0x00, 0x00, 0x18, 0x00, 0x00, 0x00, 0x1c, 0x00, 0x00, 0x00,
  0x20, 0x00, 0x00, 0x00, 0x01, 0x00, 0x00, 0x00, 0x00, 0x00, 0x00, 0x00, 0x00,
  0x00, 0x00, 0x00, 0x01, 0x00, 0x00, 0x00, 0x29, 0x1e, 0x01, 0x3a, 0x01, 0x00,
  0x00, 0x00, 0x66, 0x71, 0x3f, 0x41, 0x01, 0x00, 0x00, 0x00, 0x27, 0x1d, 0x81,
  0xc1, 0x2d, 0x00, 0x00, 0x00, 0x42, 0x69, 0x61, 0x73, 0x41, 0x64, 0x64, 0x5f,
  0x31, 0x35, 0x3b, 0x64, 0x65, 0x70, 0x74, 0x68, 0x77, 0x69, 0x73, 0x65, 0x5f,
  0x33, 0x37, 0x3b, 0x43, 0x6f, 0x6e, 0x76, 0x32, 0x44, 0x5f, 0x31, 0x35, 0x3b,
  0x63, 0x6f, 0x6e, 0x76, 0x5f, 0x35, 0x5f, 0x31, 0x5f, 0x62, 0x31, 0x00, 0x00,
  0x00, 0x04, 0x00, 0x00, 0x00, 0x01, 0x00, 0x00, 0x00, 0x3e, 0x04, 0x00, 0x00,
  0x86, 0x07, 0x00, 0x00, 0x05, 0x00, 0x00, 0x00, 0x62, 0x93, 0xff, 0xff, 0x14,
  0x00, 0x00, 0x00, 0x48, 0x00, 0x00, 0x00, 0x84, 0x00, 0x00, 0x00, 0x00, 0x00,
  0x00, 0x07, 0x50, 0x00, 0x00, 0x00, 0x54, 0x93, 0xff, 0xff, 0x10, 0x00, 0x00,
  0x00, 0x18, 0x00, 0x00, 0x00, 0x1c, 0x00, 0x00, 0x00, 0x20, 0x00, 0x00, 0x00,
  0x01, 0x00, 0x00, 0x00, 0x00, 0x00, 0x00, 0x00, 0x00, 0x00, 0x00, 0x00, 0x01,
  0x00, 0x00, 0x00, 0x92, 0xde, 0x89, 0x3a, 0x01, 0x00, 0x00, 0x00, 0xf9, 0x7d,
  0x00, 0x42, 0x01, 0x00, 0x00, 0x00, 0x7e, 0xdd, 0x09, 0xc2, 0x0d, 0x00, 0x00,
  0x00, 0x64, 0x65, 0x70, 0x74, 0x68, 0x77, 0x69, 0x73, 0x65, 0x5f, 0x33, 0x31,
  0x32, 0x00, 0x00, 0x00, 0x04, 0x00, 0x00, 0x00, 0x01, 0x00, 0x00, 0x00, 0x3e,
  0x04, 0x00, 0x00, 0x86, 0x07, 0x00, 0x00, 0x07, 0x00, 0x00, 0x00, 0xda, 0x93,
  0xff, 0xff, 0x14, 0x00, 0x00, 0x00, 0x48, 0x00, 0x00, 0x00, 0x83, 0x00, 0x00,
  0x00, 0x00, 0x00, 0x00, 0x07, 0x50, 0x00, 0x00, 0x00, 0xcc, 0x93, 0xff, 0xff,
  0x10, 0x00, 0x00, 0x00, 0x18, 0x00, 0x00, 0x00, 0x1c, 0x00, 0x00, 0x00, 0x20,
  0x00, 0x00, 0x00, 0x01, 0x00, 0x00, 0x00, 0x00, 0x00, 0x00, 0x00, 0x00, 0x00,
  0x00, 0x00, 0x01, 0x00, 0x00, 0x00, 0x02, 0x5c, 0x40, 0x3b, 0x01, 0x00, 0x00,
  0x00, 0x78, 0x19, 0x75, 0x42, 0x01, 0x00, 0x00, 0x00, 0x81, 0x5a, 0xc0, 0xc2,
  0x0d, 0x00, 0x00, 0x00, 0x64, 0x65, 0x70, 0x74, 0x68, 0x77, 0x69, 0x73, 0x65,
  0x5f, 0x33, 0x30, 0x31, 0x00, 0x00, 0x00, 0x04, 0x00, 0x00, 0x00, 0x01, 0x00,
  0x00, 0x00, 0x3e, 0x04, 0x00, 0x00, 0x86, 0x07, 0x00, 0x00, 0x07, 0x00, 0x00,
  0x00, 0x52, 0x94, 0xff, 0xff, 0x14, 0x00, 0x00, 0x00, 0x48, 0x00, 0x00, 0x00,
  0x82, 0x00, 0x00, 0x00, 0x00, 0x00, 0x00, 0x07, 0x70, 0x00, 0x00, 0x00, 0x44,
  0x94, 0xff, 0xff, 0x10, 0x00, 0x00, 0x00, 0x18, 0x00, 0x00, 0x00, 0x1c, 0x00,
  0x00, 0x00, 0x20, 0x00, 0x00, 0x00, 0x01, 0x00, 0x00, 0x00, 0x00, 0x00, 0x00,
  0x00, 0x00, 0x00, 0x00, 0x00, 0x01, 0x00, 0x00, 0x00, 0xe0, 0x4c, 0xe7, 0x39,
  0x01, 0x00, 0x00, 0x00, 0x11, 0x4b, 0x67, 0x41, 0x01, 0x00, 0x00, 0x00, 0x96,
  0xce, 0x32, 0xc1, 0x2c, 0x00, 0x00, 0x00, 0x42, 0x69, 0x61, 0x73, 0x41, 0x64,
  0x64, 0x5f, 0x31, 0x34, 0x3b, 0x64, 0x65, 0x70, 0x74, 0x68, 0x77, 0x69, 0x73,
  0x65, 0x5f, 0x33, 0x37, 0x3b, 0x43, 0x6f, 0x6e, 0x76, 0x32, 0x44, 0x5f, 0x31,
  0x34, 0x3b, 0x63, 0x6f, 0x6e, 0x76, 0x5f, 0x35, 0x5f, 0x31, 0x5f, 0x62, 0x00,
  0x00, 0x00, 0x00, 0x04, 0x00, 0x00, 0x00, 0x01, 0x00, 0x00, 0x00, 0x3e, 0x04,
  0x00, 0x00, 0x86, 0x07, 0x00, 0x00, 0x05, 0x00, 0x00, 0x00, 0xea, 0x94, 0xff,
  0xff, 0x14, 0x00, 0x00, 0x00, 0x48, 0x00, 0x00, 0x00, 0x81, 0x00, 0x00, 0x00,
  0x00, 0x00, 0x00, 0x07, 0x50, 0x00, 0x00, 0x00, 0xdc, 0x94, 0xff, 0xff, 0x10,
  0x00, 0x00, 0x00, 0x18, 0x00, 0x00, 0x00, 0x1c, 0x00, 0x00, 0x00, 0x20, 0x00,
  0x00, 0x00, 0x01, 0x00, 0x00, 0x00, 0x00, 0x00, 0x00, 0x00, 0x00, 0x00, 0x00,
  0x00, 0x01, 0x00, 0x00, 0x00, 0xfd, 0xbe, 0x04, 0x3a, 0x01, 0x00, 0x00, 0x00,
  0x04, 0x40, 0x82, 0x41, 0x01, 0x00, 0x00, 0x00, 0xf4, 0xbd, 0x84, 0xc1, 0x0d,
  0x00, 0x00, 0x00, 0x64, 0x65, 0x70, 0x74, 0x68, 0x77, 0x69, 0x73, 0x65, 0x5f,
  0x32, 0x39, 0x31, 0x00, 0x00, 0x00, 0x04, 0x00, 0x00, 0x00, 0x01, 0x00, 0x00,
  0x00, 0x3e, 0x04, 0x00, 0x00, 0x86, 0x07, 0x00, 0x00, 0x05, 0x00, 0x00, 0x00,
  0x62, 0x95, 0xff, 0xff, 0x14, 0x00, 0x00, 0x00, 0x48, 0x00, 0x00, 0x00, 0x80,
  0x00, 0x00, 0x00, 0x00, 0x00, 0x00, 0x07, 0x50, 0x00, 0x00, 0x00, 0x54, 0x95,
  0xff, 0xff, 0x10, 0x00, 0x00, 0x00, 0x18, 0x00, 0x00, 0x00, 0x1c, 0x00, 0x00,
  0x00, 0x20, 0x00, 0x00, 0x00, 0x01, 0x00, 0x00, 0x00, 0x00, 0x00, 0x00, 0x00,
  0x00, 0x00, 0x00, 0x00, 0x01, 0x00, 0x00, 0x00, 0x09, 0xa6, 0x8c, 0x3a, 0x01,
  0x00, 0x00, 0x00, 0x7c, 0xcd, 0xab, 0x41, 0x01, 0x00, 0x00, 0x00, 0xf0, 0xa4,
  0x0c, 0xc2, 0x0d, 0x00, 0x00, 0x00, 0x64, 0x65, 0x70, 0x74, 0x68, 0x77, 0x69,
  0x73, 0x65, 0x5f, 0x32, 0x38, 0x31, 0x00, 0x00, 0x00, 0x04, 0x00, 0x00, 0x00,
  0x01, 0x00, 0x00, 0x00, 0x3e, 0x04, 0x00, 0x00, 0x86, 0x07, 0x00, 0x00, 0x05,
  0x00, 0x00, 0x00, 0xda, 0x95, 0xff, 0xff, 0x14, 0x00, 0x00, 0x00, 0x4c, 0x00,
  0x00, 0x00, 0x7f, 0x00, 0x00, 0x00, 0x00, 0x00, 0x00, 0x07, 0x78, 0x00, 0x00,
  0x00, 0xcc, 0x95, 0xff, 0xff, 0x10, 0x00, 0x00, 0x00, 0x1c, 0x00, 0x00, 0x00,
  0x20, 0x00, 0x00, 0x00, 0x24, 0x00, 0x00, 0x00, 0x01, 0x00, 0x00, 0x00, 0x00,
  0x00, 0x00, 0x00, 0x00, 0x00, 0x00, 0x00, 0x00, 0x00, 0x00, 0x00, 0x01, 0x00,
  0x00, 0x00, 0xcd, 0xcf, 0xb9, 0x3a, 0x01, 0x00, 0x00, 0x00, 0x59, 0xce, 0x39,
  0x42, 0x01, 0x00, 0x00, 0x00, 0x00, 0x00, 0x00, 0x00, 0x33, 0x00, 0x00, 0x00,
  0x52, 0x65, 0x6c, 0x75, 0x5f, 0x34, 0x3b, 0x42, 0x69, 0x61, 0x73, 0x41, 0x64,
  0x64, 0x5f, 0x31, 0x33, 0x3b, 0x64, 0x65, 0x70, 0x74, 0x68, 0x77, 0x69, 0x73,
  0x65, 0x5f, 0x33, 0x37, 0x3b, 0x43, 0x6f, 0x6e, 0x76, 0x32, 0x44, 0x5f, 0x31,
  0x33, 0x3b, 0x63, 0x6f, 0x6e, 0x76, 0x5f, 0x35, 0x5f, 0x30, 0x5f, 0x62, 0x00,
  0x04, 0x00, 0x00, 0x00, 0x01, 0x00, 0x00, 0x00, 0x3e, 0x04, 0x00, 0x00, 0x86,
  0x07, 0x00, 0x00, 0x05, 0x00, 0x00, 0x00, 0x7a, 0x96, 0xff, 0xff, 0x14, 0x00,
  0x00, 0x00, 0x48, 0x00, 0x00, 0x00, 0x7e, 0x00, 0x00, 0x00, 0x00, 0x00, 0x00,
  0x07, 0x50, 0x00, 0x00, 0x00, 0x6c, 0x96, 0xff, 0xff, 0x10, 0x00, 0x00, 0x00,
  0x18, 0x00, 0x00, 0x00, 0x1c, 0x00, 0x00, 0x00, 0x20, 0x00, 0x00, 0x00, 0x01,
  0x00, 0x00, 0x00, 0x00, 0x00, 0x00, 0x00, 0x00, 0x00, 0x00, 0x00, 0x01, 0x00,
  0x00, 0x00, 0x21, 0xc9, 0xe4, 0x3a, 0x01, 0x00, 0x00, 0x00, 0x1d, 0x2b, 0x61,
  0x42, 0x01, 0x00, 0x00, 0x00, 0x57, 0xc7, 0x64, 0xc2, 0x0d, 0x00, 0x00, 0x00,
  0x64, 0x65, 0x70, 0x74, 0x68, 0x77, 0x69, 0x73, 0x65, 0x5f, 0x32, 0x37, 0x31,
  0x00, 0x00, 0x00, 0x04, 0x00, 0x00, 0x00, 0x01, 0x00, 0x00, 0x00, 0x3e, 0x04,
  0x00, 0x00, 0x86, 0x07, 0x00, 0x00, 0x07, 0x00, 0x00, 0x00, 0xf2, 0x96, 0xff,
  0xff, 0x14, 0x00, 0x00, 0x00, 0x48, 0x00, 0x00, 0x00, 0x7d, 0x00, 0x00, 0x00,
  0x00, 0x00, 0x00, 0x07, 0x50, 0x00, 0x00, 0x00, 0xe4, 0x96, 0xff, 0xff, 0x10,
  0x00, 0x00, 0x00, 0x18, 0x00, 0x00, 0x00, 0x1c, 0x00, 0x00, 0x00, 0x20, 0x00,
  0x00, 0x00, 0x01, 0x00, 0x00, 0x00, 0x00, 0x00, 0x00, 0x00, 0x00, 0x00, 0x00,
  0x00, 0x01, 0x00, 0x00, 0x00, 0x27, 0xd0, 0x6a, 0x3b, 0x01, 0x00, 0x00, 0x00,
  0x51, 0xce, 0xea, 0x42, 0x01, 0x00, 0x00, 0x00, 0xd9, 0x45, 0xad, 0xc2, 0x0d,
  0x00, 0x00, 0x00, 0x64, 0x65, 0x70, 0x74, 0x68, 0x77, 0x69, 0x73, 0x65, 0x5f,
  0x32, 0x36, 0x31, 0x00, 0x00, 0x00, 0x04, 0x00, 0x00, 0x00, 0x01, 0x00, 0x00,
  0x00, 0x3e, 0x04, 0x00, 0x00, 0x86, 0x07, 0x00, 0x00, 0x07, 0x00, 0x00, 0x00,
  0x6a, 0x97, 0xff, 0xff, 0x14, 0x00, 0x00, 0x00, 0x48, 0x00, 0x00, 0x00, 0x7c,
  0x00, 0x00, 0x00, 0x00, 0x00, 0x00, 0x07, 0x48, 0x00, 0x00, 0x00, 0x5c, 0x97,
  0xff, 0xff, 0x10, 0x00, 0x00, 0x00, 0x18, 0x00, 0x00, 0x00, 0x1c, 0x00, 0x00,
  0x00, 0x20, 0x00, 0x00, 0x00, 0x01, 0x00, 0x00, 0x00, 0x00, 0x00, 0x00, 0x00,
  0x00, 0x00, 0x00, 0x00, 0x01, 0x00, 0x00, 0x00, 0x52, 0xd1, 0xb1, 0x3b, 0x01,
  0x00, 0x00, 0x00, 0x2a, 0x69, 0x0d, 0x43, 0x01, 0x00, 0x00, 0x00, 0xee, 0xcf,
  0x31, 0xc3, 0x05, 0x00, 0x00, 0x00, 0x41, 0x64, 0x64, 0x5f, 0x33, 0x00, 0x00,
  0x00, 0x04, 0x00, 0x00, 0x00, 0x01, 0x00, 0x00, 0x00, 0x3e, 0x04, 0x00, 0x00,
  0x86, 0x07, 0x00, 0x00, 0x07, 0x00, 0x00, 0x00, 0xda, 0x97, 0xff, 0xff, 0x14,
  0x00, 0x00, 0x00, 0x48, 0x00, 0x00, 0x00, 0x7b, 0x00, 0x00, 0x00, 0x00, 0x00,
  0x00, 0x07, 0x70, 0x00, 0x00, 0x00, 0xcc, 0x97, 0xff, 0xff, 0x10, 0x00, 0x00,
  0x00, 0x18, 0x00, 0x00, 0x00, 0x1c, 0x00, 0x00, 0x00, 0x20, 0x00, 0x00, 0x00,
  0x01, 0x00, 0x00, 0x00, 0x00, 0x00, 0x00, 0x00, 0x00, 0x00, 0x00, 0x00, 0x01,
  0x00, 0x00, 0x00, 0xec, 0x16, 0xbb, 0x3b, 0x01, 0x00, 0x00, 0x00, 0x76, 0x15,
  0x3b, 0x43, 0x01, 0x00, 0x00, 0x00, 0xa7, 0x6b, 0x07, 0xc3, 0x2d, 0x00, 0x00,
  0x00, 0x42, 0x69, 0x61, 0x73, 0x41, 0x64, 0x64, 0x5f, 0x31, 0x32, 0x3b, 0x64,
  0x65, 0x70, 0x74, 0x68, 0x77, 0x69, 0x73, 0x65, 0x5f, 0x33, 0x31, 0x3b, 0x43,
  0x6f, 0x6e, 0x76, 0x32, 0x44, 0x5f, 0x31, 0x32, 0x3b, 0x63, 0x6f, 0x6e, 0x76,
  0x5f, 0x34, 0x5f, 0x31, 0x5f, 0x62, 0x31, 0x00, 0x00, 0x00, 0x04, 0x00, 0x00,
  0x00, 0x01, 0x00, 0x00, 0x00, 0x3e, 0x04, 0x00, 0x00, 0x86, 0x07, 0x00, 0x00,
  0x07, 0x00, 0x00, 0x00, 0x72, 0x98, 0xff, 0xff, 0x14, 0x00, 0x00, 0x00, 0x48,
  0x00, 0x00, 0x00, 0x7a, 0x00, 0x00, 0x00, 0x00, 0x00, 0x00, 0x07, 0x50, 0x00,
  0x00, 0x00, 0x64, 0x98, 0xff, 0xff, 0x10, 0x00, 0x00, 0x00, 0x18, 0x00, 0x00,
  0x00, 0x1c, 0x00, 0x00, 0x00, 0x20, 0x00, 0x00, 0x00, 0x01, 0x00, 0x00, 0x00,
  0x00, 0x00, 0x00, 0x00, 0x00, 0x00, 0x00, 0x00, 0x01, 0x00, 0x00, 0x00, 0x67,
  0x95, 0xfc, 0x3b, 0x01, 0x00, 0x00, 0x00, 0x0a, 0x66, 0x28, 0x43, 0x01, 0x00,
  0x00, 0x00, 0x6e, 0x93, 0x7c, 0xc3, 0x0d, 0x00, 0x00, 0x00, 0x64, 0x65, 0x70,
  0x74, 0x68, 0x77, 0x69, 0x73, 0x65, 0x5f, 0x32, 0x35, 0x32, 0x00, 0x00, 0x00,
  0x04, 0x00, 0x00, 0x00, 0x01, 0x00, 0x00, 0x00, 0x3e, 0x04, 0x00, 0x00, 0x86,
  0x07, 0x00, 0x00, 0x09, 0x00, 0x00, 0x00, 0xea, 0x98, 0xff, 0xff, 0x14, 0x00,
  0x00, 0x00, 0x48, 0x00, 0x00, 0x00, 0x79, 0x00, 0x00, 0x00, 0x00, 0x00, 0x00,
  0x07, 0x50, 0x00, 0x00, 0x00, 0xdc, 0x98, 0xff, 0xff, 0x10, 0x00, 0x00, 0x00,
  0x18, 0x00, 0x00, 0x00, 0x1c, 0x00, 0x00, 0x00, 0x20, 0x00, 0x00, 0x00, 0x01,
  0x00, 0x00, 0x00, 0x00, 0x00, 0x00, 0x00, 0x00, 0x00, 0x00, 0x00, 0x01, 0x00,
  0x00, 0x00, 0x40, 0x74, 0x1a, 0x3c, 0x01, 0x00, 0x00, 0x00, 0x6a, 0xb0, 0x40,
  0x43, 0x01, 0x00, 0x00, 0x00, 0x0b, 0x73, 0x9a, 0xc3, 0x0d, 0x00, 0x00, 0x00,
  0x64, 0x65, 0x70, 0x74, 0x68, 0x77, 0x69, 0x73, 0x65, 0x5f, 0x32, 0x34, 0x31,
  0x00, 0x00, 0x00, 0x04, 0x00, 0x00, 0x00, 0x01, 0x00, 0x00, 0x00, 0x3e, 0x04,
  0x00, 0x00, 0x86, 0x07, 0x00, 0x00, 0x09, 0x00, 0x00, 0x00, 0x62, 0x99, 0xff,
  0xff, 0x14, 0x00, 0x00, 0x00, 0x48, 0x00, 0x00, 0x00, 0x78, 0x00, 0x00, 0x00,
  0x00, 0x00, 0x00, 0x07, 0x70, 0x00, 0x00, 0x00, 0x54, 0x99, 0xff, 0xff, 0x10,
  0x00, 0x00, 0x00, 0x18, 0x00, 0x00, 0x00, 0x1c, 0x00, 0x00, 0x00, 0x20, 0x00,
  0x00, 0x00, 0x01, 0x00, 0x00, 0x00, 0x00, 0x00, 0x00, 0x00, 0x00, 0x00, 0x00,
  0x00, 0x01, 0x00, 0x00, 0x00, 0x6a, 0x46, 0xa3, 0x3b, 0x01, 0x00, 0x00, 0x00,
  0x23, 0x45, 0x23, 0x43, 0x01, 0x00, 0x00, 0x00, 0xec, 0xbf, 0x18, 0xc3, 0x2c,
  0x00, 0x00, 0x00, 0x42, 0x69, 0x61, 0x73, 0x41, 0x64, 0x64, 0x5f, 0x31, 0x31,
  0x3b, 0x64, 0x65, 0x70, 0x74, 0x68, 0x77, 0x69, 0x73, 0x65, 0x5f, 0x33, 0x31,
  0x3b, 0x43, 0x6f, 0x6e, 0x76, 0x32, 0x44, 0x5f, 0x31, 0x31, 0x3b, 0x63, 0x6f,
  0x6e, 0x76, 0x5f, 0x34, 0x5f, 0x31, 0x5f, 0x62, 0x00, 0x00, 0x00, 0x00, 0x04,
  0x00, 0x00, 0x00, 0x01, 0x00, 0x00, 0x00, 0x3e, 0x04, 0x00, 0x00, 0x86, 0x07,
  0x00, 0x00, 0x07, 0x00, 0x00, 0x00, 0xfa, 0x99, 0xff, 0xff, 0x14, 0x00, 0x00,
  0x00, 0x48, 0x00, 0x00, 0x00, 0x77, 0x00, 0x00, 0x00, 0x00, 0x00, 0x00, 0x07,
  0x50, 0x00, 0x00, 0x00, 0xec, 0x99, 0xff, 0xff, 0x10, 0x00, 0x00, 0x00, 0x18,
  0x00, 0x00, 0x00, 0x1c, 0x00, 0x00, 0x00, 0x20, 0x00, 0x00, 0x00, 0x01, 0x00,
  0x00, 0x00, 0x00, 0x00, 0x00, 0x00, 0x00, 0x00, 0x00, 0x00, 0x01, 0x00, 0x00,
  0x00, 0x50, 0xaa, 0x1f, 0x3c, 0x01, 0x00, 0x00, 0x00, 0x11, 0xa9, 0x9f, 0x43,
  0x01, 0x00, 0x00, 0x00, 0x87, 0x83, 0x95, 0xc3, 0x0d, 0x00, 0x00, 0x00, 0x64,
  0x65, 0x70, 0x74, 0x68, 0x77, 0x69, 0x73, 0x65, 0x5f, 0x32, 0x33, 0x31, 0x00,
  0x00, 0x00, 0x04, 0x00, 0x00, 0x00, 0x01, 0x00, 0x00, 0x00, 0x3e, 0x04, 0x00,
  0x00, 0x86, 0x07, 0x00, 0x00, 0x07, 0x00, 0x00, 0x00, 0x72, 0x9a, 0xff, 0xff,
  0x14, 0x00, 0x00, 0x00, 0x48, 0x00, 0x00, 0x00, 0x76, 0x00, 0x00, 0x00, 0x00,
  0x00, 0x00, 0x07, 0x50, 0x00, 0x00, 0x00, 0x64, 0x9a, 0xff, 0xff, 0x10, 0x00,
  0x00, 0x00, 0x18, 0x00, 0x00, 0x00, 0x1c, 0x00, 0x00, 0x00, 0x20, 0x00, 0x00,
  0x00, 0x01, 0x00, 0x00, 0x00, 0x00, 0x00, 0x00, 0x00, 0x00, 0x00, 0x00, 0x00,
  0x01, 0x00, 0x00, 0x00, 0x59, 0xbc, 0x05, 0x3c, 0x01, 0x00, 0x00, 0x00, 0x4e,
  0xbb, 0x85, 0x43, 0x01, 0x00, 0x00, 0x00, 0x29, 0x1c, 0x84, 0xc3, 0x0d, 0x00,
  0x00, 0x00, 0x64, 0x65, 0x70, 0x74, 0x68, 0x77, 0x69, 0x73, 0x65, 0x5f, 0x32,
  0x32, 0x31, 0x00, 0x00, 0x00, 0x04, 0x00, 0x00, 0x00, 0x01, 0x00, 0x00, 0x00,
  0x3e, 0x04, 0x00, 0x00, 0x86, 0x07, 0x00, 0x00, 0x07, 0x00, 0x00, 0x00, 0xea,
  0x9a, 0xff, 0xff, 0x14, 0x00, 0x00, 0x00, 0x4c, 0x00, 0x00, 0x00, 0x75, 0x00,
  0x00, 0x00, 0x00, 0x00, 0x00, 0x07, 0x78, 0x00, 0x00, 0x00, 0xdc, 0x9a, 0xff,
  0xff, 0x10, 0x00, 0x00, 0x00, 0x1c, 0x00, 0x00, 0x00, 0x20, 0x00, 0x00, 0x00,
  0x24, 0x00, 0x00, 0x00, 0x01, 0x00, 0x00, 0x00, 0x00, 0x00, 0x00, 0x00, 0x00,
