const unsigned char _tmp_sr5by4_tflite[] = {
  0x1c, 0x00, 0x00, 0x00, 0x54, 0x46, 0x4c, 0x33, 0x14, 0x00, 0x20, 0x00, 0x04,
  0x00, 0x08, 0x00, 0x0c, 0x00, 0x10, 0x00, 0x14, 0x00, 0x00, 0x00, 0x18, 0x00,
  0x1c, 0x00, 0x14, 0x00, 0x00, 0x00, 0x03, 0x00, 0x00, 0x00, 0x18, 0x02, 0x00,
  0x00, 0x0c, 0x02, 0x00, 0x00, 0xfc, 0x02, 0x00, 0x00, 0x0c, 0x00, 0x00, 0x00,
  0xa4, 0x02, 0x00, 0x00, 0x18, 0x02, 0x00, 0x00, 0x7d, 0x00, 0x00, 0x00, 0xd4,
  0x6f, 0x00, 0x00, 0xd0, 0x6f, 0x00, 0x00, 0xc4, 0x6e, 0x00, 0x00, 0x48, 0x6e,
  0x00, 0x00, 0xe8, 0x6d, 0x00, 0x00, 0x88, 0x6d, 0x00, 0x00, 0x18, 0x6d, 0x00,
  0x00, 0xa4, 0x6c, 0x00, 0x00, 0x3c, 0x6c, 0x00, 0x00, 0xd4, 0x6b, 0x00, 0x00,
  0x54, 0x6b, 0x00, 0x00, 0xf0, 0x69, 0x00, 0x00, 0x8c, 0x68, 0x00, 0x00, 0xa0,
  0x65, 0x00, 0x00, 0x64, 0x64, 0x00, 0x00, 0x28, 0x63, 0x00, 0x00, 0x2c, 0x61,
  0x00, 0x00, 0xc8, 0x5f, 0x00, 0x00, 0x64, 0x5e, 0x00, 0x00, 0x20, 0x5c, 0x00,
  0x00, 0x20, 0x5b, 0x00, 0x00, 0x20, 0x5a, 0x00, 0x00, 0xb4, 0x58, 0x00, 0x00,
  0xc4, 0x57, 0x00, 0x00, 0xd4, 0x56, 0x00, 0x00, 0xc8, 0x55, 0x00, 0x00, 0xc4,
  0x54, 0x00, 0x00, 0xc0, 0x53, 0x00, 0x00, 0x9c, 0x52, 0x00, 0x00, 0xd4, 0x51,
  0x00, 0x00, 0x0c, 0x51, 0x00, 0x00, 0x00, 0x50, 0x00, 0x00, 0x10, 0x4f, 0x00,
  0x00, 0xac, 0x4e, 0x00, 0x00, 0xbc, 0x4d, 0x00, 0x00, 0xb0, 0x4c, 0x00, 0x00,
  0xe8, 0x4b, 0x00, 0x00, 0x20, 0x4b, 0x00, 0x00, 0xb4, 0x49, 0x00, 0x00, 0x74,
  0x48, 0x00, 0x00, 0x00, 0x48, 0x00, 0x00, 0xc0, 0x46, 0x00, 0x00, 0xc4, 0x44,
  0x00, 0x00, 0xfc, 0x43, 0x00, 0x00, 0xa0, 0x43, 0x00, 0x00, 0xd8, 0x42, 0x00,
  0x00, 0xb4, 0x41, 0x00, 0x00, 0xb0, 0x40, 0x00, 0x00, 0xac, 0x3f, 0x00, 0x00,
  0xb4, 0x3c, 0x00, 0x00, 0xe8, 0x3a, 0x00, 0x00, 0x58, 0x3a, 0x00, 0x00, 0x8c,
  0x38, 0x00, 0x00, 0x18, 0x34, 0x00, 0x00, 0x14, 0x33, 0x00, 0x00, 0xac, 0x32,
  0x00, 0x00, 0xa8, 0x31, 0x00, 0x00, 0x64, 0x2f, 0x00, 0x00, 0x8c, 0x2d, 0x00,
  0x00, 0x10, 0x2d, 0x00, 0x00, 0x38, 0x2b, 0x00, 0x00, 0xf4, 0x2a, 0x00, 0x00,
  0x70, 0x2a, 0x00, 0x00, 0xdc, 0x29, 0x00, 0x00, 0x58, 0x29, 0x00, 0x00, 0xe0,
  0x28, 0x00, 0x00, 0x68, 0x28, 0x00, 0x00, 0xe0, 0x27, 0x00, 0x00, 0x44, 0x27,
  0x00, 0x00, 0xec, 0x26, 0x00, 0x00, 0xbc, 0x6e, 0x00, 0x00, 0xb8, 0x6e, 0x00,
  0x00, 0xb4, 0x6e, 0x00, 0x00, 0xb0, 0x6e, 0x00, 0x00, 0xac, 0x6e, 0x00, 0x00,
  0xa8, 0x6e, 0x00, 0x00, 0xa4, 0x6e, 0x00, 0x00, 0xa0, 0x6e, 0x00, 0x00, 0x9c,
  0x6e, 0x00, 0x00, 0x98, 0x6e, 0x00, 0x00, 0x94, 0x6e, 0x00, 0x00, 0x90, 0x6e,
  0x00, 0x00, 0x8c, 0x6e, 0x00, 0x00, 0x88, 0x6e, 0x00, 0x00, 0x84, 0x6e, 0x00,
  0x00, 0x80, 0x6e, 0x00, 0x00, 0x7c, 0x6e, 0x00, 0x00, 0x78, 0x6e, 0x00, 0x00,
  0x74, 0x6e, 0x00, 0x00, 0x70, 0x6e, 0x00, 0x00, 0x6c, 0x6e, 0x00, 0x00, 0x68,
  0x6e, 0x00, 0x00, 0x64, 0x6e, 0x00, 0x00, 0x60, 0x6e, 0x00, 0x00, 0x5c, 0x6e,
  0x00, 0x00, 0x58, 0x6e, 0x00, 0x00, 0x54, 0x6e, 0x00, 0x00, 0x50, 0x6e, 0x00,
  0x00, 0x4c, 0x6e, 0x00, 0x00, 0x48, 0x6e, 0x00, 0x00, 0x44, 0x6e, 0x00, 0x00,
  0x40, 0x6e, 0x00, 0x00, 0x3c, 0x6e, 0x00, 0x00, 0x38, 0x6e, 0x00, 0x00, 0x34,
  0x6e, 0x00, 0x00, 0x30, 0x6e, 0x00, 0x00, 0x2c, 0x6e, 0x00, 0x00, 0x28, 0x6e,
  0x00, 0x00, 0x24, 0x6e, 0x00, 0x00, 0x20, 0x6e, 0x00, 0x00, 0x1c, 0x6e, 0x00,
  0x00, 0x18, 0x6e, 0x00, 0x00, 0x14, 0x6e, 0x00, 0x00, 0x10, 0x6e, 0x00, 0x00,
  0x0c, 0x6e, 0x00, 0x00, 0x08, 0x6e, 0x00, 0x00, 0x04, 0x6e, 0x00, 0x00, 0x00,
  0x6e, 0x00, 0x00, 0xfc, 0x6d, 0x00, 0x00, 0xf8, 0x6d, 0x00, 0x00, 0xf4, 0x6d,
  0x00, 0x00, 0xf0, 0x6d, 0x00, 0x00, 0xec, 0x6d, 0x00, 0x00, 0xe8, 0x6d, 0x00,
  0x00, 0xdc, 0x00, 0x00, 0x00, 0x01, 0x00, 0x00, 0x00, 0x14, 0x01, 0x00, 0x00,
  0x04, 0x00, 0x00, 0x00, 0x9c, 0x25, 0x00, 0x00, 0xe0, 0x24, 0x00, 0x00, 0x68,
  0x23, 0x00, 0x00, 0x04, 0x1d, 0x00, 0x00, 0x01, 0x00, 0x00, 0x00, 0x10, 0x00,
  0x00, 0x00, 0x0c, 0x00, 0x14, 0x00, 0x10, 0x00, 0x0c, 0x00, 0x08, 0x00, 0x04,
  0x00, 0x0c, 0x00, 0x00, 0x00, 0x10, 0x00, 0x00, 0x00, 0x18, 0x00, 0x00, 0x00,
  0x28, 0x00, 0x00, 0x00, 0x2c, 0x00, 0x00, 0x00, 0x05, 0x00, 0x00, 0x00, 0x73,
  0x65, 0x72, 0x76, 0x65, 0x00, 0x00, 0x00, 0x0f, 0x00, 0x00, 0x00, 0x73, 0x65,
  0x72, 0x76, 0x69, 0x6e, 0x67, 0x5f, 0x64, 0x65, 0x66, 0x61, 0x75, 0x6c, 0x74,
  0x00, 0x01, 0x00, 0x00, 0x00, 0x14, 0x00, 0x00, 0x00, 0x01, 0x00, 0x00, 0x00,
  0x24, 0x00, 0x00, 0x00, 0x08, 0x00, 0x0c, 0x00, 0x08, 0x00, 0x04, 0x00, 0x08,
  0x00, 0x00, 0x00, 0x7a, 0x00, 0x00, 0x00, 0x04, 0x00, 0x00, 0x00, 0x06, 0x00,
  0x00, 0x00, 0x6f, 0x75, 0x74, 0x70, 0x75, 0x74, 0x00, 0x00, 0xc2, 0x93, 0xff,
  0xff, 0x04, 0x00, 0x00, 0x00, 0x03, 0x00, 0x00, 0x00, 0x69, 0x6d, 0x67, 0x00,
  0x01, 0x00, 0x00, 0x00, 0x0c, 0x00, 0x00, 0x00, 0x08, 0x00, 0x0c, 0x00, 0x04,
  0x00, 0x08, 0x00, 0x08, 0x00, 0x00, 0x00, 0x08, 0x00, 0x00, 0x00, 0x7c, 0x00,
  0x00, 0x00, 0x13, 0x00, 0x00, 0x00, 0x6d, 0x69, 0x6e, 0x5f, 0x72, 0x75, 0x6e,
  0x74, 0x69, 0x6d, 0x65, 0x5f, 0x76, 0x65, 0x72, 0x73, 0x69, 0x6f, 0x6e, 0x00,
  0x06, 0x94, 0xff, 0xff, 0x04, 0x00, 0x00, 0x00, 0x10, 0x00, 0x00, 0x00, 0x31,
  0x2e, 0x31, 0x33, 0x2e, 0x31, 0x00, 0x00, 0x00, 0x00, 0x00, 0x00, 0x00, 0x00,
  0x00, 0x00, 0x0f, 0x00, 0x00, 0x00, 0x4d, 0x4c, 0x49, 0x52, 0x20, 0x43, 0x6f,
  0x6e, 0x76, 0x65, 0x72, 0x74, 0x65, 0x64, 0x2e, 0x00, 0x00, 0x00, 0x0e, 0x00,
  0x18, 0x00, 0x04, 0x00, 0x08, 0x00, 0x0c, 0x00, 0x10, 0x00, 0x14, 0x00, 0x0e,
  0x00, 0x00, 0x00, 0x0c, 0x01, 0x00, 0x00, 0x00, 0x01, 0x00, 0x00, 0xf4, 0x00,
  0x00, 0x00, 0x14, 0x00, 0x00, 0x00, 0x04, 0x00, 0x00, 0x00, 0x04, 0x00, 0x00,
  0x00, 0x6d, 0x61, 0x69, 0x6e, 0x00, 0x00, 0x00, 0x00, 0x36, 0x00, 0x00, 0x00,
  0x24, 0x24, 0x00, 0x00, 0x60, 0x23, 0x00, 0x00, 0xb4, 0x22, 0x00, 0x00, 0xe8,
  0x21, 0x00, 0x00, 0x3c, 0x21, 0x00, 0x00, 0xa0, 0x20, 0x00, 0x00, 0xd8, 0x1f,
  0x00, 0x00, 0x3c, 0x1f, 0x00, 0x00, 0xa0, 0x1e, 0x00, 0x00, 0xec, 0x1d, 0x00,
  0x00, 0x50, 0x1d, 0x00, 0x00, 0xb4, 0x1c, 0x00, 0x00, 0x00, 0x1c, 0x00, 0x00,
  0x6c, 0x1b, 0x00, 0x00, 0xd0, 0x1a, 0x00, 0x00, 0x34, 0x1a, 0x00, 0x00, 0x74,
  0x19, 0x00, 0x00, 0xd8, 0x18, 0x00, 0x00, 0x3c, 0x18, 0x00, 0x00, 0x88, 0x17,
  0x00, 0x00, 0xec, 0x16, 0x00, 0x00, 0x50, 0x16, 0x00, 0x00, 0x9c, 0x15, 0x00,
  0x00, 0x18, 0x15, 0x00, 0x00, 0x7c, 0x14, 0x00, 0x00, 0xe0, 0x13, 0x00, 0x00,
  0x20, 0x13, 0x00, 0x00, 0x84, 0x12, 0x00, 0x00, 0xe8, 0x11, 0x00, 0x00, 0x34,
  0x11, 0x00, 0x00, 0xb0, 0x10, 0x00, 0x00, 0x14, 0x10, 0x00, 0x00, 0x78, 0x0f,
  0x00, 0x00, 0xb8, 0x0e, 0x00, 0x00, 0x1c, 0x0e, 0x00, 0x00, 0x80, 0x0d, 0x00,
  0x00, 0xc8, 0x0c, 0x00, 0x00, 0x2c, 0x0c, 0x00, 0x00, 0x90, 0x0b, 0x00, 0x00,
  0xd8, 0x0a, 0x00, 0x00, 0x54, 0x0a, 0x00, 0x00, 0xb8, 0x09, 0x00, 0x00, 0x1c,
  0x09, 0x00, 0x00, 0x5c, 0x08, 0x00, 0x00, 0xc0, 0x07, 0x00, 0x00, 0x24, 0x07,
  0x00, 0x00, 0x6c, 0x06, 0x00, 0x00, 0xd0, 0x05, 0x00, 0x00, 0x34, 0x05, 0x00,
  0x00, 0x7c, 0x04, 0x00, 0x00, 0xf8, 0x03, 0x00, 0x00, 0x4c, 0x03, 0x00, 0x00,
  0xac, 0x02, 0x00, 0x00, 0x04, 0x02, 0x00, 0x00, 0x01, 0x00, 0x00, 0x00, 0x7a,
  0x00, 0x00, 0x00, 0x01, 0x00, 0x00, 0x00, 0x00, 0x00, 0x00, 0x00, 0x7b, 0x00,
  0x00, 0x00, 0x58, 0x6b, 0x00, 0x00, 0x10, 0x6b, 0x00, 0x00, 0x68, 0x6a, 0x00,
  0x00, 0xf8, 0x69, 0x00, 0x00, 0x98, 0x69, 0x00, 0x00, 0x38, 0x69, 0x00, 0x00,
  0xc4, 0x68, 0x00, 0x00, 0x48, 0x68, 0x00, 0x00, 0xe0, 0x67, 0x00, 0x00, 0x7c,
  0x67, 0x00, 0x00, 0xf8, 0x66, 0x00, 0x00, 0x94, 0x65, 0x00, 0x00, 0x30, 0x64,
  0x00, 0x00, 0x44, 0x61, 0x00, 0x00, 0x08, 0x60, 0x00, 0x00, 0xcc, 0x5e, 0x00,
  0x00, 0xd0, 0x5c, 0x00, 0x00, 0x6c, 0x5b, 0x00, 0x00, 0x08, 0x5a, 0x00, 0x00,
  0xc4, 0x57, 0x00, 0x00, 0xc4, 0x56, 0x00, 0x00, 0xc4, 0x55, 0x00, 0x00, 0x54,
  0x54, 0x00, 0x00, 0x64, 0x53, 0x00, 0x00, 0x78, 0x52, 0x00, 0x00, 0x68, 0x51,
  0x00, 0x00, 0x64, 0x50, 0x00, 0x00, 0x64, 0x4f, 0x00, 0x00, 0x3c, 0x4e, 0x00,
  0x00, 0x74, 0x4d, 0x00, 0x00, 0xb0, 0x4c, 0x00, 0x00, 0xa0, 0x4b, 0x00, 0x00,
  0xbc, 0x4a, 0x00, 0x00, 0x4c, 0x4a, 0x00, 0x00, 0x60, 0x49, 0x00, 0x00, 0x50,
  0x48, 0x00, 0x00, 0x88, 0x47, 0x00, 0x00, 0xc4, 0x46, 0x00, 0x00, 0x54, 0x45,
  0x00, 0x00, 0x20, 0x44, 0x00, 0x00, 0xa0, 0x43, 0x00, 0x00, 0x64, 0x42, 0x00,
  0x00, 0x64, 0x40, 0x00, 0x00, 0xa8, 0x3f, 0x00, 0x00, 0x40, 0x3f, 0x00, 0x00,
  0x7c, 0x3e, 0x00, 0x00, 0x54, 0x3d, 0x00, 0x00, 0x50, 0x3c, 0x00, 0x00, 0x50,
  0x3b, 0x00, 0x00, 0x54, 0x38, 0x00, 0x00, 0x94, 0x36, 0x00, 0x00, 0xf8, 0x35,
  0x00, 0x00, 0x30, 0x34, 0x00, 0x00, 0xb8, 0x2f, 0x00, 0x00, 0xc0, 0x2e, 0x00,
  0x00, 0x4c, 0x2e, 0x00, 0x00, 0x4c, 0x2d, 0x00, 0x00, 0x04, 0x2b, 0x00, 0x00,
  0x38, 0x29, 0x00, 0x00, 0xb0, 0x28, 0x00, 0x00, 0xe8, 0x26, 0x00, 0x00, 0x98,
  0x26, 0x00, 0x00, 0x04, 0x26, 0x00, 0x00, 0x6c, 0x25, 0x00, 0x00, 0xe8, 0x24,
  0x00, 0x00, 0x70, 0x24, 0x00, 0x00, 0xf4, 0x23, 0x00, 0x00, 0x6c, 0x23, 0x00,
  0x00, 0xe0, 0x22, 0x00, 0x00, 0x78, 0x22, 0x00, 0x00, 0xbc, 0x21, 0x00, 0x00,
  0xf4, 0x20, 0x00, 0x00, 0x40, 0x20, 0x00, 0x00, 0x7c, 0x1f, 0x00, 0x00, 0xe0,
  0x1e, 0x00, 0x00, 0x24, 0x1e, 0x00, 0x00, 0x7c, 0x1d, 0x00, 0x00, 0xe0, 0x1c,
  0x00, 0x00, 0x28, 0x1c, 0x00, 0x00, 0x90, 0x1b, 0x00, 0x00, 0xf4, 0x1a, 0x00,
  0x00, 0x3c, 0x1a, 0x00, 0x00, 0xb0, 0x19, 0x00, 0x00, 0x10, 0x19, 0x00, 0x00,
  0x74, 0x18, 0x00, 0x00, 0xb4, 0x17, 0x00, 0x00, 0x18, 0x17, 0x00, 0x00, 0x7c,
  0x16, 0x00, 0x00, 0xc4, 0x15, 0x00, 0x00, 0x2c, 0x15, 0x00, 0x00, 0x90, 0x14,
  0x00, 0x00, 0xd8, 0x13, 0x00, 0x00, 0x48, 0x13, 0x00, 0x00, 0xbc, 0x12, 0x00,
  0x00, 0x20, 0x12, 0x00, 0x00, 0x60, 0x11, 0x00, 0x00, 0xc4, 0x10, 0x00, 0x00,
  0x28, 0x10, 0x00, 0x00, 0x70, 0x0f, 0x00, 0x00, 0xe0, 0x0e, 0x00, 0x00, 0x54,
  0x0e, 0x00, 0x00, 0xb8, 0x0d, 0x00, 0x00, 0xf8, 0x0c, 0x00, 0x00, 0x5c, 0x0c,
  0x00, 0x00, 0xc0, 0x0b, 0x00, 0x00, 0x04, 0x0b, 0x00, 0x00, 0x6c, 0x0a, 0x00,
  0x00, 0xd0, 0x09, 0x00, 0x00, 0x14, 0x09, 0x00, 0x00, 0x84, 0x08, 0x00, 0x00,
  0xf8, 0x07, 0x00, 0x00, 0x5c, 0x07, 0x00, 0x00, 0x9c, 0x06, 0x00, 0x00, 0x00,
  0x06, 0x00, 0x00, 0x64, 0x05, 0x00, 0x00, 0xa8, 0x04, 0x00, 0x00, 0x10, 0x04,
  0x00, 0x00, 0x74, 0x03, 0x00, 0x00, 0xb8, 0x02, 0x00, 0x00, 0x28, 0x02, 0x00,
  0x00, 0x9c, 0x01, 0x00, 0x00, 0xf0, 0x00, 0x00, 0x00, 0x50, 0x00, 0x00, 0x00,
  0xf2, 0xe0, 0xff, 0xff, 0x00, 0x00, 0x00, 0x01, 0x02, 0x00, 0x00, 0x00, 0x30,
  0x00, 0x00, 0x00, 0x24, 0x00, 0x00, 0x00, 0x10, 0x00, 0x00, 0x00, 0x00, 0x00,
  0x0a, 0x00, 0x10, 0x00, 0x0f, 0x00, 0x04, 0x00, 0x08, 0x00, 0x0a, 0x00, 0x00,
  0x00, 0x01, 0x00, 0x00, 0x00, 0x01, 0x00, 0x00, 0x00, 0x00, 0x00, 0x00, 0x01,
  0x01, 0x00, 0x00, 0x00, 0x7a, 0x00, 0x00, 0x00, 0x03, 0x00, 0x00, 0x00, 0x79,
  0x00, 0x00, 0x00, 0x3d, 0x00, 0x00, 0x00, 0x44, 0x00, 0x00, 0x00, 0xf4, 0x96,
  0xff, 0xff, 0x3c, 0x00, 0x00, 0x00, 0x7b, 0x00, 0x00, 0x00, 0x20, 0x00, 0x00,
  0x00, 0x44, 0x00, 0x00, 0x00, 0x04, 0x00, 0x00, 0x00, 0x04, 0x00, 0x00, 0x00,
  0xff, 0xff, 0xff, 0xff, 0x40, 0x00, 0x00, 0x00, 0x40, 0x00, 0x00, 0x00, 0x01,
  0x00, 0x00, 0x00, 0x0c, 0x00, 0x00, 0x00, 0x42, 0x69, 0x61, 0x73, 0x41, 0x64,
  0x64, 0x5f, 0x31, 0x35, 0x3a, 0x30, 0x00, 0x00, 0x00, 0x00, 0x04, 0x00, 0x00,
  0x00, 0x01, 0x00, 0x00, 0x00, 0x40, 0x00, 0x00, 0x00, 0x40, 0x00, 0x00, 0x00,
  0x01, 0x00, 0x00, 0x00, 0xdc, 0x96, 0xff, 0xff, 0x26, 0xe0, 0xff, 0xff, 0x00,
  0x00, 0x00, 0x02, 0x01, 0x00, 0x00, 0x00, 0x28, 0x00, 0x00, 0x00, 0x1c, 0x00,
  0x00, 0x00, 0x04, 0x00, 0x00, 0x00, 0x64, 0xff, 0xff, 0xff, 0x01, 0x00, 0x00,
  0x00, 0x01, 0x00, 0x00, 0x00, 0x01, 0x00, 0x00, 0x00, 0x00, 0x00, 0x00, 0x01,
  0x01, 0x00, 0x00, 0x00, 0x79, 0x00, 0x00, 0x00, 0x03, 0x00, 0x00, 0x00, 0x78,
  0x00, 0x00, 0x00, 0x3b, 0x00, 0x00, 0x00, 0x3a, 0x00, 0x00, 0x00, 0x90, 0x97,
  0xff, 0xff, 0x3c, 0x00, 0x00, 0x00, 0x7a, 0x00, 0x00, 0x00, 0x20, 0x00, 0x00,
  0x00, 0x44, 0x00, 0x00, 0x00, 0x04, 0x00, 0x00, 0x00, 0x04, 0x00, 0x00, 0x00,
  0xff, 0xff, 0xff, 0xff, 0x40, 0x00, 0x00, 0x00, 0x40, 0x00, 0x00, 0x00, 0x0e,
  0x00, 0x00, 0x00, 0x0d, 0x00, 0x00, 0x00, 0x64, 0x65, 0x70, 0x74, 0x68, 0x77,
  0x69, 0x73, 0x65, 0x5f, 0x33, 0x31, 0x32, 0x00, 0x00, 0x00, 0x04, 0x00, 0x00,
  0x00, 0x01, 0x00, 0x00, 0x00, 0x40, 0x00, 0x00, 0x00, 0x40, 0x00, 0x00, 0x00,
  0x0e, 0x00, 0x00, 0x00, 0x78, 0x97, 0xff, 0xff, 0xc2, 0xe0, 0xff, 0xff, 0x00,
  0x00, 0x00, 0x02, 0x01, 0x00, 0x00, 0x00, 0x34, 0x00, 0x00, 0x00, 0x28, 0x00,
  0x00, 0x00, 0x10, 0x00, 0x00, 0x00, 0x0c, 0x00, 0x14, 0x00, 0x13, 0x00, 0x08,
  0x00, 0x0c, 0x00, 0x04, 0x00, 0x0c, 0x00, 0x00, 0x00, 0x01, 0x00, 0x00, 0x00,
  0x01, 0x00, 0x00, 0x00, 0x01, 0x00, 0x00, 0x00, 0x00, 0x00, 0x00, 0x01, 0x01,
  0x00, 0x00, 0x00, 0x78, 0x00, 0x00, 0x00, 0x03, 0x00, 0x00, 0x00, 0x77, 0x00,
  0x00, 0x00, 0x39, 0x00, 0x00, 0x00, 0x3a, 0x00, 0x00, 0x00, 0x38, 0x98, 0xff,
  0xff, 0x3c, 0x00, 0x00, 0x00, 0x79, 0x00, 0x00, 0x00, 0x20, 0x00, 0x00, 0x00,
  0x44, 0x00, 0x00, 0x00, 0x04, 0x00, 0x00, 0x00, 0x04, 0x00, 0x00, 0x00, 0xff,
  0xff, 0xff, 0xff, 0x40, 0x00, 0x00, 0x00, 0x46, 0x00, 0x00, 0x00, 0x0e, 0x00,
  0x00, 0x00, 0x0d, 0x00, 0x00, 0x00, 0x64, 0x65, 0x70, 0x74, 0x68, 0x77, 0x69,
  0x73, 0x65, 0x5f, 0x33, 0x30, 0x31, 0x00, 0x00, 0x00, 0x04, 0x00, 0x00, 0x00,
  0x01, 0x00, 0x00, 0x00, 0x40, 0x00, 0x00, 0x00, 0x46, 0x00, 0x00, 0x00, 0x0e,
  0x00, 0x00, 0x00, 0x20, 0x98, 0xff, 0xff, 0x6a, 0xe1, 0xff, 0xff, 0x00, 0x00,
  0x00, 0x0b, 0x03, 0x00, 0x00, 0x00, 0x18, 0x00, 0x00, 0x00, 0x0c, 0x00, 0x00,
  0x00, 0x04, 0x00, 0x00, 0x00, 0x3c, 0x98, 0xff, 0xff, 0x01, 0x00, 0x00, 0x00,
  0x77, 0x00, 0x00, 0x00, 0x02, 0x00, 0x00, 0x00, 0x76, 0x00, 0x00, 0x00, 0x73,
  0x00, 0x00, 0x00, 0xc0, 0x98, 0xff, 0xff, 0x34, 0x00, 0x00, 0x00, 0x78, 0x00,
  0x00, 0x00, 0x20, 0x00, 0x00, 0x00, 0x3c, 0x00, 0x00, 0x00, 0x04, 0x00, 0x00,
  0x00, 0x04, 0x00, 0x00, 0x00, 0xff, 0xff, 0xff, 0xff, 0x46, 0x00, 0x00, 0x00,
  0x46, 0x00, 0x00, 0x00, 0x0e, 0x00, 0x00, 0x00, 0x05, 0x00, 0x00, 0x00, 0x41,
  0x64, 0x64, 0x5f, 0x34, 0x00, 0x00, 0x00, 0x04, 0x00, 0x00, 0x00, 0x01, 0x00,
  0x00, 0x00, 0x46, 0x00, 0x00, 0x00, 0x46, 0x00, 0x00, 0x00, 0x0e, 0x00, 0x00,
  0x00, 0xa0, 0x98, 0xff, 0xff, 0xea, 0xe1, 0xff, 0xff, 0x00, 0x00, 0x00, 0x01,
  0x02, 0x00, 0x00, 0x00, 0x20, 0x00, 0x00, 0x00, 0x14, 0x00, 0x00, 0x00, 0x04,
  0x00, 0x00, 0x00, 0x4a, 0xe3, 0xff, 0xff, 0x01, 0x00, 0x00, 0x00, 0x01, 0x00,
  0x00, 0x00, 0x01, 0x00, 0x00, 0x00, 0x76, 0x00, 0x00, 0x00, 0x03, 0x00, 0x00,
  0x00, 0x75, 0x00, 0x00, 0x00, 0x38, 0x00, 0x00, 0x00, 0x43, 0x00, 0x00, 0x00,
  0x4c, 0x99, 0xff, 0xff, 0x5c, 0x00, 0x00, 0x00, 0x77, 0x00, 0x00, 0x00, 0x20,
  0x00, 0x00, 0x00, 0x64, 0x00, 0x00, 0x00, 0x04, 0x00, 0x00, 0x00, 0x04, 0x00,
  0x00, 0x00, 0xff, 0xff, 0xff, 0xff, 0x46, 0x00, 0x00, 0x00, 0x46, 0x00, 0x00,
  0x00, 0x0e, 0x00, 0x00, 0x00, 0x2d, 0x00, 0x00, 0x00, 0x42, 0x69, 0x61, 0x73,
  0x41, 0x64, 0x64, 0x5f, 0x31, 0x34, 0x3b, 0x64, 0x65, 0x70, 0x74, 0x68, 0x77,
  0x69, 0x73, 0x65, 0x5f, 0x33, 0x31, 0x3b, 0x43, 0x6f, 0x6e, 0x76, 0x32, 0x44,
  0x5f, 0x31, 0x34, 0x3b, 0x63, 0x6f, 0x6e, 0x76, 0x5f, 0x35, 0x5f, 0x31, 0x5f,
  0x62, 0x31, 0x00, 0x00, 0x00, 0x04, 0x00, 0x00, 0x00, 0x01, 0x00, 0x00, 0x00,
  0x46, 0x00, 0x00, 0x00, 0x46, 0x00, 0x00, 0x00, 0x0e, 0x00, 0x00, 0x00, 0x54,
  0x99, 0xff, 0xff, 0x9e, 0xe2, 0xff, 0xff, 0x00, 0x00, 0x00, 0x02, 0x01, 0x00,
  0x00, 0x00, 0x24, 0x00, 0x00, 0x00, 0x18, 0x00, 0x00, 0x00, 0x04, 0x00, 0x00,
  0x00, 0x90, 0xe2, 0xff, 0xff, 0x01, 0x00, 0x00, 0x00, 0x01, 0x00, 0x00, 0x00,
  0x01, 0x00, 0x00, 0x00, 0x01, 0x00, 0x00, 0x00, 0x75, 0x00, 0x00, 0x00, 0x03,
  0x00, 0x00, 0x00, 0x74, 0x00, 0x00, 0x00, 0x37, 0x00, 0x00, 0x00, 0x36, 0x00,
  0x00, 0x00, 0x04, 0x9a, 0xff, 0xff, 0x3c, 0x00, 0x00, 0x00, 0x76, 0x00, 0x00,
  0x00, 0x20, 0x00, 0x00, 0x00, 0x44, 0x00, 0x00, 0x00, 0x04, 0x00, 0x00, 0x00,
  0x04, 0x00, 0x00, 0x00, 0xff, 0xff, 0xff, 0xff, 0x46, 0x00, 0x00, 0x00, 0x46,
  0x00, 0x00, 0x00, 0x09, 0x00, 0x00, 0x00, 0x0d, 0x00, 0x00, 0x00, 0x64, 0x65,
  0x70, 0x74, 0x68, 0x77, 0x69, 0x73, 0x65, 0x5f, 0x32, 0x39, 0x32, 0x00, 0x00,
  0x00, 0x04, 0x00, 0x00, 0x00, 0x01, 0x00, 0x00, 0x00, 0x46, 0x00, 0x00, 0x00,
  0x46, 0x00, 0x00, 0x00, 0x09, 0x00, 0x00, 0x00, 0xec, 0x99, 0xff, 0xff, 0x36,
  0xe3, 0xff, 0xff, 0x00, 0x00, 0x00, 0x02, 0x01, 0x00, 0x00, 0x00, 0x24, 0x00,
  0x00, 0x00, 0x18, 0x00, 0x00, 0x00, 0x04, 0x00, 0x00, 0x00, 0x28, 0xe3, 0xff,
  0xff, 0x01, 0x00, 0x00, 0x00, 0x01, 0x00, 0x00, 0x00, 0x01, 0x00, 0x00, 0x00,
  0x01, 0x00, 0x00, 0x00, 0x74, 0x00, 0x00, 0x00, 0x03, 0x00, 0x00, 0x00, 0x6d,
  0x00, 0x00, 0x00, 0x35, 0x00, 0x00, 0x00, 0x36, 0x00, 0x00, 0x00, 0x9c, 0x9a,
  0xff, 0xff, 0x3c, 0x00, 0x00, 0x00, 0x75, 0x00, 0x00, 0x00, 0x20, 0x00, 0x00,
  0x00, 0x44, 0x00, 0x00, 0x00, 0x04, 0x00, 0x00, 0x00, 0x04, 0x00, 0x00, 0x00,
  0xff, 0xff, 0xff, 0xff, 0x46, 0x00, 0x00, 0x00, 0x46, 0x00, 0x00, 0x00, 0x09,
  0x00, 0x00, 0x00, 0x0d, 0x00, 0x00, 0x00, 0x64, 0x65, 0x70, 0x74, 0x68, 0x77,
  0x69, 0x73, 0x65, 0x5f, 0x32, 0x38, 0x31, 0x00, 0x00, 0x00, 0x04, 0x00, 0x00,
  0x00, 0x01, 0x00, 0x00, 0x00, 0x46, 0x00, 0x00, 0x00, 0x46, 0x00, 0x00, 0x00,
  0x09, 0x00, 0x00, 0x00, 0x84, 0x9a, 0xff, 0xff, 0xce, 0xe3, 0xff, 0xff, 0x00,
  0x00, 0x00, 0x01, 0x02, 0x00, 0x00, 0x00, 0x20, 0x00, 0x00, 0x00, 0x14, 0x00,
  0x00, 0x00, 0x04, 0x00, 0x00, 0x00, 0x2e, 0xe5, 0xff, 0xff, 0x01, 0x00, 0x00,
  0x00, 0x01, 0x00, 0x00, 0x00, 0x01, 0x00, 0x00, 0x00, 0x73, 0x00, 0x00, 0x00,
  0x03, 0x00, 0x00, 0x00, 0x72, 0x00, 0x00, 0x00, 0x34, 0x00, 0x00, 0x00, 0x43,
  0x00, 0x00, 0x00, 0x30, 0x9b, 0xff, 0xff, 0x5c, 0x00, 0x00, 0x00, 0x74, 0x00,
  0x00, 0x00, 0x20, 0x00, 0x00, 0x00, 0x64, 0x00, 0x00, 0x00, 0x04, 0x00, 0x00,
  0x00, 0x04, 0x00, 0x00, 0x00, 0xff, 0xff, 0xff, 0xff, 0x46, 0x00, 0x00, 0x00,
  0x46, 0x00, 0x00, 0x00, 0x0e, 0x00, 0x00, 0x00, 0x2c, 0x00, 0x00, 0x00, 0x42,
  0x69, 0x61, 0x73, 0x41, 0x64, 0x64, 0x5f, 0x31, 0x33, 0x3b, 0x64, 0x65, 0x70,
  0x74, 0x68, 0x77, 0x69, 0x73, 0x65, 0x5f, 0x33, 0x31, 0x3b, 0x43, 0x6f, 0x6e,
  0x76, 0x32, 0x44, 0x5f, 0x31, 0x33, 0x3b, 0x63, 0x6f, 0x6e, 0x76, 0x5f, 0x35,
  0x5f, 0x31, 0x5f, 0x62, 0x00, 0x00, 0x00, 0x00, 0x04, 0x00, 0x00, 0x00, 0x01,
  0x00, 0x00, 0x00, 0x46, 0x00, 0x00, 0x00, 0x46, 0x00, 0x00, 0x00, 0x0e, 0x00,
  0x00, 0x00, 0x38, 0x9b, 0xff, 0xff, 0x82, 0xe4, 0xff, 0xff, 0x00, 0x00, 0x00,
  0x02, 0x01, 0x00, 0x00, 0x00, 0x24, 0x00, 0x00, 0x00, 0x18, 0x00, 0x00, 0x00,
  0x04, 0x00, 0x00, 0x00, 0x74, 0xe4, 0xff, 0xff, 0x01, 0x00, 0x00, 0x00, 0x01,
  0x00, 0x00, 0x00, 0x01, 0x00, 0x00, 0x00, 0x01, 0x00, 0x00, 0x00, 0x72, 0x00,
  0x00, 0x00, 0x03, 0x00, 0x00, 0x00, 0x71, 0x00, 0x00, 0x00, 0x33, 0x00, 0x00,
  0x00, 0x32, 0x00, 0x00, 0x00, 0xe8, 0x9b, 0xff, 0xff, 0x3c, 0x00, 0x00, 0x00,
  0x73, 0x00, 0x00, 0x00, 0x20, 0x00, 0x00, 0x00, 0x44, 0x00, 0x00, 0x00, 0x04,
  0x00, 0x00, 0x00, 0x04, 0x00, 0x00, 0x00, 0xff, 0xff, 0xff, 0xff, 0x46, 0x00,
  0x00, 0x00, 0x46, 0x00, 0x00, 0x00, 0x13, 0x00, 0x00, 0x00, 0x0d, 0x00, 0x00,
  0x00, 0x64, 0x65, 0x70, 0x74, 0x68, 0x77, 0x69, 0x73, 0x65, 0x5f, 0x32, 0x37,
  0x32, 0x00, 0x00, 0x00, 0x04, 0x00, 0x00, 0x00, 0x01, 0x00, 0x00, 0x00, 0x46,
  0x00, 0x00, 0x00, 0x46, 0x00, 0x00, 0x00, 0x13, 0x00, 0x00, 0x00, 0xd0, 0x9b,
  0xff, 0xff, 0x1a, 0xe5, 0xff, 0xff, 0x00, 0x00, 0x00, 0x02, 0x01, 0x00, 0x00,
  0x00, 0x24, 0x00, 0x00, 0x00, 0x18, 0x00, 0x00, 0x00, 0x04, 0x00, 0x00, 0x00,
  0x0c, 0xe5, 0xff, 0xff, 0x01, 0x00, 0x00, 0x00, 0x01, 0x00, 0x00, 0x00, 0x01,
  0x00, 0x00, 0x00, 0x01, 0x00, 0x00, 0x00, 0x71, 0x00, 0x00, 0x00, 0x03, 0x00,
  0x00, 0x00, 0x70, 0x00, 0x00, 0x00, 0x31, 0x00, 0x00, 0x00, 0x32, 0x00, 0x00,
  0x00, 0x80, 0x9c, 0xff, 0xff, 0x3c, 0x00, 0x00, 0x00, 0x72, 0x00, 0x00, 0x00,
  0x20, 0x00, 0x00, 0x00, 0x44, 0x00, 0x00, 0x00, 0x04, 0x00, 0x00, 0x00, 0x04,
  0x00, 0x00, 0x00, 0xff, 0xff, 0xff, 0xff, 0x46, 0x00, 0x00, 0x00, 0x46, 0x00,
  0x00, 0x00, 0x13, 0x00, 0x00, 0x00, 0x0d, 0x00, 0x00, 0x00, 0x64, 0x65, 0x70,
  0x74, 0x68, 0x77, 0x69, 0x73, 0x65, 0x5f, 0x32, 0x36, 0x31, 0x00, 0x00, 0x00,
  0x04, 0x00, 0x00, 0x00, 0x01, 0x00, 0x00, 0x00, 0x46, 0x00, 0x00, 0x00, 0x46,
  0x00, 0x00, 0x00, 0x13, 0x00, 0x00, 0x00, 0x68, 0x9c, 0xff, 0xff, 0xb2, 0xe5,
  0xff, 0xff, 0x00, 0x00, 0x00, 0x01, 0x02, 0x00, 0x00, 0x00, 0x24, 0x00, 0x00,
  0x00, 0x18, 0x00, 0x00, 0x00, 0x04, 0x00, 0x00, 0x00, 0x18, 0xe9, 0xff, 0xff,
  0x01, 0x00, 0x00, 0x00, 0x01, 0x00, 0x00, 0x00, 0x00, 0x00, 0x00, 0x01, 0x01,
  0x00, 0x00, 0x00, 0x70, 0x00, 0x00, 0x00, 0x03, 0x00, 0x00, 0x00, 0x6f, 0x00,
  0x00, 0x00, 0x30, 0x00, 0x00, 0x00, 0x01, 0x00, 0x00, 0x00, 0x18, 0x9d, 0xff,
  0xff, 0x60, 0x00, 0x00, 0x00, 0x71, 0x00, 0x00, 0x00, 0x20, 0x00, 0x00, 0x00,
  0x68, 0x00, 0x00, 0x00, 0x04, 0x00, 0x00, 0x00, 0x04, 0x00, 0x00, 0x00, 0xff,
  0xff, 0xff, 0xff, 0x46, 0x00, 0x00, 0x00, 0x46, 0x00, 0x00, 0x00, 0x13, 0x00,
  0x00, 0x00, 0x33, 0x00, 0x00, 0x00, 0x52, 0x65, 0x6c, 0x75, 0x5f, 0x34, 0x3b,
  0x42, 0x69, 0x61, 0x73, 0x41, 0x64, 0x64, 0x5f, 0x31, 0x32, 0x3b, 0x64, 0x65,
  0x70, 0x74, 0x68, 0x77, 0x69, 0x73, 0x65, 0x5f, 0x32, 0x37, 0x3b, 0x43, 0x6f,
  0x6e, 0x76, 0x32, 0x44, 0x5f, 0x31, 0x32, 0x3b, 0x63, 0x6f, 0x6e, 0x76, 0x5f,
  0x35, 0x5f, 0x30, 0x5f, 0x62, 0x00, 0x04, 0x00, 0x00, 0x00, 0x01, 0x00, 0x00,
  0x00, 0x46, 0x00, 0x00, 0x00, 0x46, 0x00, 0x00, 0x00, 0x13, 0x00, 0x00, 0x00,
  0x24, 0x9d, 0xff, 0xff, 0x6e, 0xe6, 0xff, 0xff, 0x00, 0x00, 0x00, 0x02, 0x01,
  0x00, 0x00, 0x00, 0x24, 0x00, 0x00, 0x00, 0x18, 0x00, 0x00, 0x00, 0x04, 0x00,
  0x00, 0x00, 0x60, 0xe6, 0xff, 0xff, 0x01, 0x00, 0x00, 0x00, 0x01, 0x00, 0x00,
  0x00, 0x01, 0x00, 0x00, 0x00, 0x01, 0x00, 0x00, 0x00, 0x6f, 0x00, 0x00, 0x00,
  0x03, 0x00, 0x00, 0x00, 0x6e, 0x00, 0x00, 0x00, 0x2f, 0x00, 0x00, 0x00, 0x36,
  0x00, 0x00, 0x00, 0xd4, 0x9d, 0xff, 0xff, 0x3c, 0x00, 0x00, 0x00, 0x70, 0x00,
  0x00, 0x00, 0x20, 0x00, 0x00, 0x00, 0x44, 0x00, 0x00, 0x00, 0x04, 0x00, 0x00,
  0x00, 0x04, 0x00, 0x00, 0x00, 0xff, 0xff, 0xff, 0xff, 0x46, 0x00, 0x00, 0x00,
  0x46, 0x00, 0x00, 0x00, 0x09, 0x00, 0x00, 0x00, 0x0d, 0x00, 0x00, 0x00, 0x64,
  0x65, 0x70, 0x74, 0x68, 0x77, 0x69, 0x73, 0x65, 0x5f, 0x32, 0x35, 0x31, 0x00,
  0x00, 0x00, 0x04, 0x00, 0x00, 0x00, 0x01, 0x00, 0x00, 0x00, 0x46, 0x00, 0x00,
  0x00, 0x46, 0x00, 0x00, 0x00, 0x09, 0x00, 0x00, 0x00, 0xbc, 0x9d, 0xff, 0xff,
  0x06, 0xe7, 0xff, 0xff, 0x00, 0x00, 0x00, 0x02, 0x01, 0x00, 0x00, 0x00, 0x24,
  0x00, 0x00, 0x00, 0x18, 0x00, 0x00, 0x00, 0x04, 0x00, 0x00, 0x00, 0xf8, 0xe6,
  0xff, 0xff, 0x01, 0x00, 0x00, 0x00, 0x01, 0x00, 0x00, 0x00, 0x01, 0x00, 0x00,
  0x00, 0x01, 0x00, 0x00, 0x00, 0x6e, 0x00, 0x00, 0x00, 0x03, 0x00, 0x00, 0x00,
  0x6d, 0x00, 0x00, 0x00, 0x2e, 0x00, 0x00, 0x00, 0x36, 0x00, 0x00, 0x00, 0x6c,
  0x9e, 0xff, 0xff, 0x3c, 0x00, 0x00, 0x00, 0x6f, 0x00, 0x00, 0x00, 0x20, 0x00,
  0x00, 0x00, 0x44, 0x00, 0x00, 0x00, 0x04, 0x00, 0x00, 0x00, 0x04, 0x00, 0x00,
  0x00, 0xff, 0xff, 0xff, 0xff, 0x46, 0x00, 0x00, 0x00, 0x46, 0x00, 0x00, 0x00,
  0x09, 0x00, 0x00, 0x00, 0x0d, 0x00, 0x00, 0x00, 0x64, 0x65, 0x70, 0x74, 0x68,
  0x77, 0x69, 0x73, 0x65, 0x5f, 0x32, 0x34, 0x31, 0x00, 0x00, 0x00, 0x04, 0x00,
  0x00, 0x00, 0x01, 0x00, 0x00, 0x00, 0x46, 0x00, 0x00, 0x00, 0x46, 0x00, 0x00,
  0x00, 0x09, 0x00, 0x00, 0x00, 0x54, 0x9e, 0xff, 0xff, 0x9e, 0xe7, 0xff, 0xff,
  0x00, 0x00, 0x00, 0x0b, 0x03, 0x00, 0x00, 0x00, 0x18, 0x00, 0x00, 0x00, 0x0c,
  0x00, 0x00, 0x00, 0x04, 0x00, 0x00, 0x00, 0x70, 0x9e, 0xff, 0xff, 0x01, 0x00,
  0x00, 0x00, 0x6d, 0x00, 0x00, 0x00, 0x02, 0x00, 0x00, 0x00, 0x6c, 0x00, 0x00,
  0x00, 0x69, 0x00, 0x00, 0x00, 0xf4, 0x9e, 0xff, 0xff, 0x34, 0x00, 0x00, 0x00,
  0x6e, 0x00, 0x00, 0x00, 0x20, 0x00, 0x00, 0x00, 0x3c, 0x00, 0x00, 0x00, 0x04,
  0x00, 0x00, 0x00, 0x04, 0x00, 0x00, 0x00, 0xff, 0xff, 0xff, 0xff, 0x46, 0x00,
  0x00, 0x00, 0x46, 0x00, 0x00, 0x00, 0x09, 0x00, 0x00, 0x00, 0x05, 0x00, 0x00,
  0x00, 0x41, 0x64, 0x64, 0x5f, 0x33, 0x00, 0x00, 0x00, 0x04, 0x00, 0x00, 0x00,
  0x01, 0x00, 0x00, 0x00, 0x46, 0x00, 0x00, 0x00, 0x46, 0x00, 0x00, 0x00, 0x09,
  0x00, 0x00, 0x00, 0xd4, 0x9e, 0xff, 0xff, 0x1e, 0xe8, 0xff, 0xff, 0x00, 0x00,
  0x00, 0x01, 0x02, 0x00, 0x00, 0x00, 0x20, 0x00, 0x00, 0x00, 0x14, 0x00, 0x00,
  0x00, 0x04, 0x00, 0x00, 0x00, 0x7e, 0xe9, 0xff, 0xff, 0x01, 0x00, 0x00, 0x00,
  0x01, 0x00, 0x00, 0x00, 0x01, 0x00, 0x00, 0x00, 0x6c, 0x00, 0x00, 0x00, 0x03,
  0x00, 0x00, 0x00, 0x6b, 0x00, 0x00, 0x00, 0x2d, 0x00, 0x00, 0x00, 0x42, 0x00,
  0x00, 0x00, 0x80, 0x9f, 0xff, 0xff, 0x5c, 0x00, 0x00, 0x00, 0x6d, 0x00, 0x00,
  0x00, 0x20, 0x00, 0x00, 0x00, 0x64, 0x00, 0x00, 0x00, 0x04, 0x00, 0x00, 0x00,
  0x04, 0x00, 0x00, 0x00, 0xff, 0xff, 0xff, 0xff, 0x46, 0x00, 0x00, 0x00, 0x46,
  0x00, 0x00, 0x00, 0x09, 0x00, 0x00, 0x00, 0x2d, 0x00, 0x00, 0x00, 0x42, 0x69,
  0x61, 0x73, 0x41, 0x64, 0x64, 0x5f, 0x31, 0x31, 0x3b, 0x64, 0x65, 0x70, 0x74,
  0x68, 0x77, 0x69, 0x73, 0x65, 0x5f, 0x32, 0x39, 0x3b, 0x43, 0x6f, 0x6e, 0x76,
  0x32, 0x44, 0x5f, 0x31, 0x31, 0x3b, 0x63, 0x6f, 0x6e, 0x76, 0x5f, 0x34, 0x5f,
  0x31, 0x5f, 0x62, 0x31, 0x00, 0x00, 0x00, 0x04, 0x00, 0x00, 0x00, 0x01, 0x00,
  0x00, 0x00, 0x46, 0x00, 0x00, 0x00, 0x46, 0x00, 0x00, 0x00, 0x09, 0x00, 0x00,
  0x00, 0x88, 0x9f, 0xff, 0xff, 0xd2, 0xe8, 0xff, 0xff, 0x00, 0x00, 0x00, 0x02,
  0x01, 0x00, 0x00, 0x00, 0x24, 0x00, 0x00, 0x00, 0x18, 0x00, 0x00, 0x00, 0x04,
  0x00, 0x00, 0x00, 0xc4, 0xe8, 0xff, 0xff, 0x01, 0x00, 0x00, 0x00, 0x01, 0x00,
  0x00, 0x00, 0x01, 0x00, 0x00, 0x00, 0x01, 0x00, 0x00, 0x00, 0x6b, 0x00, 0x00,
  0x00, 0x03, 0x00, 0x00, 0x00, 0x6a, 0x00, 0x00, 0x00, 0x2c, 0x00, 0x00, 0x00,
  0x2b, 0x00, 0x00, 0x00, 0x38, 0xa0, 0xff, 0xff, 0x3c, 0x00, 0x00, 0x00, 0x6c,
  0x00, 0x00, 0x00, 0x20, 0x00, 0x00, 0x00, 0x44, 0x00, 0x00, 0x00, 0x04, 0x00,
  0x00, 0x00, 0x04, 0x00, 0x00, 0x00, 0xff, 0xff, 0xff, 0xff, 0x46, 0x00, 0x00,
  0x00, 0x46, 0x00, 0x00, 0x00, 0x06, 0x00, 0x00, 0x00, 0x0d, 0x00, 0x00, 0x00,
  0x64, 0x65, 0x70, 0x74, 0x68, 0x77, 0x69, 0x73, 0x65, 0x5f, 0x32, 0x33, 0x32,
  0x00, 0x00, 0x00, 0x04, 0x00, 0x00, 0x00, 0x01, 0x00, 0x00, 0x00, 0x46, 0x00,
  0x00, 0x00, 0x46, 0x00, 0x00, 0x00, 0x06, 0x00, 0x00, 0x00, 0x20, 0xa0, 0xff,
  0xff, 0x6a, 0xe9, 0xff, 0xff, 0x00, 0x00, 0x00, 0x02, 0x01, 0x00, 0x00, 0x00,
  0x24, 0x00, 0x00, 0x00, 0x18, 0x00, 0x00, 0x00, 0x04, 0x00, 0x00, 0x00, 0x5c,
  0xe9, 0xff, 0xff, 0x01, 0x00, 0x00, 0x00, 0x01, 0x00, 0x00, 0x00, 0x01, 0x00,
  0x00, 0x00, 0x01, 0x00, 0x00, 0x00, 0x6a, 0x00, 0x00, 0x00, 0x03, 0x00, 0x00,
  0x00, 0x63, 0x00, 0x00, 0x00, 0x2a, 0x00, 0x00, 0x00, 0x2b, 0x00, 0x00, 0x00,
  0xd0, 0xa0, 0xff, 0xff, 0x3c, 0x00, 0x00, 0x00, 0x6b, 0x00, 0x00, 0x00, 0x20,
  0x00, 0x00, 0x00, 0x44, 0x00, 0x00, 0x00, 0x04, 0x00, 0x00, 0x00, 0x04, 0x00,
  0x00, 0x00, 0xff, 0xff, 0xff, 0xff, 0x46, 0x00, 0x00, 0x00, 0x46, 0x00, 0x00,
  0x00, 0x06, 0x00, 0x00, 0x00, 0x0d, 0x00, 0x00, 0x00, 0x64, 0x65, 0x70, 0x74,
  0x68, 0x77, 0x69, 0x73, 0x65, 0x5f, 0x32, 0x32, 0x31, 0x00, 0x00, 0x00, 0x04,
  0x00, 0x00, 0x00, 0x01, 0x00, 0x00, 0x00, 0x46, 0x00, 0x00, 0x00, 0x46, 0x00,
  0x00, 0x00, 0x06, 0x00, 0x00, 0x00, 0xb8, 0xa0, 0xff, 0xff, 0x02, 0xea, 0xff,
  0xff, 0x00, 0x00, 0x00, 0x01, 0x02, 0x00, 0x00, 0x00, 0x20, 0x00, 0x00, 0x00,
  0x14, 0x00, 0x00, 0x00, 0x04, 0x00, 0x00, 0x00, 0x62, 0xeb, 0xff, 0xff, 0x01,
  0x00, 0x00, 0x00, 0x01, 0x00, 0x00, 0x00, 0x01, 0x00, 0x00, 0x00, 0x69, 0x00,
  0x00, 0x00, 0x03, 0x00, 0x00, 0x00, 0x68, 0x00, 0x00, 0x00, 0x29, 0x00, 0x00,
  0x00, 0x42, 0x00, 0x00, 0x00, 0x64, 0xa1, 0xff, 0xff, 0x5c, 0x00, 0x00, 0x00,
  0x6a, 0x00, 0x00, 0x00, 0x20, 0x00, 0x00, 0x00, 0x64, 0x00, 0x00, 0x00, 0x04,
  0x00, 0x00, 0x00, 0x04, 0x00, 0x00, 0x00, 0xff, 0xff, 0xff, 0xff, 0x46, 0x00,
  0x00, 0x00, 0x46, 0x00, 0x00, 0x00, 0x09, 0x00, 0x00, 0x00, 0x2c, 0x00, 0x00,
  0x00, 0x42, 0x69, 0x61, 0x73, 0x41, 0x64, 0x64, 0x5f, 0x31, 0x30, 0x3b, 0x64,
  0x65, 0x70, 0x74, 0x68, 0x77, 0x69, 0x73, 0x65, 0x5f, 0x32, 0x39, 0x3b, 0x43,
  0x6f, 0x6e, 0x76, 0x32, 0x44, 0x5f, 0x31, 0x30, 0x3b, 0x63, 0x6f, 0x6e, 0x76,
  0x5f, 0x34, 0x5f, 0x31, 0x5f, 0x62, 0x00, 0x00, 0x00, 0x00, 0x04, 0x00, 0x00,
  0x00, 0x01, 0x00, 0x00, 0x00, 0x46, 0x00, 0x00, 0x00, 0x46, 0x00, 0x00, 0x00,
  0x09, 0x00, 0x00, 0x00, 0x6c, 0xa1, 0xff, 0xff, 0xb6, 0xea, 0xff, 0xff, 0x00,
  0x00, 0x00, 0x02, 0x01, 0x00, 0x00, 0x00, 0x24, 0x00, 0x00, 0x00, 0x18, 0x00,
  0x00, 0x00, 0x04, 0x00, 0x00, 0x00, 0xa8, 0xea, 0xff, 0xff, 0x01, 0x00, 0x00,
  0x00, 0x01, 0x00, 0x00, 0x00, 0x01, 0x00, 0x00, 0x00, 0x01, 0x00, 0x00, 0x00,
  0x68, 0x00, 0x00, 0x00, 0x03, 0x00, 0x00, 0x00, 0x67, 0x00, 0x00, 0x00, 0x28,
  0x00, 0x00, 0x00, 0x27, 0x00, 0x00, 0x00, 0x1c, 0xa2, 0xff, 0xff, 0x3c, 0x00,
  0x00, 0x00, 0x69, 0x00, 0x00, 0x00, 0x20, 0x00, 0x00, 0x00, 0x44, 0x00, 0x00,
  0x00, 0x04, 0x00, 0x00, 0x00, 0x04, 0x00, 0x00, 0x00, 0xff, 0xff, 0xff, 0xff,
  0x46, 0x00, 0x00, 0x00, 0x46, 0x00, 0x00, 0x00, 0x0c, 0x00, 0x00, 0x00, 0x0d,
  0x00, 0x00, 0x00, 0x64, 0x65, 0x70, 0x74, 0x68, 0x77, 0x69, 0x73, 0x65, 0x5f,
  0x32, 0x31, 0x32, 0x00, 0x00, 0x00, 0x04, 0x00, 0x00, 0x00, 0x01, 0x00, 0x00,
  0x00, 0x46, 0x00, 0x00, 0x00, 0x46, 0x00, 0x00, 0x00, 0x0c, 0x00, 0x00, 0x00,
  0x04, 0xa2, 0xff, 0xff, 0x4e, 0xeb, 0xff, 0xff, 0x00, 0x00, 0x00, 0x02, 0x01,
  0x00, 0x00, 0x00, 0x24, 0x00, 0x00, 0x00, 0x18, 0x00, 0x00, 0x00, 0x04, 0x00,
  0x00, 0x00, 0x40, 0xeb, 0xff, 0xff, 0x01, 0x00, 0x00, 0x00, 0x01, 0x00, 0x00,
  0x00, 0x01, 0x00, 0x00, 0x00, 0x01, 0x00, 0x00, 0x00, 0x67, 0x00, 0x00, 0x00,
  0x03, 0x00, 0x00, 0x00, 0x66, 0x00, 0x00, 0x00, 0x26, 0x00, 0x00, 0x00, 0x27,
  0x00, 0x00, 0x00, 0xb4, 0xa2, 0xff, 0xff, 0x3c, 0x00, 0x00, 0x00, 0x68, 0x00,
  0x00, 0x00, 0x20, 0x00, 0x00, 0x00, 0x44, 0x00, 0x00, 0x00, 0x04, 0x00, 0x00,
  0x00, 0x04, 0x00, 0x00, 0x00, 0xff, 0xff, 0xff, 0xff, 0x46, 0x00, 0x00, 0x00,
  0x46, 0x00, 0x00, 0x00, 0x0c, 0x00, 0x00, 0x00, 0x0d, 0x00, 0x00, 0x00, 0x64,
  0x65, 0x70, 0x74, 0x68, 0x77, 0x69, 0x73, 0x65, 0x5f, 0x32, 0x30, 0x31, 0x00,
  0x00, 0x00, 0x04, 0x00, 0x00, 0x00, 0x01, 0x00, 0x00, 0x00, 0x46, 0x00, 0x00,
  0x00, 0x46, 0x00, 0x00, 0x00, 0x0c, 0x00, 0x00, 0x00, 0x9c, 0xa2, 0xff, 0xff,
  0xe6, 0xeb, 0xff, 0xff, 0x00, 0x00, 0x00, 0x01, 0x02, 0x00, 0x00, 0x00, 0x24,
  0x00, 0x00, 0x00, 0x18, 0x00, 0x00, 0x00, 0x04, 0x00, 0x00, 0x00, 0x4c, 0xef,
  0xff, 0xff, 0x01, 0x00, 0x00, 0x00, 0x01, 0x00, 0x00, 0x00, 0x00, 0x00, 0x00,
  0x01, 0x01, 0x00, 0x00, 0x00, 0x66, 0x00, 0x00, 0x00, 0x03, 0x00, 0x00, 0x00,
  0x65, 0x00, 0x00, 0x00, 0x25, 0x00, 0x00, 0x00, 0x02, 0x00, 0x00, 0x00, 0x4c,
  0xa3, 0xff, 0xff, 0x60, 0x00, 0x00, 0x00, 0x67, 0x00, 0x00, 0x00, 0x20, 0x00,
  0x00, 0x00, 0x68, 0x00, 0x00, 0x00, 0x04, 0x00, 0x00, 0x00, 0x04, 0x00, 0x00,
  0x00, 0xff, 0xff, 0xff, 0xff, 0x46, 0x00, 0x00, 0x00, 0x46, 0x00, 0x00, 0x00,
  0x0c, 0x00, 0x00, 0x00, 0x31, 0x00, 0x00, 0x00, 0x52, 0x65, 0x6c, 0x75, 0x5f,
  0x33, 0x3b, 0x42, 0x69, 0x61, 0x73, 0x41, 0x64, 0x64, 0x5f, 0x39, 0x3b, 0x64,
  0x65, 0x70, 0x74, 0x68, 0x77, 0x69, 0x73, 0x65, 0x5f, 0x32, 0x31, 0x3b, 0x43,
  0x6f, 0x6e, 0x76, 0x32, 0x44, 0x5f, 0x39, 0x3b, 0x63, 0x6f, 0x6e, 0x76, 0x5f,
  0x34, 0x5f, 0x30, 0x5f, 0x62, 0x00, 0x00, 0x00, 0x04, 0x00, 0x00, 0x00, 0x01,
  0x00, 0x00, 0x00, 0x46, 0x00, 0x00, 0x00, 0x46, 0x00, 0x00, 0x00, 0x0c, 0x00,
  0x00, 0x00, 0x58, 0xa3, 0xff, 0xff, 0xa2, 0xec, 0xff, 0xff, 0x00, 0x00, 0x00,
  0x02, 0x01, 0x00, 0x00, 0x00, 0x24, 0x00, 0x00, 0x00, 0x18, 0x00, 0x00, 0x00,
  0x04, 0x00, 0x00, 0x00, 0x94, 0xec, 0xff, 0xff, 0x01, 0x00, 0x00, 0x00, 0x01,
  0x00, 0x00, 0x00, 0x01, 0x00, 0x00, 0x00, 0x01, 0x00, 0x00, 0x00, 0x65, 0x00,
  0x00, 0x00, 0x03, 0x00, 0x00, 0x00, 0x64, 0x00, 0x00, 0x00, 0x24, 0x00, 0x00,
  0x00, 0x2b, 0x00, 0x00, 0x00, 0x08, 0xa4, 0xff, 0xff, 0x3c, 0x00, 0x00, 0x00,
  0x66, 0x00, 0x00, 0x00, 0x20, 0x00, 0x00, 0x00, 0x44, 0x00, 0x00, 0x00, 0x04,
  0x00, 0x00, 0x00, 0x04, 0x00, 0x00, 0x00, 0xff, 0xff, 0xff, 0xff, 0x46, 0x00,
  0x00, 0x00, 0x46, 0x00, 0x00, 0x00, 0x06, 0x00, 0x00, 0x00, 0x0d, 0x00, 0x00,
  0x00, 0x64, 0x65, 0x70, 0x74, 0x68, 0x77, 0x69, 0x73, 0x65, 0x5f, 0x31, 0x39,
  0x31, 0x00, 0x00, 0x00, 0x04, 0x00, 0x00, 0x00, 0x01, 0x00, 0x00, 0x00, 0x46,
  0x00, 0x00, 0x00, 0x46, 0x00, 0x00, 0x00, 0x06, 0x00, 0x00, 0x00, 0xf0, 0xa3,
  0xff, 0xff, 0x3a, 0xed, 0xff, 0xff, 0x00, 0x00, 0x00, 0x02, 0x01, 0x00, 0x00,
  0x00, 0x24, 0x00, 0x00, 0x00, 0x18, 0x00, 0x00, 0x00, 0x04, 0x00, 0x00, 0x00,
  0x2c, 0xed, 0xff, 0xff, 0x01, 0x00, 0x00, 0x00, 0x01, 0x00, 0x00, 0x00, 0x01,
  0x00, 0x00, 0x00, 0x01, 0x00, 0x00, 0x00, 0x64, 0x00, 0x00, 0x00, 0x03, 0x00,
  0x00, 0x00, 0x63, 0x00, 0x00, 0x00, 0x23, 0x00, 0x00, 0x00, 0x2b, 0x00, 0x00,
  0x00, 0xa0, 0xa4, 0xff, 0xff, 0x3c, 0x00, 0x00, 0x00, 0x65, 0x00, 0x00, 0x00,
  0x20, 0x00, 0x00, 0x00, 0x44, 0x00, 0x00, 0x00, 0x04, 0x00, 0x00, 0x00, 0x04,
  0x00, 0x00, 0x00, 0xff, 0xff, 0xff, 0xff, 0x46, 0x00, 0x00, 0x00, 0x46, 0x00,
  0x00, 0x00, 0x06, 0x00, 0x00, 0x00, 0x0d, 0x00, 0x00, 0x00, 0x64, 0x65, 0x70,
  0x74, 0x68, 0x77, 0x69, 0x73, 0x65, 0x5f, 0x31, 0x38, 0x31, 0x00, 0x00, 0x00,
  0x04, 0x00, 0x00, 0x00, 0x01, 0x00, 0x00, 0x00, 0x46, 0x00, 0x00, 0x00, 0x46,
  0x00, 0x00, 0x00, 0x06, 0x00, 0x00, 0x00, 0x88, 0xa4, 0xff, 0xff, 0xd2, 0xed,
  0xff, 0xff, 0x00, 0x00, 0x00, 0x0b, 0x03, 0x00, 0x00, 0x00, 0x18, 0x00, 0x00,
  0x00, 0x0c, 0x00, 0x00, 0x00, 0x04, 0x00, 0x00, 0x00, 0xa4, 0xa4, 0xff, 0xff,
  0x01, 0x00, 0x00, 0x00, 0x63, 0x00, 0x00, 0x00, 0x02, 0x00, 0x00, 0x00, 0x5c,
  0x00, 0x00, 0x00, 0x62, 0x00, 0x00, 0x00, 0x28, 0xa5, 0xff, 0xff, 0x34, 0x00,
  0x00, 0x00, 0x64, 0x00, 0x00, 0x00, 0x20, 0x00, 0x00, 0x00, 0x3c, 0x00, 0x00,
  0x00, 0x04, 0x00, 0x00, 0x00, 0x04, 0x00, 0x00, 0x00, 0xff, 0xff, 0xff, 0xff,
  0x46, 0x00, 0x00, 0x00, 0x46, 0x00, 0x00, 0x00, 0x06, 0x00, 0x00, 0x00, 0x05,
  0x00, 0x00, 0x00, 0x41, 0x64, 0x64, 0x5f, 0x32, 0x00, 0x00, 0x00, 0x04, 0x00,
  0x00, 0x00, 0x01, 0x00, 0x00, 0x00, 0x46, 0x00, 0x00, 0x00, 0x46, 0x00, 0x00,
  0x00, 0x06, 0x00, 0x00, 0x00, 0x08, 0xa5, 0xff, 0xff, 0x52, 0xee, 0xff, 0xff,
  0x00, 0x00, 0x00, 0x01, 0x02, 0x00, 0x00, 0x00, 0x20, 0x00, 0x00, 0x00, 0x14,
  0x00, 0x00, 0x00, 0x04, 0x00, 0x00, 0x00, 0xb2, 0xef, 0xff, 0xff, 0x01, 0x00,
  0x00, 0x00, 0x01, 0x00, 0x00, 0x00, 0x01, 0x00, 0x00, 0x00, 0x62, 0x00, 0x00,
  0x00, 0x03, 0x00, 0x00, 0x00, 0x61, 0x00, 0x00, 0x00, 0x22, 0x00, 0x00, 0x00,
  0x41, 0x00, 0x00, 0x00, 0xb4, 0xa5, 0xff, 0xff, 0x58, 0x00, 0x00, 0x00, 0x63,
  0x00, 0x00, 0x00, 0x20, 0x00, 0x00, 0x00, 0x60, 0x00, 0x00, 0x00, 0x04, 0x00,
  0x00, 0x00, 0x04, 0x00, 0x00, 0x00, 0xff, 0xff, 0xff, 0xff, 0x46, 0x00, 0x00,
  0x00, 0x46, 0x00, 0x00, 0x00, 0x06, 0x00, 0x00, 0x00, 0x2b, 0x00, 0x00, 0x00,
  0x42, 0x69, 0x61, 0x73, 0x41, 0x64, 0x64, 0x5f, 0x38, 0x3b, 0x64, 0x65, 0x70,
  0x74, 0x68, 0x77, 0x69, 0x73, 0x65, 0x5f, 0x32, 0x33, 0x3b, 0x43, 0x6f, 0x6e,
  0x76, 0x32, 0x44, 0x5f, 0x38, 0x3b, 0x63, 0x6f, 0x6e, 0x76, 0x5f, 0x33, 0x5f,
  0x31, 0x5f, 0x62, 0x31, 0x00, 0x04, 0x00, 0x00, 0x00, 0x01, 0x00, 0x00, 0x00,
  0x46, 0x00, 0x00, 0x00, 0x46, 0x00, 0x00, 0x00, 0x06, 0x00, 0x00, 0x00, 0xb8,
  0xa5, 0xff, 0xff, 0x02, 0xef, 0xff, 0xff, 0x00, 0x00, 0x00, 0x02, 0x01, 0x00,
  0x00, 0x00, 0x24, 0x00, 0x00, 0x00, 0x18, 0x00, 0x00, 0x00, 0x04, 0x00, 0x00,
  0x00, 0xf4, 0xee, 0xff, 0xff, 0x01, 0x00, 0x00, 0x00, 0x01, 0x00, 0x00, 0x00,
  0x01, 0x00, 0x00, 0x00, 0x01, 0x00, 0x00, 0x00, 0x61, 0x00, 0x00, 0x00, 0x03,
  0x00, 0x00, 0x00, 0x60, 0x00, 0x00, 0x00, 0x21, 0x00, 0x00, 0x00, 0x20, 0x00,
  0x00, 0x00, 0x68, 0xa6, 0xff, 0xff, 0x3c, 0x00, 0x00, 0x00, 0x62, 0x00, 0x00,
  0x00, 0x20, 0x00, 0x00, 0x00, 0x44, 0x00, 0x00, 0x00, 0x04, 0x00, 0x00, 0x00,
  0x04, 0x00, 0x00, 0x00, 0xff, 0xff, 0xff, 0xff, 0x46, 0x00, 0x00, 0x00, 0x46,
  0x00, 0x00, 0x00, 0x08, 0x00, 0x00, 0x00, 0x0d, 0x00, 0x00, 0x00, 0x64, 0x65,
  0x70, 0x74, 0x68, 0x77, 0x69, 0x73, 0x65, 0x5f, 0x31, 0x37, 0x32, 0x00, 0x00,
  0x00, 0x04, 0x00, 0x00, 0x00, 0x01, 0x00, 0x00, 0x00, 0x46, 0x00, 0x00, 0x00,
  0x46, 0x00, 0x00, 0x00, 0x08, 0x00, 0x00, 0x00, 0x50, 0xa6, 0xff, 0xff, 0x9a,
  0xef, 0xff, 0xff, 0x00, 0x00, 0x00, 0x02, 0x01, 0x00, 0x00, 0x00, 0x24, 0x00,
  0x00, 0x00, 0x18, 0x00, 0x00, 0x00, 0x04, 0x00, 0x00, 0x00, 0x8c, 0xef, 0xff,
  0xff, 0x01, 0x00, 0x00, 0x00, 0x01, 0x00, 0x00, 0x00, 0x01, 0x00, 0x00, 0x00,
  0x01, 0x00, 0x00, 0x00, 0x60, 0x00, 0x00, 0x00, 0x03, 0x00, 0x00, 0x00, 0x5f,
  0x00, 0x00, 0x00, 0x1f, 0x00, 0x00, 0x00, 0x20, 0x00, 0x00, 0x00, 0x00, 0xa7,
  0xff, 0xff, 0x3c, 0x00, 0x00, 0x00, 0x61, 0x00, 0x00, 0x00, 0x20, 0x00, 0x00,
  0x00, 0x44, 0x00, 0x00, 0x00, 0x04, 0x00, 0x00, 0x00, 0x04, 0x00, 0x00, 0x00,
  0xff, 0xff, 0xff, 0xff, 0x46, 0x00, 0x00, 0x00, 0x46, 0x00, 0x00, 0x00, 0x08,
  0x00, 0x00, 0x00, 0x0d, 0x00, 0x00, 0x00, 0x64, 0x65, 0x70, 0x74, 0x68, 0x77,
  0x69, 0x73, 0x65, 0x5f, 0x31, 0x36, 0x31, 0x00, 0x00, 0x00, 0x04, 0x00, 0x00,
  0x00, 0x01, 0x00, 0x00, 0x00, 0x46, 0x00, 0x00, 0x00, 0x46, 0x00, 0x00, 0x00,
  0x08, 0x00, 0x00, 0x00, 0xe8, 0xa6, 0xff, 0xff, 0x32, 0xf0, 0xff, 0xff, 0x00,
  0x00, 0x00, 0x01, 0x02, 0x00, 0x00, 0x00, 0x24, 0x00, 0x00, 0x00, 0x18, 0x00,
  0x00, 0x00, 0x04, 0x00, 0x00, 0x00, 0x98, 0xf3, 0xff, 0xff, 0x01, 0x00, 0x00,
  0x00, 0x01, 0x00, 0x00, 0x00, 0x00, 0x00, 0x00, 0x01, 0x01, 0x00, 0x00, 0x00,
  0x5f, 0x00, 0x00, 0x00, 0x03, 0x00, 0x00, 0x00, 0x5e, 0x00, 0x00, 0x00, 0x1e,
  0x00, 0x00, 0x00, 0x03, 0x00, 0x00, 0x00, 0x98, 0xa7, 0xff, 0xff, 0x60, 0x00,
  0x00, 0x00, 0x60, 0x00, 0x00, 0x00, 0x20, 0x00, 0x00, 0x00, 0x68, 0x00, 0x00,
  0x00, 0x04, 0x00, 0x00, 0x00, 0x04, 0x00, 0x00, 0x00, 0xff, 0xff, 0xff, 0xff,
  0x46, 0x00, 0x00, 0x00, 0x46, 0x00, 0x00, 0x00, 0x08, 0x00, 0x00, 0x00, 0x31,
  0x00, 0x00, 0x00, 0x52, 0x65, 0x6c, 0x75, 0x5f, 0x32, 0x3b, 0x42, 0x69, 0x61,
  0x73, 0x41, 0x64, 0x64, 0x5f, 0x37, 0x3b, 0x64, 0x65, 0x70, 0x74, 0x68, 0x77,
  0x69, 0x73, 0x65, 0x5f, 0x31, 0x37, 0x3b, 0x43, 0x6f, 0x6e, 0x76, 0x32, 0x44,
  0x5f, 0x37, 0x3b, 0x63, 0x6f, 0x6e, 0x76, 0x5f, 0x33, 0x5f, 0x30, 0x5f, 0x62,
  0x00, 0x00, 0x00, 0x04, 0x00, 0x00, 0x00, 0x01, 0x00, 0x00, 0x00, 0x46, 0x00,
  0x00, 0x00, 0x46, 0x00, 0x00, 0x00, 0x08, 0x00, 0x00, 0x00, 0xa4, 0xa7, 0xff,
  0xff, 0xee, 0xf0, 0xff, 0xff, 0x00, 0x00, 0x00, 0x02, 0x01, 0x00, 0x00, 0x00,
  0x24, 0x00, 0x00, 0x00, 0x18, 0x00, 0x00, 0x00, 0x04, 0x00, 0x00, 0x00, 0xe0,
  0xf0, 0xff, 0xff, 0x01, 0x00, 0x00, 0x00, 0x01, 0x00, 0x00, 0x00, 0x01, 0x00,
  0x00, 0x00, 0x01, 0x00, 0x00, 0x00, 0x5e, 0x00, 0x00, 0x00, 0x03, 0x00, 0x00,
  0x00, 0x5d, 0x00, 0x00, 0x00, 0x1d, 0x00, 0x00, 0x00, 0x2b, 0x00, 0x00, 0x00,
  0x54, 0xa8, 0xff, 0xff, 0x3c, 0x00, 0x00, 0x00, 0x5f, 0x00, 0x00, 0x00, 0x20,
  0x00, 0x00, 0x00, 0x44, 0x00, 0x00, 0x00, 0x04, 0x00, 0x00, 0x00, 0x04, 0x00,
  0x00, 0x00, 0xff, 0xff, 0xff, 0xff, 0x46, 0x00, 0x00, 0x00, 0x46, 0x00, 0x00,
  0x00, 0x06, 0x00, 0x00, 0x00, 0x0d, 0x00, 0x00, 0x00, 0x64, 0x65, 0x70, 0x74,
  0x68, 0x77, 0x69, 0x73, 0x65, 0x5f, 0x31, 0x35, 0x31, 0x00, 0x00, 0x00, 0x04,
  0x00, 0x00, 0x00, 0x01, 0x00, 0x00, 0x00, 0x46, 0x00, 0x00, 0x00, 0x46, 0x00,
  0x00, 0x00, 0x06, 0x00, 0x00, 0x00, 0x3c, 0xa8, 0xff, 0xff, 0x86, 0xf1, 0xff,
  0xff, 0x00, 0x00, 0x00, 0x02, 0x01, 0x00, 0x00, 0x00, 0x24, 0x00, 0x00, 0x00,
  0x18, 0x00, 0x00, 0x00, 0x04, 0x00, 0x00, 0x00, 0x78, 0xf1, 0xff, 0xff, 0x01,
  0x00, 0x00, 0x00, 0x01, 0x00, 0x00, 0x00, 0x01, 0x00, 0x00, 0x00, 0x01, 0x00,
  0x00, 0x00, 0x5d, 0x00, 0x00, 0x00, 0x03, 0x00, 0x00, 0x00, 0x5c, 0x00, 0x00,
  0x00, 0x1c, 0x00, 0x00, 0x00, 0x2b, 0x00, 0x00, 0x00, 0xec, 0xa8, 0xff, 0xff,
  0x3c, 0x00, 0x00, 0x00, 0x5e, 0x00, 0x00, 0x00, 0x20, 0x00, 0x00, 0x00, 0x44,
  0x00, 0x00, 0x00, 0x04, 0x00, 0x00, 0x00, 0x04, 0x00, 0x00, 0x00, 0xff, 0xff,
  0xff, 0xff, 0x46, 0x00, 0x00, 0x00, 0x46, 0x00, 0x00, 0x00, 0x06, 0x00, 0x00,
  0x00, 0x0d, 0x00, 0x00, 0x00, 0x64, 0x65, 0x70, 0x74, 0x68, 0x77, 0x69, 0x73,
  0x65, 0x5f, 0x31, 0x34, 0x31, 0x00, 0x00, 0x00, 0x04, 0x00, 0x00, 0x00, 0x01,
  0x00, 0x00, 0x00, 0x46, 0x00, 0x00, 0x00, 0x46, 0x00, 0x00, 0x00, 0x06, 0x00,
  0x00, 0x00, 0xd4, 0xa8, 0xff, 0xff, 0x1e, 0xf2, 0xff, 0xff, 0x00, 0x00, 0x00,
  0x0b, 0x03, 0x00, 0x00, 0x00, 0x18, 0x00, 0x00, 0x00, 0x0c, 0x00, 0x00, 0x00,
  0x04, 0x00, 0x00, 0x00, 0xf0, 0xa8, 0xff, 0xff, 0x01, 0x00, 0x00, 0x00, 0x5c,
  0x00, 0x00, 0x00, 0x02, 0x00, 0x00, 0x00, 0x5b, 0x00, 0x00, 0x00, 0x58, 0x00,
  0x00, 0x00, 0x74, 0xa9, 0xff, 0xff, 0x34, 0x00, 0x00, 0x00, 0x5d, 0x00, 0x00,
  0x00, 0x20, 0x00, 0x00, 0x00, 0x3c, 0x00, 0x00, 0x00, 0x04, 0x00, 0x00, 0x00,
  0x04, 0x00, 0x00, 0x00, 0xff, 0xff, 0xff, 0xff, 0x46, 0x00, 0x00, 0x00, 0x46,
  0x00, 0x00, 0x00, 0x06, 0x00, 0x00, 0x00, 0x05, 0x00, 0x00, 0x00, 0x41, 0x64,
  0x64, 0x5f, 0x31, 0x00, 0x00, 0x00, 0x04, 0x00, 0x00, 0x00, 0x01, 0x00, 0x00,
  0x00, 0x46, 0x00, 0x00, 0x00, 0x46, 0x00, 0x00, 0x00, 0x06, 0x00, 0x00, 0x00,
  0x54, 0xa9, 0xff, 0xff, 0x9e, 0xf2, 0xff, 0xff, 0x00, 0x00, 0x00, 0x01, 0x02,
  0x00, 0x00, 0x00, 0x20, 0x00, 0x00, 0x00, 0x14, 0x00, 0x00, 0x00, 0x04, 0x00,
  0x00, 0x00, 0xfe, 0xf3, 0xff, 0xff, 0x01, 0x00, 0x00, 0x00, 0x01, 0x00, 0x00,
  0x00, 0x01, 0x00, 0x00, 0x00, 0x5b, 0x00, 0x00, 0x00, 0x03, 0x00, 0x00, 0x00,
  0x5a, 0x00, 0x00, 0x00, 0x1b, 0x00, 0x00, 0x00, 0x40, 0x00, 0x00, 0x00, 0x00,
  0xaa, 0xff, 0xff, 0x58, 0x00, 0x00, 0x00, 0x5c, 0x00, 0x00, 0x00, 0x20, 0x00,
  0x00, 0x00, 0x60, 0x00, 0x00, 0x00, 0x04, 0x00, 0x00, 0x00, 0x04, 0x00, 0x00,
  0x00, 0xff, 0xff, 0xff, 0xff, 0x46, 0x00, 0x00, 0x00, 0x46, 0x00, 0x00, 0x00,
  0x06, 0x00, 0x00, 0x00, 0x2b, 0x00, 0x00, 0x00, 0x42, 0x69, 0x61, 0x73, 0x41,
  0x64, 0x64, 0x5f, 0x36, 0x3b, 0x64, 0x65, 0x70, 0x74, 0x68, 0x77, 0x69, 0x73,
  0x65, 0x5f, 0x32, 0x33, 0x3b, 0x43, 0x6f, 0x6e, 0x76, 0x32, 0x44, 0x5f, 0x36,
  0x3b, 0x63, 0x6f, 0x6e, 0x76, 0x5f, 0x32, 0x5f, 0x31, 0x5f, 0x62, 0x31, 0x00,
  0x04, 0x00, 0x00, 0x00, 0x01, 0x00, 0x00, 0x00, 0x46, 0x00, 0x00, 0x00, 0x46,
  0x00, 0x00, 0x00, 0x06, 0x00, 0x00, 0x00, 0x04, 0xaa, 0xff, 0xff, 0x4e, 0xf3,
  0xff, 0xff, 0x00, 0x00, 0x00, 0x02, 0x01, 0x00, 0x00, 0x00, 0x24, 0x00, 0x00,
  0x00, 0x18, 0x00, 0x00, 0x00, 0x04, 0x00, 0x00, 0x00, 0x40, 0xf3, 0xff, 0xff,
  0x01, 0x00, 0x00, 0x00, 0x01, 0x00, 0x00, 0x00, 0x01, 0x00, 0x00, 0x00, 0x01,
  0x00, 0x00, 0x00, 0x5a, 0x00, 0x00, 0x00, 0x03, 0x00, 0x00, 0x00, 0x59, 0x00,
  0x00, 0x00, 0x1a, 0x00, 0x00, 0x00, 0x36, 0x00, 0x00, 0x00, 0xb4, 0xaa, 0xff,
  0xff, 0x3c, 0x00, 0x00, 0x00, 0x5b, 0x00, 0x00, 0x00, 0x20, 0x00, 0x00, 0x00,
  0x44, 0x00, 0x00, 0x00, 0x04, 0x00, 0x00, 0x00, 0x04, 0x00, 0x00, 0x00, 0xff,
  0xff, 0xff, 0xff, 0x46, 0x00, 0x00, 0x00, 0x46, 0x00, 0x00, 0x00, 0x09, 0x00,
  0x00, 0x00, 0x0d, 0x00, 0x00, 0x00, 0x64, 0x65, 0x70, 0x74, 0x68, 0x77, 0x69,
  0x73, 0x65, 0x5f, 0x31, 0x33, 0x31, 0x00, 0x00, 0x00, 0x04, 0x00, 0x00, 0x00,
  0x01, 0x00, 0x00, 0x00, 0x46, 0x00, 0x00, 0x00, 0x46, 0x00, 0x00, 0x00, 0x09,
  0x00, 0x00, 0x00, 0x9c, 0xaa, 0xff, 0xff, 0xe6, 0xf3, 0xff, 0xff, 0x00, 0x00,
  0x00, 0x02, 0x01, 0x00, 0x00, 0x00, 0x24, 0x00, 0x00, 0x00, 0x18, 0x00, 0x00,
  0x00, 0x04, 0x00, 0x00, 0x00, 0xd8, 0xf3, 0xff, 0xff, 0x01, 0x00, 0x00, 0x00,
  0x01, 0x00, 0x00, 0x00, 0x01, 0x00, 0x00, 0x00, 0x01, 0x00, 0x00, 0x00, 0x59,
  0x00, 0x00, 0x00, 0x03, 0x00, 0x00, 0x00, 0x52, 0x00, 0x00, 0x00, 0x19, 0x00,
  0x00, 0x00, 0x36, 0x00, 0x00, 0x00, 0x4c, 0xab, 0xff, 0xff, 0x3c, 0x00, 0x00,
  0x00, 0x5a, 0x00, 0x00, 0x00, 0x20, 0x00, 0x00, 0x00, 0x44, 0x00, 0x00, 0x00,
  0x04, 0x00, 0x00, 0x00, 0x04, 0x00, 0x00, 0x00, 0xff, 0xff, 0xff, 0xff, 0x46,
  0x00, 0x00, 0x00, 0x46, 0x00, 0x00, 0x00, 0x09, 0x00, 0x00, 0x00, 0x0d, 0x00,
  0x00, 0x00, 0x64, 0x65, 0x70, 0x74, 0x68, 0x77, 0x69, 0x73, 0x65, 0x5f, 0x31,
  0x32, 0x31, 0x00, 0x00, 0x00, 0x04, 0x00, 0x00, 0x00, 0x01, 0x00, 0x00, 0x00,
  0x46, 0x00, 0x00, 0x00, 0x46, 0x00, 0x00, 0x00, 0x09, 0x00, 0x00, 0x00, 0x34,
  0xab, 0xff, 0xff, 0x7e, 0xf4, 0xff, 0xff, 0x00, 0x00, 0x00, 0x01, 0x02, 0x00,
  0x00, 0x00, 0x20, 0x00, 0x00, 0x00, 0x14, 0x00, 0x00, 0x00, 0x04, 0x00, 0x00,
  0x00, 0xde, 0xf5, 0xff, 0xff, 0x01, 0x00, 0x00, 0x00, 0x01, 0x00, 0x00, 0x00,
  0x01, 0x00, 0x00, 0x00, 0x58, 0x00, 0x00, 0x00, 0x03, 0x00, 0x00, 0x00, 0x57,
  0x00, 0x00, 0x00, 0x18, 0x00, 0x00, 0x00, 0x40, 0x00, 0x00, 0x00, 0xe0, 0xab,
  0xff, 0xff, 0x58, 0x00, 0x00, 0x00, 0x59, 0x00, 0x00, 0x00, 0x20, 0x00, 0x00,
  0x00, 0x60, 0x00, 0x00, 0x00, 0x04, 0x00, 0x00, 0x00, 0x04, 0x00, 0x00, 0x00,
  0xff, 0xff, 0xff, 0xff, 0x46, 0x00, 0x00, 0x00, 0x46, 0x00, 0x00, 0x00, 0x06,
  0x00, 0x00, 0x00, 0x2a, 0x00, 0x00, 0x00, 0x42, 0x69, 0x61, 0x73, 0x41, 0x64,
  0x64, 0x5f, 0x35, 0x3b, 0x64, 0x65, 0x70, 0x74, 0x68, 0x77, 0x69, 0x73, 0x65,
  0x5f, 0x32, 0x33, 0x3b, 0x43, 0x6f, 0x6e, 0x76, 0x32, 0x44, 0x5f, 0x35, 0x3b,
  0x63, 0x6f, 0x6e, 0x76, 0x5f, 0x32, 0x5f, 0x31, 0x5f, 0x62, 0x00, 0x00, 0x04,
  0x00, 0x00, 0x00, 0x01, 0x00, 0x00, 0x00, 0x46, 0x00, 0x00, 0x00, 0x46, 0x00,
  0x00, 0x00, 0x06, 0x00, 0x00, 0x00, 0xe4, 0xab, 0xff, 0xff, 0x2e, 0xf5, 0xff,
  0xff, 0x00, 0x00, 0x00, 0x02, 0x01, 0x00, 0x00, 0x00, 0x24, 0x00, 0x00, 0x00,
  0x18, 0x00, 0x00, 0x00, 0x04, 0x00, 0x00, 0x00, 0x20, 0xf5, 0xff, 0xff, 0x01,
  0x00, 0x00, 0x00, 0x01, 0x00, 0x00, 0x00, 0x01, 0x00, 0x00, 0x00, 0x01, 0x00,
  0x00, 0x00, 0x57, 0x00, 0x00, 0x00, 0x03, 0x00, 0x00, 0x00, 0x56, 0x00, 0x00,
  0x00, 0x17, 0x00, 0x00, 0x00, 0x20, 0x00, 0x00, 0x00, 0x94, 0xac, 0xff, 0xff,
  0x3c, 0x00, 0x00, 0x00, 0x58, 0x00, 0x00, 0x00, 0x20, 0x00, 0x00, 0x00, 0x44,
  0x00, 0x00, 0x00, 0x04, 0x00, 0x00, 0x00, 0x04, 0x00, 0x00, 0x00, 0xff, 0xff,
  0xff, 0xff, 0x46, 0x00, 0x00, 0x00, 0x46, 0x00, 0x00, 0x00, 0x08, 0x00, 0x00,
  0x00, 0x0d, 0x00, 0x00, 0x00, 0x64, 0x65, 0x70, 0x74, 0x68, 0x77, 0x69, 0x73,
  0x65, 0x5f, 0x31, 0x31, 0x31, 0x00, 0x00, 0x00, 0x04, 0x00, 0x00, 0x00, 0x01,
  0x00, 0x00, 0x00, 0x46, 0x00, 0x00, 0x00, 0x46, 0x00, 0x00, 0x00, 0x08, 0x00,
  0x00, 0x00, 0x7c, 0xac, 0xff, 0xff, 0xc6, 0xf5, 0xff, 0xff, 0x00, 0x00, 0x00,
  0x02, 0x01, 0x00, 0x00, 0x00, 0x24, 0x00, 0x00, 0x00, 0x18, 0x00, 0x00, 0x00,
  0x04, 0x00, 0x00, 0x00, 0xb8, 0xf5, 0xff, 0xff, 0x01, 0x00, 0x00, 0x00, 0x01,
  0x00, 0x00, 0x00, 0x01, 0x00, 0x00, 0x00, 0x01, 0x00, 0x00, 0x00, 0x56, 0x00,
  0x00, 0x00, 0x03, 0x00, 0x00, 0x00, 0x55, 0x00, 0x00, 0x00, 0x16, 0x00, 0x00,
  0x00, 0x20, 0x00, 0x00, 0x00, 0x2c, 0xad, 0xff, 0xff, 0x3c, 0x00, 0x00, 0x00,
  0x57, 0x00, 0x00, 0x00, 0x20, 0x00, 0x00, 0x00, 0x44, 0x00, 0x00, 0x00, 0x04,
  0x00, 0x00, 0x00, 0x04, 0x00, 0x00, 0x00, 0xff, 0xff, 0xff, 0xff, 0x46, 0x00,
  0x00, 0x00, 0x46, 0x00, 0x00, 0x00, 0x08, 0x00, 0x00, 0x00, 0x0d, 0x00, 0x00,
  0x00, 0x64, 0x65, 0x70, 0x74, 0x68, 0x77, 0x69, 0x73, 0x65, 0x5f, 0x31, 0x30,
  0x31, 0x00, 0x00, 0x00, 0x04, 0x00, 0x00, 0x00, 0x01, 0x00, 0x00, 0x00, 0x46,
  0x00, 0x00, 0x00, 0x46, 0x00, 0x00, 0x00, 0x08, 0x00, 0x00, 0x00, 0x14, 0xad,
  0xff, 0xff, 0x5e, 0xf6, 0xff, 0xff, 0x00, 0x00, 0x00, 0x01, 0x02, 0x00, 0x00,
  0x00, 0x24, 0x00, 0x00, 0x00, 0x18, 0x00, 0x00, 0x00, 0x04, 0x00, 0x00, 0x00,
  0xc4, 0xf9, 0xff, 0xff, 0x01, 0x00, 0x00, 0x00, 0x01, 0x00, 0x00, 0x00, 0x00,
  0x00, 0x00, 0x01, 0x01, 0x00, 0x00, 0x00, 0x55, 0x00, 0x00, 0x00, 0x03, 0x00,
  0x00, 0x00, 0x54, 0x00, 0x00, 0x00, 0x15, 0x00, 0x00, 0x00, 0x04, 0x00, 0x00,
  0x00, 0xc4, 0xad, 0xff, 0xff, 0x60, 0x00, 0x00, 0x00, 0x56, 0x00, 0x00, 0x00,
  0x20, 0x00, 0x00, 0x00, 0x68, 0x00, 0x00, 0x00, 0x04, 0x00, 0x00, 0x00, 0x04,
  0x00, 0x00, 0x00, 0xff, 0xff, 0xff, 0xff, 0x46, 0x00, 0x00, 0x00, 0x46, 0x00,
  0x00, 0x00, 0x08, 0x00, 0x00, 0x00, 0x31, 0x00, 0x00, 0x00, 0x52, 0x65, 0x6c,
  0x75, 0x5f, 0x31, 0x3b, 0x42, 0x69, 0x61, 0x73, 0x41, 0x64, 0x64, 0x5f, 0x34,
  0x3b, 0x64, 0x65, 0x70, 0x74, 0x68, 0x77, 0x69, 0x73, 0x65, 0x5f, 0x31, 0x37,
  0x3b, 0x43, 0x6f, 0x6e, 0x76, 0x32, 0x44, 0x5f, 0x34, 0x3b, 0x63, 0x6f, 0x6e,
  0x76, 0x5f, 0x32, 0x5f, 0x30, 0x5f, 0x62, 0x00, 0x00, 0x00, 0x04, 0x00, 0x00,
  0x00, 0x01, 0x00, 0x00, 0x00, 0x46, 0x00, 0x00, 0x00, 0x46, 0x00, 0x00, 0x00,
  0x08, 0x00, 0x00, 0x00, 0xd0, 0xad, 0xff, 0xff, 0x1a, 0xf7, 0xff, 0xff, 0x00,
  0x00, 0x00, 0x02, 0x01, 0x00, 0x00, 0x00, 0x24, 0x00, 0x00, 0x00, 0x18, 0x00,
  0x00, 0x00, 0x04, 0x00, 0x00, 0x00, 0x0c, 0xf7, 0xff, 0xff, 0x01, 0x00, 0x00,
  0x00, 0x01, 0x00, 0x00, 0x00, 0x01, 0x00, 0x00, 0x00, 0x01, 0x00, 0x00, 0x00,
  0x54, 0x00, 0x00, 0x00, 0x03, 0x00, 0x00, 0x00, 0x53, 0x00, 0x00, 0x00, 0x14,
  0x00, 0x00, 0x00, 0x36, 0x00, 0x00, 0x00, 0x80, 0xae, 0xff, 0xff, 0x3c, 0x00,
  0x00, 0x00, 0x55, 0x00, 0x00, 0x00, 0x20, 0x00, 0x00, 0x00, 0x44, 0x00, 0x00,
  0x00, 0x04, 0x00, 0x00, 0x00, 0x04, 0x00, 0x00, 0x00, 0xff, 0xff, 0xff, 0xff,
  0x46, 0x00, 0x00, 0x00, 0x46, 0x00, 0x00, 0x00, 0x09, 0x00, 0x00, 0x00, 0x0c,
  0x00, 0x00, 0x00, 0x64, 0x65, 0x70, 0x74, 0x68, 0x77, 0x69, 0x73, 0x65, 0x5f,
  0x39, 0x31, 0x00, 0x00, 0x00, 0x00, 0x04, 0x00, 0x00, 0x00, 0x01, 0x00, 0x00,
  0x00, 0x46, 0x00, 0x00, 0x00, 0x46, 0x00, 0x00, 0x00, 0x09, 0x00, 0x00, 0x00,
  0x68, 0xae, 0xff, 0xff, 0xb2, 0xf7, 0xff, 0xff, 0x00, 0x00, 0x00, 0x02, 0x01,
  0x00, 0x00, 0x00, 0x24, 0x00, 0x00, 0x00, 0x18, 0x00, 0x00, 0x00, 0x04, 0x00,
  0x00, 0x00, 0xa4, 0xf7, 0xff, 0xff, 0x01, 0x00, 0x00, 0x00, 0x01, 0x00, 0x00,
  0x00, 0x01, 0x00, 0x00, 0x00, 0x01, 0x00, 0x00, 0x00, 0x53, 0x00, 0x00, 0x00,
  0x03, 0x00, 0x00, 0x00, 0x52, 0x00, 0x00, 0x00, 0x13, 0x00, 0x00, 0x00, 0x36,
  0x00, 0x00, 0x00, 0x18, 0xaf, 0xff, 0xff, 0x3c, 0x00, 0x00, 0x00, 0x54, 0x00,
  0x00, 0x00, 0x20, 0x00, 0x00, 0x00, 0x44, 0x00, 0x00, 0x00, 0x04, 0x00, 0x00,
  0x00, 0x04, 0x00, 0x00, 0x00, 0xff, 0xff, 0xff, 0xff, 0x46, 0x00, 0x00, 0x00,
  0x46, 0x00, 0x00, 0x00, 0x09, 0x00, 0x00, 0x00, 0x0c, 0x00, 0x00, 0x00, 0x64,
  0x65, 0x70, 0x74, 0x68, 0x77, 0x69, 0x73, 0x65, 0x5f, 0x38, 0x31, 0x00, 0x00,
  0x00, 0x00, 0x04, 0x00, 0x00, 0x00, 0x01, 0x00, 0x00, 0x00, 0x46, 0x00, 0x00,
  0x00, 0x46, 0x00, 0x00, 0x00, 0x09, 0x00, 0x00, 0x00, 0x00, 0xaf, 0xff, 0xff,
  0x4a, 0xf8, 0xff, 0xff, 0x00, 0x00, 0x00, 0x0b, 0x03, 0x00, 0x00, 0x00, 0x18,
  0x00, 0x00, 0x00, 0x0c, 0x00, 0x00, 0x00, 0x04, 0x00, 0x00, 0x00, 0x1c, 0xaf,
  0xff, 0xff, 0x01, 0x00, 0x00, 0x00, 0x52, 0x00, 0x00, 0x00, 0x02, 0x00, 0x00,
  0x00, 0x51, 0x00, 0x00, 0x00, 0x4e, 0x00, 0x00, 0x00, 0x00, 0x00, 0x0a, 0x00,
  0x08, 0x00, 0x00, 0x00, 0x00, 0x00, 0x04, 0x00, 0x0a, 0x00, 0x00, 0x00, 0x01,
  0x00, 0x00, 0x00, 0xb4, 0xaf, 0xff, 0xff, 0x30, 0x00, 0x00, 0x00, 0x53, 0x00,
  0x00, 0x00, 0x20, 0x00, 0x00, 0x00, 0x38, 0x00, 0x00, 0x00, 0x04, 0x00, 0x00,
  0x00, 0x04, 0x00, 0x00, 0x00, 0xff, 0xff, 0xff, 0xff, 0x46, 0x00, 0x00, 0x00,
  0x46, 0x00, 0x00, 0x00, 0x09, 0x00, 0x00, 0x00, 0x03, 0x00, 0x00, 0x00, 0x41,
  0x64, 0x64, 0x00, 0x04, 0x00, 0x00, 0x00, 0x01, 0x00, 0x00, 0x00, 0x46, 0x00,
  0x00, 0x00, 0x46, 0x00, 0x00, 0x00, 0x09, 0x00, 0x00, 0x00, 0x90, 0xaf, 0xff,
  0xff, 0xda, 0xf8, 0xff, 0xff, 0x00, 0x00, 0x00, 0x01, 0x02, 0x00, 0x00, 0x00,
  0x20, 0x00, 0x00, 0x00, 0x14, 0x00, 0x00, 0x00, 0x04, 0x00, 0x00, 0x00, 0x3a,
  0xfa, 0xff, 0xff, 0x01, 0x00, 0x00, 0x00, 0x01, 0x00, 0x00, 0x00, 0x01, 0x00,
  0x00, 0x00, 0x51, 0x00, 0x00, 0x00, 0x03, 0x00, 0x00, 0x00, 0x50, 0x00, 0x00,
  0x00, 0x12, 0x00, 0x00, 0x00, 0x3f, 0x00, 0x00, 0x00, 0x3c, 0xb0, 0xff, 0xff,
  0x58, 0x00, 0x00, 0x00, 0x52, 0x00, 0x00, 0x00, 0x20, 0x00, 0x00, 0x00, 0x60,
  0x00, 0x00, 0x00, 0x04, 0x00, 0x00, 0x00, 0x04, 0x00, 0x00, 0x00, 0xff, 0xff,
  0xff, 0xff, 0x46, 0x00, 0x00, 0x00, 0x46, 0x00, 0x00, 0x00, 0x09, 0x00, 0x00,
  0x00, 0x2b, 0x00, 0x00, 0x00, 0x42, 0x69, 0x61, 0x73, 0x41, 0x64, 0x64, 0x5f,
  0x33, 0x3b, 0x64, 0x65, 0x70, 0x74, 0x68, 0x77, 0x69, 0x73, 0x65, 0x5f, 0x32,
  0x39, 0x3b, 0x43, 0x6f, 0x6e, 0x76, 0x32, 0x44, 0x5f, 0x33, 0x3b, 0x63, 0x6f,
  0x6e, 0x76, 0x5f, 0x31, 0x5f, 0x31, 0x5f, 0x62, 0x31, 0x00, 0x04, 0x00, 0x00,
  0x00, 0x01, 0x00, 0x00, 0x00, 0x46, 0x00, 0x00, 0x00, 0x46, 0x00, 0x00, 0x00,
  0x09, 0x00, 0x00, 0x00, 0x40, 0xb0, 0xff, 0xff, 0x8a, 0xf9, 0xff, 0xff, 0x00,
  0x00, 0x00, 0x02, 0x01, 0x00, 0x00, 0x00, 0x24, 0x00, 0x00, 0x00, 0x18, 0x00,
  0x00, 0x00, 0x04, 0x00, 0x00, 0x00, 0x7c, 0xf9, 0xff, 0xff, 0x01, 0x00, 0x00,
  0x00, 0x01, 0x00, 0x00, 0x00, 0x01, 0x00, 0x00, 0x00, 0x01, 0x00, 0x00, 0x00,
  0x50, 0x00, 0x00, 0x00, 0x03, 0x00, 0x00, 0x00, 0x4f, 0x00, 0x00, 0x00, 0x11,
  0x00, 0x00, 0x00, 0x3a, 0x00, 0x00, 0x00, 0xf0, 0xb0, 0xff, 0xff, 0x3c, 0x00,
  0x00, 0x00, 0x51, 0x00, 0x00, 0x00, 0x20, 0x00, 0x00, 0x00, 0x44, 0x00, 0x00,
  0x00, 0x04, 0x00, 0x00, 0x00, 0x04, 0x00, 0x00, 0x00, 0xff, 0xff, 0xff, 0xff,
  0x46, 0x00, 0x00, 0x00, 0x46, 0x00, 0x00, 0x00, 0x0e, 0x00, 0x00, 0x00, 0x0c,
  0x00, 0x00, 0x00, 0x64, 0x65, 0x70, 0x74, 0x68, 0x77, 0x69, 0x73, 0x65, 0x5f,
  0x37, 0x31, 0x00, 0x00, 0x00, 0x00, 0x04, 0x00, 0x00, 0x00, 0x01, 0x00, 0x00,
  0x00, 0x46, 0x00, 0x00, 0x00, 0x46, 0x00, 0x00, 0x00, 0x0e, 0x00, 0x00, 0x00,
  0xd8, 0xb0, 0xff, 0xff, 0x22, 0xfa, 0xff, 0xff, 0x00, 0x00, 0x00, 0x02, 0x01,
  0x00, 0x00, 0x00, 0x24, 0x00, 0x00, 0x00, 0x18, 0x00, 0x00, 0x00, 0x04, 0x00,
  0x00, 0x00, 0x14, 0xfa, 0xff, 0xff, 0x01, 0x00, 0x00, 0x00, 0x01, 0x00, 0x00,
  0x00, 0x01, 0x00, 0x00, 0x00, 0x01, 0x00, 0x00, 0x00, 0x4f, 0x00, 0x00, 0x00,
  0x03, 0x00, 0x00, 0x00, 0x48, 0x00, 0x00, 0x00, 0x10, 0x00, 0x00, 0x00, 0x3a,
  0x00, 0x00, 0x00, 0x88, 0xb1, 0xff, 0xff, 0x3c, 0x00, 0x00, 0x00, 0x50, 0x00,
  0x00, 0x00, 0x20, 0x00, 0x00, 0x00, 0x44, 0x00, 0x00, 0x00, 0x04, 0x00, 0x00,
  0x00, 0x04, 0x00, 0x00, 0x00, 0xff, 0xff, 0xff, 0xff, 0x46, 0x00, 0x00, 0x00,
  0x46, 0x00, 0x00, 0x00, 0x0e, 0x00, 0x00, 0x00, 0x0c, 0x00, 0x00, 0x00, 0x64,
  0x65, 0x70, 0x74, 0x68, 0x77, 0x69, 0x73, 0x65, 0x5f, 0x36, 0x31, 0x00, 0x00,
  0x00, 0x00, 0x04, 0x00, 0x00, 0x00, 0x01, 0x00, 0x00, 0x00, 0x46, 0x00, 0x00,
  0x00, 0x46, 0x00, 0x00, 0x00, 0x0e, 0x00, 0x00, 0x00, 0x70, 0xb1, 0xff, 0xff,
  0xba, 0xfa, 0xff, 0xff, 0x00, 0x00, 0x00, 0x01, 0x02, 0x00, 0x00, 0x00, 0x20,
  0x00, 0x00, 0x00, 0x14, 0x00, 0x00, 0x00, 0x04, 0x00, 0x00, 0x00, 0x1a, 0xfc,
  0xff, 0xff, 0x01, 0x00, 0x00, 0x00, 0x01, 0x00, 0x00, 0x00, 0x01, 0x00, 0x00,
  0x00, 0x4e, 0x00, 0x00, 0x00, 0x03, 0x00, 0x00, 0x00, 0x4d, 0x00, 0x00, 0x00,
  0x0f, 0x00, 0x00, 0x00, 0x3f, 0x00, 0x00, 0x00, 0x1c, 0xb2, 0xff, 0xff, 0x58,
  0x00, 0x00, 0x00, 0x4f, 0x00, 0x00, 0x00, 0x20, 0x00, 0x00, 0x00, 0x60, 0x00,
  0x00, 0x00, 0x04, 0x00, 0x00, 0x00, 0x04, 0x00, 0x00, 0x00, 0xff, 0xff, 0xff,
  0xff, 0x46, 0x00, 0x00, 0x00, 0x46, 0x00, 0x00, 0x00, 0x09, 0x00, 0x00, 0x00,
  0x2a, 0x00, 0x00, 0x00, 0x42, 0x69, 0x61, 0x73, 0x41, 0x64, 0x64, 0x5f, 0x32,
  0x3b, 0x64, 0x65, 0x70, 0x74, 0x68, 0x77, 0x69, 0x73, 0x65, 0x5f, 0x32, 0x39,
  0x3b, 0x43, 0x6f, 0x6e, 0x76, 0x32, 0x44, 0x5f, 0x32, 0x3b, 0x63, 0x6f, 0x6e,
  0x76, 0x5f, 0x31, 0x5f, 0x31, 0x5f, 0x62, 0x00, 0x00, 0x04, 0x00, 0x00, 0x00,
  0x01, 0x00, 0x00, 0x00, 0x46, 0x00, 0x00, 0x00, 0x46, 0x00, 0x00, 0x00, 0x09,
  0x00, 0x00, 0x00, 0x20, 0xb2, 0xff, 0xff, 0x6a, 0xfb, 0xff, 0xff, 0x00, 0x00,
  0x00, 0x02, 0x01, 0x00, 0x00, 0x00, 0x24, 0x00, 0x00, 0x00, 0x18, 0x00, 0x00,
  0x00, 0x04, 0x00, 0x00, 0x00, 0x5c, 0xfb, 0xff, 0xff, 0x01, 0x00, 0x00, 0x00,
  0x01, 0x00, 0x00, 0x00, 0x01, 0x00, 0x00, 0x00, 0x01, 0x00, 0x00, 0x00, 0x4d,
  0x00, 0x00, 0x00, 0x03, 0x00, 0x00, 0x00, 0x4c, 0x00, 0x00, 0x00, 0x0e, 0x00,
  0x00, 0x00, 0x27, 0x00, 0x00, 0x00, 0xd0, 0xb2, 0xff, 0xff, 0x3c, 0x00, 0x00,
  0x00, 0x4e, 0x00, 0x00, 0x00, 0x20, 0x00, 0x00, 0x00, 0x44, 0x00, 0x00, 0x00,
  0x04, 0x00, 0x00, 0x00, 0x04, 0x00, 0x00, 0x00, 0xff, 0xff, 0xff, 0xff, 0x46,
  0x00, 0x00, 0x00, 0x46, 0x00, 0x00, 0x00, 0x0c, 0x00, 0x00, 0x00, 0x0c, 0x00,
  0x00, 0x00, 0x64, 0x65, 0x70, 0x74, 0x68, 0x77, 0x69, 0x73, 0x65, 0x5f, 0x35,
  0x31, 0x00, 0x00, 0x00, 0x00, 0x04, 0x00, 0x00, 0x00, 0x01, 0x00, 0x00, 0x00,
  0x46, 0x00, 0x00, 0x00, 0x46, 0x00, 0x00, 0x00, 0x0c, 0x00, 0x00, 0x00, 0xb8,
  0xb2, 0xff, 0xff, 0x02, 0xfc, 0xff, 0xff, 0x00, 0x00, 0x00, 0x02, 0x01, 0x00,
  0x00, 0x00, 0x24, 0x00, 0x00, 0x00, 0x18, 0x00, 0x00, 0x00, 0x04, 0x00, 0x00,
  0x00, 0xf4, 0xfb, 0xff, 0xff, 0x01, 0x00, 0x00, 0x00, 0x01, 0x00, 0x00, 0x00,
  0x01, 0x00, 0x00, 0x00, 0x01, 0x00, 0x00, 0x00, 0x4c, 0x00, 0x00, 0x00, 0x03,
  0x00, 0x00, 0x00, 0x4b, 0x00, 0x00, 0x00, 0x0d, 0x00, 0x00, 0x00, 0x27, 0x00,
  0x00, 0x00, 0x68, 0xb3, 0xff, 0xff, 0x3c, 0x00, 0x00, 0x00, 0x4d, 0x00, 0x00,
  0x00, 0x20, 0x00, 0x00, 0x00, 0x44, 0x00, 0x00, 0x00, 0x04, 0x00, 0x00, 0x00,
  0x04, 0x00, 0x00, 0x00, 0xff, 0xff, 0xff, 0xff, 0x46, 0x00, 0x00, 0x00, 0x46,
  0x00, 0x00, 0x00, 0x0c, 0x00, 0x00, 0x00, 0x0c, 0x00, 0x00, 0x00, 0x64, 0x65,
  0x70, 0x74, 0x68, 0x77, 0x69, 0x73, 0x65, 0x5f, 0x34, 0x31, 0x00, 0x00, 0x00,
  0x00, 0x04, 0x00, 0x00, 0x00, 0x01, 0x00, 0x00, 0x00, 0x46, 0x00, 0x00, 0x00,
  0x46, 0x00, 0x00, 0x00, 0x0c, 0x00, 0x00, 0x00, 0x50, 0xb3, 0xff, 0xff, 0x9a,
  0xfc, 0xff, 0xff, 0x00, 0x00, 0x00, 0x01, 0x02, 0x00, 0x00, 0x00, 0x30, 0x00,
  0x00, 0x00, 0x24, 0x00, 0x00, 0x00, 0x10, 0x00, 0x00, 0x00, 0x0c, 0x00, 0x10,
  0x00, 0x00, 0x00, 0x04, 0x00, 0x08, 0x00, 0x0f, 0x00, 0x0c, 0x00, 0x00, 0x00,
  0x01, 0x00, 0x00, 0x00, 0x01, 0x00, 0x00, 0x00, 0x00, 0x00, 0x00, 0x01, 0x01,
  0x00, 0x00, 0x00, 0x4b, 0x00, 0x00, 0x00, 0x03, 0x00, 0x00, 0x00, 0x4a, 0x00,
  0x00, 0x00, 0x0c, 0x00, 0x00, 0x00, 0x05, 0x00, 0x00, 0x00, 0x0c, 0xb4, 0xff,
  0xff, 0x5c, 0x00, 0x00, 0x00, 0x4c, 0x00, 0x00, 0x00, 0x20, 0x00, 0x00, 0x00,
  0x64, 0x00, 0x00, 0x00, 0x04, 0x00, 0x00, 0x00, 0x04, 0x00, 0x00, 0x00, 0xff,
  0xff, 0xff, 0xff, 0x46, 0x00, 0x00, 0x00, 0x46, 0x00, 0x00, 0x00, 0x0c, 0x00,
  0x00, 0x00, 0x2f, 0x00, 0x00, 0x00, 0x52, 0x65, 0x6c, 0x75, 0x3b, 0x42, 0x69,
  0x61, 0x73, 0x41, 0x64, 0x64, 0x5f, 0x31, 0x3b, 0x64, 0x65, 0x70, 0x74, 0x68,
  0x77, 0x69, 0x73, 0x65, 0x5f, 0x32, 0x31, 0x3b, 0x43, 0x6f, 0x6e, 0x76, 0x32,
  0x44, 0x5f, 0x31, 0x3b, 0x63, 0x6f, 0x6e, 0x76, 0x5f, 0x31, 0x5f, 0x30, 0x5f,
  0x62, 0x00, 0x04, 0x00, 0x00, 0x00, 0x01, 0x00, 0x00, 0x00, 0x46, 0x00, 0x00,
  0x00, 0x46, 0x00, 0x00, 0x00, 0x0c, 0x00, 0x00, 0x00, 0x14, 0xb4, 0xff, 0xff,
  0x5e, 0xfd, 0xff, 0xff, 0x00, 0x00, 0x00, 0x02, 0x01, 0x00, 0x00, 0x00, 0x24,
  0x00, 0x00, 0x00, 0x18, 0x00, 0x00, 0x00, 0x04, 0x00, 0x00, 0x00, 0x50, 0xfd,
  0xff, 0xff, 0x01, 0x00, 0x00, 0x00, 0x01, 0x00, 0x00, 0x00, 0x01, 0x00, 0x00,
  0x00, 0x01, 0x00, 0x00, 0x00, 0x4a, 0x00, 0x00, 0x00, 0x03, 0x00, 0x00, 0x00,
  0x49, 0x00, 0x00, 0x00, 0x0b, 0x00, 0x00, 0x00, 0x3a, 0x00, 0x00, 0x00, 0xc4,
  0xb4, 0xff, 0xff, 0x3c, 0x00, 0x00, 0x00, 0x4b, 0x00, 0x00, 0x00, 0x20, 0x00,
  0x00, 0x00, 0x44, 0x00, 0x00, 0x00, 0x04, 0x00, 0x00, 0x00, 0x04, 0x00, 0x00,
  0x00, 0xff, 0xff, 0xff, 0xff, 0x46, 0x00, 0x00, 0x00, 0x46, 0x00, 0x00, 0x00,
  0x0e, 0x00, 0x00, 0x00, 0x0c, 0x00, 0x00, 0x00, 0x64, 0x65, 0x70, 0x74, 0x68,
  0x77, 0x69, 0x73, 0x65, 0x5f, 0x33, 0x32, 0x00, 0x00, 0x00, 0x00, 0x04, 0x00,
  0x00, 0x00, 0x01, 0x00, 0x00, 0x00, 0x46, 0x00, 0x00, 0x00, 0x46, 0x00, 0x00,
  0x00, 0x0e, 0x00, 0x00, 0x00, 0xac, 0xb4, 0xff, 0xff, 0xf6, 0xfd, 0xff, 0xff,
  0x00, 0x00, 0x00, 0x02, 0x01, 0x00, 0x00, 0x00, 0x24, 0x00, 0x00, 0x00, 0x18,
  0x00, 0x00, 0x00, 0x04, 0x00, 0x00, 0x00, 0xe8, 0xfd, 0xff, 0xff, 0x01, 0x00,
  0x00, 0x00, 0x01, 0x00, 0x00, 0x00, 0x01, 0x00, 0x00, 0x00, 0x01, 0x00, 0x00,
  0x00, 0x49, 0x00, 0x00, 0x00, 0x03, 0x00, 0x00, 0x00, 0x48, 0x00, 0x00, 0x00,
  0x0a, 0x00, 0x00, 0x00, 0x3a, 0x00, 0x00, 0x00, 0x5c, 0xb5, 0xff, 0xff, 0x3c,
  0x00, 0x00, 0x00, 0x4a, 0x00, 0x00, 0x00, 0x20, 0x00, 0x00, 0x00, 0x44, 0x00,
  0x00, 0x00, 0x04, 0x00, 0x00, 0x00, 0x04, 0x00, 0x00, 0x00, 0xff, 0xff, 0xff,
  0xff, 0x46, 0x00, 0x00, 0x00, 0x46, 0x00, 0x00, 0x00, 0x0e, 0x00, 0x00, 0x00,
  0x0d, 0x00, 0x00, 0x00, 0x64, 0x65, 0x70, 0x74, 0x68, 0x77, 0x69, 0x73, 0x65,
  0x5f, 0x32, 0x31, 0x30, 0x00, 0x00, 0x00, 0x04, 0x00, 0x00, 0x00, 0x01, 0x00,
  0x00, 0x00, 0x46, 0x00, 0x00, 0x00, 0x46, 0x00, 0x00, 0x00, 0x0e, 0x00, 0x00,
  0x00, 0x58, 0xb6, 0xff, 0xff, 0x00, 0x00, 0x0e, 0x00, 0x1a, 0x00, 0x08, 0x00,
  0x0c, 0x00, 0x10, 0x00, 0x07, 0x00, 0x14, 0x00, 0x0e, 0x00, 0x00, 0x00, 0x00,
  0x00, 0x00, 0x01, 0x02, 0x00, 0x00, 0x00, 0x2c, 0x00, 0x00, 0x00, 0x20, 0x00,
  0x00, 0x00, 0x10, 0x00, 0x00, 0x00, 0x00, 0x00, 0x0a, 0x00, 0x0c, 0x00, 0x00,
  0x00, 0x04, 0x00, 0x08, 0x00, 0x0a, 0x00, 0x00, 0x00, 0x01, 0x00, 0x00, 0x00,
  0x01, 0x00, 0x00, 0x00, 0x01, 0x00, 0x00, 0x00, 0x48, 0x00, 0x00, 0x00, 0x03,
  0x00, 0x00, 0x00, 0x47, 0x00, 0x00, 0x00, 0x09, 0x00, 0x00, 0x00, 0x3e, 0x00,
  0x00, 0x00, 0xe0, 0xfd, 0xff, 0xff, 0x03, 0x00, 0x00, 0x00, 0x00, 0x00, 0x00,
  0x03, 0x01, 0x00, 0x00, 0x00, 0x1c, 0xb6, 0xff, 0xff, 0x54, 0x00, 0x00, 0x00,
  0x49, 0x00, 0x00, 0x00, 0x20, 0x00, 0x00, 0x00, 0x5c, 0x00, 0x00, 0x00, 0x04,
  0x00, 0x00, 0x00, 0x04, 0x00, 0x00, 0x00, 0xff, 0xff, 0xff, 0xff, 0x46, 0x00,
  0x00, 0x00, 0x46, 0x00, 0x00, 0x00, 0x0e, 0x00, 0x00, 0x00, 0x25, 0x00, 0x00,
  0x00, 0x42, 0x69, 0x61, 0x73, 0x41, 0x64, 0x64, 0x3b, 0x64, 0x65, 0x70, 0x74,
  0x68, 0x77, 0x69, 0x73, 0x65, 0x5f, 0x33, 0x31, 0x3b, 0x43, 0x6f, 0x6e, 0x76,
  0x32, 0x44, 0x3b, 0x63, 0x6f, 0x6e, 0x76, 0x5f, 0x30, 0x5f, 0x62, 0x31, 0x00,
  0x00, 0x00, 0x04, 0x00, 0x00, 0x00, 0x01, 0x00, 0x00, 0x00, 0x46, 0x00, 0x00,
  0x00, 0x46, 0x00, 0x00, 0x00, 0x0e, 0x00, 0x00, 0x00, 0x1c, 0xb6, 0xff, 0xff,
  0x66, 0xff, 0xff, 0xff, 0x00, 0x00, 0x00, 0x02, 0x01, 0x00, 0x00, 0x00, 0x24,
  0x00, 0x00, 0x00, 0x18, 0x00, 0x00, 0x00, 0x04, 0x00, 0x00, 0x00, 0x58, 0xff,
  0xff, 0xff, 0x01, 0x00, 0x00, 0x00, 0x01, 0x00, 0x00, 0x00, 0x01, 0x00, 0x00,
  0x00, 0x01, 0x00, 0x00, 0x00, 0x47, 0x00, 0x00, 0x00, 0x03, 0x00, 0x00, 0x00,
  0x46, 0x00, 0x00, 0x00, 0x08, 0x00, 0x00, 0x00, 0x3c, 0x00, 0x00, 0x00, 0xcc,
  0xb6, 0xff, 0xff, 0x3c, 0x00, 0x00, 0x00, 0x48, 0x00, 0x00, 0x00, 0x20, 0x00,
  0x00, 0x00, 0x44, 0x00, 0x00, 0x00, 0x04, 0x00, 0x00, 0x00, 0x04, 0x00, 0x00,
  0x00, 0xff, 0xff, 0xff, 0xff, 0x46, 0x00, 0x00, 0x00, 0x46, 0x00, 0x00, 0x00,
  0x01, 0x00, 0x00, 0x00, 0x0d, 0x00, 0x00, 0x00, 0x64, 0x65, 0x70, 0x74, 0x68,
  0x77, 0x69, 0x73, 0x65, 0x5f, 0x31, 0x31, 0x30, 0x00, 0x00, 0x00, 0x04, 0x00,
  0x00, 0x00, 0x01, 0x00, 0x00, 0x00, 0x46, 0x00, 0x00, 0x00, 0x46, 0x00, 0x00,
  0x00, 0x01, 0x00, 0x00, 0x00, 0xc8, 0xb7, 0xff, 0xff, 0x00, 0x00, 0x0e, 0x00,
  0x18, 0x00, 0x08, 0x00, 0x0c, 0x00, 0x10, 0x00, 0x07, 0x00, 0x14, 0x00, 0x0e,
  0x00, 0x00, 0x00, 0x00, 0x00, 0x00, 0x02, 0x01, 0x00, 0x00, 0x00, 0x30, 0x00,
  0x00, 0x00, 0x24, 0x00, 0x00, 0x00, 0x10, 0x00, 0x00, 0x00, 0x0c, 0x00, 0x10,
  0x00, 0x00, 0x00, 0x08, 0x00, 0x0c, 0x00, 0x04, 0x00, 0x0c, 0x00, 0x00, 0x00,
  0x01, 0x00, 0x00, 0x00, 0x01, 0x00, 0x00, 0x00, 0x01, 0x00, 0x00, 0x00, 0x01,
  0x00, 0x00, 0x00, 0x46, 0x00, 0x00, 0x00, 0x03, 0x00, 0x00, 0x00, 0x45, 0x00,
  0x00, 0x00, 0x07, 0x00, 0x00, 0x00, 0x3c, 0x00, 0x00, 0x00, 0x54, 0xff, 0xff,
  0xff, 0x04, 0x00, 0x00, 0x00, 0x00, 0x00, 0x00, 0x04, 0x01, 0x00, 0x00, 0x00,
  0x90, 0xb7, 0xff, 0xff, 0x38, 0x00, 0x00, 0x00, 0x47, 0x00, 0x00, 0x00, 0x20,
  0x00, 0x00, 0x00, 0x40, 0x00, 0x00, 0x00, 0x04, 0x00, 0x00, 0x00, 0x04, 0x00,
  0x00, 0x00, 0xff, 0xff, 0xff, 0xff, 0x46, 0x00, 0x00, 0x00, 0x46, 0x00, 0x00,
  0x00, 0x01, 0x00, 0x00, 0x00, 0x0a, 0x00, 0x00, 0x00, 0x64, 0x65, 0x70, 0x74,
  0x68, 0x77, 0x69, 0x73, 0x65, 0x31, 0x00, 0x00, 0x04, 0x00, 0x00, 0x00, 0x01,
  0x00, 0x00, 0x00, 0x46, 0x00, 0x00, 0x00, 0x46, 0x00, 0x00, 0x00, 0x01, 0x00,
  0x00, 0x00, 0x88, 0xb8, 0xff, 0xff, 0x00, 0x00, 0x0e, 0x00, 0x16, 0x00, 0x00,
  0x00, 0x08, 0x00, 0x0c, 0x00, 0x07, 0x00, 0x10, 0x00, 0x0e, 0x00, 0x00, 0x00,
  0x00, 0x00, 0x00, 0x4d, 0x24, 0x00, 0x00, 0x00, 0x18, 0x00, 0x00, 0x00, 0x0c,
  0x00, 0x00, 0x00, 0x00, 0x00, 0x06, 0x00, 0x08, 0x00, 0x07, 0x00, 0x06, 0x00,
  0x00, 0x00, 0x00, 0x00, 0x00, 0x01, 0x01, 0x00, 0x00, 0x00, 0x45, 0x00, 0x00,
  0x00, 0x02, 0x00, 0x00, 0x00, 0x00, 0x00, 0x00, 0x00, 0x06, 0x00, 0x00, 0x00,
  0x0c, 0x00, 0x10, 0x00, 0x0b, 0x00, 0x00, 0x00, 0x0c, 0x00, 0x04, 0x00, 0x0c,
  0x00, 0x00, 0x00, 0x64, 0x00, 0x00, 0x00, 0x00, 0x00, 0x00, 0x64, 0x01, 0x00,
  0x00, 0x00, 0x48, 0xb8, 0xff, 0xff, 0x38, 0x00, 0x00, 0x00, 0x46, 0x00, 0x00,
  0x00, 0x20, 0x00, 0x00, 0x00, 0x40, 0x00, 0x00, 0x00, 0x04, 0x00, 0x00, 0x00,
  0x04, 0x00, 0x00, 0x00, 0xff, 0xff, 0xff, 0xff, 0x46, 0x00, 0x00, 0x00, 0x46,
  0x00, 0x00, 0x00, 0x01, 0x00, 0x00, 0x00, 0x09, 0x00, 0x00, 0x00, 0x4d, 0x69,
  0x72, 0x72, 0x6f, 0x72, 0x50, 0x61, 0x64, 0x00, 0x00, 0x00, 0x04, 0x00, 0x00,
  0x00, 0x01, 0x00, 0x00, 0x00, 0x46, 0x00, 0x00, 0x00, 0x46, 0x00, 0x00, 0x00,
  0x01, 0x00, 0x00, 0x00, 0x2c, 0xb8, 0xff, 0xff, 0x3a, 0xb9, 0xff, 0xff, 0x04,
  0x00, 0x00, 0x00, 0x04, 0x00, 0x00, 0x00, 0xa8, 0xbc, 0x9f, 0x36, 0xea, 0xb8,
  0xff, 0xff, 0x34, 0x00, 0x00, 0x00, 0x45, 0x00, 0x00, 0x00, 0x08, 0x00, 0x00,
  0x00, 0x30, 0x00, 0x00, 0x00, 0x1d, 0x00, 0x00, 0x00, 0x42, 0x69, 0x61, 0x73,
  0x41, 0x64, 0x64, 0x5f, 0x31, 0x35, 0x3b, 0x43, 0x6f, 0x6e, 0x76, 0x32, 0x44,
  0x5f, 0x31, 0x35, 0x3b, 0x63, 0x6f, 0x6e, 0x76, 0x5f, 0x36, 0x5f, 0x62, 0x00,
  0x00, 0x00, 0x01, 0x00, 0x00, 0x00, 0x01, 0x00, 0x00, 0x00, 0x80, 0xb8, 0xff,
  0xff, 0x8e, 0xb9, 0xff, 0xff, 0x04, 0x00, 0x00, 0x00, 0x38, 0x00, 0x00, 0x00,
  0x9e, 0x08, 0x79, 0xbd, 0x42, 0xce, 0xc1, 0xbd, 0x26, 0xc6, 0x85, 0x3d, 0x62,
  0x76, 0xc6, 0xbd, 0xc7, 0x67, 0xff, 0x3b, 0x7b, 0xa8, 0x85, 0x3d, 0xdc, 0xdd,
  0x09, 0x3d, 0x0c, 0x3d, 0x7f, 0xbd, 0xd6, 0x0c, 0x0d, 0x3e, 0xc4, 0x8c, 0xfe,
  0xbb, 0x8b, 0x64, 0x83, 0xbd, 0xb4, 0xac, 0x2c, 0x3d, 0x99, 0x73, 0x6f, 0xbb,
  0xde, 0xc1, 0x3f, 0xbc, 0x72, 0xb9, 0xff, 0xff, 0x44, 0x00, 0x00, 0x00, 0x44,
  0x00, 0x00, 0x00, 0x08, 0x00, 0x00, 0x00, 0x40, 0x00, 0x00, 0x00, 0x2c, 0x00,
  0x00, 0x00, 0x42, 0x69, 0x61, 0x73, 0x41, 0x64, 0x64, 0x5f, 0x31, 0x34, 0x3b,
  0x64, 0x65, 0x70, 0x74, 0x68, 0x77, 0x69, 0x73, 0x65, 0x5f, 0x33, 0x31, 0x3b,
  0x43, 0x6f, 0x6e, 0x76, 0x32, 0x44, 0x5f, 0x31, 0x34, 0x3b, 0x63, 0x6f, 0x6e,
  0x76, 0x5f, 0x35, 0x5f, 0x31, 0x5f, 0x62, 0x00, 0x00, 0x00, 0x00, 0x01, 0x00,
  0x00, 0x00, 0x0e, 0x00, 0x00, 0x00, 0x18, 0xb9, 0xff, 0xff, 0x26, 0xba, 0xff,
  0xff, 0x04, 0x00, 0x00, 0x00, 0x24, 0x00, 0x00, 0x00, 0x50, 0x30, 0xa6, 0xbd,
  0x4a, 0x52, 0x15, 0x3d, 0xd9, 0xbc, 0x13, 0xbf, 0xed, 0xad, 0x94, 0x3e, 0xdb,
  0xf9, 0xa2, 0x3d, 0xf9, 0x4f, 0x99, 0x3e, 0xf8, 0x4e, 0x66, 0x3d, 0xe6, 0x3c,
  0xe7, 0x3c, 0x36, 0xa0, 0xc4, 0x3c, 0xf6, 0xb9, 0xff, 0xff, 0x44, 0x00, 0x00,
  0x00, 0x43, 0x00, 0x00, 0x00, 0x08, 0x00, 0x00, 0x00, 0x40, 0x00, 0x00, 0x00,
  0x2c, 0x00, 0x00, 0x00, 0x42, 0x69, 0x61, 0x73, 0x41, 0x64, 0x64, 0x5f, 0x31,
  0x31, 0x3b, 0x64, 0x65, 0x70, 0x74, 0x68, 0x77, 0x69, 0x73, 0x65, 0x5f, 0x32,
  0x39, 0x3b, 0x43, 0x6f, 0x6e, 0x76, 0x32, 0x44, 0x5f, 0x31, 0x31, 0x3b, 0x63,
  0x6f, 0x6e, 0x76, 0x5f, 0x34, 0x5f, 0x31, 0x5f, 0x62, 0x00, 0x00, 0x00, 0x00,
  0x01, 0x00, 0x00, 0x00, 0x09, 0x00, 0x00, 0x00, 0x9c, 0xb9, 0xff, 0xff, 0xaa,
  0xba, 0xff, 0xff, 0x04, 0x00, 0x00, 0x00, 0x18, 0x00, 0x00, 0x00, 0xdd, 0xe4,
  0xeb, 0x3d, 0x3e, 0x20, 0x9d, 0x3e, 0xcc, 0x88, 0xab, 0xbc, 0x92, 0x34, 0x41,
  0x3e, 0xdb, 0x0f, 0x9c, 0x3e, 0x52, 0x29, 0x20, 0xbf, 0x6e, 0xba, 0xff, 0xff,
  0x40, 0x00, 0x00, 0x00, 0x42, 0x00, 0x00, 0x00, 0x08, 0x00, 0x00, 0x00, 0x3c,
  0x00, 0x00, 0x00, 0x2a, 0x00, 0x00, 0x00, 0x42, 0x69, 0x61, 0x73, 0x41, 0x64,
  0x64, 0x5f, 0x38, 0x3b, 0x64, 0x65, 0x70, 0x74, 0x68, 0x77, 0x69, 0x73, 0x65,
  0x5f, 0x32, 0x33, 0x3b, 0x43, 0x6f, 0x6e, 0x76, 0x32, 0x44, 0x5f, 0x38, 0x3b,
  0x63, 0x6f, 0x6e, 0x76, 0x5f, 0x33, 0x5f, 0x31, 0x5f, 0x62, 0x00, 0x00, 0x01,
  0x00, 0x00, 0x00, 0x06, 0x00, 0x00, 0x00, 0x10, 0xba, 0xff, 0xff, 0x1e, 0xbb,
  0xff, 0xff, 0x04, 0x00, 0x00, 0x00, 0x18, 0x00, 0x00, 0x00, 0xa6, 0xad, 0xc7,
  0x3d, 0xc1, 0x13, 0x9c, 0x3e, 0xae, 0xf8, 0x35, 0x3c, 0x89, 0x34, 0x9f, 0xbd,
  0x5a, 0x20, 0xcc, 0xbc, 0x1b, 0x50, 0x29, 0xbd, 0xe2, 0xba, 0xff, 0xff, 0x40,
  0x00, 0x00, 0x00, 0x41, 0x00, 0x00, 0x00, 0x08, 0x00, 0x00, 0x00, 0x3c, 0x00,
  0x00, 0x00, 0x2a, 0x00, 0x00, 0x00, 0x42, 0x69, 0x61, 0x73, 0x41, 0x64, 0x64,
  0x5f, 0x36, 0x3b, 0x64, 0x65, 0x70, 0x74, 0x68, 0x77, 0x69, 0x73, 0x65, 0x5f,
  0x32, 0x33, 0x3b, 0x43, 0x6f, 0x6e, 0x76, 0x32, 0x44, 0x5f, 0x36, 0x3b, 0x63,
  0x6f, 0x6e, 0x76, 0x5f, 0x32, 0x5f, 0x31, 0x5f, 0x62, 0x00, 0x00, 0x01, 0x00,
  0x00, 0x00, 0x06, 0x00, 0x00, 0x00, 0x84, 0xba, 0xff, 0xff, 0x92, 0xbb, 0xff,
  0xff, 0x04, 0x00, 0x00, 0x00, 0x24, 0x00, 0x00, 0x00, 0x90, 0x9d, 0xe6, 0xbe,
  0x5c, 0xaf, 0x8d, 0x3f, 0x7a, 0x19, 0x6b, 0xbf, 0x05, 0xe9, 0xd9, 0xbc, 0xee,
  0xcb, 0xc7, 0x3e, 0x37, 0x1b, 0xbb, 0x3d, 0xe7, 0xf5, 0x80, 0x3c, 0x97, 0x44,
  0x3a, 0x3e, 0x44, 0x4d, 0xd3, 0xbd, 0x62, 0xbb, 0xff, 0xff, 0x40, 0x00, 0x00,
  0x00, 0x40, 0x00, 0x00, 0x00, 0x08, 0x00, 0x00, 0x00, 0x3c, 0x00, 0x00, 0x00,
  0x2a, 0x00, 0x00, 0x00, 0x42, 0x69, 0x61, 0x73, 0x41, 0x64, 0x64, 0x5f, 0x33,
  0x3b, 0x64, 0x65, 0x70, 0x74, 0x68, 0x77, 0x69, 0x73, 0x65, 0x5f, 0x32, 0x39,
  0x3b, 0x43, 0x6f, 0x6e, 0x76, 0x32, 0x44, 0x5f, 0x33, 0x3b, 0x63, 0x6f, 0x6e,
  0x76, 0x5f, 0x31, 0x5f, 0x31, 0x5f, 0x62, 0x00, 0x00, 0x01, 0x00, 0x00, 0x00,
  0x09, 0x00, 0x00, 0x00, 0x04, 0xbb, 0xff, 0xff, 0x12, 0xbc, 0xff, 0xff, 0x04,
  0x00, 0x00, 0x00, 0x38, 0x00, 0x00, 0x00, 0xaa, 0x86, 0x7a, 0xbf, 0x55, 0xb3,
  0x5c, 0x3f, 0xcb, 0x29, 0x45, 0x3f, 0x9f, 0x0c, 0xb4, 0xbe, 0x52, 0xd9, 0x14,
  0xbf, 0x1f, 0xf8, 0xc4, 0xbe, 0x80, 0x20, 0x0f, 0x40, 0x69, 0x5b, 0xcf, 0x3e,
  0x69, 0x92, 0x9d, 0xbf, 0xac, 0x38, 0x45, 0xbe, 0x04, 0x78, 0xcb, 0x3e, 0x68,
  0x87, 0xf2, 0xbe, 0x6a, 0x16, 0x3d, 0x40, 0x0c, 0xc9, 0x0d, 0xbf, 0xf6, 0xbb,
  0xff, 0xff, 0x3c, 0x00, 0x00, 0x00, 0x3f, 0x00, 0x00, 0x00, 0x08, 0x00, 0x00,
  0x00, 0x38, 0x00, 0x00, 0x00, 0x24, 0x00, 0x00, 0x00, 0x42, 0x69, 0x61, 0x73,
  0x41, 0x64, 0x64, 0x3b, 0x64, 0x65, 0x70, 0x74, 0x68, 0x77, 0x69, 0x73, 0x65,
  0x5f, 0x33, 0x31, 0x3b, 0x43, 0x6f, 0x6e, 0x76, 0x32, 0x44, 0x3b, 0x63, 0x6f,
  0x6e, 0x76, 0x5f, 0x30, 0x5f, 0x62, 0x00, 0x00, 0x00, 0x00, 0x01, 0x00, 0x00,
  0x00, 0x0e, 0x00, 0x00, 0x00, 0x94, 0xbb, 0xff, 0xff, 0xa2, 0xbc, 0xff, 0xff,
  0x04, 0x00, 0x00, 0x00, 0x38, 0x00, 0x00, 0x00, 0x7d, 0x03, 0x9e, 0x3e, 0xa0,
  0xaa, 0xd5, 0xbd, 0x19, 0x5f, 0x32, 0x3e, 0x81, 0x18, 0x3a, 0xbe, 0x57, 0x07,
  0x8f, 0x3e, 0xcb, 0xd5, 0x36, 0xbe, 0x39, 0x90, 0x08, 0x3e, 0xa1, 0x69, 0x28,
  0xbe, 0xf4, 0x02, 0xc6, 0xbe, 0x1b, 0xaf, 0x41, 0xbe, 0xa3, 0x36, 0xe5, 0x3d,
  0xac, 0x4a, 0x49, 0xbd, 0xbb, 0x15, 0x56, 0x3d, 0xfe, 0xaf, 0x31, 0xbe, 0x86,
  0xbc, 0xff, 0xff, 0x20, 0x00, 0x00, 0x00, 0x3e, 0x00, 0x00, 0x00, 0x08, 0x00,
  0x00, 0x00, 0x28, 0x00, 0x00, 0x00, 0x0a, 0x00, 0x00, 0x00, 0x43, 0x6f, 0x6e,
  0x76, 0x32, 0x44, 0x5f, 0x31, 0x35, 0x31, 0x00, 0x00, 0x04, 0x00, 0x00, 0x00,
  0x01, 0x00, 0x00, 0x00, 0x01, 0x00, 0x00, 0x00, 0x01, 0x00, 0x00, 0x00, 0x0e,
  0x00, 0x00, 0x00, 0x14, 0xbc, 0xff, 0xff, 0x22, 0xbd, 0xff, 0xff, 0x04, 0x00,
  0x00, 0x00, 0x04, 0x00, 0x00, 0x00, 0x00, 0x00, 0x00, 0x00, 0xd2, 0xbc, 0xff,
  0xff, 0x20, 0x00, 0x00, 0x00, 0x3d, 0x00, 0x00, 0x00, 0x08, 0x00, 0x00, 0x00,
  0x1c, 0x00, 0x00, 0x00, 0x09, 0x00, 0x00, 0x00, 0x43, 0x6f, 0x6e, 0x76, 0x32,
  0x44, 0x5f, 0x31, 0x35, 0x00, 0x00, 0x00, 0x01, 0x00, 0x00, 0x00, 0x01, 0x00,
  0x00, 0x00, 0x54, 0xbc, 0xff, 0xff, 0x62, 0xbd, 0xff, 0xff, 0x04, 0x00, 0x00,
  0x00, 0x88, 0x01, 0x00, 0x00, 0x67, 0xfd, 0xb3, 0x3d, 0x9d, 0xce, 0x25, 0xbd,
  0x0a, 0x5d, 0x2a, 0xbd, 0x33, 0xad, 0x64, 0x3c, 0xe1, 0xd9, 0x21, 0x3e, 0x93,
  0xe2, 0x99, 0x3d, 0xc5, 0xad, 0x98, 0xba, 0x05, 0xb8, 0xe5, 0x3d, 0x93, 0xe8,
  0x3c, 0x3c, 0x88, 0x5d, 0x67, 0x3b, 0x64, 0x60, 0x2f, 0x3c, 0x92, 0x09, 0x0c,
  0x3e, 0xc3, 0x2e, 0x22, 0x3e, 0xa4, 0xa9, 0xbc, 0xbc, 0xb2, 0x0b, 0x08, 0xbe,
  0x25, 0x7b, 0xca, 0x3d, 0x0b, 0xad, 0x39, 0x3e, 0x6a, 0x59, 0x8f, 0xbd, 0x05,
  0x68, 0x87, 0x3d, 0x95, 0x55, 0x43, 0xbd, 0xd0, 0x7d, 0xb2, 0xbd, 0x42, 0xe1,
  0x3e, 0xbb, 0x05, 0x9a, 0xd5, 0xbc, 0x8e, 0x7d, 0xdd, 0x3c, 0x15, 0xf1, 0x03,
  0xbd, 0xca, 0x25, 0x79, 0xbe, 0x7f, 0x90, 0x83, 0xbe, 0xfe, 0x50, 0x9d, 0x3d,
  0x62, 0x97, 0xcb, 0x3d, 0x31, 0xd8, 0xdd, 0x3c, 0xe4, 0x69, 0x58, 0xbe, 0x0b,
  0xf3, 0xd1, 0x3d, 0xc7, 0xa0, 0x3d, 0x3e, 0x77, 0xb9, 0x98, 0x3b, 0xe5, 0x78,
  0x08, 0x3e, 0xaf, 0x8d, 0x1c, 0x3c, 0x88, 0x05, 0x0c, 0x3d, 0x9d, 0xb2, 0x1d,
  0xbe, 0x01, 0x6e, 0xab, 0x3d, 0x3c, 0xb6, 0x09, 0xbe, 0xff, 0xbe, 0x06, 0x3e,
  0xcf, 0x88, 0xba, 0xbd, 0xeb, 0x51, 0x31, 0xbe, 0xc0, 0x64, 0x63, 0xbe, 0x2b,
  0x3b, 0x31, 0x3e, 0x8a, 0xd9, 0x5a, 0xbe, 0x98, 0x14, 0x0d, 0xbd, 0x8c, 0xe9,
  0x04, 0xbe, 0xf9, 0x29, 0x7b, 0x3e, 0xd7, 0xa1, 0xb9, 0xb9, 0xbe, 0xff, 0xa1,
  0xba, 0x68, 0x8b, 0x8d, 0x3e, 0x62, 0x21, 0x57, 0x3c, 0x63, 0x0a, 0x66, 0x3e,
  0x97, 0x79, 0x18, 0xbe, 0xb0, 0xad, 0xf6, 0x3d, 0x36, 0x9b, 0x24, 0x3e, 0xe4,
  0x73, 0x34, 0xbe, 0x85, 0x71, 0x9f, 0xbd, 0xf5, 0x84, 0x60, 0xbb, 0x9e, 0xbf,
  0x00, 0xbe, 0xad, 0xc5, 0x06, 0xbe, 0x13, 0xf9, 0x3e, 0x3d, 0x1a, 0xd4, 0xaf,
  0x3d, 0x83, 0x95, 0x34, 0x3e, 0x69, 0x21, 0xcb, 0x3d, 0x07, 0x3c, 0x51, 0x3e,
  0xc5, 0x35, 0x08, 0x3e, 0xb6, 0x1e, 0xe6, 0x3d, 0xeb, 0x9c, 0xd2, 0x3d, 0xcc,
  0xda, 0xbd, 0xbd, 0xc6, 0x67, 0xa5, 0x3e, 0x7a, 0x8c, 0xf8, 0xbd, 0xe9, 0x0a,
  0x89, 0x3e, 0x5e, 0xd3, 0xfa, 0xbd, 0x98, 0xff, 0xe7, 0xbc, 0xb4, 0xff, 0x62,
  0xbe, 0x23, 0x2c, 0xd7, 0x3c, 0x85, 0xaf, 0x41, 0x3e, 0xa6, 0xbd, 0x64, 0x3d,
  0x7a, 0x84, 0x42, 0x3e, 0x0b, 0xe2, 0xda, 0x3c, 0xa1, 0x44, 0x31, 0x3e, 0x9c,
  0x6f, 0x27, 0x3e, 0x78, 0xba, 0x5c, 0x3d, 0xe3, 0x84, 0x9f, 0xbd, 0x21, 0xc2,
  0x2e, 0x3d, 0x55, 0x03, 0xc4, 0xbd, 0x94, 0xc4, 0xfe, 0xbd, 0xe8, 0xac, 0x2a,
  0xbe, 0x7b, 0x81, 0x57, 0xbd, 0x03, 0x42, 0xb9, 0xbd, 0xe2, 0x8e, 0x63, 0x3d,
  0x6d, 0xb7, 0xb7, 0x3b, 0xed, 0xc5, 0x22, 0x3d, 0xde, 0xca, 0x13, 0xbe, 0x0c,
  0xe4, 0x32, 0xbe, 0xab, 0x1f, 0x55, 0x3d, 0x96, 0xbe, 0xff, 0xff, 0x24, 0x00,
  0x00, 0x00, 0x3c, 0x00, 0x00, 0x00, 0x08, 0x00, 0x00, 0x00, 0x2c, 0x00, 0x00,
  0x00, 0x0d, 0x00, 0x00, 0x00, 0x64, 0x65, 0x70, 0x74, 0x68, 0x77, 0x69, 0x73,
  0x65, 0x5f, 0x33, 0x31, 0x31, 0x00, 0x00, 0x00, 0x04, 0x00, 0x00, 0x00, 0x01,
  0x00, 0x00, 0x00, 0x01, 0x00, 0x00, 0x00, 0x07, 0x00, 0x00, 0x00, 0x0e, 0x00,
  0x00, 0x00, 0x28, 0xbe, 0xff, 0xff, 0x36, 0xbf, 0xff, 0xff, 0x04, 0x00, 0x00,
  0x00, 0x38, 0x00, 0x00, 0x00, 0x00, 0x00, 0x00, 0x00, 0x00, 0x00, 0x00, 0x00,
  0x00, 0x00, 0x00, 0x00, 0x00, 0x00, 0x00, 0x00, 0x00, 0x00, 0x00, 0x00, 0x00,
  0x00, 0x00, 0x00, 0x00, 0x00, 0x00, 0x00, 0x00, 0x00, 0x00, 0x00, 0x00, 0x00,
  0x00, 0x00, 0x00, 0x00, 0x00, 0x00, 0x00, 0x00, 0x00, 0x00, 0x00, 0x00, 0x00,
  0x00, 0x00, 0x00, 0x00, 0x00, 0x00, 0x00, 0x00, 0x00, 0x1a, 0xbf, 0xff, 0xff,
  0x24, 0x00, 0x00, 0x00, 0x3b, 0x00, 0x00, 0x00, 0x08, 0x00, 0x00, 0x00, 0x20,
  0x00, 0x00, 0x00, 0x0c, 0x00, 0x00, 0x00, 0x64, 0x65, 0x70, 0x74, 0x68, 0x77,
  0x69, 0x73, 0x65, 0x5f, 0x33, 0x31, 0x00, 0x00, 0x00, 0x00, 0x01, 0x00, 0x00,
  0x00, 0x0e, 0x00, 0x00, 0x00, 0xa0, 0xbe, 0xff, 0xff, 0xae, 0xbf, 0xff, 0xff,
  0x04, 0x00, 0x00, 0x00, 0x88, 0x01, 0x00, 0x00, 0xe6, 0x53, 0x06, 0xbd, 0xf0,
  0x3d, 0x6c, 0x3d, 0xdf, 0xa4, 0xb9, 0x3d, 0x7d, 0xed, 0xd0, 0xbc, 0x80, 0x6a,
  0xb5, 0x3c, 0x63, 0x16, 0xa6, 0xbd, 0x99, 0x11, 0x18, 0xbe, 0x50, 0x1e, 0xce,
  0xbd, 0xa9, 0x87, 0x92, 0x38, 0x33, 0x7d, 0x6e, 0x3e, 0x47, 0xed, 0x5c, 0x3e,
  0xfa, 0x7c, 0x9e, 0xbc, 0xe9, 0x6f, 0x65, 0xbd, 0x67, 0x7c, 0xfb, 0xbd, 0x41,
  0xe9, 0x2c, 0xbe, 0x11, 0xfe, 0xa5, 0x3d, 0x01, 0x3d, 0x32, 0xbe, 0x00, 0x96,
  0x24, 0xbe, 0xd1, 0xa3, 0xa9, 0x3d, 0x94, 0xa2, 0xf8, 0xbc, 0x5e, 0x80, 0xbc,
  0x3d, 0x14, 0x39, 0x8b, 0xbd, 0xbb, 0xe8, 0x68, 0xbd, 0xd4, 0x1e, 0x4f, 0x3d,
  0x32, 0x59, 0x90, 0xbe, 0x66, 0x6f, 0x9a, 0xbe, 0x7b, 0x1b, 0xc2, 0xbc, 0x82,
  0x70, 0xb3, 0x3c, 0x47, 0xd4, 0x62, 0xbe, 0x32, 0xe0, 0x34, 0xbe, 0xf7, 0x62,
  0x72, 0xbe, 0xcf, 0x96, 0x03, 0x3e, 0x41, 0x37, 0x88, 0x3e, 0x4c, 0xc4, 0x85,
  0x3e, 0x8f, 0x7c, 0x91, 0xbc, 0x83, 0xc1, 0xb3, 0xbd, 0x57, 0x89, 0xc0, 0x3d,
  0xaf, 0xa8, 0x20, 0xbe, 0x7d, 0x78, 0x21, 0x3e, 0xe5, 0xa0, 0x0c, 0xbd, 0x83,
  0x25, 0x18, 0xbe, 0x4d, 0xf2, 0xe2, 0xbd, 0x2c, 0xb6, 0xaf, 0x3c, 0x75, 0xdd,
  0x5b, 0x3d, 0x2a, 0xd9, 0x62, 0xbd, 0x17, 0x04, 0x2a, 0xbe, 0x99, 0xe6, 0x0b,
  0xbc, 0x3e, 0x24, 0xd2, 0xbd, 0xa3, 0x8d, 0x97, 0x3d, 0x65, 0x22, 0xed, 0x3d,
  0x9c, 0x19, 0xcf, 0xbd, 0xbf, 0x6a, 0x47, 0xbe, 0x8b, 0x21, 0x94, 0xbd, 0x45,
  0xe9, 0x1f, 0xbe, 0xde, 0x8f, 0xfc, 0x3c, 0xec, 0xbe, 0x48, 0x3e, 0x2d, 0x27,
  0x57, 0xbd, 0xa7, 0xf5, 0x24, 0xbe, 0xde, 0xde, 0xc4, 0x3c, 0xe5, 0x38, 0xf2,
  0xbc, 0x6c, 0xdd, 0x61, 0x3d, 0x43, 0x9d, 0x26, 0x3c, 0x6c, 0x5f, 0xbf, 0xbb,
  0x18, 0xb2, 0x37, 0xbd, 0xed, 0xf6, 0x02, 0x3e, 0x24, 0x06, 0xd5, 0xbb, 0x0f,
  0x30, 0x77, 0x3d, 0x26, 0xda, 0xcc, 0x3b, 0x85, 0x13, 0x34, 0x3e, 0xa9, 0x13,
  0xba, 0xbd, 0x83, 0x66, 0x93, 0x3c, 0x4a, 0x5e, 0x3f, 0x3e, 0x51, 0xff, 0x0f,
  0x3d, 0xd0, 0xbb, 0x9b, 0x3d, 0xd8, 0x1c, 0x07, 0x39, 0x01, 0x39, 0x15, 0x3d,
  0x97, 0xa8, 0x35, 0xbd, 0xc7, 0x01, 0xaa, 0x3d, 0x11, 0x34, 0x23, 0xbe, 0x14,
  0xef, 0x35, 0x3c, 0x25, 0xd2, 0xab, 0x3d, 0x5a, 0xc0, 0xaa, 0x3d, 0x2f, 0x3a,
  0x3b, 0xbe, 0x86, 0x28, 0x7b, 0x3d, 0x28, 0xf1, 0x8e, 0xbb, 0x5b, 0x6a, 0xa5,
  0xbd, 0xc2, 0x19, 0xb5, 0xbd, 0x23, 0x2c, 0xb3, 0xbd, 0x27, 0x83, 0xd4, 0x3c,
  0xd4, 0x63, 0x4a, 0xbd, 0x4c, 0x4a, 0xbc, 0x3d, 0xd6, 0x44, 0xd6, 0x3c, 0x0b,
  0xc4, 0xdf, 0x3d, 0x4d, 0x3c, 0x91, 0x3d, 0x59, 0x83, 0xf1, 0xbd, 0x02, 0x32,
  0x48, 0xbe, 0xae, 0x37, 0x53, 0x3e, 0xbb, 0x48, 0x22, 0x3d, 0xe2, 0xc0, 0xff,
  0xff, 0x24, 0x00, 0x00, 0x00, 0x3a, 0x00, 0x00, 0x00, 0x08, 0x00, 0x00, 0x00,
  0x2c, 0x00, 0x00, 0x00, 0x0c, 0x00, 0x00, 0x00, 0x64, 0x65, 0x70, 0x74, 0x68,
  0x77, 0x69, 0x73, 0x65, 0x5f, 0x33, 0x30, 0x00, 0x00, 0x00, 0x00, 0x04, 0x00,
  0x00, 0x00, 0x01, 0x00, 0x00, 0x00, 0x07, 0x00, 0x00, 0x00, 0x01, 0x00, 0x00,
  0x00, 0x0e, 0x00, 0x00, 0x00, 0x74, 0xc0, 0xff, 0xff, 0x82, 0xc1, 0xff, 0xff,
  0x04, 0x00, 0x00, 0x00, 0xf8, 0x01, 0x00, 0x00, 0xfd, 0xbc, 0x15, 0x3f, 0xf0,
  0xd5, 0x04, 0x3e, 0x29, 0x8f, 0xf7, 0x3d, 0x83, 0xde, 0x95, 0xbe, 0x94, 0x8b,
  0x53, 0x3e, 0x9f, 0x3c, 0x10, 0xbd, 0x5b, 0x9f, 0xa0, 0x3d, 0x44, 0x98, 0xc0,
  0x3e, 0xc1, 0xd7, 0xe3, 0x3d, 0x37, 0x40, 0x81, 0xbe, 0xe7, 0x5f, 0x71, 0x3e,
  0xd1, 0xc0, 0x28, 0x3f, 0x1f, 0x63, 0xab, 0xbe, 0x8c, 0xed, 0x12, 0x3d, 0xd2,
  0xbc, 0xfd, 0x3e, 0xd1, 0xaa, 0x94, 0xbf, 0x40, 0x4c, 0x79, 0x3e, 0x98, 0x09,
  0x0f, 0xbf, 0xb8, 0xf9, 0x02, 0x3b, 0x2c, 0x09, 0x83, 0x3e, 0xc2, 0x7d, 0x2f,
  0xbe, 0x4d, 0x04, 0xad, 0x3e, 0xa4, 0x95, 0xac, 0xbd, 0xc1, 0x2a, 0x1e, 0xbf,
  0x68, 0xa2, 0x84, 0x3e, 0xf9, 0x15, 0x04, 0xbf, 0xa3, 0xa2, 0xf5, 0xbe, 0xcc,
  0x10, 0x86, 0xbd, 0xa7, 0xe3, 0x49, 0x3e, 0x17, 0xe0, 0x13, 0x3f, 0x42, 0x64,
  0xda, 0x3c, 0xa1, 0xf3, 0x76, 0xbe, 0x11, 0xab, 0x2b, 0x3d, 0x87, 0x40, 0x2e,
  0x3e, 0x91, 0xc0, 0x7a, 0xbe, 0x97, 0x8c, 0x4e, 0xbd, 0x17, 0x60, 0x02, 0x3c,
  0xd0, 0x8e, 0x8c, 0xbd, 0xcb, 0x83, 0x47, 0xbc, 0x5b, 0x30, 0x00, 0x3e, 0x3c,
  0x58, 0xee, 0xbd, 0x4d, 0xc7, 0xd4, 0xbc, 0xd8, 0x79, 0x9d, 0x3c, 0x2a, 0xdd,
  0x28, 0xbd, 0x7d, 0x1d, 0xb7, 0xbd, 0x2d, 0x54, 0xb8, 0xbd, 0x80, 0x6b, 0x22,
  0xbe, 0xa1, 0x67, 0x5f, 0xbe, 0x36, 0x4f, 0x12, 0x3c, 0xaf, 0x60, 0x73, 0x3e,
  0x40, 0xb3, 0x09, 0x3e, 0x17, 0xe4, 0x31, 0x3d, 0x55, 0x24, 0x00, 0x3e, 0xe3,
  0x00, 0x47, 0x3d, 0x71, 0x1a, 0x14, 0x3e, 0x97, 0x1b, 0xc6, 0x3d, 0x08, 0x1d,
  0xaa, 0x3d, 0xfe, 0x11, 0x5a, 0xbf, 0x17, 0xfa, 0xa6, 0x3e, 0x89, 0x87, 0xd1,
  0x3e, 0x12, 0xee, 0xe4, 0x38, 0xbf, 0xce, 0xd0, 0x3d, 0xa5, 0x6d, 0xf5, 0x3e,
  0x78, 0xbb, 0x20, 0xbf, 0xcd, 0x49, 0x66, 0x3e, 0x95, 0x42, 0xd7, 0x3e, 0x88,
  0x67, 0x0f, 0xbf, 0xd0, 0xc2, 0x7f, 0x3e, 0xf1, 0xa3, 0x9f, 0x3e, 0xa1, 0xe7,
  0xc1, 0x3c, 0xf5, 0x21, 0xfa, 0xbd, 0x56, 0x5a, 0x24, 0xbd, 0xfc, 0xe2, 0xf6,
  0x3d, 0x3a, 0x8b, 0xe7, 0x3d, 0x45, 0xdb, 0xd4, 0xbe, 0x0e, 0x49, 0xf4, 0x3d,
  0x4d, 0x74, 0xdb, 0x3e, 0xae, 0x48, 0xc1, 0xbe, 0x3d, 0xad, 0x83, 0xbe, 0xb4,
  0xf1, 0xec, 0xbe, 0x58, 0x19, 0xf0, 0xbd, 0x48, 0x72, 0x0e, 0xbe, 0xb7, 0x3c,
  0x41, 0xbf, 0x20, 0xe0, 0x9e, 0x3d, 0x41, 0x13, 0x90, 0x3c, 0x8d, 0x9c, 0xd3,
  0xbd, 0x06, 0x61, 0x0b, 0xbd, 0x8c, 0xcb, 0x5a, 0x3e, 0xaa, 0xa8, 0x9d, 0x3c,
  0xf3, 0x6a, 0x86, 0xbc, 0x31, 0x6b, 0x14, 0x3e, 0x6f, 0x39, 0xca, 0x3e, 0x4f,
  0x3a, 0xc3, 0x3d, 0x44, 0x9c, 0xc1, 0x3e, 0x5c, 0xe5, 0x0c, 0xbf, 0x7d, 0x92,
  0x10, 0x3f, 0xfb, 0x52, 0x68, 0x3d, 0x61, 0x43, 0x3b, 0x3e, 0x84, 0x8f, 0xb9,
  0xbe, 0xe1, 0x34, 0x99, 0xbe, 0xbf, 0x9d, 0xb8, 0xbe, 0x43, 0x3e, 0x25, 0x3d,
  0xbd, 0x02, 0x5e, 0x3e, 0x75, 0x77, 0x08, 0xbf, 0x14, 0x53, 0x61, 0xbe, 0x55,
  0xfb, 0x35, 0xbc, 0x72, 0xfb, 0x9a, 0xbe, 0x38, 0xc9, 0x50, 0x3f, 0x4a, 0xcf,
  0x09, 0x3f, 0x8b, 0xd1, 0xce, 0x3e, 0xa4, 0x7c, 0x4e, 0x3f, 0xb6, 0x7b, 0x85,
  0x3e, 0x20, 0x69, 0xb8, 0x3e, 0x75, 0x07, 0x56, 0x3e, 0x3f, 0x80, 0xd2, 0xbe,
  0xfe, 0x9b, 0x34, 0x3f, 0x56, 0xdc, 0x3e, 0xbf, 0xdc, 0xd6, 0x0b, 0xbf, 0xfb,
  0xed, 0x0c, 0x3f, 0x8e, 0xbb, 0x49, 0xbe, 0x68, 0xa3, 0x11, 0x3f, 0xb3, 0xb3,
  0xe1, 0xbe, 0x40, 0x80, 0x85, 0x3e, 0x4f, 0x71, 0x00, 0x3e, 0xab, 0xa9, 0x7e,
  0x3e, 0x25, 0x37, 0x9d, 0xbe, 0x26, 0xc3, 0xff, 0xff, 0x20, 0x00, 0x00, 0x00,
  0x39, 0x00, 0x00, 0x00, 0x08, 0x00, 0x00, 0x00, 0x28, 0x00, 0x00, 0x00, 0x09,
  0x00, 0x00, 0x00, 0x43, 0x6f, 0x6e, 0x76, 0x32, 0x44, 0x5f, 0x31, 0x34, 0x00,
  0x00, 0x00, 0x04, 0x00, 0x00, 0x00, 0x0e, 0x00, 0x00, 0x00, 0x01, 0x00, 0x00,
  0x00, 0x01, 0x00, 0x00, 0x00, 0x09, 0x00, 0x00, 0x00, 0xb4, 0xc2, 0xff, 0xff,
  0xc2, 0xc3, 0xff, 0xff, 0x04, 0x00, 0x00, 0x00, 0xb4, 0x00, 0x00, 0x00, 0x0a,
  0xd1, 0x9f, 0x3d, 0x50, 0xec, 0x0c, 0xbd, 0x16, 0x2c, 0x92, 0xbe, 0x63, 0xaa,
  0xc1, 0x3d, 0xc6, 0x29, 0x8a, 0xbe, 0x2b, 0xa1, 0x86, 0xbe, 0x71, 0xb0, 0x2c,
  0x3d, 0x7e, 0x93, 0x0d, 0x3e, 0x52, 0x92, 0x51, 0x3a, 0x48, 0x99, 0x9f, 0xbe,
  0x53, 0x25, 0x5a, 0xbe, 0x27, 0xba, 0x82, 0xbe, 0xd5, 0xe6, 0x96, 0x3d, 0x00,
  0x24, 0x80, 0x3d, 0xe2, 0x53, 0x76, 0xbe, 0x91, 0x38, 0xb6, 0x3d, 0x38, 0x79,
  0x87, 0x3e, 0x2f, 0xc2, 0xb0, 0x3d, 0x03, 0xec, 0x2a, 0x3e, 0x53, 0x01, 0x9f,
  0xbe, 0xcc, 0x3a, 0x4e, 0xbd, 0xbb, 0xef, 0xd7, 0xbe, 0x59, 0x08, 0x59, 0x3e,
  0xcc, 0xea, 0x48, 0xbe, 0x08, 0x26, 0x56, 0x3e, 0x72, 0xbb, 0x02, 0x3d, 0x85,
  0xda, 0x5d, 0x3e, 0x2d, 0x28, 0xa5, 0xbd, 0x0c, 0x2b, 0x50, 0xbe, 0x55, 0x45,
  0xc9, 0xbd, 0x91, 0x9d, 0x3e, 0xbe, 0x49, 0x97, 0x7a, 0xbe, 0x3d, 0x5c, 0x1b,
  0xbd, 0xb4, 0x1e, 0x21, 0x3e, 0xf6, 0xf5, 0xb6, 0x3c, 0x47, 0x18, 0x56, 0x3e,
  0x3d, 0x12, 0x95, 0x3d, 0x65, 0x3a, 0xec, 0x3d, 0x59, 0xf2, 0x80, 0xbb, 0x0e,
  0xd4, 0xa8, 0xbc, 0x21, 0xb6, 0xe7, 0xbc, 0x7b, 0x0e, 0x3b, 0xbd, 0xcf, 0x29,
  0x53, 0x3d, 0xe3, 0xc7, 0x9c, 0x3c, 0x53, 0x86, 0x79, 0x3d, 0x22, 0xc4, 0xff,
  0xff, 0x24, 0x00, 0x00, 0x00, 0x38, 0x00, 0x00, 0x00, 0x08, 0x00, 0x00, 0x00,
  0x2c, 0x00, 0x00, 0x00, 0x0d, 0x00, 0x00, 0x00, 0x64, 0x65, 0x70, 0x74, 0x68,
  0x77, 0x69, 0x73, 0x65, 0x5f, 0x32, 0x39, 0x31, 0x00, 0x00, 0x00, 0x04, 0x00,
  0x00, 0x00, 0x01, 0x00, 0x00, 0x00, 0x01, 0x00, 0x00, 0x00, 0x05, 0x00, 0x00,
  0x00, 0x09, 0x00, 0x00, 0x00, 0xb4, 0xc3, 0xff, 0xff, 0xc2, 0xc4, 0xff, 0xff,
  0x04, 0x00, 0x00, 0x00, 0x24, 0x00, 0x00, 0x00, 0x00, 0x00, 0x00, 0x00, 0x00,
  0x00, 0x00, 0x00, 0x00, 0x00, 0x00, 0x00, 0x00, 0x00, 0x00, 0x00, 0x00, 0x00,
  0x00, 0x00, 0x00, 0x00, 0x00, 0x00, 0x00, 0x00, 0x00, 0x00, 0x00, 0x00, 0x00,
  0x00, 0x00, 0x00, 0x00, 0x00, 0x92, 0xc4, 0xff, 0xff, 0x24, 0x00, 0x00, 0x00,
  0x37, 0x00, 0x00, 0x00, 0x08, 0x00, 0x00, 0x00, 0x20, 0x00, 0x00, 0x00, 0x0c,
  0x00, 0x00, 0x00, 0x64, 0x65, 0x70, 0x74, 0x68, 0x77, 0x69, 0x73, 0x65, 0x5f,
  0x32, 0x39, 0x00, 0x00, 0x00, 0x00, 0x01, 0x00, 0x00, 0x00, 0x09, 0x00, 0x00,
  0x00, 0x18, 0xc4, 0xff, 0xff, 0x26, 0xc5, 0xff, 0xff, 0x04, 0x00, 0x00, 0x00,
  0xb4, 0x00, 0x00, 0x00, 0x04, 0x7d, 0x6e, 0xbc, 0xd0, 0x48, 0x39, 0xbd, 0x28,
  0xec, 0xe9, 0xbd, 0xf9, 0xbd, 0x54, 0x3e, 0x8f, 0x1d, 0x83, 0x3d, 0x40, 0x66,
  0x53, 0x3e, 0x24, 0x48, 0x93, 0xbe, 0xa9, 0x33, 0x94, 0x3d, 0xcb, 0xd9, 0xc8,
  0xbd, 0x25, 0x19, 0x56, 0x3b, 0x64, 0x04, 0x23, 0xbb, 0xb0, 0xd6, 0x8b, 0x3e,
  0x3f, 0xd2, 0x79, 0xbe, 0x7c, 0x54, 0x8b, 0x3d, 0x15, 0x71, 0x5e, 0xbd, 0x48,
  0x89, 0x98, 0x3d, 0x2a, 0xbe, 0xac, 0xbd, 0x36, 0x3f, 0x5b, 0x3e, 0x6e, 0xcd,
  0xf1, 0xbd, 0x4d, 0x1d, 0x1b, 0x3e, 0x8a, 0xaa, 0x0f, 0xbe, 0xe5, 0x0d, 0x20,
  0x3e, 0x38, 0xc7, 0x47, 0xbe, 0x6f, 0x08, 0xc9, 0x3d, 0xe7, 0x59, 0x53, 0x3e,
  0x1e, 0xe5, 0xd9, 0x3c, 0x04, 0x5d, 0x71, 0xbe, 0x9b, 0x87, 0x4d, 0x3e, 0xae,
  0x01, 0xf2, 0xbd, 0x1c, 0x20, 0x84, 0x3e, 0x51, 0xc5, 0x80, 0x3c, 0x37, 0xb2,
  0x8e, 0x3e, 0xce, 0x66, 0x72, 0xbe, 0x4a, 0xe2, 0x82, 0xbe, 0x60, 0x77, 0xa7,
  0xbd, 0x5a, 0x01, 0xde, 0xbd, 0xae, 0x33, 0xe8, 0xbe, 0x10, 0x4d, 0x5a, 0x3d,
  0xb2, 0xfa, 0x72, 0xbd, 0xf4, 0xb6, 0x37, 0x3e, 0xff, 0x89, 0x44, 0x3e, 0xa4,
  0xab, 0xb0, 0xbe, 0xc2, 0x68, 0xad, 0x3d, 0x7c, 0x5f, 0x89, 0xbe, 0x46, 0x4c,
  0xf6, 0xbd, 0x86, 0xc5, 0xff, 0xff, 0x24, 0x00, 0x00, 0x00, 0x36, 0x00, 0x00,
  0x00, 0x08, 0x00, 0x00, 0x00, 0x2c, 0x00, 0x00, 0x00, 0x0c, 0x00, 0x00, 0x00,
  0x64, 0x65, 0x70, 0x74, 0x68, 0x77, 0x69, 0x73, 0x65, 0x5f, 0x32, 0x38, 0x00,
  0x00, 0x00, 0x00, 0x04, 0x00, 0x00, 0x00, 0x01, 0x00, 0x00, 0x00, 0x05, 0x00,
  0x00, 0x00, 0x01, 0x00, 0x00, 0x00, 0x09, 0x00, 0x00, 0x00, 0x18, 0xc5, 0xff,
  0xff, 0x26, 0xc6, 0xff, 0xff, 0x04, 0x00, 0x00, 0x00, 0x28, 0x04, 0x00, 0x00,
  0x94, 0x26, 0x8d, 0xbe, 0xb6, 0x75, 0x08, 0xbf, 0xc2, 0xcc, 0xc8, 0x3e, 0x2f,
  0xf2, 0x11, 0xbe, 0x1d, 0xb6, 0x4a, 0xbe, 0xfe, 0x53, 0x25, 0xbe, 0xbb, 0x2f,
  0x29, 0xbe, 0x24, 0x74, 0x98, 0x3e, 0x03, 0x41, 0xb2, 0x3d, 0x25, 0x22, 0xee,
  0x3c, 0xe4, 0x51, 0xa3, 0x3d, 0x61, 0x6e, 0x7e, 0xbe, 0x02, 0x1a, 0x88, 0xbe,
  0x9a, 0xea, 0x17, 0x3e, 0x16, 0x0a, 0x04, 0x0d, 0xa5, 0x8a, 0x87, 0xbf, 0x0d,
  0x88, 0xd4, 0xbe, 0x28, 0x71, 0xaf, 0xbe, 0x03, 0xda, 0xc8, 0x3e, 0x9c, 0x50,
  0x1d, 0x3d, 0x4b, 0xa9, 0x53, 0x3e, 0xd4, 0x3e, 0x83, 0xbe, 0x76, 0xae, 0x2d,
  0x3d, 0xfb, 0xd3, 0x2d, 0x3d, 0x47, 0x4f, 0x22, 0xbc, 0x8e, 0x5e, 0x09, 0xbe,
  0x4d, 0x1b, 0x3c, 0xbf, 0x5e, 0x4f, 0x8a, 0x3e, 0x25, 0xa8, 0xa7, 0x3e, 0xcd,
  0x9f, 0xc4, 0xbe, 0x6b, 0x5d, 0x9d, 0xbe, 0x59, 0x43, 0x4e, 0x3d, 0x80, 0x59,
  0x17, 0x3e, 0x57, 0x7b, 0x3c, 0x0d, 0x9f, 0x62, 0x89, 0x3d, 0xf1, 0x7c, 0x0a,
  0x3f, 0xea, 0x24, 0x36, 0xbc, 0x47, 0xc1, 0x06, 0xbf, 0x2b, 0x46, 0x7b, 0x3e,
  0xff, 0x8e, 0xf6, 0x3e, 0x0e, 0xe6, 0x5c, 0x3e, 0xb3, 0x63, 0xb5, 0xbd, 0xf8,
  0x86, 0x5e, 0xbd, 0x93, 0x6d, 0x9b, 0xbd, 0x2d, 0xa2, 0xc7, 0x3e, 0xb7, 0x33,
  0xd0, 0x3d, 0x89, 0x31, 0x87, 0xbd, 0x25, 0x63, 0x0f, 0x3e, 0xb0, 0xdd, 0x74,
  0x3e, 0xcd, 0xd4, 0x56, 0x3e, 0x70, 0xe0, 0x0b, 0xbe, 0x1f, 0xb5, 0xb0, 0xbe,
  0x7f, 0xeb, 0x2d, 0x0d, 0xfb, 0xde, 0xeb, 0x3c, 0xd3, 0x53, 0x05, 0x3e, 0x44,
  0x65, 0x24, 0x3e, 0xfe, 0x96, 0x43, 0xbf, 0x5a, 0xbd, 0x22, 0xbe, 0x61, 0xb2,
  0xb3, 0xbe, 0xe8, 0xa0, 0x0d, 0xbe, 0x76, 0x04, 0xb1, 0x3d, 0x75, 0xa6, 0x0d,
  0x3d, 0x8f, 0xb9, 0x6a, 0xbd, 0x2c, 0x06, 0xbe, 0xbd, 0x38, 0xd8, 0x6f, 0x3e,
  0x8b, 0x0e, 0xa2, 0xbe, 0x19, 0x48, 0x76, 0x3e, 0x75, 0xfb, 0x80, 0xbf, 0x5d,
  0x6f, 0x3f, 0xbe, 0x41, 0xe4, 0x68, 0xbe, 0x11, 0xe5, 0xde, 0x3c, 0xe0, 0x45,
  0x01, 0x0a, 0x7c, 0x0d, 0x14, 0xbe, 0xc6, 0x93, 0x97, 0xbe, 0x5f, 0xb5, 0x1e,
  0x3e, 0x99, 0x48, 0xfa, 0x3d, 0x23, 0x81, 0x3f, 0x3c, 0x2b, 0x5d, 0xed, 0x3d,
  0x45, 0x3c, 0xd2, 0xbe, 0x3c, 0x1d, 0x5a, 0xbf, 0xfa, 0xe7, 0x46, 0xbf, 0x2a,
  0x16, 0x33, 0xbf, 0x30, 0xa0, 0x45, 0x3d, 0x62, 0x12, 0x80, 0x3c, 0xf2, 0xf7,
  0x3a, 0xbf, 0xc4, 0x7a, 0xbb, 0xbd, 0xb8, 0x8f, 0xb9, 0x3d, 0x56, 0x5f, 0x84,
  0x3e, 0xc2, 0x51, 0x65, 0xbd, 0x6f, 0x96, 0x2e, 0x3d, 0x04, 0x63, 0xe7, 0x8b,
  0xa6, 0xda, 0x68, 0x3d, 0x9f, 0x1e, 0x67, 0x3d, 0xc2, 0x88, 0x08, 0x3f, 0x85,
  0x54, 0x19, 0xbe, 0xa7, 0xd2, 0xfa, 0xbe, 0x99, 0x6e, 0x25, 0x3f, 0xc4, 0x34,
  0x53, 0x3f, 0xf9, 0xae, 0x58, 0xbe, 0x19, 0x73, 0x36, 0xbd, 0x73, 0xa2, 0x9a,
  0x3f, 0x04, 0x5c, 0x05, 0x3e, 0x3d, 0xe0, 0xb6, 0xbd, 0x05, 0x72, 0x05, 0x3f,
  0x50, 0xbf, 0xec, 0xbd, 0x96, 0xdf, 0xe0, 0x3c, 0xbe, 0xfa, 0x09, 0x3d, 0x8f,
  0x4e, 0xac, 0xbd, 0xff, 0x72, 0x45, 0xbf, 0x72, 0xcb, 0x4d, 0x0c, 0x05, 0x9c,
  0x28, 0x3f, 0x87, 0xd1, 0x98, 0x3e, 0x55, 0xbe, 0x67, 0x3d, 0x8f, 0x40, 0x2f,
  0xbe, 0xf3, 0xca, 0x46, 0xbd, 0xf8, 0x9c, 0x2b, 0xbd, 0xeb, 0x51, 0xd7, 0xbe,
  0xdf, 0x5e, 0xc7, 0xbd, 0x13, 0x38, 0xb2, 0xbd, 0x25, 0x9f, 0xb3, 0x3d, 0x2d,
  0x64, 0x06, 0xbd, 0x89, 0x3e, 0xab, 0xbe, 0x05, 0xf1, 0xe0, 0x3e, 0xde, 0xe9,
  0xed, 0xbe, 0xb0, 0x8a, 0x35, 0x3e, 0x9f, 0x11, 0xc6, 0xbe, 0x54, 0x19, 0x47,
  0x3f, 0x83, 0x8f, 0x01, 0xbd, 0x06, 0xf0, 0xc1, 0x8b, 0x57, 0x50, 0x3e, 0xbe,
  0xbf, 0xf5, 0xa2, 0x3d, 0x00, 0x23, 0x01, 0xbd, 0xc6, 0x25, 0x53, 0x3e, 0x7d,
  0x56, 0x9f, 0xbe, 0xf0, 0x68, 0x29, 0xbe, 0xd8, 0xe4, 0x8d, 0x3f, 0xbc, 0xc6,
  0x19, 0xbe, 0x4f, 0xad, 0x1c, 0xbe, 0x00, 0x25, 0xa0, 0xbe, 0x29, 0x9a, 0xac,
  0xbd, 0x15, 0xb9, 0x73, 0xbd, 0x50, 0xdf, 0xca, 0x3d, 0x7f, 0xf3, 0xc1, 0x3e,
  0xfb, 0xa4, 0x3c, 0xbd, 0xf4, 0x37, 0x25, 0xbf, 0x39, 0xc6, 0x84, 0xbe, 0xe8,
  0x12, 0xc0, 0x3e, 0x32, 0x82, 0xb3, 0x0b, 0xef, 0xd0, 0xef, 0xbe, 0x9e, 0xb8,
  0x2f, 0xbe, 0x90, 0x64, 0x05, 0xbe, 0xeb, 0xef, 0x96, 0x3e, 0x3b, 0xe2, 0x51,
  0x3e, 0x4a, 0x5f, 0x5f, 0x3d, 0x94, 0x9f, 0x00, 0xbf, 0x62, 0xb3, 0x5f, 0x3c,
  0x5d, 0xc5, 0x08, 0xbd, 0xb3, 0x49, 0xc5, 0xbd, 0xea, 0x4d, 0x08, 0x3f, 0x8a,
  0x21, 0x35, 0x3f, 0xae, 0x70, 0xc2, 0x3e, 0x72, 0x29, 0x2c, 0xbf, 0x61, 0x8d,
  0x85, 0x3e, 0xc2, 0x24, 0xd4, 0xbe, 0x4c, 0x8b, 0x80, 0xbd, 0x3f, 0x25, 0xe9,
  0xbe, 0x6c, 0x08, 0x87, 0x0c, 0xbf, 0x9b, 0xb2, 0xbd, 0xcf, 0x81, 0xf1, 0x3b,
  0x55, 0xc0, 0x09, 0xbe, 0x98, 0xb7, 0xe1, 0x3e, 0xc5, 0x7f, 0x38, 0x3e, 0xe2,
  0x02, 0xbf, 0xbd, 0x4f, 0x5d, 0x0d, 0x3e, 0xeb, 0xd5, 0x61, 0x3d, 0xf2, 0x2b,
  0x2d, 0x3d, 0x17, 0x40, 0x74, 0xbd, 0x63, 0xac, 0x2a, 0x3d, 0x29, 0xd7, 0xe4,
  0xbd, 0x9d, 0xe1, 0x54, 0xbd, 0x40, 0xa7, 0x4c, 0x3e, 0xe9, 0x64, 0x01, 0x3e,
  0xdd, 0xdc, 0xbd, 0x3d, 0x9a, 0x3d, 0x00, 0x3e, 0x48, 0xfa, 0x84, 0x3d, 0xf4,
  0xc9, 0xd7, 0x0a, 0x11, 0x8e, 0xcb, 0xbd, 0x0b, 0x58, 0xa8, 0xbf, 0xe4, 0xe2,
  0x2e, 0x3d, 0xde, 0x75, 0x63, 0x3d, 0x02, 0xf0, 0x0a, 0xbf, 0x04, 0xae, 0x28,
  0x3f, 0xf7, 0x59, 0x94, 0x3f, 0x74, 0xab, 0xb8, 0xbd, 0xf7, 0xf1, 0xa2, 0x3d,
  0x19, 0x7a, 0x43, 0x3d, 0x70, 0x94, 0x94, 0xbe, 0x89, 0x77, 0x12, 0xbf, 0x52,
  0x47, 0x1d, 0xbf, 0x63, 0x82, 0x3b, 0xbf, 0xf9, 0x74, 0xfa, 0x3e, 0x80, 0x11,
  0x39, 0x3f, 0x34, 0xa4, 0xbd, 0xbe, 0xbb, 0x02, 0x68, 0xbf, 0x44, 0x61, 0x0c,
  0x0d, 0x2a, 0x03, 0xb0, 0x3e, 0x6c, 0x0d, 0x88, 0xbd, 0x52, 0xb4, 0x93, 0x3e,
  0xa6, 0xc8, 0x8c, 0x3e, 0xac, 0xaf, 0x17, 0x3f, 0x59, 0x6f, 0x4a, 0xbe, 0x56,
  0xf4, 0x5b, 0x3e, 0x69, 0xe9, 0xd2, 0x3d, 0x15, 0xfb, 0x5f, 0x3d, 0x8b, 0xa8,
  0x88, 0xbe, 0xe3, 0xd8, 0x07, 0x3e, 0x66, 0x2a, 0x51, 0x3e, 0x9d, 0x83, 0x21,
  0xbf, 0xe2, 0x69, 0x3d, 0x3e, 0x0c, 0x0d, 0x3d, 0x3e, 0x1a, 0x76, 0x77, 0xbb,
  0x64, 0x25, 0xe3, 0x3e, 0x3f, 0xe6, 0xd7, 0x3e, 0x00, 0xb5, 0xd6, 0x0a, 0x36,
  0xc5, 0x11, 0xbe, 0x2f, 0xd7, 0xa1, 0x3f, 0xa1, 0xbc, 0x63, 0x3e, 0x46, 0x03,
  0x2e, 0x3f, 0x72, 0xb6, 0x24, 0xbf, 0x1e, 0x84, 0x75, 0xbe, 0xe4, 0x99, 0xe3,
  0xbe, 0xc8, 0x47, 0xfd, 0x39, 0x39, 0xf5, 0x5b, 0xbc, 0xb7, 0xe5, 0x3f, 0xbe,
  0x2b, 0x88, 0x3c, 0xbe, 0xd1, 0x32, 0xd8, 0xbd, 0xaf, 0x49, 0x0e, 0x3f, 0x4b,
  0x7c, 0x8c, 0xbe, 0x09, 0x5e, 0xf7, 0xbe, 0x0f, 0x51, 0xc7, 0xbe, 0xc1, 0x7f,
  0x9d, 0x3e, 0xa3, 0x92, 0xa4, 0x3d, 0x55, 0xb4, 0xa6, 0x0b, 0x1e, 0x6f, 0xcd,
  0xbb, 0x04, 0xf4, 0x4d, 0xbf, 0xc4, 0xd6, 0x3d, 0xbf, 0x87, 0x5a, 0x5c, 0xbf,
  0xf0, 0x81, 0x1a, 0x3c, 0xea, 0x73, 0x1d, 0xbe, 0x05, 0x0a, 0xc8, 0x3d, 0xc5,
  0xfc, 0xc8, 0x3d, 0x3b, 0x05, 0xe1, 0x3d, 0xe5, 0x55, 0x96, 0x3e, 0xbb, 0x12,
  0xec, 0xbd, 0x36, 0x6b, 0x41, 0xbf, 0xd6, 0xc2, 0x13, 0xbf, 0xd9, 0x6f, 0x68,
  0xbd, 0x63, 0x69, 0xd2, 0x3e, 0x7a, 0x42, 0x7c, 0x3f, 0xd4, 0xba, 0xe7, 0xbe,
  0x49, 0x22, 0xfc, 0xbd, 0xa4, 0x78, 0xe2, 0x0c, 0x2d, 0xf2, 0x11, 0x3f, 0x27,
  0x07, 0x32, 0xbf, 0x05, 0x1c, 0x94, 0x3d, 0xf8, 0x7a, 0x66, 0x3e, 0xfa, 0xc9,
  0xff, 0xff, 0x20, 0x00, 0x00, 0x00, 0x35, 0x00, 0x00, 0x00, 0x08, 0x00, 0x00,
  0x00, 0x28, 0x00, 0x00, 0x00, 0x09, 0x00, 0x00, 0x00, 0x43, 0x6f, 0x6e, 0x76,
  0x32, 0x44, 0x5f, 0x31, 0x33, 0x00, 0x00, 0x00, 0x04, 0x00, 0x00, 0x00, 0x0e,
  0x00, 0x00, 0x00, 0x01, 0x00, 0x00, 0x00, 0x01, 0x00, 0x00, 0x00, 0x13, 0x00,
  0x00, 0x00, 0x88, 0xc9, 0xff, 0xff, 0x96, 0xca, 0xff, 0xff, 0x04, 0x00, 0x00,
  0x00, 0x7c, 0x01, 0x00, 0x00, 0xd9, 0x4d, 0xb4, 0x3e, 0x91, 0x4a, 0x7c, 0x3e,
  0xbf, 0xc6, 0x44, 0x3e, 0xc9, 0xbc, 0x99, 0xbe, 0xf3, 0x86, 0xca, 0xbe, 0x7b,
  0xf8, 0x18, 0xbe, 0x88, 0x45, 0xdb, 0x3b, 0x5a, 0xdd, 0x90, 0x3c, 0x30, 0x99,
  0x43, 0xbe, 0xed, 0xe7, 0xf4, 0xbc, 0x34, 0x90, 0x46, 0x3d, 0x99, 0x9c, 0x37,
  0xbe, 0x09, 0x65, 0x03, 0x3c, 0xb0, 0x83, 0x54, 0x3e, 0xbc, 0x09, 0xd4, 0x8c,
  0xfb, 0x61, 0xcf, 0x3e, 0xe0, 0x6e, 0x86, 0xbc, 0xa3, 0x36, 0xb9, 0x3e, 0xaa,
  0xa5, 0xa3, 0xbd, 0x56, 0xd3, 0xb3, 0x3d, 0x19, 0x5a, 0x3a, 0xbe, 0x01, 0x31,
  0xf2, 0xbe, 0xf0, 0xf1, 0x87, 0x3e, 0xf7, 0x84, 0xc8, 0x3e, 0x17, 0xf6, 0xa4,
  0x3e, 0x7e, 0x0c, 0xb9, 0x3d, 0x9c, 0x59, 0xb2, 0x3d, 0x10, 0xfc, 0xda, 0x3d,
  0xaf, 0xae, 0xd0, 0x3d, 0x06, 0x29, 0x13, 0x3e, 0xe3, 0x9b, 0xf4, 0x3e, 0xe2,
  0xd8, 0x3c, 0xbd, 0xe1, 0x90, 0x97, 0xbe, 0xf0, 0x15, 0x19, 0x0d, 0x56, 0x4d,
  0x1c, 0xbf, 0x60, 0xad, 0xab, 0x3d, 0xa5, 0x74, 0xf3, 0xbe, 0x70, 0xc0, 0x87,
  0xbe, 0x50, 0x1d, 0x38, 0x3e, 0x61, 0xf9, 0x4e, 0xbe, 0x56, 0xfa, 0x13, 0x3f,
  0x8d, 0x10, 0x0d, 0x3e, 0x73, 0xbc, 0xb5, 0x3d, 0x4e, 0xd5, 0x7c, 0xbe, 0xa5,
  0xb6, 0xdd, 0xbe, 0x41, 0x7a, 0x37, 0x3f, 0x76, 0x22, 0xc2, 0x3e, 0xf4, 0x10,
  0x10, 0x3f, 0x65, 0x0e, 0x04, 0x3f, 0xc7, 0xad, 0x01, 0xbf, 0xaf, 0xb5, 0x4c,
  0x3b, 0x8b, 0x5a, 0x84, 0x3e, 0x0e, 0x50, 0x77, 0x0c, 0x3b, 0x5a, 0x3f, 0x3e,
  0xdf, 0x12, 0xb8, 0x3d, 0xae, 0x56, 0xc1, 0x3d, 0xc8, 0x6c, 0x13, 0xbf, 0xea,
  0x8d, 0xa5, 0x3e, 0xb9, 0x86, 0xa1, 0x3e, 0xc1, 0x2b, 0xd3, 0xbe, 0x96, 0x44,
  0xd4, 0xbe, 0xb7, 0xcb, 0xe7, 0xbe, 0x9a, 0xad, 0x08, 0x3d, 0x4a, 0x84, 0x99,
  0xbc, 0x3f, 0xfd, 0x46, 0x3e, 0x7e, 0x93, 0x24, 0xbf, 0x1a, 0x5e, 0x4c, 0x3e,
  0x4b, 0x43, 0x17, 0x3e, 0x8c, 0x29, 0x88, 0x3e, 0x67, 0x03, 0xdb, 0xbe, 0xdb,
  0x78, 0x7d, 0xbe, 0x77, 0xb1, 0xf5, 0x0c, 0x34, 0x44, 0x86, 0x3e, 0x65, 0x5e,
  0xc5, 0x3e, 0x34, 0xcb, 0xa4, 0x3e, 0xa1, 0x47, 0x83, 0xbe, 0x26, 0x5a, 0x7a,
  0x3e, 0x63, 0x49, 0x7e, 0xbe, 0xea, 0xbf, 0x32, 0x3e, 0x38, 0x44, 0x6d, 0x3e,
  0x26, 0xb0, 0x80, 0x3e, 0x5d, 0xe8, 0x94, 0x3d, 0xeb, 0xbe, 0x83, 0x3c, 0xc0,
  0xaf, 0x76, 0xbd, 0xa5, 0xe9, 0xb1, 0x3e, 0x53, 0xc9, 0x9a, 0xbd, 0xd5, 0x0c,
  0x12, 0xbc, 0x43, 0xe9, 0xac, 0xbd, 0x95, 0xdc, 0x00, 0xbf, 0xc5, 0x2d, 0x0d,
  0x3e, 0x5a, 0x83, 0x0d, 0x0d, 0xd5, 0xee, 0x85, 0xbe, 0xd0, 0x67, 0xdb, 0x3e,
  0x46, 0xa9, 0x72, 0xbe, 0xe2, 0x74, 0xb5, 0x3c, 0xbe, 0xcb, 0xff, 0xff, 0x24,
  0x00, 0x00, 0x00, 0x34, 0x00, 0x00, 0x00, 0x08, 0x00, 0x00, 0x00, 0x2c, 0x00,
  0x00, 0x00, 0x0d, 0x00, 0x00, 0x00, 0x64, 0x65, 0x70, 0x74, 0x68, 0x77, 0x69,
  0x73, 0x65, 0x5f, 0x32, 0x37, 0x31, 0x00, 0x00, 0x00, 0x04, 0x00, 0x00, 0x00,
  0x01, 0x00, 0x00, 0x00, 0x01, 0x00, 0x00, 0x00, 0x05, 0x00, 0x00, 0x00, 0x13,
  0x00, 0x00, 0x00, 0x50, 0xcb, 0xff, 0xff, 0x5e, 0xcc, 0xff, 0xff, 0x04, 0x00,
  0x00, 0x00, 0x4c, 0x00, 0x00, 0x00, 0x00, 0x00, 0x00, 0x00, 0x00, 0x00, 0x00,
  0x00, 0x00, 0x00, 0x00, 0x00, 0x00, 0x00, 0x00, 0x00, 0x00, 0x00, 0x00, 0x00,
  0x00, 0x00, 0x00, 0x00, 0x00, 0x00, 0x00, 0x00, 0x00, 0x00, 0x00, 0x00, 0x00,
  0x00, 0x00, 0x00, 0x00, 0x00, 0x00, 0x00, 0x00, 0x00, 0x00, 0x00, 0x00, 0x00,
  0x00, 0x00, 0x00, 0x00, 0x00, 0x00, 0x00, 0x00, 0x00, 0x00, 0x00, 0x00, 0x00,
  0x00, 0x00, 0x00, 0x00, 0x00, 0x00, 0x00, 0x00, 0x00, 0x00, 0x00, 0x00, 0x00,
  0x00, 0x00, 0x00, 0x00, 0x56, 0xcc, 0xff, 0xff, 0x24, 0x00, 0x00, 0x00, 0x33,
  0x00, 0x00, 0x00, 0x08, 0x00, 0x00, 0x00, 0x20, 0x00, 0x00, 0x00, 0x0c, 0x00,
  0x00, 0x00, 0x64, 0x65, 0x70, 0x74, 0x68, 0x77, 0x69, 0x73, 0x65, 0x5f, 0x32,
  0x37, 0x00, 0x00, 0x00, 0x00, 0x01, 0x00, 0x00, 0x00, 0x13, 0x00, 0x00, 0x00,
  0xdc, 0xcb, 0xff, 0xff, 0xea, 0xcc, 0xff, 0xff, 0x04, 0x00, 0x00, 0x00, 0x7c,
  0x01, 0x00, 0x00, 0x8b, 0x88, 0xba, 0xbd, 0xa0, 0x2c, 0x94, 0x3d, 0xd2, 0x84,
  0xf3, 0x3d, 0x09, 0x70, 0x58, 0xbc, 0xcc, 0x30, 0x12, 0xbc, 0xb5, 0x05, 0x1d,
  0xbc, 0x24, 0x09, 0x70, 0x3e, 0x16, 0x90, 0x01, 0xbf, 0x84, 0x54, 0xa1, 0xbd,
  0xa3, 0xa7, 0x33, 0x3e, 0xed, 0x5f, 0xeb, 0x3d, 0xcb, 0x09, 0xc2, 0x3d, 0x51,
  0x34, 0x5e, 0xbe, 0x73, 0xac, 0x33, 0xbe, 0x48, 0x67, 0xfb, 0x8b, 0xb7, 0x51,
  0xd7, 0xbd, 0x1a, 0xe1, 0x04, 0xbe, 0xdb, 0xdb, 0x7c, 0xbd, 0xb2, 0x0c, 0x4a,
  0x3e, 0x02, 0xb8, 0x04, 0x3e, 0x57, 0x48, 0xfc, 0xbd, 0x54, 0xcb, 0xa8, 0x3d,
  0x3b, 0x78, 0x02, 0x3e, 0x04, 0x5c, 0xb3, 0xbd, 0xfa, 0x41, 0xc0, 0x3b, 0x96,
  0x9f, 0x5c, 0xbe, 0x7f, 0xc6, 0x13, 0x3f, 0xbc, 0x10, 0xfd, 0xbc, 0x4b, 0xc1,
  0xa2, 0xbe, 0x25, 0x97, 0x3f, 0xbe, 0xc0, 0x7c, 0xeb, 0x3d, 0x14, 0xfe, 0xe4,
  0x3e, 0xca, 0xa4, 0xa5, 0x3d, 0x7b, 0xf4, 0x90, 0x0b, 0xa1, 0x56, 0x80, 0x3d,
  0xf0, 0x79, 0x55, 0x3e, 0x9b, 0x88, 0xd5, 0xbd, 0x03, 0xc3, 0xa7, 0xbe, 0x33,
  0x1e, 0x26, 0x3e, 0x49, 0xbc, 0x09, 0x3e, 0x8d, 0x33, 0xaa, 0x3e, 0xa2, 0xdb,
  0xef, 0xbe, 0xc9, 0x3c, 0xfa, 0x3e, 0x4f, 0x89, 0xdf, 0x3e, 0xb7, 0xbe, 0x43,
  0x3f, 0x76, 0xba, 0xa5, 0xbe, 0xed, 0xd3, 0x40, 0x3f, 0xc7, 0xde, 0xa1, 0x3e,
  0x6a, 0xb8, 0xb4, 0x3e, 0x89, 0x1b, 0x1c, 0x3f, 0xf6, 0xc8, 0x4a, 0xbe, 0xc4,
  0x8c, 0x9b, 0xbe, 0xa4, 0xbc, 0xd5, 0x0c, 0x93, 0xb0, 0x20, 0xbf, 0x4e, 0x89,
  0x8b, 0xbe, 0x2e, 0x52, 0x1b, 0x3f, 0xbc, 0x34, 0xc4, 0x3e, 0x7d, 0x50, 0x4c,
  0x3e, 0x54, 0x33, 0xd7, 0x3e, 0x87, 0x0e, 0xba, 0x3e, 0xba, 0xf0, 0xc0, 0xbe,
  0x1b, 0xeb, 0xc4, 0x3e, 0x40, 0x23, 0x61, 0x3e, 0xfa, 0x07, 0x62, 0xbe, 0x3a,
  0x6d, 0x91, 0xbd, 0x01, 0x5c, 0x17, 0x3e, 0xf4, 0x4d, 0x64, 0xbe, 0xf7, 0xc5,
  0xb6, 0xbe, 0x71, 0xda, 0x6c, 0x3e, 0xba, 0x54, 0x2e, 0xbe, 0x7f, 0xb9, 0xbf,
  0xbe, 0x96, 0xfb, 0x9d, 0x0c, 0x1c, 0x80, 0x4b, 0x3e, 0x1b, 0x26, 0x44, 0x3e,
  0xf8, 0x52, 0x41, 0x3e, 0x16, 0xf8, 0x99, 0xbe, 0x97, 0xf7, 0x65, 0xbe, 0x88,
  0x48, 0x24, 0xbd, 0xca, 0x10, 0x3c, 0xbf, 0xb5, 0xc9, 0x65, 0x3e, 0x3d, 0x7d,
  0x75, 0xbe, 0x5c, 0x62, 0x14, 0xbe, 0x76, 0x95, 0x05, 0x3f, 0x53, 0xe2, 0xbb,
  0x3e, 0x6e, 0x5f, 0x25, 0xbe, 0x2c, 0x64, 0x4d, 0x3c, 0x9f, 0xb8, 0x3e, 0x3e,
  0x13, 0x7f, 0x36, 0x3e, 0xc2, 0x07, 0x94, 0x3e, 0x56, 0x84, 0xd6, 0xbd, 0x26,
  0x82, 0x0a, 0x0d, 0x0d, 0x10, 0xef, 0x3e, 0x84, 0x54, 0xcb, 0xbd, 0xc9, 0xf6,
  0x17, 0xbe, 0xaf, 0xd6, 0x3d, 0x3d, 0x12, 0xce, 0xff, 0xff, 0x24, 0x00, 0x00,
  0x00, 0x32, 0x00, 0x00, 0x00, 0x08, 0x00, 0x00, 0x00, 0x2c, 0x00, 0x00, 0x00,
  0x0c, 0x00, 0x00, 0x00, 0x64, 0x65, 0x70, 0x74, 0x68, 0x77, 0x69, 0x73, 0x65,
  0x5f, 0x32, 0x36, 0x00, 0x00, 0x00, 0x00, 0x04, 0x00, 0x00, 0x00, 0x01, 0x00,
  0x00, 0x00, 0x05, 0x00, 0x00, 0x00, 0x01, 0x00, 0x00, 0x00, 0x13, 0x00, 0x00,
  0x00, 0xa4, 0xcd, 0xff, 0xff, 0xb2, 0xce, 0xff, 0xff, 0x04, 0x00, 0x00, 0x00,
  0xac, 0x02, 0x00, 0x00, 0xd2, 0xea, 0x70, 0x3e, 0x53, 0x66, 0x56, 0xbe, 0x15,
  0xae, 0xa9, 0xbe, 0x06, 0x93, 0xb1, 0x3e, 0x96, 0xbf, 0x9a, 0xbd, 0x5d, 0x80,
  0x68, 0xbf, 0x5d, 0xd4, 0xd6, 0x3d, 0xb0, 0xd6, 0x18, 0x3d, 0x78, 0x29, 0x73,
  0x3e, 0x0a, 0x9d, 0xae, 0x3d, 0x4a, 0x64, 0xfe, 0xbc, 0xb9, 0x66, 0x35, 0xbf,
  0x48, 0x21, 0xdb, 0xbe, 0xdd, 0x4d, 0x27, 0x3e, 0x38, 0x9b, 0xca, 0xbb, 0xb4,
  0xb0, 0xaa, 0xbc, 0xf1, 0x67, 0x9c, 0xbb, 0x73, 0x16, 0xce, 0xbc, 0x86, 0xae,
  0x29, 0xbe, 0x91, 0xe3, 0x0f, 0x3c, 0x7b, 0x08, 0x1a, 0xbf, 0xd1, 0x79, 0x04,
  0x3f, 0x66, 0x20, 0x0c, 0xbe, 0xde, 0x21, 0x74, 0x3d, 0x35, 0x77, 0x32, 0x3c,
  0x17, 0x92, 0x5c, 0x3e, 0xc9, 0xc1, 0x0e, 0x3a, 0x26, 0x9c, 0x75, 0xbd, 0x0c,
  0x31, 0xa5, 0xbc, 0x75, 0x3e, 0xbf, 0xbe, 0x6a, 0x25, 0xd2, 0xbc, 0x6c, 0x8b,
  0x4b, 0x3f, 0xb3, 0xda, 0xad, 0xbc, 0xe6, 0x8e, 0x79, 0x3d, 0x83, 0x4a, 0xcc,
  0xbe, 0x29, 0x39, 0x23, 0xbd, 0x11, 0x13, 0x0a, 0xbd, 0x9d, 0x7a, 0xe1, 0x3c,
  0x10, 0x7e, 0x33, 0x3e, 0x27, 0x71, 0x92, 0xbc, 0xb7, 0xb2, 0x2b, 0xbf, 0xb0,
  0x7a, 0x95, 0x3c, 0x6e, 0xf2, 0x8e, 0xbd, 0x2c, 0x2a, 0x8a, 0x3e, 0xf2, 0x26,
  0x61, 0x3d, 0x44, 0x06, 0x06, 0xbe, 0xb9, 0x07, 0x0b, 0x3c, 0x52, 0xa2, 0xdc,
  0x3d, 0xbb, 0x15, 0x1d, 0x3d, 0x0e, 0x25, 0xaf, 0x3e, 0x11, 0x9f, 0x4d, 0xbc,
  0xb2, 0x62, 0xdc, 0x3d, 0xf5, 0x18, 0x84, 0x3f, 0x4c, 0x6e, 0xb7, 0x3b, 0xe0,
  0x05, 0x4d, 0x3c, 0xc5, 0x92, 0xa0, 0xbf, 0x4d, 0x76, 0x95, 0xbd, 0xeb, 0x8a,
  0x08, 0xbf, 0x50, 0xfe, 0xe2, 0xbb, 0x01, 0x7d, 0xf9, 0x3e, 0x93, 0xed, 0xc9,
  0xbe, 0xe5, 0x4d, 0xf6, 0x3d, 0x57, 0xae, 0x45, 0x3e, 0xb3, 0x75, 0x8d, 0xbb,
  0xed, 0x55, 0x12, 0x3f, 0x87, 0xbd, 0xc0, 0xbb, 0x13, 0x42, 0x3c, 0x3c, 0x53,
  0x37, 0xb5, 0x3c, 0xaf, 0x4c, 0xe8, 0x3e, 0xcf, 0x2c, 0xa9, 0x3e, 0x62, 0xa8,
  0x98, 0xbb, 0x9c, 0x96, 0x08, 0x3e, 0xe9, 0xbc, 0x33, 0xbf, 0xda, 0x92, 0xb8,
  0x3d, 0x5d, 0x0c, 0x3e, 0xbe, 0x2c, 0x5b, 0x49, 0x3d, 0x41, 0x71, 0x30, 0x3e,
  0x92, 0x78, 0x96, 0xbd, 0x6e, 0xd0, 0xc2, 0x3b, 0x9a, 0x4e, 0x27, 0x3f, 0x46,
  0x85, 0x24, 0x3d, 0x4d, 0xf8, 0xdb, 0x38, 0xcf, 0xa8, 0xd6, 0x3c, 0x62, 0xa5,
  0xa1, 0xbd, 0x41, 0xfd, 0x66, 0x3e, 0x89, 0x62, 0x99, 0xbc, 0x04, 0x6d, 0xba,
  0x3e, 0x1d, 0xbc, 0x1f, 0xbf, 0x91, 0x2e, 0x0e, 0x3d, 0x41, 0x8b, 0x18, 0xbf,
  0x83, 0x05, 0x46, 0x3d, 0xb2, 0x6b, 0x5f, 0xbf, 0x2e, 0x69, 0x6f, 0xbd, 0xf6,
  0x9a, 0xe2, 0xbb, 0xe1, 0xcb, 0x1d, 0xbd, 0x05, 0xec, 0x70, 0xbe, 0x22, 0x8c,
  0x6e, 0xbf, 0x6b, 0x73, 0x6c, 0xbb, 0x6b, 0xdc, 0x9c, 0xbe, 0x7f, 0x72, 0xb7,
  0xbe, 0x37, 0x5e, 0xef, 0x3d, 0x5b, 0xe0, 0x42, 0xbe, 0x4d, 0xfa, 0x8b, 0xbe,
  0x3f, 0x90, 0x90, 0xbe, 0x01, 0xd3, 0x98, 0xbd, 0x0e, 0xf6, 0xbf, 0x3d, 0xc1,
