const unsigned char sr5by4_2_tflite[] = {
  0x20, 0x00, 0x00, 0x00, 0x54, 0x46, 0x4c, 0x33, 0x00, 0x00, 0x00, 0x00, 0x00,
  0x00, 0x12, 0x00, 0x1c, 0x00, 0x18, 0x00, 0x14, 0x00, 0x10, 0x00, 0x0c, 0x00,
  0x08, 0x00, 0x00, 0x00, 0x04, 0x00, 0x12, 0x00, 0x00, 0x00, 0x18, 0x00, 0x00,
  0x00, 0x48, 0x00, 0x00, 0x00, 0x34, 0x1d, 0x00, 0x00, 0x44, 0x1d, 0x00, 0x00,
  0xb4, 0xa4, 0x00, 0x00, 0x03, 0x00, 0x00, 0x00, 0x01, 0x00, 0x00, 0x00, 0x0c,
  0x00, 0x00, 0x00, 0x08, 0x00, 0x0c, 0x00, 0x08, 0x00, 0x04, 0x00, 0x08, 0x00,
  0x00, 0x00, 0x91, 0x00, 0x00, 0x00, 0x04, 0x00, 0x00, 0x00, 0x13, 0x00, 0x00,
  0x00, 0x6d, 0x69, 0x6e, 0x5f, 0x72, 0x75, 0x6e, 0x74, 0x69, 0x6d, 0x65, 0x5f,
  0x76, 0x65, 0x72, 0x73, 0x69, 0x6f, 0x6e, 0x00, 0x92, 0x00, 0x00, 0x00, 0xe8,
  0x1c, 0x00, 0x00, 0xe0, 0x1c, 0x00, 0x00, 0xa8, 0x1c, 0x00, 0x00, 0x68, 0x1c,
  0x00, 0x00, 0x20, 0x1c, 0x00, 0x00, 0xc8, 0x1b, 0x00, 0x00, 0x58, 0x1b, 0x00,
  0x00, 0xd0, 0x1a, 0x00, 0x00, 0xa0, 0x1a, 0x00, 0x00, 0x88, 0x1a, 0x00, 0x00,
  0x70, 0x1a, 0x00, 0x00, 0x4c, 0x1a, 0x00, 0x00, 0xd8, 0x19, 0x00, 0x00, 0x64,
  0x19, 0x00, 0x00, 0x28, 0x18, 0x00, 0x00, 0xcc, 0x17, 0x00, 0x00, 0x70, 0x17,
  0x00, 0x00, 0x7c, 0x16, 0x00, 0x00, 0x08, 0x16, 0x00, 0x00, 0x58, 0x15, 0x00,
  0x00, 0xe4, 0x14, 0x00, 0x00, 0xa8, 0x13, 0x00, 0x00, 0x4c, 0x13, 0x00, 0x00,
  0xf0, 0x12, 0x00, 0x00, 0x2c, 0x12, 0x00, 0x00, 0xe0, 0x11, 0x00, 0x00, 0x94,
  0x11, 0x00, 0x00, 0xf4, 0x10, 0x00, 0x00, 0x98, 0x10, 0x00, 0x00, 0x10, 0x10,
  0x00, 0x00, 0xb4, 0x0f, 0x00, 0x00, 0xf0, 0x0e, 0x00, 0x00, 0xa4, 0x0e, 0x00,
  0x00, 0x58, 0x0e, 0x00, 0x00, 0xdc, 0x0d, 0x00, 0x00, 0x9c, 0x0d, 0x00, 0x00,
  0x5c, 0x0d, 0x00, 0x00, 0xf8, 0x0c, 0x00, 0x00, 0xac, 0x0c, 0x00, 0x00, 0x3c,
  0x0c, 0x00, 0x00, 0xf0, 0x0b, 0x00, 0x00, 0x74, 0x0b, 0x00, 0x00, 0x34, 0x0b,
  0x00, 0x00, 0xf4, 0x0a, 0x00, 0x00, 0xa4, 0x0a, 0x00, 0x00, 0x70, 0x0a, 0x00,
  0x00, 0x3c, 0x0a, 0x00, 0x00, 0xf8, 0x09, 0x00, 0x00, 0xb8, 0x09, 0x00, 0x00,
  0x60, 0x09, 0x00, 0x00, 0x20, 0x09, 0x00, 0x00, 0xd0, 0x08, 0x00, 0x00, 0x9c,
  0x08, 0x00, 0x00, 0x68, 0x08, 0x00, 0x00, 0x34, 0x08, 0x00, 0x00, 0x08, 0x08,
  0x00, 0x00, 0xdc, 0x07, 0x00, 0x00, 0xb0, 0x07, 0x00, 0x00, 0x7c, 0x07, 0x00,
  0x00, 0x34, 0x07, 0x00, 0x00, 0x00, 0x07, 0x00, 0x00, 0xcc, 0x06, 0x00, 0x00,
  0xa0, 0x06, 0x00, 0x00, 0x74, 0x06, 0x00, 0x00, 0x48, 0x06, 0x00, 0x00, 0x1c,
  0x06, 0x00, 0x00, 0xf0, 0x05, 0x00, 0x00, 0xc4, 0x05, 0x00, 0x00, 0x90, 0x05,
  0x00, 0x00, 0x58, 0x05, 0x00, 0x00, 0x24, 0x05, 0x00, 0x00, 0x0c, 0x05, 0x00,
  0x00, 0xf4, 0x04, 0x00, 0x00, 0x44, 0x04, 0x00, 0x00, 0xbc, 0x03, 0x00, 0x00,
  0x4c, 0x03, 0x00, 0x00, 0xf4, 0x02, 0x00, 0x00, 0xac, 0x02, 0x00, 0x00, 0x74,
  0x02, 0x00, 0x00, 0x3c, 0x02, 0x00, 0x00, 0x24, 0x02, 0x00, 0x00, 0x1c, 0x02,
  0x00, 0x00, 0x14, 0x02, 0x00, 0x00, 0x0c, 0x02, 0x00, 0x00, 0x04, 0x02, 0x00,
  0x00, 0xfc, 0x01, 0x00, 0x00, 0xf4, 0x01, 0x00, 0x00, 0xec, 0x01, 0x00, 0x00,
  0xe4, 0x01, 0x00, 0x00, 0xdc, 0x01, 0x00, 0x00, 0xd4, 0x01, 0x00, 0x00, 0xcc,
  0x01, 0x00, 0x00, 0xc4, 0x01, 0x00, 0x00, 0xbc, 0x01, 0x00, 0x00, 0xb4, 0x01,
  0x00, 0x00, 0xac, 0x01, 0x00, 0x00, 0xa4, 0x01, 0x00, 0x00, 0x9c, 0x01, 0x00,
  0x00, 0x94, 0x01, 0x00, 0x00, 0x8c, 0x01, 0x00, 0x00, 0x84, 0x01, 0x00, 0x00,
  0x7c, 0x01, 0x00, 0x00, 0x74, 0x01, 0x00, 0x00, 0x6c, 0x01, 0x00, 0x00, 0x64,
  0x01, 0x00, 0x00, 0x5c, 0x01, 0x00, 0x00, 0x54, 0x01, 0x00, 0x00, 0x4c, 0x01,
  0x00, 0x00, 0x44, 0x01, 0x00, 0x00, 0x3c, 0x01, 0x00, 0x00, 0x34, 0x01, 0x00,
  0x00, 0x2c, 0x01, 0x00, 0x00, 0x24, 0x01, 0x00, 0x00, 0x1c, 0x01, 0x00, 0x00,
  0x14, 0x01, 0x00, 0x00, 0x0c, 0x01, 0x00, 0x00, 0x04, 0x01, 0x00, 0x00, 0xfc,
  0x00, 0x00, 0x00, 0xf4, 0x00, 0x00, 0x00, 0xec, 0x00, 0x00, 0x00, 0xe4, 0x00,
  0x00, 0x00, 0xdc, 0x00, 0x00, 0x00, 0xd4, 0x00, 0x00, 0x00, 0xcc, 0x00, 0x00,
  0x00, 0xc4, 0x00, 0x00, 0x00, 0xbc, 0x00, 0x00, 0x00, 0xb4, 0x00, 0x00, 0x00,
  0xac, 0x00, 0x00, 0x00, 0xa4, 0x00, 0x00, 0x00, 0x9c, 0x00, 0x00, 0x00, 0x94,
  0x00, 0x00, 0x00, 0x8c, 0x00, 0x00, 0x00, 0x84, 0x00, 0x00, 0x00, 0x7c, 0x00,
  0x00, 0x00, 0x74, 0x00, 0x00, 0x00, 0x6c, 0x00, 0x00, 0x00, 0x64, 0x00, 0x00,
  0x00, 0x5c, 0x00, 0x00, 0x00, 0x54, 0x00, 0x00, 0x00, 0x4c, 0x00, 0x00, 0x00,
  0x44, 0x00, 0x00, 0x00, 0x3c, 0x00, 0x00, 0x00, 0x34, 0x00, 0x00, 0x00, 0x2c,
  0x00, 0x00, 0x00, 0x24, 0x00, 0x00, 0x00, 0x04, 0x00, 0x00, 0x00, 0x9e, 0xe5,
  0xff, 0xff, 0x04, 0x00, 0x00, 0x00, 0x10, 0x00, 0x00, 0x00, 0x31, 0x2e, 0x35,
  0x2e, 0x30, 0x00, 0x00, 0x00, 0x00, 0x00, 0x00, 0x00, 0x00, 0x00, 0x00, 0x00,
  0xd8, 0x62, 0xff, 0xff, 0xdc, 0x62, 0xff, 0xff, 0xe0, 0x62, 0xff, 0xff, 0xe4,
  0x62, 0xff, 0xff, 0xe8, 0x62, 0xff, 0xff, 0xec, 0x62, 0xff, 0xff, 0xf0, 0x62,
  0xff, 0xff, 0xf4, 0x62, 0xff, 0xff, 0xf8, 0x62, 0xff, 0xff, 0xfc, 0x62, 0xff,
  0xff, 0x00, 0x63, 0xff, 0xff, 0x04, 0x63, 0xff, 0xff, 0x08, 0x63, 0xff, 0xff,
  0x0c, 0x63, 0xff, 0xff, 0x10, 0x63, 0xff, 0xff, 0x14, 0x63, 0xff, 0xff, 0x18,
  0x63, 0xff, 0xff, 0x1c, 0x63, 0xff, 0xff, 0x20, 0x63, 0xff, 0xff, 0x24, 0x63,
  0xff, 0xff, 0x28, 0x63, 0xff, 0xff, 0x2c, 0x63, 0xff, 0xff, 0x30, 0x63, 0xff,
  0xff, 0x34, 0x63, 0xff, 0xff, 0x38, 0x63, 0xff, 0xff, 0x3c, 0x63, 0xff, 0xff,
  0x40, 0x63, 0xff, 0xff, 0x44, 0x63, 0xff, 0xff, 0x48, 0x63, 0xff, 0xff, 0x4c,
  0x63, 0xff, 0xff, 0x50, 0x63, 0xff, 0xff, 0x54, 0x63, 0xff, 0xff, 0x58, 0x63,
  0xff, 0xff, 0x5c, 0x63, 0xff, 0xff, 0x60, 0x63, 0xff, 0xff, 0x64, 0x63, 0xff,
  0xff, 0x68, 0x63, 0xff, 0xff, 0x6c, 0x63, 0xff, 0xff, 0x70, 0x63, 0xff, 0xff,
  0x74, 0x63, 0xff, 0xff, 0x78, 0x63, 0xff, 0xff, 0x7c, 0x63, 0xff, 0xff, 0x80,
  0x63, 0xff, 0xff, 0x84, 0x63, 0xff, 0xff, 0x88, 0x63, 0xff, 0xff, 0x8c, 0x63,
  0xff, 0xff, 0x90, 0x63, 0xff, 0xff, 0x94, 0x63, 0xff, 0xff, 0x98, 0x63, 0xff,
  0xff, 0x9c, 0x63, 0xff, 0xff, 0xa0, 0x63, 0xff, 0xff, 0xa4, 0x63, 0xff, 0xff,
  0xa8, 0x63, 0xff, 0xff, 0xac, 0x63, 0xff, 0xff, 0xb0, 0x63, 0xff, 0xff, 0xb4,
  0x63, 0xff, 0xff, 0xb8, 0x63, 0xff, 0xff, 0xbc, 0x63, 0xff, 0xff, 0xc0, 0x63,
  0xff, 0xff, 0xc4, 0x63, 0xff, 0xff, 0xc8, 0x63, 0xff, 0xff, 0xcc, 0x63, 0xff,
  0xff, 0xd0, 0x63, 0xff, 0xff, 0xd4, 0x63, 0xff, 0xff, 0xba, 0xe6, 0xff, 0xff,
  0x04, 0x00, 0x00, 0x00, 0x08, 0x00, 0x00, 0x00, 0x34, 0xd6, 0xff, 0xff, 0xff,
  0xff, 0xff, 0xff, 0xce, 0xe6, 0xff, 0xff, 0x04, 0x00, 0x00, 0x00, 0x28, 0x00,
  0x00, 0x00, 0xe0, 0x09, 0x01, 0x00, 0x00, 0x00, 0x00, 0x00, 0xa4, 0xa1, 0x00,
  0x00, 0x00, 0x00, 0x00, 0x00, 0xda, 0x0d, 0xff, 0xff, 0xff, 0xff, 0xff, 0xff,
  0x49, 0x95, 0x00, 0x00, 0x00, 0x00, 0x00, 0x00, 0xbf, 0x38, 0x00, 0x00, 0x00,
  0x00, 0x00, 0x00, 0x02, 0xe7, 0xff, 0xff, 0x04, 0x00, 0x00, 0x00, 0x28, 0x00,
  0x00, 0x00, 0xf5, 0x7d, 0xff, 0xff, 0xff, 0xff, 0xff, 0xff, 0xd3, 0x15, 0x00,
  0x00, 0x00, 0x00, 0x00, 0x00, 0xe9, 0x1d, 0x00, 0x00, 0x00, 0x00, 0x00, 0x00,
  0x60, 0x83, 0x00, 0x00, 0x00, 0x00, 0x00, 0x00, 0x3a, 0xdd, 0xff, 0xff, 0xff,
  0xff, 0xff, 0xff, 0x36, 0xe7, 0xff, 0xff, 0x04, 0x00, 0x00, 0x00, 0x38, 0x00,
  0x00, 0x00, 0x4a, 0x1c, 0x00, 0x00, 0x00, 0x00, 0x00, 0x00, 0x02, 0x4e, 0xff,
  0xff, 0xff, 0xff, 0xff, 0xff, 0x50, 0xa9, 0xff, 0xff, 0xff, 0xff, 0xff, 0xff,
  0x51, 0x09, 0x00, 0x00, 0x00, 0x00, 0x00, 0x00, 0x2c, 0x26, 0x00, 0x00, 0x00,
  0x00, 0x00, 0x00, 0xea, 0xc8, 0xff, 0xff, 0xff, 0xff, 0xff, 0xff, 0x07, 0xce,
  0xff, 0xff, 0xff, 0xff, 0xff, 0xff, 0x7a, 0xe7, 0xff, 0xff, 0x04, 0x00, 0x00,
  0x00, 0x48, 0x00, 0x00, 0x00, 0xc8, 0xef, 0xff, 0xff, 0xff, 0xff, 0xff, 0xff,
  0x2e, 0xf4, 0xff, 0xff, 0xff, 0xff, 0xff, 0xff, 0x8c, 0x30, 0xff, 0xff, 0xff,
  0xff, 0xff, 0xff, 0xf5, 0xf1, 0xff, 0xff, 0xff, 0xff, 0xff, 0xff, 0x3f, 0xcb,
  0xff, 0xff, 0xff, 0xff, 0xff, 0xff, 0x9b, 0xfa, 0xff, 0xff, 0xff, 0xff, 0xff,
  0xff, 0x6c, 0xf0, 0xff, 0xff, 0xff, 0xff, 0xff, 0xff, 0xcd, 0xdd, 0xff, 0xff,
  0xff, 0xff, 0xff, 0xff, 0x4a, 0x3c, 0x00, 0x00, 0x00, 0x00, 0x00, 0x00, 0xce,
  0xe7, 0xff, 0xff, 0x04, 0x00, 0x00, 0x00, 0x60, 0x00, 0x00, 0x00, 0x73, 0x03,
  0x00, 0x00, 0x00, 0x00, 0x00, 0x00, 0xb6, 0x0e, 0x00, 0x00, 0x00, 0x00, 0x00,
  0x00, 0x6e, 0x06, 0x00, 0x00, 0x00, 0x00, 0x00, 0x00, 0x7a, 0x06, 0x00, 0x00,
  0x00, 0x00, 0x00, 0x00, 0x69, 0xf9, 0xff, 0xff, 0xff, 0xff, 0xff, 0xff, 0xca,
  0xf8, 0xff, 0xff, 0xff, 0xff, 0xff, 0xff, 0xff, 0xfd, 0xff, 0xff, 0xff, 0xff,
  0xff, 0xff, 0x53, 0xe5, 0xff, 0xff, 0xff, 0xff, 0xff, 0xff, 0x48, 0xeb, 0xff,
  0xff, 0xff, 0xff, 0xff, 0xff, 0x75, 0x05, 0x00, 0x00, 0x00, 0x00, 0x00, 0x00,
  0x93, 0xf6, 0xff, 0xff, 0xff, 0xff, 0xff, 0xff, 0xdc, 0xec, 0xff, 0xff, 0xff,
  0xff, 0xff, 0xff, 0x3a, 0xe8, 0xff, 0xff, 0x04, 0x00, 0x00, 0x00, 0x78, 0x00,
  0x00, 0x00, 0xbf, 0xf8, 0xff, 0xff, 0xff, 0xff, 0xff, 0xff, 0x16, 0x03, 0x00,
  0x00, 0x00, 0x00, 0x00, 0x00, 0xc1, 0xf9, 0xff, 0xff, 0xff, 0xff, 0xff, 0xff,
  0x89, 0xfa, 0xff, 0xff, 0xff, 0xff, 0xff, 0xff, 0xaa, 0xf8, 0xff, 0xff, 0xff,
  0xff, 0xff, 0xff, 0x56, 0x03, 0x00, 0x00, 0x00, 0x00, 0x00, 0x00, 0x2b, 0xff,
  0xff, 0xff, 0xff, 0xff, 0xff, 0xff, 0x19, 0xfe, 0xff, 0xff, 0xff, 0xff, 0xff,
  0xff, 0xdf, 0xff, 0xff, 0xff, 0xff, 0xff, 0xff, 0xff, 0xa9, 0xfd, 0xff, 0xff,
  0xff, 0xff, 0xff, 0xff, 0x0d, 0xf9, 0xff, 0xff, 0xff, 0xff, 0xff, 0xff, 0xd7,
  0xf8, 0xff, 0xff, 0xff, 0xff, 0xff, 0xff, 0x3b, 0x03, 0x00, 0x00, 0x00, 0x00,
  0x00, 0x00, 0x8d, 0x00, 0x00, 0x00, 0x00, 0x00, 0x00, 0x00, 0x37, 0x01, 0x00,
  0x00, 0x00, 0x00, 0x00, 0x00, 0xbe, 0xe8, 0xff, 0xff, 0x04, 0x00, 0x00, 0x00,
  0xa0, 0x00, 0x00, 0x00, 0xe8, 0x40, 0x00, 0x00, 0x00, 0x00, 0x00, 0x00, 0x11,
  0x70, 0x00, 0x00, 0x00, 0x00, 0x00, 0x00, 0xe9, 0xf7, 0xff, 0xff, 0xff, 0xff,
  0xff, 0xff, 0x81, 0xba, 0xff, 0xff, 0xff, 0xff, 0xff, 0xff, 0x9e, 0x10, 0x00,
  0x00, 0x00, 0x00, 0x00, 0x00, 0x51, 0xf7, 0xff, 0xff, 0xff, 0xff, 0xff, 0xff,
  0xe4, 0xed, 0xff, 0xff, 0xff, 0xff, 0xff, 0xff, 0xdc, 0x1b, 0xb6, 0xff, 0xff,
  0xff, 0xff, 0xff, 0x86, 0xfb, 0xfe, 0xff, 0xff, 0xff, 0xff, 0xff, 0x71, 0xae,
  0x00, 0x00, 0x00, 0x00, 0x00, 0x00, 0x2b, 0xf8, 0xff, 0xff, 0xff, 0xff, 0xff,
  0xff, 0x34, 0x97, 0x00, 0x00, 0x00, 0x00, 0x00, 0x00, 0x7a, 0x86, 0xff, 0xff,
  0xff, 0xff, 0xff, 0xff, 0x36, 0xd1, 0xff, 0xff, 0xff, 0xff, 0xff, 0xff, 0x5c,
  0x1b, 0x00, 0x00, 0x00, 0x00, 0x00, 0x00, 0x34, 0x45, 0x3b, 0xfe, 0xff, 0xff,
  0xff, 0xff, 0x99, 0x4a, 0x00, 0x00, 0x00, 0x00, 0x00, 0x00, 0x26, 0xfa, 0xff,
  0xff, 0xff, 0xff, 0xff, 0xff, 0xd7, 0x05, 0x01, 0x00, 0x00, 0x00, 0x00, 0x00,
  0x66, 0xf9, 0xff, 0xff, 0xff, 0xff, 0xff, 0xff, 0x6a, 0xe9, 0xff, 0xff, 0x04,
  0x00, 0x00, 0x00, 0x05, 0x00, 0x00, 0x00, 0xc3, 0x7f, 0xbe, 0x94, 0x5a, 0x00,
  0x00, 0x00, 0x7e, 0xe9, 0xff, 0xff, 0x04, 0x00, 0x00, 0x00, 0x08, 0x00, 0x00,
  0x00, 0x00, 0x00, 0x00, 0x00, 0x00, 0x00, 0x00, 0x00, 0x92, 0xe9, 0xff, 0xff,
  0x04, 0x00, 0x00, 0x00, 0x23, 0x00, 0x00, 0x00, 0x02, 0x06, 0xf8, 0xf3, 0xf2,
  0xfa, 0xf3, 0x54, 0x11, 0x17, 0xb2, 0xe8, 0x6c, 0x1a, 0x02, 0x1b, 0x40, 0xfd,
  0x93, 0xf6, 0x7f, 0x7f, 0x58, 0x7f, 0x81, 0xef, 0x43, 0x61, 0x0a, 0x1f, 0xbf,
  0x07, 0x7f, 0xe1, 0xe8, 0x00, 0xc2, 0xe9, 0xff, 0xff, 0x04, 0x00, 0x00, 0x00,
  0x28, 0x00, 0x00, 0x00, 0x00, 0x00, 0x00, 0x00, 0x00, 0x00, 0x00, 0x00, 0x00,
  0x00, 0x00, 0x00, 0x00, 0x00, 0x00, 0x00, 0x00, 0x00, 0x00, 0x00, 0x00, 0x00,
  0x00, 0x00, 0x00, 0x00, 0x00, 0x00, 0x00, 0x00, 0x00, 0x00, 0x00, 0x00, 0x00,
  0x00, 0x00, 0x00, 0x00, 0x00, 0xf6, 0xe9, 0xff, 0xff, 0x04, 0x00, 0x00, 0x00,
  0x23, 0x00, 0x00, 0x00, 0x13, 0x15, 0xe8, 0xf3, 0x1c, 0x31, 0xe8, 0xcc, 0x0a,
  0xd8, 0xc5, 0xc8, 0x34, 0x2c, 0xe9, 0x88, 0x7f, 0xe0, 0x81, 0x7f, 0x81, 0xdc,
  0x72, 0xe5, 0xf4, 0x09, 0xe9, 0x81, 0xfe, 0x61, 0x07, 0x08, 0xcd, 0x04, 0xbe,
  0x00, 0x26, 0xea, 0xff, 0xff, 0x04, 0x00, 0x00, 0x00, 0x19, 0x00, 0x00, 0x00,
  0xc0, 0xee, 0x7f, 0x19, 0x94, 0x81, 0xfd, 0x59, 0xb2, 0x98, 0xb3, 0x1e, 0xcb,
  0x9f, 0x7f, 0x07, 0x4b, 0x49, 0xfe, 0x81, 0x0a, 0x11, 0x54, 0x05, 0x7f, 0x00,
  0x00, 0x00, 0x4e, 0xea, 0xff, 0xff, 0x04, 0x00, 0x00, 0x00, 0x19, 0x00, 0x00,
  0x00, 0xd5, 0xeb, 0x06, 0x06, 0xb0, 0x20, 0x64, 0x62, 0x7f, 0x81, 0x81, 0xcd,
  0x7f, 0x48, 0xae, 0x05, 0x7f, 0x49, 0xd0, 0x84, 0xfd, 0xad, 0x23, 0x2d, 0xd2,
  0x00, 0x00, 0x00, 0x76, 0xea, 0xff, 0xff, 0x04, 0x00, 0x00, 0x00, 0x19, 0x00,
  0x00, 0x00, 0x0c, 0x0d, 0x2b, 0x3a, 0xf1, 0xe8, 0x20, 0x30, 0x81, 0xde, 0x5f,
  0x42, 0x7f, 0x52, 0x81, 0x7f, 0x7f, 0x58, 0x9d, 0xcf, 0xb9, 0x01, 0x1c, 0x51,
  0xc2, 0x00, 0x00, 0x00, 0x9e, 0xea, 0xff, 0xff, 0x04, 0x00, 0x00, 0x00, 0x19,
  0x00, 0x00, 0x00, 0x0a, 0x81, 0xb4, 0x1e, 0xcf, 0x00, 0xff, 0x19, 0x81, 0xaa,
  0x31, 0x58, 0x7f, 0xb8, 0x17, 0x7f, 0x9b, 0x0b, 0xb2, 0x9d, 0xe6, 0x81, 0x5e,
  0x03, 0xfb, 0x00, 0x00, 0x00, 0xc6, 0xea, 0xff, 0xff, 0x04, 0x00, 0x00, 0x00,
  0x19, 0x00, 0x00, 0x00, 0x0b, 0x10, 0x09, 0xe4, 0x36, 0x05, 0xc1, 0x3d, 0x51,
  0xc4, 0x7f, 0x81, 0x7f, 0x81, 0x7f, 0x50, 0xb4, 0x4c, 0x2d, 0x2f, 0x2a, 0xe8,
  0x16, 0x0c, 0x36, 0x00, 0x00, 0x00, 0xee, 0xea, 0xff, 0xff, 0x04, 0x00, 0x00,
  0x00, 0x19, 0x00, 0x00, 0x00, 0xca, 0x38, 0x35, 0x22, 0xdb, 0x7f, 0x81, 0x51,
  0x81, 0xcc, 0x07, 0x8c, 0x7f, 0xb4, 0x81, 0x3a, 0x02, 0x2b, 0xff, 0xc3, 0xf0,
  0x0d, 0x49, 0xe5, 0xc5, 0x00, 0x00, 0x00, 0x16, 0xeb, 0xff, 0xff, 0x04, 0x00,
  0x00, 0x00, 0x23, 0x00, 0x00, 0x00, 0x6e, 0x21, 0x2d, 0xaa, 0x4b, 0xc2, 0x7f,
  0x27, 0xdf, 0xf9, 0xe0, 0x37, 0xf1, 0x7f, 0xf3, 0xd9, 0xf1, 0x1f, 0x7f, 0x1b,
  0x72, 0x93, 0x81, 0x39, 0x8d, 0x2d, 0x17, 0x33, 0xef, 0xfb, 0x81, 0xee, 0xf5,
  0xe1, 0x09, 0x00, 0x46, 0xeb, 0xff, 0xff, 0x04, 0x00, 0x00, 0x00, 0x23, 0x00,
  0x00, 0x00, 0x00, 0xf3, 0x1a, 0xec, 0x07, 0x1f, 0xfa, 0x23, 0xdf, 0x38, 0xcc,
  0xe3, 0x4f, 0x27, 0x5f, 0x81, 0x7f, 0x81, 0x7f, 0x38, 0x81, 0x51, 0xb3, 0x7a,
  0xb4, 0x17, 0x7f, 0xba, 0x7f, 0xfd, 0x2d, 0xd1, 0xea, 0x0f, 0x39, 0x00, 0x76,
  0xeb, 0xff, 0xff, 0x04, 0x00, 0x00, 0x00, 0x38, 0x00, 0x00, 0x00, 0x00, 0x00,
  0x00, 0x00, 0x00, 0x00, 0x00, 0x00, 0x00, 0x00, 0x00, 0x00, 0x00, 0x00, 0x00,
  0x00, 0x00, 0x00, 0x00, 0x00, 0x00, 0x00, 0x00, 0x00, 0x00, 0x00, 0x00, 0x00,
  0x00, 0x00, 0x00, 0x00, 0x00, 0x00, 0x00, 0x00, 0x00, 0x00, 0x00, 0x00, 0x00,
  0x00, 0x00, 0x00, 0x00, 0x00, 0x00, 0x00, 0x00, 0x00, 0x00, 0x00, 0x00, 0x00,
  0x00, 0x00, 0xba, 0xeb, 0xff, 0xff, 0x04, 0x00, 0x00, 0x00, 0x23, 0x00, 0x00,
  0x00, 0xcb, 0x02, 0x81, 0x7f, 0xf2, 0xfc, 0x0d, 0x81, 0x7f, 0x4a, 0x2e, 0x81,
  0x81, 0x7f, 0x00, 0xfe, 0xd3, 0xc6, 0xe7, 0x00, 0x28, 0x45, 0x4b, 0xcd, 0x2d,
  0x0e, 0x19, 0x1d, 0xea, 0xd7, 0x1d, 0xf7, 0xf0, 0xf1, 0xf8, 0x00, 0xea, 0xeb,
  0xff, 0xff, 0x04, 0x00, 0x00, 0x00, 0x19, 0x00, 0x00, 0x00, 0x7f, 0x32, 0xa0,
  0xe0, 0x16, 0x7f, 0x30, 0xcb, 0x1b, 0xfb, 0x7f, 0x2c, 0xb0, 0x03, 0xdb, 0x10,
  0x13, 0xd5, 0x7f, 0x9c, 0x0a, 0xf7, 0xc2, 0x7f, 0xba, 0x00, 0x00, 0x00, 0x12,
  0xec, 0xff, 0xff, 0x04, 0x00, 0x00, 0x00, 0x19, 0x00, 0x00, 0x00, 0x9d, 0xf9,
  0x37, 0x6c, 0x5b, 0x7f, 0xe4, 0x7f, 0x1b, 0xb1, 0x9b, 0x81, 0x3d, 0x7f, 0xd2,
  0xf6, 0x68, 0x05, 0x01, 0xa1, 0x1a, 0x36, 0xd4, 0x68, 0x81, 0x00, 0x00, 0x00,
  0x3a, 0xec, 0xff, 0xff, 0x04, 0x00, 0x00, 0x00, 0x19, 0x00, 0x00, 0x00, 0xe6,
  0x1a, 0x0e, 0x19, 0xf3, 0xed, 0x9f, 0x1b, 0x43, 0xc8, 0x81, 0x6c, 0x7f, 0x7f,
  0x81, 0xfe, 0x81, 0x08, 0x09, 0x05, 0xfd, 0x4c, 0xfe, 0x02, 0x09, 0x00, 0x00,
  0x00, 0x62, 0xec, 0xff, 0xff, 0x04, 0x00, 0x00, 0x00, 0x23, 0x00, 0x00, 0x00,
  0xc1, 0x58, 0x81, 0x3b, 0x50, 0xf2, 0x0d, 0xfc, 0x06, 0xff, 0xff, 0xff, 0xf9,
  0x81, 0xb1, 0x72, 0x2a, 0x2b, 0x7f, 0xc1, 0xfd, 0xe7, 0x53, 0x81, 0x3a, 0x27,
  0x06, 0x13, 0x10, 0x7f, 0xbe, 0x2d, 0x33, 0xb0, 0x04, 0x00, 0x92, 0xec, 0xff,
  0xff, 0x04, 0x00, 0x00, 0x00, 0x23, 0x00, 0x00, 0x00, 0xf2, 0x07, 0x29, 0xed,
  0x12, 0x2a, 0xf3, 0x23, 0x35, 0x81, 0x49, 0xf0, 0xd4, 0x7f, 0xd1, 0xfd, 0x42,
  0x28, 0x32, 0x7f, 0xa1, 0x7f, 0x7f, 0x1a, 0x81, 0x81, 0xc9, 0xec, 0x8f, 0x69,
  0x12, 0x0a, 0x29, 0x17, 0xf5, 0x00, 0xc2, 0xec, 0xff, 0xff, 0x04, 0x00, 0x00,
  0x00, 0x23, 0x00, 0x00, 0x00, 0x23, 0x34, 0x81, 0x70, 0x2c, 0xda, 0x08, 0x7f,
  0x7f, 0x8c, 0x7f, 0x7f, 0x81, 0x9b, 0x55, 0x66, 0xca, 0xe4, 0x69, 0x93, 0x7f,
  0xf3, 0x24, 0x00, 0x02, 0x0d, 0xe3, 0xd1, 0x17, 0x18, 0xf3, 0x01, 0x07, 0xf3,
  0x0b, 0x00, 0xf2, 0xec, 0xff, 0xff, 0x04, 0x00, 0x00, 0x00, 0x3f, 0x00, 0x00,
  0x00, 0xd0, 0x7f, 0x01, 0xe6, 0x02, 0xb8, 0x19, 0x5f, 0x50, 0xef, 0xf6, 0x7f,
  0x16, 0xfb, 0x18, 0x90, 0xe8, 0x5f, 0xa3, 0x52, 0x5a, 0xfe, 0xe6, 0xcc, 0xa2,
  0x7f, 0x14, 0xd0, 0x5f, 0x24, 0x5e, 0x81, 0xce, 0x98, 0x5d, 0x0f, 0xfd, 0x81,
  0xea, 0x1e, 0x1b, 0x56, 0xcd, 0xda, 0xba, 0xf7, 0x1e, 0xf1, 0xae, 0xdc, 0x00,
  0x2c, 0x62, 0x7f, 0xf7, 0x7f, 0x2e, 0x3b, 0xc5, 0xa5, 0x95, 0x0e, 0x01, 0x00,
  0x3e, 0xed, 0xff, 0xff, 0x04, 0x00, 0x00, 0x00, 0x2d, 0x00, 0x00, 0x00, 0xfc,
  0x12, 0x0a, 0x58, 0x19, 0x12, 0x06, 0xf6, 0xf3, 0x7f, 0x37, 0x10, 0xc1, 0x81,
  0x49, 0xfc, 0x8a, 0xe5, 0xae, 0xa7, 0xd7, 0x7f, 0x4d, 0x7f, 0x02, 0x98, 0x81,
  0x0b, 0x81, 0x81, 0x52, 0x23, 0x2e, 0x81, 0x56, 0x40, 0x12, 0xfb, 0x22, 0x65,
  0xb0, 0xfc, 0x2a, 0x81, 0x38, 0x00, 0x00, 0x00, 0x7a, 0xed, 0xff, 0xff, 0x04,
  0x00, 0x00, 0x00, 0x48, 0x00, 0x00, 0x00, 0x00, 0x00, 0x00, 0x00, 0x00, 0x00,
  0x00, 0x00, 0x00, 0x00, 0x00, 0x00, 0x00, 0x00, 0x00, 0x00, 0x00, 0x00, 0x00,
  0x00, 0x00, 0x00, 0x00, 0x00, 0x00, 0x00, 0x00, 0x00, 0x00, 0x00, 0x00, 0x00,
  0x00, 0x00, 0x00, 0x00, 0x00, 0x00, 0x00, 0x00, 0x00, 0x00, 0x00, 0x00, 0x00,
  0x00, 0x00, 0x00, 0x00, 0x00, 0x00, 0x00, 0x00, 0x00, 0x00, 0x00, 0x00, 0x00,
  0x00, 0x00, 0x00, 0x00, 0x00, 0x00, 0x00, 0x00, 0x00, 0x00, 0x00, 0x00, 0x00,
  0x00, 0xce, 0xed, 0xff, 0xff, 0x04, 0x00, 0x00, 0x00, 0x2d, 0x00, 0x00, 0x00,
  0x09, 0xf3, 0xe0, 0x3c, 0x18, 0x04, 0x09, 0x06, 0x15, 0x20, 0xf5, 0x14, 0x2a,
  0x14, 0x7f, 0xe6, 0x3d, 0x1c, 0xb7, 0x81, 0x81, 0x7f, 0x64, 0x1c, 0x7f, 0x7f,
  0x7f, 0x81, 0xdc, 0x33, 0x03, 0x7f, 0x0a, 0xd5, 0x28, 0xe3, 0xf9, 0x10, 0xd7,
  0x51, 0x35, 0xf9, 0x10, 0x46, 0x15, 0x00, 0x00, 0x00, 0x0a, 0xee, 0xff, 0xff,
  0x04, 0x00, 0x00, 0x00, 0x31, 0x00, 0x00, 0x00, 0xf5, 0x33, 0xeb, 0x91, 0xc5,
  0x3e, 0x7f, 0x7f, 0x0f, 0x26, 0xff, 0xa1, 0xf6, 0xf2, 0xa7, 0x81, 0xbb, 0x30,
  0xab, 0x4c, 0x3c, 0xf4, 0xd3, 0x81, 0x1e, 0xf0, 0x49, 0x45, 0xe3, 0x5e, 0x0b,
  0x9e, 0x0a, 0x81, 0xa4, 0xf5, 0x29, 0x12, 0xce, 0x81, 0xb1, 0xda, 0xe1, 0x8f,
  0xe2, 0x7f, 0x31, 0x6f, 0x6e, 0x00, 0x00, 0x00, 0x4a, 0xee, 0xff, 0xff, 0x04,
  0x00, 0x00, 0x00, 0x23, 0x00, 0x00, 0x00, 0x61, 0x01, 0x0d, 0x03, 0x07, 0x04,
  0xfd, 0x51, 0xe7, 0x1e, 0xc1, 0x1f, 0xdd, 0xe0, 0x7f, 0x81, 0x4f, 0x81, 0x4b,
  0x81, 0x81, 0x58, 0xf4, 0x7f, 0xfc, 0x7f, 0x08, 0xd9, 0x1f, 0x20, 0xfb, 0x00,
  0x4f, 0x07, 0x1b, 0x00, 0x7a, 0xee, 0xff, 0xff, 0x04, 0x00, 0x00, 0x00, 0x23,
  0x00, 0x00, 0x00, 0xde, 0xf3, 0xe0, 0xda, 0xe4, 0x1a, 0xe2, 0x09, 0x46, 0x00,
  0x00, 0xcc, 0xec, 0x18, 0x9e, 0x81, 0xdf, 0x81, 0xa3, 0x75, 0xc0, 0x1c, 0x39,
  0x81, 0x37, 0x81, 0xba, 0x44, 0x81, 0x3b, 0xc3, 0x3a, 0xc2, 0x7f, 0x7f, 0x00,
  0xaa, 0xee, 0xff, 0xff, 0x04, 0x00, 0x00, 0x00, 0x3f, 0x00, 0x00, 0x00, 0xf9,
  0xb3, 0xda, 0x2d, 0xf4, 0x18, 0x27, 0x66, 0x81, 0x0a, 0xef, 0x5c, 0x8c, 0x7f,
  0xed, 0x21, 0x1a, 0x36, 0x14, 0x05, 0x64, 0x3e, 0x13, 0xee, 0xdb, 0x81, 0xd6,
  0x26, 0xf7, 0x4f, 0xcc, 0x81, 0xee, 0x1b, 0x30, 0xea, 0xff, 0x07, 0xe9, 0x06,
  0x09, 0xf6, 0xb2, 0x7f, 0x2c, 0x66, 0xba, 0xe7, 0xe7, 0x7f, 0x9b, 0x0f, 0x02,
  0x41, 0x7f, 0x9a, 0x5d, 0xf9, 0x02, 0x0e, 0xed, 0xf7, 0xdc, 0x00, 0xf6, 0xee,
  0xff, 0xff, 0x04, 0x00, 0x00, 0x00, 0x2d, 0x00, 0x00, 0x00, 0x81, 0x0e, 0xe3,
  0xfc, 0xe3, 0xdd, 0x1b, 0xd3, 0x19, 0xe4, 0x76, 0xde, 0x25, 0xb8, 0xe7, 0xbe,
  0x4c, 0x53, 0x96, 0xb2, 0x81, 0x7f, 0x81, 0x7f, 0xa5, 0x7f, 0x7f, 0xd2, 0x81,
  0x96, 0x75, 0xb9, 0x4c, 0x7f, 0xb9, 0x4f, 0x9c, 0xd8, 0x2b, 0x08, 0xd3, 0xef,
  0xf9, 0x05, 0xf7, 0x00, 0x00, 0x00, 0x32, 0xef, 0xff, 0xff, 0x04, 0x00, 0x00,
  0x00, 0x2d, 0x00, 0x00, 0x00, 0x81, 0x33, 0x7f, 0xa4, 0xb8, 0x7f, 0x24, 0xff,
  0x26, 0xa4, 0x7f, 0xeb, 0x7f, 0x81, 0x01, 0x7f, 0x81, 0x81, 0xe8, 0xad, 0xb6,
  0x30, 0xc2, 0xaa, 0x34, 0x98, 0x4a, 0xea, 0x06, 0xf5, 0xb6, 0xf9, 0x1e, 0x11,
  0xfc, 0xca, 0xe9, 0xe2, 0xe5, 0x24, 0xef, 0x01, 0x11, 0xfb, 0x08, 0x00, 0x00,
  0x00, 0x6e, 0xef, 0xff, 0xff, 0x04, 0x00, 0x00, 0x00, 0x6c, 0x00, 0x00, 0x00,
  0x5c, 0x1a, 0x46, 0x66, 0x7f, 0xe6, 0x1c, 0xc0, 0x90, 0xe4, 0xd1, 0x12, 0xe1,
  0x61, 0xe6, 0xfe, 0xe3, 0x51, 0xf7, 0x3b, 0xa5, 0x08, 0x81, 0xa2, 0x97, 0x30,
  0xc0, 0x0e, 0xc2, 0xf9, 0x65, 0x37, 0xe3, 0x7f, 0xaa, 0x18, 0x11, 0x1f, 0xb7,
  0x7f, 0x0c, 0x14, 0x26, 0x1b, 0xe3, 0x40, 0x1e, 0xea, 0x08, 0x41, 0x02, 0x01,
  0x23, 0xbd, 0xcf, 0xeb, 0x24, 0xbe, 0x0d, 0x81, 0x93, 0xae, 0x81, 0xa2, 0x89,
  0x3a, 0x4f, 0x4c, 0xd2, 0x4a, 0xe6, 0x28, 0x4e, 0x87, 0x90, 0x81, 0x34, 0x87,
  0xf6, 0xd2, 0xf3, 0xbe, 0x0c, 0x11, 0xf0, 0xf8, 0x7f, 0xd5, 0xaf, 0x15, 0xcf,
  0x29, 0xde, 0x48, 0xe1, 0xfb, 0x86, 0xe6, 0xb3, 0xc6, 0x5a, 0x49, 0x4e, 0x81,
  0xdb, 0xf0, 0xe3, 0xee, 0xe6, 0xef, 0xff, 0xff, 0x04, 0x00, 0x00, 0x00, 0x3c,
  0x00, 0x00, 0x00, 0xbe, 0xbe, 0xfb, 0x7f, 0x00, 0x16, 0x42, 0xfb, 0x7a, 0x07,
  0x81, 0x0a, 0x81, 0x81, 0x7f, 0x03, 0xcf, 0xa5, 0x55, 0xd7, 0x81, 0x7f, 0xfe,
  0x13, 0x51, 0xf0, 0xe4, 0x03, 0x81, 0x81, 0x81, 0x7f, 0xfd, 0xc9, 0x41, 0x72,
  0x30, 0x17, 0x0e, 0xfd, 0x75, 0x35, 0x59, 0xd9, 0xe1, 0x04, 0xfb, 0x81, 0x03,
  0x02, 0xf4, 0xff, 0xe9, 0xe7, 0xe4, 0x22, 0xbb, 0x04, 0xfd, 0x48, 0x2e, 0xf0,
  0xff, 0xff, 0x04, 0x00, 0x00, 0x00, 0x60, 0x00, 0x00, 0x00, 0x00, 0x00, 0x00,
  0x00, 0x00, 0x00, 0x00, 0x00, 0x00, 0x00, 0x00, 0x00, 0x00, 0x00, 0x00, 0x00,
  0x00, 0x00, 0x00, 0x00, 0x00, 0x00, 0x00, 0x00, 0x00, 0x00, 0x00, 0x00, 0x00,
  0x00, 0x00, 0x00, 0x00, 0x00, 0x00, 0x00, 0x00, 0x00, 0x00, 0x00, 0x00, 0x00,
  0x00, 0x00, 0x00, 0x00, 0x00, 0x00, 0x00, 0x00, 0x00, 0x00, 0x00, 0x00, 0x00,
  0x00, 0x00, 0x00, 0x00, 0x00, 0x00, 0x00, 0x00, 0x00, 0x00, 0x00, 0x00, 0x00,
  0x00, 0x00, 0x00, 0x00, 0x00, 0x00, 0x00, 0x00, 0x00, 0x00, 0x00, 0x00, 0x00,
  0x00, 0x00, 0x00, 0x00, 0x00, 0x00, 0x00, 0x00, 0x00, 0x00, 0x00, 0x00, 0x00,
  0x00, 0x00, 0x9a, 0xf0, 0xff, 0xff, 0x04, 0x00, 0x00, 0x00, 0x3c, 0x00, 0x00,
  0x00, 0x26, 0x7f, 0xe3, 0xd2, 0x07, 0xcd, 0xcb, 0x07, 0x81, 0xfc, 0xaa, 0x81,
  0x7f, 0x13, 0x81, 0x81, 0x7f, 0x7f, 0x81, 0x24, 0x1e, 0x0c, 0x81, 0xed, 0x1c,
  0xbe, 0xf7, 0xa0, 0xbf, 0xd0, 0x8f, 0x7f, 0xdb, 0x7f, 0x87, 0x33, 0xfd, 0x1a,
  0x10, 0x16, 0x15, 0xc9, 0x1c, 0x0c, 0xe7, 0xdc, 0xb7, 0x03, 0xf4, 0xf6, 0x11,
  0x05, 0xfe, 0xd8, 0xf0, 0xec, 0x09, 0x20, 0xf2, 0x1f, 0xe2, 0xf0, 0xff, 0xff,
  0x04, 0x00, 0x00, 0x00, 0x51, 0x00, 0x00, 0x00, 0xa9, 0xd9, 0x12, 0xe3, 0x9c,
  0x7f, 0xe2, 0xe2, 0x00, 0x81, 0x0a, 0x06, 0xef, 0x00, 0x22, 0xd3, 0xf5, 0xc1,
  0xad, 0xa5, 0x3f, 0x0e, 0x35, 0xd1, 0x84, 0x7f, 0xbb, 0x0c, 0x0c, 0x78, 0xf4,
  0x81, 0x28, 0xad, 0xec, 0x61, 0xeb, 0x7f, 0x1b, 0xa0, 0xd5, 0x15, 0x60, 0xc1,
  0x31, 0x84, 0xa1, 0x14, 0x79, 0x53, 0xb3, 0x27, 0x3e, 0x81, 0x4e, 0x05, 0x3d,
  0xd2, 0xdd, 0x2b, 0x27, 0x8b, 0x7f, 0x0e, 0x08, 0xef, 0x1f, 0x29, 0xef, 0x90,
  0x7f, 0xf1, 0xc0, 0xfe, 0xc0, 0xd7, 0xb3, 0x34, 0x39, 0xef, 0x7f, 0x00, 0x00,
  0x00, 0x42, 0xf1, 0xff, 0xff, 0x04, 0x00, 0x00, 0x00, 0x2d, 0x00, 0x00, 0x00,
  0xc5, 0x47, 0xe8, 0x33, 0xc9, 0xb7, 0x0b, 0xe5, 0x13, 0x86, 0x53, 0x7f, 0x66,
  0x7f, 0x81, 0x43, 0x81, 0x7f, 0x81, 0x7f, 0xea, 0x7f, 0x58, 0xd1, 0x7f, 0xac,
  0xad, 0xfc, 0x62, 0xfc, 0x08, 0xc3, 0xf2, 0x9e, 0xd7, 0x10, 0xed, 0x32, 0x13,
  0x2a, 0x1b, 0xd1, 0x23, 0xec, 0x01, 0x00, 0x00, 0x00, 0x7e, 0xf1, 0xff, 0xff,
  0x04, 0x00, 0x00, 0x00, 0x2d, 0x00, 0x00, 0x00, 0x7f, 0x4f, 0x81, 0x1c, 0x1b,
  0xdd, 0x7f, 0x82, 0x07, 0xc0, 0x7f, 0x05, 0x7f, 0x08, 0x9d, 0x93, 0x81, 0x7f,
  0x89, 0x63, 0x4c, 0x4d, 0x7f, 0x81, 0xef, 0xfc, 0xdc, 0xd6, 0x12, 0x20, 0x25,
  0xea, 0xc4, 0x2b, 0x17, 0x0b, 0xce, 0x13, 0x1f, 0xfe, 0x0e, 0xd8, 0xe9, 0x02,
  0xe8, 0x00, 0x00, 0x00, 0xba, 0xf1, 0xff, 0xff, 0x04, 0x00, 0x00, 0x00, 0x6c,
  0x00, 0x00, 0x00, 0x8c, 0x3e, 0xe7, 0xdb, 0x42, 0xe8, 0xda, 0x01, 0x81, 0xd8,
  0x1b, 0x13, 0x05, 0xeb, 0xe7, 0xb9, 0xf7, 0xfb, 0xf2, 0xa7, 0x58, 0xe9, 0x7f,
  0x1b, 0x0d, 0xfa, 0x88, 0x12, 0x22, 0xcc, 0x7f, 0xe7, 0x0d, 0x24, 0xb5, 0xf6,
  0x08, 0x04, 0x46, 0x50, 0x15, 0x33, 0x6e, 0x81, 0xb9, 0x1b, 0xe9, 0x1e, 0x7f,
  0x5d, 0x41, 0xf5, 0x83, 0x01, 0xf8, 0x28, 0x03, 0x2b, 0xbb, 0x8f, 0xf0, 0x6e,
  0x9d, 0xbf, 0x25, 0xe6, 0xd5, 0xd0, 0x81, 0xed, 0x39, 0x18, 0xca, 0x0f, 0x11,
  0x71, 0x3d, 0x21, 0x43, 0x19, 0xe8, 0x7f, 0x55, 0x79, 0xb5, 0x03, 0xdb, 0xd4,
  0x14, 0x1c, 0x40, 0xf9, 0x09, 0x81, 0x31, 0x66, 0x24, 0xec, 0x1c, 0x05, 0x56,
  0x81, 0x01, 0xf3, 0x01, 0x29, 0xf5, 0xdd, 0x32, 0xf2, 0xff, 0xff, 0x04, 0x00,
  0x00, 0x00, 0x3c, 0x00, 0x00, 0x00, 0xe6, 0x00, 0xdf, 0x02, 0x00, 0x1a, 0xf7,
  0x06, 0x44, 0x2c, 0xf0, 0xed, 0x3d, 0x66, 0x08, 0x7f, 0x58, 0xe2, 0x4b, 0xae,
  0x45, 0x7c, 0x44, 0xbb, 0x26, 0x7f, 0xe9, 0x47, 0x7f, 0x0b, 0x7f, 0x81, 0x97,
  0x7f, 0x7f, 0x81, 0x49, 0xca, 0x81, 0xb7, 0x69, 0x7f, 0xe9, 0xe5, 0x81, 0x09,
  0x14, 0xd6, 0x7f, 0x98, 0xbc, 0x04, 0xf7, 0xf0, 0xe5, 0x09, 0x0e, 0xe0, 0xf7,
  0x1c, 0x7a, 0xf2, 0xff, 0xff, 0x04, 0x00, 0x00, 0x00, 0x3c, 0x00, 0x00, 0x00,
  0xf6, 0xe3, 0x7f, 0xdf, 0x2d, 0x1b, 0x3b, 0xd1, 0xe8, 0xf3, 0xd5, 0x57, 0x73,
  0x81, 0xa8, 0x7f, 0x7f, 0xec, 0xdf, 0xb3, 0x7f, 0xed, 0x0c, 0x81, 0x7f, 0xdc,
  0x16, 0x6e, 0x54, 0x02, 0x7f, 0x36, 0x7b, 0xbe, 0x7f, 0x30, 0x2c, 0x25, 0x78,
  0x7d, 0x92, 0x8d, 0x62, 0x7f, 0xbd, 0x81, 0xa2, 0xac, 0x20, 0x04, 0x54, 0x8d,
  0x11, 0x81, 0xd8, 0xc9, 0xff, 0xee, 0x30, 0xd8, 0xc2, 0xf2, 0xff, 0xff, 0x04,
  0x00, 0x00, 0x00, 0xb4, 0x00, 0x00, 0x00, 0x7f, 0x5e, 0xf4, 0x4b, 0x55, 0xfc,
  0xf1, 0x25, 0xfd, 0xbc, 0xe6, 0x0f, 0x47, 0xf5, 0xd2, 0x3f, 0xee, 0xd5, 0x27,
  0xd1, 0xe4, 0x01, 0x7f, 0xf6, 0x0f, 0x1f, 0xfa, 0xf3, 0xf6, 0xa5, 0xdc, 0x12,
  0xd3, 0x10, 0x12, 0x27, 0xdb, 0x81, 0x28, 0x23, 0xba, 0x0d, 0x0b, 0xef, 0x02,
  0xf7, 0xe4, 0xba, 0x50, 0xb2, 0x09, 0x2c, 0x81, 0xbf, 0x25, 0xa1, 0x1d, 0x42,
  0xfb, 0x23, 0x18, 0x7f, 0x01, 0xc8, 0x77, 0x3f, 0xf9, 0xeb, 0xb6, 0x18, 0x05,
  0x01, 0xd6, 0x20, 0xea, 0xe8, 0xf2, 0xd7, 0x0d, 0x34, 0xfc, 0x67, 0x15, 0x43,
  0x22, 0x23, 0xeb, 0x3c, 0x81, 0x24, 0x8f, 0x7f, 0x46, 0xe8, 0xe6, 0x23, 0x5b,
  0xf1, 0x66, 0x3a, 0x44, 0x00, 0xc1, 0x8b, 0x03, 0x13, 0xf9, 0xf7, 0xe2, 0xff,
  0x89, 0x1d, 0x7f, 0x10, 0x0c, 0x01, 0x2f, 0x2c, 0xbf, 0x99, 0x0c, 0xeb, 0xa0,
  0x58, 0xe6, 0x4a, 0xd0, 0x33, 0x17, 0xfd, 0x08, 0x15, 0x64, 0x81, 0xdd, 0x7f,
  0x54, 0xea, 0xd1, 0x1b, 0x32, 0x88, 0x5f, 0x78, 0xdf, 0x88, 0x55, 0xf0, 0xf2,
  0xaf, 0x1c, 0x2b, 0xb9, 0x10, 0x18, 0xbb, 0x9d, 0x09, 0xfb, 0xd5, 0x81, 0xd8,
  0x14, 0xf9, 0xb6, 0x01, 0x1d, 0xb8, 0x7f, 0xf0, 0xe3, 0x2f, 0x13, 0xe1, 0xae,
  0x26, 0x3d, 0x79, 0xa3, 0x54, 0x82, 0xf3, 0xff, 0xff, 0x04, 0x00, 0x00, 0x00,
  0x4b, 0x00, 0x00, 0x00, 0x16, 0x7f, 0x28, 0x7f, 0x7f, 0x23, 0x81, 0xef, 0x7f,
  0xf7, 0x41, 0xa9, 0xd1, 0xec, 0x81, 0x81, 0x59, 0x7f, 0xd9, 0x19, 0x7f, 0xb0,
  0x81, 0x4d, 0x7f, 0x81, 0xb0, 0x5c, 0x7f, 0xfe, 0x4e, 0x0f, 0x9e, 0x2a, 0x0b,
  0xf6, 0xf9, 0xe3, 0x06, 0xa7, 0xc4, 0x1b, 0x81, 0xfe, 0xfa, 0xe3, 0x12, 0x0d,
  0xdd, 0x0d, 0xdf, 0x59, 0x12, 0xd9, 0x22, 0xe7, 0x1b, 0xfd, 0x00, 0x07, 0x18,
  0x05, 0xdc, 0x05, 0xfd, 0xff, 0xdc, 0x04, 0x03, 0xe0, 0x05, 0x7f, 0xdd, 0x02,
  0xf1, 0x00, 0xda, 0xf3, 0xff, 0xff, 0x04, 0x00, 0x00, 0x00, 0x78, 0x00, 0x00,
  0x00, 0x00, 0x00, 0x00, 0x00, 0x00, 0x00, 0x00, 0x00, 0x00, 0x00, 0x00, 0x00,
  0x00, 0x00, 0x00, 0x00, 0x00, 0x00, 0x00, 0x00, 0x00, 0x00, 0x00, 0x00, 0x00,
  0x00, 0x00, 0x00, 0x00, 0x00, 0x00, 0x00, 0x00, 0x00, 0x00, 0x00, 0x00, 0x00,
  0x00, 0x00, 0x00, 0x00, 0x00, 0x00, 0x00, 0x00, 0x00, 0x00, 0x00, 0x00, 0x00,
  0x00, 0x00, 0x00, 0x00, 0x00, 0x00, 0x00, 0x00, 0x00, 0x00, 0x00, 0x00, 0x00,
  0x00, 0x00, 0x00, 0x00, 0x00, 0x00, 0x00, 0x00, 0x00, 0x00, 0x00, 0x00, 0x00,
  0x00, 0x00, 0x00, 0x00, 0x00, 0x00, 0x00, 0x00, 0x00, 0x00, 0x00, 0x00, 0x00,
  0x00, 0x00, 0x00, 0x00, 0x00, 0x00, 0x00, 0x00, 0x00, 0x00, 0x00, 0x00, 0x00,
  0x00, 0x00, 0x00, 0x00, 0x00, 0x00, 0x00, 0x00, 0x00, 0x00, 0x00, 0x00, 0x00,
  0x00, 0x00, 0x00, 0x00, 0x5e, 0xf4, 0xff, 0xff, 0x04, 0x00, 0x00, 0x00, 0x4b,
  0x00, 0x00, 0x00, 0xd5, 0x81, 0xca, 0x6b, 0x9e, 0x0c, 0xad, 0x28, 0xc9, 0x7f,
  0xef, 0x7f, 0xc2, 0xaf, 0xa5, 0x7f, 0x7a, 0x7f, 0xa2, 0x7f, 0x81, 0x81, 0x7f,
  0x7f, 0x39, 0x1f, 0x53, 0x81, 0x81, 0x3f, 0x1a, 0x6b, 0x7e, 0x43, 0xc7, 0x08,
  0x41, 0xa4, 0x31, 0xe7, 0xf9, 0x2f, 0x9e, 0x1e, 0x8b, 0xd9, 0xd8, 0x7a, 0x7f,
  0x35, 0xd1, 0x1e, 0x0f, 0x50, 0xaa, 0x81, 0x38, 0xe5, 0x15, 0x81, 0x0a, 0xf2,
  0x24, 0x19, 0xff, 0x14, 0x01, 0xe8, 0x2c, 0x25, 0x18, 0x01, 0x00, 0xfd, 0xdb,
  0x00, 0xb6, 0xf4, 0xff, 0xff, 0x04, 0x00, 0x00, 0x00, 0x90, 0x00, 0x00, 0x00,
  0x06, 0x1e, 0xdd, 0x64, 0xf0, 0xfe, 0x3c, 0xfb, 0xe7, 0x16, 0x71, 0x7f, 0x19,
  0x76, 0xbd, 0x29, 0x57, 0x09, 0xe8, 0x7f, 0xf4, 0xe0, 0x1a, 0x60, 0x20, 0x81,
  0x7d, 0xdf, 0xa3, 0x67, 0xa9, 0xb9, 0x2d, 0x24, 0x86, 0x8c, 0x08, 0xa2, 0xff,
  0xae, 0xfc, 0xe5, 0xf5, 0xce, 0x81, 0xdc, 0xdd, 0xc2, 0x31, 0xde, 0x2c, 0x7f,
  0xc7, 0xbb, 0x78, 0xf3, 0xe4, 0xd8, 0x45, 0x40, 0x43, 0xeb, 0x2b, 0xf2, 0x7f,
  0x08, 0xcc, 0xaf, 0xf8, 0x7a, 0x04, 0xab, 0x08, 0x81, 0x58, 0x03, 0xd2, 0x46,
  0xd0, 0xa9, 0x45, 0xd3, 0x16, 0xf1, 0x90, 0x1c, 0xb8, 0xf8, 0x6e, 0x51, 0x1e,
  0x2e, 0xae, 0xfc, 0x73, 0x7f, 0x7f, 0x55, 0xc1, 0xdf, 0x3a, 0xc4, 0xfe, 0x5c,
  0xb2, 0x08, 0x1b, 0x33, 0xd6, 0x43, 0xff, 0x3f, 0xe9, 0xa5, 0x59, 0x66, 0xb2,
  0xab, 0x3d, 0x7f, 0x47, 0x7f, 0xb5, 0xf4, 0xf3, 0xe9, 0xf4, 0x3c, 0xbe, 0x09,
  0xee, 0x14, 0x23, 0x00, 0x1c, 0xd8, 0x5d, 0x1f, 0x20, 0xf0, 0xeb, 0x81, 0x08,
  0x52, 0x52, 0xf5, 0xff, 0xff, 0x04, 0x00, 0x00, 0x00, 0x3c, 0x00, 0x00, 0x00,
  0xf0, 0xda, 0x4a, 0x0b, 0xd5, 0x81, 0xf8, 0x12, 0x08, 0xee, 0x86, 0x05, 0x7f,
  0x81, 0x7f, 0x81, 0x81, 0xad, 0x7f, 0x81, 0x35, 0x7f, 0x81, 0x4f, 0xe6, 0xe2,
  0x23, 0xff, 0xe1, 0x90, 0xe2, 0xfe, 0x7f, 0x36, 0x1d, 0x7f, 0x0f, 0xe5, 0x10,
  0xe2, 0xe9, 0xdc, 0x0c, 0xfb, 0x41, 0x10, 0x29, 0x19, 0xeb, 0xf8, 0x03, 0xfe,
  0xf9, 0xe3, 0x04, 0xf7, 0x03, 0xfa, 0x07, 0xf4, 0x9a, 0xf5, 0xff, 0xff, 0x04,
  0x00, 0x00, 0x00, 0x3c, 0x00, 0x00, 0x00, 0x7f, 0x45, 0x7f, 0xf0, 0xa5, 0xdc,
  0x01, 0x7f, 0x51, 0x7f, 0x01, 0x10, 0x96, 0x81, 0xe8, 0x22, 0x81, 0x81, 0xf2,
  0xd9, 0x85, 0xdc, 0xe3, 0x81, 0x4d, 0x08, 0xd5, 0x81, 0xbc, 0xaf, 0x7f, 0xe0,
  0x81, 0x93, 0x81, 0xf3, 0xde, 0xff, 0xf4, 0x02, 0xe9, 0xd7, 0xf8, 0x20, 0xa7,
  0x1e, 0x27, 0x21, 0x0a, 0xeb, 0x0a, 0xff, 0xf2, 0xdc, 0xf9, 0xf1, 0x05, 0xde,
  0xeb, 0xfc, 0xe2, 0xf5, 0xff, 0xff, 0x04, 0x00, 0x00, 0x00, 0xb4, 0x00, 0x00,
  0x00, 0xd0, 0x8b, 0x02, 0x44, 0x3c, 0x26, 0x5a, 0x16, 0x5c, 0xb1, 0x29, 0x15,
  0x11, 0xf5, 0x81, 0x19, 0xf7, 0xbd, 0x0c, 0xea, 0xcf, 0xe0, 0x27, 0xba, 0xe8,
  0x81, 0xa2, 0x4d, 0x24, 0x1c, 0x25, 0xe1, 0x7f, 0xa8, 0xe7, 0x38, 0xba, 0x0b,
  0x08, 0xeb, 0x32, 0x38, 0x34, 0x4e, 0x9c, 0xcd, 0xe4, 0x6a, 0xaa, 0xce, 0x26,
  0xd6, 0xd8, 0x39, 0x2b, 0x32, 0xd8, 0xd9, 0x81, 0x03, 0xeb, 0xec, 0x4a, 0xf1,
  0xf4, 0x2e, 0xea, 0x2b, 0xe0, 0xe0, 0xaa, 0x2b, 0xff, 0xfa, 0x81, 0x55, 0xc4,
  0xd1, 0x15, 0x9b, 0xf3, 0x27, 0x12, 0x24, 0xa0, 0x21, 0x01, 0xb1, 0x81, 0x1e,
  0x04, 0x64, 0xc3, 0x79, 0x0e, 0xe0, 0x0d, 0x36, 0xf1, 0x4d, 0x01, 0x55, 0x81,
  0x40, 0xe4, 0xa6, 0xd5, 0x7f, 0x13, 0x64, 0x28, 0x45, 0x0e, 0x14, 0xe9, 0x3f,
  0x49, 0xbe, 0x05, 0xb6, 0xe6, 0x0a, 0xdd, 0xe2, 0xe7, 0xd7, 0xf8, 0xe0, 0xe0,
  0xe3, 0x14, 0x1a, 0x81, 0x25, 0x16, 0xd5, 0xc8, 0x59, 0x1f, 0x81, 0x7c, 0x03,
  0x39, 0x56, 0xf9, 0x19, 0x6e, 0xe2, 0xc7, 0xa5, 0xe9, 0xaa, 0xff, 0xc3, 0x0a,
  0x56, 0x4d, 0x30, 0x10, 0x7f, 0xfb, 0xf3, 0x73, 0xac, 0xcb, 0xd7, 0xe9, 0x17,
  0xf2, 0x3d, 0x07, 0xfc, 0x7f, 0x8c, 0x13, 0x18, 0x1e, 0xbd, 0xcd, 0xa6, 0xa2,
  0xf6, 0xff, 0xff, 0x04, 0x00, 0x00, 0x00, 0x4b, 0x00, 0x00, 0x00, 0xe4, 0x18,
  0x03, 0xd9, 0x05, 0x10, 0xc4, 0xc8, 0x35, 0xdf, 0x3e, 0x4d, 0xfd, 0x4b, 0x03,
  0x7f, 0x61, 0x81, 0x7f, 0x81, 0x7f, 0x81, 0x81, 0x7f, 0xd6, 0x7f, 0x7f, 0x7f,
  0x81, 0x7f, 0x56, 0x7f, 0x13, 0x0a, 0xe3, 0x26, 0xcf, 0xdf, 0x15, 0x81, 0x58,
  0x7f, 0xe5, 0x19, 0xe4, 0xc1, 0xa4, 0xf6, 0x58, 0xf5, 0x20, 0x0c, 0xd1, 0x03,
  0x02, 0xf5, 0x28, 0x05, 0xfb, 0x12, 0x9b, 0x16, 0x01, 0xc2, 0xf7, 0xfc, 0x03,
  0xfd, 0x04, 0xf3, 0x1e, 0xe1, 0xf6, 0x02, 0xfa, 0x00, 0xfa, 0xf6, 0xff, 0xff,
  0x04, 0x00, 0x00, 0x00, 0x4b, 0x00, 0x00, 0x00, 0x25, 0xf2, 0xea, 0x17, 0xef,
  0x29, 0xfb, 0xeb, 0xf2, 0xee, 0xf3, 0x81, 0xf4, 0x00, 0xfd, 0xea, 0x01, 0x7f,
  0xfc, 0x33, 0x78, 0xfd, 0xe6, 0x5d, 0x46, 0xf0, 0x53, 0x7f, 0x3c, 0x17, 0x41,
  0x81, 0xaf, 0x7f, 0x86, 0x82, 0x42, 0xd7, 0x81, 0x7f, 0xd0, 0xc3, 0x1b, 0x7f,
  0x1d, 0x7f, 0xbb, 0x04, 0x10, 0x7f, 0x99, 0x7f, 0x81, 0x45, 0xdc, 0xc8, 0x69,
  0xe8, 0xed, 0x7f, 0x3c, 0xd7, 0xf8, 0x1f, 0xe8, 0x7f, 0x05, 0x84, 0x68, 0xf6,
  0x7f, 0x04, 0xfb, 0x01, 0xd6, 0x00, 0x52, 0xf7, 0xff, 0xff, 0x04, 0x00, 0x00,
  0x00, 0x2c, 0x01, 0x00, 0x00, 0xf9, 0x07, 0x2b, 0x89, 0xda, 0x12, 0xfd, 0x21,
  0x67, 0xf5, 0x2c, 0x42, 0x1e, 0x08, 0x12, 0x33, 0x81, 0x0d, 0xc5, 0x5b, 0xc4,
  0x11, 0x12, 0xa9, 0x05, 0x2c, 0x15, 0x9d, 0xca, 0x03, 0x50, 0xfe, 0xc1, 0xd6,
  0x4c, 0x81, 0x5c, 0xf8, 0xf7, 0x13, 0x0e, 0x62, 0xd1, 0xd6, 0x41, 0xbe, 0xe5,
  0x81, 0x21, 0x35, 0xd2, 0x22, 0x36, 0xa6, 0xb8, 0x29, 0x2b, 0xcc, 0xc2, 0x96,
  0x05, 0x04, 0xd8, 0xf7, 0x02, 0x01, 0xa2, 0x81, 0x23, 0x28, 0x33, 0x3e, 0x28,
  0xfa, 0xf0, 0x2d, 0xe7, 0xd5, 0xde, 0xf9, 0x7f, 0x19, 0xb9, 0x3a, 0x4b, 0xd8,
  0xbe, 0xf3, 0xe5, 0xb8, 0xa4, 0x1e, 0xe7, 0x19, 0x10, 0x64, 0x3b, 0x26, 0x0c,
  0x0d, 0xfb, 0x0f, 0xc8, 0x7f, 0xed, 0xea, 0x1d, 0x71, 0x59, 0xec, 0xca, 0x05,
  0x2f, 0x0a, 0xe8, 0xf4, 0x50, 0x10, 0xf6, 0x1a, 0xeb, 0xfe, 0x0d, 0x10, 0x33,
  0x14, 0xe0, 0xda, 0x2b, 0xb9, 0x7f, 0xf2, 0x6c, 0x0b, 0x36, 0xe9, 0x26, 0xd0,
  0xad, 0xcf, 0xf9, 0xf5, 0xee, 0x50, 0x39, 0x2f, 0x37, 0xbd, 0x06, 0x43, 0x23,
  0x09, 0xd5, 0xe7, 0xed, 0x00, 0xd1, 0x81, 0x84, 0xf5, 0x0c, 0xd4, 0x38, 0xfc,
  0xfe, 0x02, 0x2c, 0x03, 0xfd, 0xd8, 0x7f, 0x29, 0xde, 0x38, 0xda, 0xc9, 0xab,
  0xa4, 0xdd, 0x00, 0x00, 0x4d, 0xb8, 0x67, 0xa4, 0xe9, 0xe0, 0xfd, 0xd4, 0x81,
  0x13, 0x5f, 0x4f, 0x3f, 0x41, 0xec, 0xe7, 0xe4, 0x43, 0x1f, 0x34, 0xfa, 0x1a,
  0x13, 0x18, 0x17, 0xa8, 0x7a, 0x81, 0x0b, 0xe7, 0xee, 0x08, 0xe8, 0xed, 0x0f,
  0x16, 0xce, 0xe8, 0xe5, 0x32, 0xf6, 0xdc, 0x04, 0xe1, 0xf9, 0x25, 0xfb, 0xea,
  0xc9, 0x0e, 0x2d, 0x09, 0x19, 0xc2, 0x7f, 0x0c, 0xed, 0x4c, 0x4c, 0xca, 0xfa,
  0x34, 0x23, 0x0d, 0xfa, 0xcf, 0x81, 0xf4, 0xde, 0xf9, 0xba, 0xb4, 0x9f, 0x66,
  0xd9, 0x03, 0x1f, 0xf8, 0x0b, 0x38, 0x81, 0x9a, 0xde, 0x0d, 0x5e, 0xf3, 0x4c,
  0xde, 0x28, 0xf7, 0x8f, 0x30, 0x29, 0x43, 0x18, 0x30, 0xbd, 0x2f, 0xe6, 0xf2,
  0x04, 0xf1, 0xff, 0x0e, 0x0e, 0x81, 0x08, 0xf3, 0x32, 0xb3, 0xcf, 0x00, 0xdf,
  0x29, 0x10, 0x03, 0x41, 0x2b, 0x22, 0x8a, 0xf8, 0xff, 0xff, 0x04, 0x00, 0x00,
  0x00, 0x64, 0x00, 0x00, 0x00, 0x0b, 0x08, 0xb5, 0x40, 0xd1, 0xf8, 0xea, 0xb9,
  0xf0, 0xb7, 0xfd, 0x16, 0x2a, 0xe9, 0xe8, 0x75, 0x9d, 0xe0, 0xc8, 0xfa, 0xb5,
  0x14, 0xab, 0x32, 0xc4, 0x29, 0xfa, 0xaf, 0xe5, 0x27, 0xe6, 0xd4, 0x47, 0xc4,
  0x02, 0x7f, 0x00, 0x06, 0x9a, 0x2a, 0x81, 0x34, 0x81, 0x2a, 0x7f, 0x3d, 0xf2,
  0x99, 0xda, 0x4f, 0x81, 0x5f, 0x0f, 0x9d, 0xb5, 0x48, 0x7f, 0x9b, 0x81, 0xfd,
  0x53, 0x7f, 0x77, 0x81, 0x4c, 0x7f, 0x81, 0xbb, 0x1c, 0x7f, 0x82, 0x7f, 0x81,
  0x81, 0x7f, 0x40, 0xce, 0x81, 0xd0, 0x7f, 0x3a, 0xb9, 0x47, 0x13, 0xc4, 0x95,
  0x2f, 0x81, 0x81, 0xb8, 0x26, 0xd2, 0x06, 0x21, 0x9b, 0xed, 0x26, 0x03, 0x22,
  0xd1, 0xfa, 0xf8, 0xff, 0xff, 0x04, 0x00, 0x00, 0x00, 0xa0, 0x00, 0x00, 0x00,
  0x00, 0x00, 0x00, 0x00, 0x00, 0x00, 0x00, 0x00, 0x00, 0x00, 0x00, 0x00, 0x00,
  0x00, 0x00, 0x00, 0x00, 0x00, 0x00, 0x00, 0x00, 0x00, 0x00, 0x00, 0x00, 0x00,
  0x00, 0x00, 0x00, 0x00, 0x00, 0x00, 0x00, 0x00, 0x00, 0x00, 0x00, 0x00, 0x00,
  0x00, 0x00, 0x00, 0x00, 0x00, 0x00, 0x00, 0x00, 0x00, 0x00, 0x00, 0x00, 0x00,
  0x00, 0x00, 0x00, 0x00, 0x00, 0x00, 0x00, 0x00, 0x00, 0x00, 0x00, 0x00, 0x00,
  0x00, 0x00, 0x00, 0x00, 0x00, 0x00, 0x00, 0x00, 0x00, 0x00, 0x00, 0x00, 0x00,
  0x00, 0x00, 0x00, 0x00, 0x00, 0x00, 0x00, 0x00, 0x00, 0x00, 0x00, 0x00, 0x00,
  0x00, 0x00, 0x00, 0x00, 0x00, 0x00, 0x00, 0x00, 0x00, 0x00, 0x00, 0x00, 0x00,
  0x00, 0x00, 0x00, 0x00, 0x00, 0x00, 0x00, 0x00, 0x00, 0x00, 0x00, 0x00, 0x00,
  0x00, 0x00, 0x00, 0x00, 0x00, 0x00, 0x00, 0x00, 0x00, 0x00, 0x00, 0x00, 0x00,
  0x00, 0x00, 0x00, 0x00, 0x00, 0x00, 0x00, 0x00, 0x00, 0x00, 0x00, 0x00, 0x00,
  0x00, 0x00, 0x00, 0x00, 0x00, 0x00, 0x00, 0x00, 0x00, 0x00, 0x00, 0x00, 0x00,
  0x00, 0x00, 0x00, 0x00, 0xa6, 0xf9, 0xff, 0xff, 0x04, 0x00, 0x00, 0x00, 0x64,
  0x00, 0x00, 0x00, 0x81, 0x00, 0xf6, 0xe1, 0x33, 0x10, 0x1f, 0x9f, 0x97, 0xbc,
  0xef, 0xda, 0x11, 0xec, 0x16, 0x7c, 0xf6, 0x0d, 0x16, 0x15, 0xb7, 0xf9, 0xb2,
  0xf8, 0x7f, 0xff, 0x7f, 0xba, 0xc3, 0xe2, 0x7f, 0x52, 0xe5, 0x24, 0xd6, 0x7f,
  0x18, 0x81, 0x3d, 0x2d, 0xf2, 0xf8, 0x74, 0x81, 0x4d, 0xe7, 0xa8, 0x17, 0x7f,
  0x13, 0xa8, 0x81, 0x81, 0x88, 0xfe, 0x4d, 0x88, 0x17, 0x0e, 0x00, 0x86, 0x81,
  0x7f, 0x79, 0xb9, 0x81, 0xfc, 0x7f, 0x26, 0xd3, 0x18, 0x87, 0x95, 0x7f, 0x7f,
  0x64, 0x81, 0x48, 0x81, 0x81, 0xd7, 0x22, 0x0d, 0xe3, 0x61, 0x29, 0xc7, 0x6f,
  0x87, 0x7f, 0xc1, 0x11, 0x40, 0xd7, 0x18, 0x6c, 0x2f, 0xd4, 0x77, 0x12, 0x16,
  0xfa, 0xff, 0xff, 0x04, 0x00, 0x00, 0x00, 0xe1, 0x00, 0x00, 0x00, 0x39, 0x7f,
  0x29, 0xf8, 0x50, 0x00, 0x18, 0xc8, 0x48, 0x26, 0xfa, 0x0f, 0x52, 0x3a, 0xe8,
  0x2a, 0xed, 0x2c, 0xec, 0xd8, 0x00, 0x14, 0x05, 0x1b, 0x0d, 0xe8, 0x7f, 0x2f,
  0x67, 0xec, 0x3f, 0xe9, 0xf6, 0xec, 0xf1, 0x00, 0xfb, 0x0b, 0x81, 0x05, 0xc7,
  0xf6, 0xd1, 0x40, 0x0f, 0x79, 0xd3, 0xfe, 0x01, 0x00, 0x00, 0xf3, 0x0a, 0x9e,
  0xe2, 0x48, 0x81, 0xc2, 0xdd, 0xbd, 0x81, 0x44, 0xd6, 0x37, 0x01, 0x00, 0x2a,
  0xcc, 0xac, 0x2e, 0x8e, 0xa7, 0xd8, 0x16, 0x03, 0x7f, 0xf5, 0xe2, 0x17, 0x47,
  0x00, 0xec, 0xef, 0xdb, 0x10, 0x8e, 0xb1, 0xc0, 0xf4, 0xfb, 0x25, 0xdd, 0x0f,
  0xdd, 0xf0, 0x00, 0x09, 0xfa, 0x28, 0xf6, 0x7f, 0x04, 0x1a, 0xfb, 0xf6, 0xd3,
  0x7f, 0xd2, 0x0f, 0x09, 0x00, 0xe1, 0xa8, 0x21, 0x2b, 0xef, 0x3a, 0xb9, 0xda,
  0xb8, 0x5d, 0x3d, 0x0e, 0xeb, 0xfb, 0x00, 0xe6, 0x10, 0x7f, 0xf6, 0x3b, 0x1d,
  0x66, 0xf0, 0xd8, 0x92, 0x81, 0xcf, 0xed, 0xd4, 0x00, 0xfd, 0xed, 0x60, 0xc7,
  0x0f, 0xde, 0x07, 0xc9, 0x26, 0xb7, 0x17, 0xb2, 0x4c, 0xe3, 0x00, 0xb5, 0xe3,
  0xc9, 0x07, 0x87, 0x00, 0xc8, 0x1b, 0x81, 0x37, 0x30, 0xcf, 0x16, 0xc6, 0x00,
  0xc4, 0x08, 0x81, 0x1a, 0xc4, 0xe9, 0x3a, 0x09, 0xd0, 0xcf, 0x36, 0x06, 0xef,
  0x28, 0x00, 0x25, 0xfc, 0x61, 0x19, 0xfe, 0x3b, 0x0f, 0x92, 0x7f, 0xd3, 0xfc,
  0x31, 0xfb, 0xee, 0x00, 0x18, 0xea, 0xe9, 0x03, 0x81, 0xfd, 0x0c, 0x04, 0x0e,
  0x0b, 0x05, 0xf2, 0x4b, 0xee, 0x00, 0x06, 0xd3, 0xbc, 0x02, 0x17, 0x1c, 0xde,
  0xef, 0x7f, 0x00, 0x00, 0x00, 0x06, 0xfb, 0xff, 0xff, 0x04, 0x00, 0x00, 0x00,
  0x4b, 0x00, 0x00, 0x00, 0xef, 0x09, 0x04, 0xff, 0x7f, 0x7e, 0xcb, 0xfc, 0xfc,
  0xff, 0x0a, 0x14, 0xdc, 0x06, 0xfc, 0xd5, 0xdd, 0xdd, 0x10, 0x54, 0x9f, 0x3c,
  0xff, 0x07, 0x33, 0x15, 0xb3, 0x10, 0x0b, 0x04, 0xe4, 0x7f, 0x82, 0xf6, 0xb4,
  0x42, 0x09, 0x81, 0xf2, 0x57, 0x37, 0x81, 0x83, 0x0c, 0xe8, 0x81, 0xec, 0x81,
  0x7f, 0xa9, 0x7f, 0x7f, 0xed, 0x81, 0x81, 0x81, 0xdd, 0x81, 0x81, 0x81, 0xc1,
  0x0f, 0xc0, 0x22, 0xdd, 0xa4, 0xfa, 0xb9, 0xd9, 0x29, 0x27, 0xfc, 0xab, 0x1f,
  0xe7, 0x00, 0x5e, 0xfb, 0xff, 0xff, 0x04, 0x00, 0x00, 0x00, 0x4b, 0x00, 0x00,
  0x00, 0xf5, 0x01, 0xc3, 0xf9, 0x0e, 0x58, 0x81, 0x81, 0x42, 0xfa, 0x0b, 0xff,
  0xea, 0xff, 0x17, 0xf0, 0x0c, 0x54, 0x22, 0xd2, 0x67, 0x09, 0x18, 0x5a, 0x25,
  0xf1, 0x2b, 0xc6, 0xf9, 0x81, 0xf1, 0x0a, 0x12, 0x7f, 0x81, 0x16, 0x36, 0xb1,
  0x02, 0x7f, 0x7f, 0x7f, 0xf0, 0xbe, 0x38, 0x81, 0x7f, 0x7f, 0x6f, 0x0a, 0x94,
  0xf7, 0x69, 0x81, 0x2f, 0x15, 0xfb, 0x81, 0x7f, 0xa9, 0xcb, 0x64, 0xc4, 0x12,
  0xc0, 0x81, 0xe6, 0x00, 0x3f, 0xf1, 0xf1, 0xfc, 0x26, 0x06, 0xda, 0x00, 0xb6,
  0xfb, 0xff, 0xff, 0x04, 0x00, 0x00, 0x00, 0x2c, 0x01, 0x00, 0x00, 0x04, 0xd7,
  0x03, 0xfa, 0xe4, 0x13, 0x05, 0x7f, 0xe1, 0xfa, 0x06, 0x02, 0xed, 0xfc, 0xfe,
  0xc8, 0xfe, 0x10, 0xd2, 0x0a, 0x53, 0x7f, 0x36, 0x1c, 0x02, 0x1b, 0x2b, 0xfd,
  0xff, 0xf3, 0xe9, 0x2e, 0xe3, 0xf9, 0xe2, 0xe9, 0x02, 0xeb, 0x33, 0x07, 0x04,
  0x3f, 0x86, 0x30, 0x1b, 0x8e, 0x0e, 0x08, 0x06, 0xa3, 0xae, 0x4e, 0x78, 0x0f,
  0x20, 0x7f, 0xf8, 0xbf, 0x35, 0xf7, 0xfb, 0x54, 0x35, 0x7f, 0x90, 0xdc, 0xfe,
  0x0a, 0x35, 0x53, 0xe2, 0xf0, 0xcf, 0xf0, 0xc5, 0xe0, 0x03, 0xa3, 0xf7, 0x97,
  0x1b, 0x14, 0xfb, 0xe8, 0xf9, 0xde, 0xe9, 0x81, 0xd0, 0xe2, 0x8c, 0x0b, 0xd9,
  0x11, 0x25, 0x2c, 0x1f, 0x2b, 0xd2, 0xf2, 0xf6, 0x16, 0x00, 0x07, 0x26, 0x38,
  0x20, 0x7f, 0xeb, 0xfb, 0x29, 0xe4, 0x41, 0xee, 0xcc, 0xfc, 0xdf, 0x0e, 0x16,
  0xff, 0xe5, 0xdd, 0xe5, 0xd9, 0x02, 0xf7, 0xc6, 0xe5, 0x33, 0xe0, 0xce, 0x7f,
  0x3d, 0xe9, 0x23, 0xf7, 0x17, 0xcb, 0xd7, 0xef, 0xbd, 0xfd, 0xed, 0xeb, 0x8e,
  0x14, 0xed, 0xd6, 0x7f, 0xeb, 0xef, 0xfa, 0xa1, 0x05, 0x3c, 0x13, 0xee, 0xf1,
  0x05, 0x37, 0xf1, 0x24, 0xed, 0xfe, 0xed, 0x0e, 0x7f, 0xfc, 0xbb, 0x11, 0x05,
  0x12, 0xfc, 0x09, 0xbf, 0xf8, 0xf3, 0x0f, 0xfb, 0x10, 0xc7, 0xb7, 0x45, 0x64,
  0xb5, 0x03, 0xae, 0xff, 0xd7, 0xbd, 0x4c, 0x6e, 0xa7, 0x52, 0x2f, 0x4f, 0xb8,
  0x9f, 0x91, 0x81, 0x04, 0xe0, 0x13, 0x11, 0x11, 0xff, 0xf8, 0x7f, 0xd0, 0x1a,
  0xf4, 0xfd, 0x02, 0xf8, 0xfc, 0x2a, 0x02, 0xfa, 0xee, 0xea, 0xca, 0xdc, 0xfd,
  0x25, 0xf2, 0x06, 0x0f, 0x0d, 0xef, 0xb5, 0x06, 0x4b, 0x03, 0x81, 0xff, 0x1f,
  0xf5, 0xda, 0xed, 0xea, 0x09, 0x0c, 0xf0, 0x7f, 0xf6, 0x10, 0x32, 0x01, 0xd2,
  0xa3, 0xaf, 0xcd, 0xfe, 0x13, 0x9e, 0x07, 0xe7, 0x1c, 0xb6, 0x17, 0x00, 0xec,
  0x0a, 0x11, 0x0c, 0xf0, 0x0c, 0x33, 0xfc, 0xef, 0xe8, 0xf2, 0x0b, 0x00, 0xfa,
  0x81, 0x02, 0xec, 0xd1, 0xdf, 0x36, 0xec, 0xf9, 0xbe, 0xe6, 0x13, 0x13, 0x3c,
  0x24, 0x1a, 0x23, 0xf1, 0xe4, 0xdb, 0x25, 0x81, 0xd1, 0x03, 0x62, 0xf0, 0xee,
  0xfc, 0xff, 0xff, 0x04, 0x00, 0x00, 0x00, 0x64, 0x00, 0x00, 0x00, 0xea, 0x11,
  0x0c, 0x05, 0xe0, 0xca, 0x2a, 0xab, 0x7f, 0x45, 0x87, 0xdc, 0x11, 0x0c, 0x4f,
  0x6d, 0x0d, 0x09, 0xd1, 0xdb, 0x18, 0x2d, 0x67, 0x96, 0x81, 0x7f, 0xca, 0x8e,
  0x2e, 0xd5, 0xca, 0x61, 0xef, 0x76, 0x7f, 0x79, 0x51, 0x03, 0xa5, 0xe6, 0xa8,
  0x7f, 0x81, 0x81, 0xdc, 0xef, 0x7f, 0x81, 0x01, 0x20, 0x81, 0x81, 0x81, 0xae,
  0x21, 0x7f, 0x81, 0x7f, 0x81, 0x81, 0x7f, 0xa9, 0xeb, 0x6d, 0x25, 0xd8, 0x14,
  0x92, 0x06, 0x81, 0xaa, 0x7f, 0x25, 0x81, 0xa9, 0x6c, 0x26, 0x9c, 0x11, 0x07,
  0xcd, 0x05, 0x4a, 0xf8, 0x00, 0x05, 0x1b, 0x9c, 0x7a, 0x00, 0x40, 0xe2, 0xfa,
  0x27, 0x7b, 0x3e, 0x00, 0x2e, 0x07, 0x20, 0x5e, 0xfd, 0xff, 0xff, 0x04, 0x00,
  0x00, 0x00, 0x64, 0x00, 0x00, 0x00, 0x0f, 0x24, 0x26, 0xf6, 0xab, 0x7f, 0xf7,
  0xdd, 0x0e, 0xd5, 0xe0, 0x36, 0x6a, 0xfa, 0x0a, 0x81, 0x14, 0x54, 0x81, 0xe0,
  0x81, 0x7f, 0x7f, 0x53, 0x7f, 0xd1, 0xbb, 0x90, 0x5f, 0xd7, 0xde, 0x94, 0x81,
  0x17, 0x81, 0xeb, 0xec, 0x3b, 0x28, 0x9b, 0xb7, 0x04, 0x1c, 0x81, 0xf6, 0xf9,
  0x81, 0xa6, 0x81, 0x7f, 0x57, 0x7f, 0x1d, 0x81, 0x66, 0x2e, 0x7f, 0x81, 0x92,
  0x7f, 0xf2, 0x2a, 0xe8, 0x2d, 0xf2, 0xc6, 0xde, 0x9c, 0x91, 0x04, 0x81, 0x4c,
  0x24, 0xe1, 0xef, 0x0c, 0x76, 0xbe, 0x33, 0x4a, 0x11, 0x0e, 0xcc, 0xef, 0xcd,
  0xfc, 0xd7, 0x81, 0x88, 0xcd, 0x61, 0xe9, 0xfa, 0xf8, 0xcd, 0x32, 0xe1, 0xc7,
  0x2c, 0xda, 0xce, 0xfd, 0xff, 0xff, 0x04, 0x00, 0x00, 0x00, 0x14, 0x00, 0x00,
  0x00, 0x7f, 0x7f, 0x7f, 0x81, 0x7f, 0x81, 0x81, 0x81, 0x7f, 0x7f, 0x81, 0x7f,
  0x81, 0x81, 0x7f, 0x81, 0x81, 0x81, 0x7f, 0x81, 0xee, 0xfd, 0xff, 0xff, 0x04,
  0x00, 0x00, 0x00, 0x07, 0x00, 0x00, 0x00, 0xfc, 0x17, 0xb1, 0x7f, 0x2f, 0x0c,
  0x02, 0x00, 0x02, 0xfe, 0xff, 0xff, 0x04, 0x00, 0x00, 0x00, 0x07, 0x00, 0x00,
  0x00, 0x00, 0x01, 0x01, 0x00, 0x02, 0x81, 0x11, 0x00, 0x16, 0xfe, 0xff, 0xff,
  0x04, 0x00, 0x00, 0x00, 0x20, 0x00, 0x00, 0x00, 0x00, 0x00, 0x00, 0x00, 0x00,
  0x00, 0x00, 0x00, 0x03, 0x00, 0x00, 0x00, 0x03, 0x00, 0x00, 0x00, 0x03, 0x00,
  0x00, 0x00, 0x03, 0x00, 0x00, 0x00, 0x00, 0x00, 0x00, 0x00, 0x00, 0x00, 0x00,
  0x00, 0x42, 0xfe, 0xff, 0xff, 0x04, 0x00, 0x00, 0x00, 0x78, 0x00, 0x00, 0x00,
  0xf9, 0xd4, 0xff, 0xff, 0xff, 0xff, 0xff, 0xff, 0xda, 0x00, 0x00, 0x00, 0x00,
  0x00, 0x00, 0x00, 0xaa, 0xff, 0xff, 0xff, 0xff, 0xff, 0xff, 0xff, 0xd6, 0x02,
  0x00, 0x00, 0x00, 0x00, 0x00, 0x00, 0xdc, 0x11, 0x01, 0x00, 0x00, 0x00, 0x00,
  0x00, 0xde, 0x01, 0xfd, 0xff, 0xff, 0xff, 0xff, 0xff, 0xb3, 0x16, 0x00, 0x00,
  0x00, 0x00, 0x00, 0x00, 0x18, 0x3e, 0x00, 0x00, 0x00, 0x00, 0x00, 0x00, 0x15,
  0xed, 0xff, 0xff, 0xff, 0xff, 0xff, 0xff, 0x04, 0x08, 0x00, 0x00, 0x00, 0x00,
  0x00, 0x00, 0xc8, 0xc7, 0xff, 0xff, 0xff, 0xff, 0xff, 0xff, 0xf8, 0xfa, 0xff,
  0xff, 0xff, 0xff, 0xff, 0xff, 0xb8, 0xfd, 0xff, 0xff, 0xff, 0xff, 0xff, 0xff,
  0x0d, 0xf9, 0xff, 0xff, 0xff, 0xff, 0xff, 0xff, 0x44, 0x0b, 0x00, 0x00, 0x00,
  0x00, 0x00, 0x00, 0xc6, 0xfe, 0xff, 0xff, 0x04, 0x00, 0x00, 0x00, 0x60, 0x00,
  0x00, 0x00, 0xb6, 0x04, 0x00, 0x00, 0x00, 0x00, 0x00, 0x00, 0x2e, 0x09, 0x00,
  0x00, 0x00, 0x00, 0x00, 0x00, 0xc5, 0x07, 0x00, 0x00, 0x00, 0x00, 0x00, 0x00,
  0x70, 0x07, 0x00, 0x00, 0x00, 0x00, 0x00, 0x00, 0x3e, 0xfa, 0xff, 0xff, 0xff,
  0xff, 0xff, 0xff, 0x78, 0xfa, 0xff, 0xff, 0xff, 0xff, 0xff, 0xff, 0x27, 0xf1,
  0xff, 0xff, 0xff, 0xff, 0xff, 0xff, 0x5b, 0x08, 0x00, 0x00, 0x00, 0x00, 0x00,
  0x00, 0xa3, 0x06, 0x00, 0x00, 0x00, 0x00, 0x00, 0x00, 0xea, 0xf7, 0xff, 0xff,
  0xff, 0xff, 0xff, 0xff, 0x42, 0x04, 0x00, 0x00, 0x00, 0x00, 0x00, 0x00, 0xc7,
  0xfe, 0xff, 0xff, 0xff, 0xff, 0xff, 0xff, 0x32, 0xff, 0xff, 0xff, 0x04, 0x00,
  0x00, 0x00, 0x48, 0x00, 0x00, 0x00, 0x0b, 0x11, 0xfd, 0xff, 0xff, 0xff, 0xff,
  0xff, 0xbe, 0xfb, 0xff, 0xff, 0xff, 0xff, 0xff, 0xff, 0xf6, 0xa3, 0x00, 0x00,
  0x00, 0x00, 0x00, 0x00, 0x0a, 0xb9, 0xff, 0xff, 0xff, 0xff, 0xff, 0xff, 0x7f,
  0xd9, 0xfe, 0xff, 0xff, 0xff, 0xff, 0xff, 0x89, 0x85, 0xff, 0xff, 0xff, 0xff,
  0xff, 0xff, 0x2f, 0x64, 0xfd, 0xff, 0xff, 0xff, 0xff, 0xff, 0xae, 0x0f, 0x00,
  0x00, 0x00, 0x00, 0x00, 0x00, 0xe3, 0xe6, 0xff, 0xff, 0xff, 0xff, 0xff, 0xff,
  0x86, 0xff, 0xff, 0xff, 0x04, 0x00, 0x00, 0x00, 0x38, 0x00, 0x00, 0x00, 0x40,
  0xf4, 0xfd, 0xff, 0xff, 0xff, 0xff, 0xff, 0x3b, 0xf4, 0xff, 0xff, 0xff, 0xff,
  0xff, 0xff, 0x64, 0x99, 0xfc, 0xff, 0xff, 0xff, 0xff, 0xff, 0x9c, 0x09, 0x00,
  0x00, 0x00, 0x00, 0x00, 0x00, 0xee, 0x25, 0x00, 0x00, 0x00, 0x00, 0x00, 0x00,
  0xef, 0x61, 0xfe, 0xff, 0xff, 0xff, 0xff, 0xff, 0xe5, 0xa3, 0x00, 0x00, 0x00,
  0x00, 0x00, 0x00, 0xca, 0xff, 0xff, 0xff, 0x04, 0x00, 0x00, 0x00, 0x28, 0x00,
  0x00, 0x00, 0x02, 0xb2, 0xff, 0xff, 0xff, 0xff, 0xff, 0xff, 0x50, 0x30, 0xfd,
  0xff, 0xff, 0xff, 0xff, 0xff, 0x12, 0x03, 0x01, 0x00, 0x00, 0x00, 0x00, 0x00,
  0x9d, 0x9b, 0xfc, 0xff, 0xff, 0xff, 0xff, 0xff, 0xea, 0xd8, 0xfc, 0xff, 0xff,
  0xff, 0xff, 0xff, 0x00, 0x00, 0x06, 0x00, 0x08, 0x00, 0x04, 0x00, 0x06, 0x00,
  0x00, 0x00, 0x04, 0x00, 0x00, 0x00, 0x28, 0x00, 0x00, 0x00, 0xe6, 0xa2, 0xfd,
  0xff, 0xff, 0xff, 0xff, 0xff, 0x9b, 0x74, 0xfe, 0xff, 0xff, 0xff, 0xff, 0xff,
  0xd6, 0x43, 0x00, 0x00, 0x00, 0x00, 0x00, 0x00, 0x56, 0xa6, 0xff, 0xff, 0xff,
  0xff, 0xff, 0xff, 0x57, 0x29, 0x00, 0x00, 0x00, 0x00, 0x00, 0x00, 0x58, 0x7d,
  0xff, 0xff, 0x5c, 0x7d, 0xff, 0xff, 0x0f, 0x00, 0x00, 0x00, 0x4d, 0x4c, 0x49,
  0x52, 0x20, 0x43, 0x6f, 0x6e, 0x76, 0x65, 0x72, 0x74, 0x65, 0x64, 0x2e, 0x00,
  0x01, 0x00, 0x00, 0x00, 0x14, 0x00, 0x00, 0x00, 0x00, 0x00, 0x0e, 0x00, 0x18,
  0x00, 0x14, 0x00, 0x10, 0x00, 0x0c, 0x00, 0x08, 0x00, 0x04, 0x00, 0x0e, 0x00,
  0x00, 0x00, 0x14, 0x00, 0x00, 0x00, 0x1c, 0x00, 0x00, 0x00, 0x50, 0x11, 0x00,
  0x00, 0x54, 0x11, 0x00, 0x00, 0x58, 0x11, 0x00, 0x00, 0x04, 0x00, 0x00, 0x00,
  0x6d, 0x61, 0x69, 0x6e, 0x00, 0x00, 0x00, 0x00, 0x42, 0x00, 0x00, 0x00, 0x14,
  0x11, 0x00, 0x00, 0xd8, 0x10, 0x00, 0x00, 0x78, 0x10, 0x00, 0x00, 0x24, 0x10,
  0x00, 0x00, 0xd8, 0x0f, 0x00, 0x00, 0x94, 0x0f, 0x00, 0x00, 0x50, 0x0f, 0x00,
  0x00, 0x00, 0x0f, 0x00, 0x00, 0xbc, 0x0e, 0x00, 0x00, 0x78, 0x0e, 0x00, 0x00,
  0x38, 0x0e, 0x00, 0x00, 0xf4, 0x0d, 0x00, 0x00, 0xb0, 0x0d, 0x00, 0x00, 0x70,
  0x0d, 0x00, 0x00, 0x30, 0x0d, 0x00, 0x00, 0xec, 0x0c, 0x00, 0x00, 0xa8, 0x0c,
  0x00, 0x00, 0x64, 0x0c, 0x00, 0x00, 0x20, 0x0c, 0x00, 0x00, 0xdc, 0x0b, 0x00,
  0x00, 0x9c, 0x0b, 0x00, 0x00, 0x58, 0x0b, 0x00, 0x00, 0x14, 0x0b, 0x00, 0x00,
  0xd4, 0x0a, 0x00, 0x00, 0x9c, 0x0a, 0x00, 0x00, 0x58, 0x0a, 0x00, 0x00, 0x14,
  0x0a, 0x00, 0x00, 0xd0, 0x09, 0x00, 0x00, 0x8c, 0x09, 0x00, 0x00, 0x48, 0x09,
  0x00, 0x00, 0x08, 0x09, 0x00, 0x00, 0xc4, 0x08, 0x00, 0x00, 0x80, 0x08, 0x00,
  0x00, 0x40, 0x08, 0x00, 0x00, 0x08, 0x08, 0x00, 0x00, 0xc4, 0x07, 0x00, 0x00,
  0x80, 0x07, 0x00, 0x00, 0x3c, 0x07, 0x00, 0x00, 0xf8, 0x06, 0x00, 0x00, 0xb4,
  0x06, 0x00, 0x00, 0x74, 0x06, 0x00, 0x00, 0x30, 0x06, 0x00, 0x00, 0xec, 0x05,
  0x00, 0x00, 0xac, 0x05, 0x00, 0x00, 0x74, 0x05, 0x00, 0x00, 0x30, 0x05, 0x00,
  0x00, 0xec, 0x04, 0x00, 0x00, 0xa8, 0x04, 0x00, 0x00, 0x64, 0x04, 0x00, 0x00,
  0x20, 0x04, 0x00, 0x00, 0xe0, 0x03, 0x00, 0x00, 0x9c, 0x03, 0x00, 0x00, 0x58,
  0x03, 0x00, 0x00, 0x18, 0x03, 0x00, 0x00, 0xe0, 0x02, 0x00, 0x00, 0x9c, 0x02,
  0x00, 0x00, 0x58, 0x02, 0x00, 0x00, 0x14, 0x02, 0x00, 0x00, 0xd0, 0x01, 0x00,
  0x00, 0x8c, 0x01, 0x00, 0x00, 0x4c, 0x01, 0x00, 0x00, 0x14, 0x01, 0x00, 0x00,
  0xc0, 0x00, 0x00, 0x00, 0x78, 0x00, 0x00, 0x00, 0x28, 0x00, 0x00, 0x00, 0x04,
  0x00, 0x00, 0x00, 0xfe, 0xef, 0xff, 0xff, 0x0c, 0x00, 0x00, 0x00, 0x10, 0x00,
  0x00, 0x00, 0x05, 0x00, 0x00, 0x00, 0x01, 0x00, 0x00, 0x00, 0x91, 0x00, 0x00,
  0x00, 0x01, 0x00, 0x00, 0x00, 0x8f, 0x00, 0x00, 0x00, 0xb6, 0xf0, 0xff, 0xff,
  0x20, 0x00, 0x00, 0x00, 0x00, 0x00, 0x00, 0x01, 0x28, 0x00, 0x00, 0x00, 0x2c,
  0x00, 0x00, 0x00, 0x02, 0x00, 0x00, 0x00, 0x00, 0x00, 0x0a, 0x00, 0x10, 0x00,
  0x0f, 0x00, 0x08, 0x00, 0x04, 0x00, 0x0a, 0x00, 0x00, 0x00, 0x01, 0x00, 0x00,
  0x00, 0x01, 0x00, 0x00, 0x00, 0x00, 0x00, 0x00, 0x01, 0x01, 0x00, 0x00, 0x00,
  0x8f, 0x00, 0x00, 0x00, 0x03, 0x00, 0x00, 0x00, 0x8e, 0x00, 0x00, 0x00, 0x47,
  0x00, 0x00, 0x00, 0x4f, 0x00, 0x00, 0x00, 0x02, 0xf1, 0xff, 0xff, 0x14, 0x00,
  0x00, 0x00, 0x00, 0x00, 0x00, 0x02, 0x20, 0x00, 0x00, 0x00, 0x24, 0x00, 0x00,
  0x00, 0x01, 0x00, 0x00, 0x00, 0xbc, 0xff, 0xff, 0xff, 0x01, 0x00, 0x00, 0x00,
  0x01, 0x00, 0x00, 0x00, 0x01, 0x00, 0x00, 0x00, 0x00, 0x00, 0x00, 0x01, 0x01,
  0x00, 0x00, 0x00, 0x8e, 0x00, 0x00, 0x00, 0x03, 0x00, 0x00, 0x00, 0x8d, 0x00,
  0x00, 0x00, 0x45, 0x00, 0x00, 0x00, 0x44, 0x00, 0x00, 0x00, 0x46, 0xf1, 0xff,
  0xff, 0x20, 0x00, 0x00, 0x00, 0x00, 0x00, 0x00, 0x02, 0x2c, 0x00, 0x00, 0x00,
  0x30, 0x00, 0x00, 0x00, 0x01, 0x00, 0x00, 0x00, 0x0c, 0x00, 0x14, 0x00, 0x13,
  0x00, 0x0c, 0x00, 0x08, 0x00, 0x04, 0x00, 0x0c, 0x00, 0x00, 0x00, 0x01, 0x00,
  0x00, 0x00, 0x01, 0x00, 0x00, 0x00, 0x01, 0x00, 0x00, 0x00, 0x00, 0x00, 0x00,
  0x01, 0x01, 0x00, 0x00, 0x00, 0x8d, 0x00, 0x00, 0x00, 0x03, 0x00, 0x00, 0x00,
  0x8c, 0x00, 0x00, 0x00, 0x43, 0x00, 0x00, 0x00, 0x44, 0x00, 0x00, 0x00, 0x96,
  0xf1, 0xff, 0xff, 0x14, 0x00, 0x00, 0x00, 0x00, 0x00, 0x00, 0x0b, 0x14, 0x00,
  0x00, 0x00, 0x18, 0x00, 0x00, 0x00, 0x03, 0x00, 0x00, 0x00, 0xa0, 0xf4, 0xff,
  0xff, 0x00, 0x00, 0x00, 0x00, 0x01, 0x00, 0x00, 0x00, 0x8c, 0x00, 0x00, 0x00,
  0x02, 0x00, 0x00, 0x00, 0x85, 0x00, 0x00, 0x00, 0x8b, 0x00, 0x00, 0x00, 0xca,
  0xf1, 0xff, 0xff, 0x14, 0x00, 0x00, 0x00, 0x00, 0x00, 0x00, 0x01, 0x18, 0x00,
  0x00, 0x00, 0x1c, 0x00, 0x00, 0x00, 0x02, 0x00, 0x00, 0x00, 0x52, 0xf2, 0xff,
  0xff, 0x01, 0x00, 0x00, 0x00, 0x01, 0x00, 0x00, 0x00, 0x01, 0x00, 0x00, 0x00,
  0x8b, 0x00, 0x00, 0x00, 0x03, 0x00, 0x00, 0x00, 0x8a, 0x00, 0x00, 0x00, 0x42,
  0x00, 0x00, 0x00, 0x4e, 0x00, 0x00, 0x00, 0x06, 0xf2, 0xff, 0xff, 0x14, 0x00,
  0x00, 0x00, 0x00, 0x00, 0x00, 0x02, 0x1c, 0x00, 0x00, 0x00, 0x20, 0x00, 0x00,
  0x00, 0x01, 0x00, 0x00, 0x00, 0xf8, 0xf1, 0xff, 0xff, 0x01, 0x00, 0x00, 0x00,
  0x01, 0x00, 0x00, 0x00, 0x01, 0x00, 0x00, 0x00, 0x01, 0x00, 0x00, 0x00, 0x8a,
  0x00, 0x00, 0x00, 0x03, 0x00, 0x00, 0x00, 0x89, 0x00, 0x00, 0x00, 0x41, 0x00,
  0x00, 0x00, 0x44, 0x00, 0x00, 0x00, 0x46, 0xf2, 0xff, 0xff, 0x14, 0x00, 0x00,
  0x00, 0x00, 0x00, 0x00, 0x02, 0x1c, 0x00, 0x00, 0x00, 0x20, 0x00, 0x00, 0x00,
  0x01, 0x00, 0x00, 0x00, 0x38, 0xf2, 0xff, 0xff, 0x01, 0x00, 0x00, 0x00, 0x01,
  0x00, 0x00, 0x00, 0x01, 0x00, 0x00, 0x00, 0x01, 0x00, 0x00, 0x00, 0x89, 0x00,
  0x00, 0x00, 0x03, 0x00, 0x00, 0x00, 0x88, 0x00, 0x00, 0x00, 0x40, 0x00, 0x00,
  0x00, 0x44, 0x00, 0x00, 0x00, 0x86, 0xf2, 0xff, 0xff, 0x14, 0x00, 0x00, 0x00,
  0x00, 0x00, 0x00, 0x01, 0x1c, 0x00, 0x00, 0x00, 0x20, 0x00, 0x00, 0x00, 0x02,
  0x00, 0x00, 0x00, 0xdc, 0xf3, 0xff, 0xff, 0x00, 0x00, 0x00, 0x01, 0x01, 0x00,
  0x00, 0x00, 0x01, 0x00, 0x00, 0x00, 0x01, 0x00, 0x00, 0x00, 0x88, 0x00, 0x00,
  0x00, 0x03, 0x00, 0x00, 0x00, 0x87, 0x00, 0x00, 0x00, 0x3f, 0x00, 0x00, 0x00,
  0x01, 0x00, 0x00, 0x00, 0xc6, 0xf2, 0xff, 0xff, 0x14, 0x00, 0x00, 0x00, 0x00,
  0x00, 0x00, 0x02, 0x1c, 0x00, 0x00, 0x00, 0x20, 0x00, 0x00, 0x00, 0x01, 0x00,
  0x00, 0x00, 0xb8, 0xf2, 0xff, 0xff, 0x01, 0x00, 0x00, 0x00, 0x01, 0x00, 0x00,
  0x00, 0x01, 0x00, 0x00, 0x00, 0x01, 0x00, 0x00, 0x00, 0x87, 0x00, 0x00, 0x00,
  0x03, 0x00, 0x00, 0x00, 0x86, 0x00, 0x00, 0x00, 0x3e, 0x00, 0x00, 0x00, 0x44,
  0x00, 0x00, 0x00, 0x06, 0xf3, 0xff, 0xff, 0x14, 0x00, 0x00, 0x00, 0x00, 0x00,
  0x00, 0x02, 0x1c, 0x00, 0x00, 0x00, 0x20, 0x00, 0x00, 0x00, 0x01, 0x00, 0x00,
  0x00, 0xf8, 0xf2, 0xff, 0xff, 0x01, 0x00, 0x00, 0x00, 0x01, 0x00, 0x00, 0x00,
  0x01, 0x00, 0x00, 0x00, 0x01, 0x00, 0x00, 0x00, 0x86, 0x00, 0x00, 0x00, 0x03,
  0x00, 0x00, 0x00, 0x85, 0x00, 0x00, 0x00, 0x3d, 0x00, 0x00, 0x00, 0x44, 0x00,
  0x00, 0x00, 0x46, 0xf3, 0xff, 0xff, 0x14, 0x00, 0x00, 0x00, 0x00, 0x00, 0x00,
  0x0b, 0x14, 0x00, 0x00, 0x00, 0x18, 0x00, 0x00, 0x00, 0x03, 0x00, 0x00, 0x00,
  0x50, 0xf6, 0xff, 0xff, 0x00, 0x00, 0x00, 0x00, 0x01, 0x00, 0x00, 0x00, 0x85,
  0x00, 0x00, 0x00, 0x02, 0x00, 0x00, 0x00, 0x84, 0x00, 0x00, 0x00, 0x81, 0x00,
  0x00, 0x00, 0x7a, 0xf3, 0xff, 0xff, 0x14, 0x00, 0x00, 0x00, 0x00, 0x00, 0x00,
  0x01, 0x18, 0x00, 0x00, 0x00, 0x1c, 0x00, 0x00, 0x00, 0x02, 0x00, 0x00, 0x00,
  0x02, 0xf4, 0xff, 0xff, 0x01, 0x00, 0x00, 0x00, 0x01, 0x00, 0x00, 0x00, 0x01,
  0x00, 0x00, 0x00, 0x84, 0x00, 0x00, 0x00, 0x03, 0x00, 0x00, 0x00, 0x83, 0x00,
  0x00, 0x00, 0x3c, 0x00, 0x00, 0x00, 0x4d, 0x00, 0x00, 0x00, 0xb6, 0xf3, 0xff,
  0xff, 0x14, 0x00, 0x00, 0x00, 0x00, 0x00, 0x00, 0x02, 0x1c, 0x00, 0x00, 0x00,
  0x20, 0x00, 0x00, 0x00, 0x01, 0x00, 0x00, 0x00, 0xa8, 0xf3, 0xff, 0xff, 0x01,
  0x00, 0x00, 0x00, 0x01, 0x00, 0x00, 0x00, 0x01, 0x00, 0x00, 0x00, 0x01, 0x00,
  0x00, 0x00, 0x83, 0x00, 0x00, 0x00, 0x03, 0x00, 0x00, 0x00, 0x82, 0x00, 0x00,
  0x00, 0x3b, 0x00, 0x00, 0x00, 0x3a, 0x00, 0x00, 0x00, 0xf6, 0xf3, 0xff, 0xff,
  0x14, 0x00, 0x00, 0x00, 0x00, 0x00, 0x00, 0x02, 0x1c, 0x00, 0x00, 0x00, 0x20,
  0x00, 0x00, 0x00, 0x01, 0x00, 0x00, 0x00, 0xe8, 0xf3, 0xff, 0xff, 0x01, 0x00,
  0x00, 0x00, 0x01, 0x00, 0x00, 0x00, 0x01, 0x00, 0x00, 0x00, 0x01, 0x00, 0x00,
  0x00, 0x82, 0x00, 0x00, 0x00, 0x03, 0x00, 0x00, 0x00, 0x7b, 0x00, 0x00, 0x00,
  0x39, 0x00, 0x00, 0x00, 0x3a, 0x00, 0x00, 0x00, 0x36, 0xf4, 0xff, 0xff, 0x14,
  0x00, 0x00, 0x00, 0x00, 0x00, 0x00, 0x01, 0x18, 0x00, 0x00, 0x00, 0x1c, 0x00,
  0x00, 0x00, 0x02, 0x00, 0x00, 0x00, 0xbe, 0xf4, 0xff, 0xff, 0x01, 0x00, 0x00,
  0x00, 0x01, 0x00, 0x00, 0x00, 0x01, 0x00, 0x00, 0x00, 0x81, 0x00, 0x00, 0x00,
  0x03, 0x00, 0x00, 0x00, 0x80, 0x00, 0x00, 0x00, 0x38, 0x00, 0x00, 0x00, 0x4d,
  0x00, 0x00, 0x00, 0x72, 0xf4, 0xff, 0xff, 0x14, 0x00, 0x00, 0x00, 0x00, 0x00,
  0x00, 0x02, 0x1c, 0x00, 0x00, 0x00, 0x20, 0x00, 0x00, 0x00, 0x01, 0x00, 0x00,
  0x00, 0x64, 0xf4, 0xff, 0xff, 0x01, 0x00, 0x00, 0x00, 0x01, 0x00, 0x00, 0x00,
  0x01, 0x00, 0x00, 0x00, 0x01, 0x00, 0x00, 0x00, 0x80, 0x00, 0x00, 0x00, 0x03,
  0x00, 0x00, 0x00, 0x7f, 0x00, 0x00, 0x00, 0x37, 0x00, 0x00, 0x00, 0x44, 0x00,
  0x00, 0x00, 0xb2, 0xf4, 0xff, 0xff, 0x14, 0x00, 0x00, 0x00, 0x00, 0x00, 0x00,
  0x02, 0x1c, 0x00, 0x00, 0x00, 0x20, 0x00, 0x00, 0x00, 0x01, 0x00, 0x00, 0x00,
  0xa4, 0xf4, 0xff, 0xff, 0x01, 0x00, 0x00, 0x00, 0x01, 0x00, 0x00, 0x00, 0x01,
  0x00, 0x00, 0x00, 0x01, 0x00, 0x00, 0x00, 0x7f, 0x00, 0x00, 0x00, 0x03, 0x00,
  0x00, 0x00, 0x7e, 0x00, 0x00, 0x00, 0x36, 0x00, 0x00, 0x00, 0x44, 0x00, 0x00,
  0x00, 0xf2, 0xf4, 0xff, 0xff, 0x14, 0x00, 0x00, 0x00, 0x00, 0x00, 0x00, 0x01,
  0x1c, 0x00, 0x00, 0x00, 0x20, 0x00, 0x00, 0x00, 0x02, 0x00, 0x00, 0x00, 0x48,
  0xf6, 0xff, 0xff, 0x00, 0x00, 0x00, 0x01, 0x01, 0x00, 0x00, 0x00, 0x01, 0x00,
  0x00, 0x00, 0x01, 0x00, 0x00, 0x00, 0x7e, 0x00, 0x00, 0x00, 0x03, 0x00, 0x00,
  0x00, 0x7d, 0x00, 0x00, 0x00, 0x35, 0x00, 0x00, 0x00, 0x02, 0x00, 0x00, 0x00,
  0x32, 0xf5, 0xff, 0xff, 0x14, 0x00, 0x00, 0x00, 0x00, 0x00, 0x00, 0x02, 0x1c,
  0x00, 0x00, 0x00, 0x20, 0x00, 0x00, 0x00, 0x01, 0x00, 0x00, 0x00, 0x24, 0xf5,
  0xff, 0xff, 0x01, 0x00, 0x00, 0x00, 0x01, 0x00, 0x00, 0x00, 0x01, 0x00, 0x00,
  0x00, 0x01, 0x00, 0x00, 0x00, 0x7d, 0x00, 0x00, 0x00, 0x03, 0x00, 0x00, 0x00,
  0x7c, 0x00, 0x00, 0x00, 0x34, 0x00, 0x00, 0x00, 0x3a, 0x00, 0x00, 0x00, 0x72,
  0xf5, 0xff, 0xff, 0x14, 0x00, 0x00, 0x00, 0x00, 0x00, 0x00, 0x02, 0x1c, 0x00,
  0x00, 0x00, 0x20, 0x00, 0x00, 0x00, 0x01, 0x00, 0x00, 0x00, 0x64, 0xf5, 0xff,
  0xff, 0x01, 0x00, 0x00, 0x00, 0x01, 0x00, 0x00, 0x00, 0x01, 0x00, 0x00, 0x00,
  0x01, 0x00, 0x00, 0x00, 0x7c, 0x00, 0x00, 0x00, 0x03, 0x00, 0x00, 0x00, 0x7b,
  0x00, 0x00, 0x00, 0x33, 0x00, 0x00, 0x00, 0x3a, 0x00, 0x00, 0x00, 0xb2, 0xf5,
  0xff, 0xff, 0x14, 0x00, 0x00, 0x00, 0x00, 0x00, 0x00, 0x0b, 0x14, 0x00, 0x00,
  0x00, 0x18, 0x00, 0x00, 0x00, 0x03, 0x00, 0x00, 0x00, 0xbc, 0xf8, 0xff, 0xff,
  0x00, 0x00, 0x00, 0x00, 0x01, 0x00, 0x00, 0x00, 0x7b, 0x00, 0x00, 0x00, 0x02,
  0x00, 0x00, 0x00, 0x7a, 0x00, 0x00, 0x00, 0x77, 0x00, 0x00, 0x00, 0xe6, 0xf5,
  0xff, 0xff, 0x14, 0x00, 0x00, 0x00, 0x00, 0x00, 0x00, 0x01, 0x18, 0x00, 0x00,
  0x00, 0x1c, 0x00, 0x00, 0x00, 0x02, 0x00, 0x00, 0x00, 0x6e, 0xf6, 0xff, 0xff,
  0x01, 0x00, 0x00, 0x00, 0x01, 0x00, 0x00, 0x00, 0x01, 0x00, 0x00, 0x00, 0x7a,
  0x00, 0x00, 0x00, 0x03, 0x00, 0x00, 0x00, 0x79, 0x00, 0x00, 0x00, 0x32, 0x00,
  0x00, 0x00, 0x4c, 0x00, 0x00, 0x00, 0x22, 0xf6, 0xff, 0xff, 0x14, 0x00, 0x00,
  0x00, 0x00, 0x00, 0x00, 0x02, 0x1c, 0x00, 0x00, 0x00, 0x20, 0x00, 0x00, 0x00,
  0x01, 0x00, 0x00, 0x00, 0x14, 0xf6, 0xff, 0xff, 0x01, 0x00, 0x00, 0x00, 0x01,
  0x00, 0x00, 0x00, 0x01, 0x00, 0x00, 0x00, 0x01, 0x00, 0x00, 0x00, 0x79, 0x00,
  0x00, 0x00, 0x03, 0x00, 0x00, 0x00, 0x78, 0x00, 0x00, 0x00, 0x31, 0x00, 0x00,
  0x00, 0x30, 0x00, 0x00, 0x00, 0x62, 0xf6, 0xff, 0xff, 0x14, 0x00, 0x00, 0x00,
  0x00, 0x00, 0x00, 0x02, 0x1c, 0x00, 0x00, 0x00, 0x20, 0x00, 0x00, 0x00, 0x01,
  0x00, 0x00, 0x00, 0x54, 0xf6, 0xff, 0xff, 0x01, 0x00, 0x00, 0x00, 0x01, 0x00,
  0x00, 0x00, 0x01, 0x00, 0x00, 0x00, 0x01, 0x00, 0x00, 0x00, 0x78, 0x00, 0x00,
  0x00, 0x03, 0x00, 0x00, 0x00, 0x71, 0x00, 0x00, 0x00, 0x2f, 0x00, 0x00, 0x00,
  0x30, 0x00, 0x00, 0x00, 0xa2, 0xf6, 0xff, 0xff, 0x14, 0x00, 0x00, 0x00, 0x00,
  0x00, 0x00, 0x01, 0x18, 0x00, 0x00, 0x00, 0x1c, 0x00, 0x00, 0x00, 0x02, 0x00,
  0x00, 0x00, 0x2a, 0xf7, 0xff, 0xff, 0x01, 0x00, 0x00, 0x00, 0x01, 0x00, 0x00,
  0x00, 0x01, 0x00, 0x00, 0x00, 0x77, 0x00, 0x00, 0x00, 0x03, 0x00, 0x00, 0x00,
  0x76, 0x00, 0x00, 0x00, 0x2e, 0x00, 0x00, 0x00, 0x4c, 0x00, 0x00, 0x00, 0xde,
  0xf6, 0xff, 0xff, 0x14, 0x00, 0x00, 0x00, 0x00, 0x00, 0x00, 0x02, 0x1c, 0x00,
  0x00, 0x00, 0x20, 0x00, 0x00, 0x00, 0x01, 0x00, 0x00, 0x00, 0xd0, 0xf6, 0xff,
  0xff, 0x01, 0x00, 0x00, 0x00, 0x01, 0x00, 0x00, 0x00, 0x01, 0x00, 0x00, 0x00,
  0x01, 0x00, 0x00, 0x00, 0x76, 0x00, 0x00, 0x00, 0x03, 0x00, 0x00, 0x00, 0x75,
  0x00, 0x00, 0x00, 0x2d, 0x00, 0x00, 0x00, 0x3a, 0x00, 0x00, 0x00, 0x1e, 0xf7,
  0xff, 0xff, 0x14, 0x00, 0x00, 0x00, 0x00, 0x00, 0x00, 0x02, 0x1c, 0x00, 0x00,
  0x00, 0x20, 0x00, 0x00, 0x00, 0x01, 0x00, 0x00, 0x00, 0x10, 0xf7, 0xff, 0xff,
  0x01, 0x00, 0x00, 0x00, 0x01, 0x00, 0x00, 0x00, 0x01, 0x00, 0x00, 0x00, 0x01,
  0x00, 0x00, 0x00, 0x75, 0x00, 0x00, 0x00, 0x03, 0x00, 0x00, 0x00, 0x74, 0x00,
  0x00, 0x00, 0x2c, 0x00, 0x00, 0x00, 0x3a, 0x00, 0x00, 0x00, 0x5e, 0xf7, 0xff,
  0xff, 0x14, 0x00, 0x00, 0x00, 0x00, 0x00, 0x00, 0x01, 0x1c, 0x00, 0x00, 0x00,
  0x20, 0x00, 0x00, 0x00, 0x02, 0x00, 0x00, 0x00, 0xb4, 0xf8, 0xff, 0xff, 0x00,
  0x00, 0x00, 0x01, 0x01, 0x00, 0x00, 0x00, 0x01, 0x00, 0x00, 0x00, 0x01, 0x00,
  0x00, 0x00, 0x74, 0x00, 0x00, 0x00, 0x03, 0x00, 0x00, 0x00, 0x73, 0x00, 0x00,
  0x00, 0x2b, 0x00, 0x00, 0x00, 0x03, 0x00, 0x00, 0x00, 0x9e, 0xf7, 0xff, 0xff,
  0x14, 0x00, 0x00, 0x00, 0x00, 0x00, 0x00, 0x02, 0x1c, 0x00, 0x00, 0x00, 0x20,
  0x00, 0x00, 0x00, 0x01, 0x00, 0x00, 0x00, 0x90, 0xf7, 0xff, 0xff, 0x01, 0x00,
  0x00, 0x00, 0x01, 0x00, 0x00, 0x00, 0x01, 0x00, 0x00, 0x00, 0x01, 0x00, 0x00,
  0x00, 0x73, 0x00, 0x00, 0x00, 0x03, 0x00, 0x00, 0x00, 0x72, 0x00, 0x00, 0x00,
  0x2a, 0x00, 0x00, 0x00, 0x30, 0x00, 0x00, 0x00, 0xde, 0xf7, 0xff, 0xff, 0x14,
  0x00, 0x00, 0x00, 0x00, 0x00, 0x00, 0x02, 0x1c, 0x00, 0x00, 0x00, 0x20, 0x00,
  0x00, 0x00, 0x01, 0x00, 0x00, 0x00, 0xd0, 0xf7, 0xff, 0xff, 0x01, 0x00, 0x00,
  0x00, 0x01, 0x00, 0x00, 0x00, 0x01, 0x00, 0x00, 0x00, 0x01, 0x00, 0x00, 0x00,
  0x72, 0x00, 0x00, 0x00, 0x03, 0x00, 0x00, 0x00, 0x71, 0x00, 0x00, 0x00, 0x29,
  0x00, 0x00, 0x00, 0x30, 0x00, 0x00, 0x00, 0x1e, 0xf8, 0xff, 0xff, 0x14, 0x00,
  0x00, 0x00, 0x00, 0x00, 0x00, 0x0b, 0x14, 0x00, 0x00, 0x00, 0x18, 0x00, 0x00,
  0x00, 0x03, 0x00, 0x00, 0x00, 0x28, 0xfb, 0xff, 0xff, 0x00, 0x00, 0x00, 0x00,
  0x01, 0x00, 0x00, 0x00, 0x71, 0x00, 0x00, 0x00, 0x02, 0x00, 0x00, 0x00, 0x70,
  0x00, 0x00, 0x00, 0x6d, 0x00, 0x00, 0x00, 0x52, 0xf8, 0xff, 0xff, 0x14, 0x00,
  0x00, 0x00, 0x00, 0x00, 0x00, 0x01, 0x18, 0x00, 0x00, 0x00, 0x1c, 0x00, 0x00,
  0x00, 0x02, 0x00, 0x00, 0x00, 0xda, 0xf8, 0xff, 0xff, 0x01, 0x00, 0x00, 0x00,
  0x01, 0x00, 0x00, 0x00, 0x01, 0x00, 0x00, 0x00, 0x70, 0x00, 0x00, 0x00, 0x03,
  0x00, 0x00, 0x00, 0x6f, 0x00, 0x00, 0x00, 0x28, 0x00, 0x00, 0x00, 0x4b, 0x00,
  0x00, 0x00, 0x8e, 0xf8, 0xff, 0xff, 0x14, 0x00, 0x00, 0x00, 0x00, 0x00, 0x00,
  0x02, 0x1c, 0x00, 0x00, 0x00, 0x20, 0x00, 0x00, 0x00, 0x01, 0x00, 0x00, 0x00,
  0x80, 0xf8, 0xff, 0xff, 0x01, 0x00, 0x00, 0x00, 0x01, 0x00, 0x00, 0x00, 0x01,
  0x00, 0x00, 0x00, 0x01, 0x00, 0x00, 0x00, 0x6f, 0x00, 0x00, 0x00, 0x03, 0x00,
  0x00, 0x00, 0x6e, 0x00, 0x00, 0x00, 0x27, 0x00, 0x00, 0x00, 0x26, 0x00, 0x00,
  0x00, 0xce, 0xf8, 0xff, 0xff, 0x14, 0x00, 0x00, 0x00, 0x00, 0x00, 0x00, 0x02,
  0x1c, 0x00, 0x00, 0x00, 0x20, 0x00, 0x00, 0x00, 0x01, 0x00, 0x00, 0x00, 0xc0,
  0xf8, 0xff, 0xff, 0x01, 0x00, 0x00, 0x00, 0x01, 0x00, 0x00, 0x00, 0x01, 0x00,
  0x00, 0x00, 0x01, 0x00, 0x00, 0x00, 0x6e, 0x00, 0x00, 0x00, 0x03, 0x00, 0x00,
  0x00, 0x67, 0x00, 0x00, 0x00, 0x25, 0x00, 0x00, 0x00, 0x26, 0x00, 0x00, 0x00,
  0x0e, 0xf9, 0xff, 0xff, 0x14, 0x00, 0x00, 0x00, 0x00, 0x00, 0x00, 0x01, 0x18,
  0x00, 0x00, 0x00, 0x1c, 0x00, 0x00, 0x00, 0x02, 0x00, 0x00, 0x00, 0x96, 0xf9,
  0xff, 0xff, 0x01, 0x00, 0x00, 0x00, 0x01, 0x00, 0x00, 0x00, 0x01, 0x00, 0x00,
  0x00, 0x6d, 0x00, 0x00, 0x00, 0x03, 0x00, 0x00, 0x00, 0x6c, 0x00, 0x00, 0x00,
  0x24, 0x00, 0x00, 0x00, 0x4b, 0x00, 0x00, 0x00, 0x4a, 0xf9, 0xff, 0xff, 0x14,
  0x00, 0x00, 0x00, 0x00, 0x00, 0x00, 0x02, 0x1c, 0x00, 0x00, 0x00, 0x20, 0x00,
  0x00, 0x00, 0x01, 0x00, 0x00, 0x00, 0x3c, 0xf9, 0xff, 0xff, 0x01, 0x00, 0x00,
  0x00, 0x01, 0x00, 0x00, 0x00, 0x01, 0x00, 0x00, 0x00, 0x01, 0x00, 0x00, 0x00,
  0x6c, 0x00, 0x00, 0x00, 0x03, 0x00, 0x00, 0x00, 0x6b, 0x00, 0x00, 0x00, 0x23,
  0x00, 0x00, 0x00, 0x30, 0x00, 0x00, 0x00, 0x8a, 0xf9, 0xff, 0xff, 0x14, 0x00,
  0x00, 0x00, 0x00, 0x00, 0x00, 0x02, 0x1c, 0x00, 0x00, 0x00, 0x20, 0x00, 0x00,
  0x00, 0x01, 0x00, 0x00, 0x00, 0x7c, 0xf9, 0xff, 0xff, 0x01, 0x00, 0x00, 0x00,
  0x01, 0x00, 0x00, 0x00, 0x01, 0x00, 0x00, 0x00, 0x01, 0x00, 0x00, 0x00, 0x6b,
  0x00, 0x00, 0x00, 0x03, 0x00, 0x00, 0x00, 0x6a, 0x00, 0x00, 0x00, 0x22, 0x00,
  0x00, 0x00, 0x30, 0x00, 0x00, 0x00, 0xca, 0xf9, 0xff, 0xff, 0x14, 0x00, 0x00,
  0x00, 0x00, 0x00, 0x00, 0x01, 0x1c, 0x00, 0x00, 0x00, 0x20, 0x00, 0x00, 0x00,
  0x02, 0x00, 0x00, 0x00, 0x20, 0xfb, 0xff, 0xff, 0x00, 0x00, 0x00, 0x01, 0x01,
  0x00, 0x00, 0x00, 0x01, 0x00, 0x00, 0x00, 0x01, 0x00, 0x00, 0x00, 0x6a, 0x00,
  0x00, 0x00, 0x03, 0x00, 0x00, 0x00, 0x69, 0x00, 0x00, 0x00, 0x21, 0x00, 0x00,
  0x00, 0x04, 0x00, 0x00, 0x00, 0x0a, 0xfa, 0xff, 0xff, 0x14, 0x00, 0x00, 0x00,
  0x00, 0x00, 0x00, 0x02, 0x1c, 0x00, 0x00, 0x00, 0x20, 0x00, 0x00, 0x00, 0x01,
  0x00, 0x00, 0x00, 0xfc, 0xf9, 0xff, 0xff, 0x01, 0x00, 0x00, 0x00, 0x01, 0x00,
  0x00, 0x00, 0x01, 0x00, 0x00, 0x00, 0x01, 0x00, 0x00, 0x00, 0x69, 0x00, 0x00,
  0x00, 0x03, 0x00, 0x00, 0x00, 0x68, 0x00, 0x00, 0x00, 0x20, 0x00, 0x00, 0x00,
  0x26, 0x00, 0x00, 0x00, 0x4a, 0xfa, 0xff, 0xff, 0x14, 0x00, 0x00, 0x00, 0x00,
  0x00, 0x00, 0x02, 0x1c, 0x00, 0x00, 0x00, 0x20, 0x00, 0x00, 0x00, 0x01, 0x00,
  0x00, 0x00, 0x3c, 0xfa, 0xff, 0xff, 0x01, 0x00, 0x00, 0x00, 0x01, 0x00, 0x00,
  0x00, 0x01, 0x00, 0x00, 0x00, 0x01, 0x00, 0x00, 0x00, 0x68, 0x00, 0x00, 0x00,
  0x03, 0x00, 0x00, 0x00, 0x67, 0x00, 0x00, 0x00, 0x1f, 0x00, 0x00, 0x00, 0x26,
  0x00, 0x00, 0x00, 0x8a, 0xfa, 0xff, 0xff, 0x14, 0x00, 0x00, 0x00, 0x00, 0x00,
  0x00, 0x0b, 0x14, 0x00, 0x00, 0x00, 0x18, 0x00, 0x00, 0x00, 0x03, 0x00, 0x00,
  0x00, 0x94, 0xfd, 0xff, 0xff, 0x00, 0x00, 0x00, 0x00, 0x01, 0x00, 0x00, 0x00,
  0x67, 0x00, 0x00, 0x00, 0x02, 0x00, 0x00, 0x00, 0x66, 0x00, 0x00, 0x00, 0x63,
  0x00, 0x00, 0x00, 0xbe, 0xfa, 0xff, 0xff, 0x14, 0x00, 0x00, 0x00, 0x00, 0x00,
  0x00, 0x01, 0x18, 0x00, 0x00, 0x00, 0x1c, 0x00, 0x00, 0x00, 0x02, 0x00, 0x00,
  0x00, 0x46, 0xfb, 0xff, 0xff, 0x01, 0x00, 0x00, 0x00, 0x01, 0x00, 0x00, 0x00,
  0x01, 0x00, 0x00, 0x00, 0x66, 0x00, 0x00, 0x00, 0x03, 0x00, 0x00, 0x00, 0x65,
  0x00, 0x00, 0x00, 0x1e, 0x00, 0x00, 0x00, 0x4a, 0x00, 0x00, 0x00, 0xfa, 0xfa,
  0xff, 0xff, 0x14, 0x00, 0x00, 0x00, 0x00, 0x00, 0x00, 0x02, 0x1c, 0x00, 0x00,
  0x00, 0x20, 0x00, 0x00, 0x00, 0x01, 0x00, 0x00, 0x00, 0xec, 0xfa, 0xff, 0xff,
  0x01, 0x00, 0x00, 0x00, 0x01, 0x00, 0x00, 0x00, 0x01, 0x00, 0x00, 0x00, 0x01,
  0x00, 0x00, 0x00, 0x65, 0x00, 0x00, 0x00, 0x03, 0x00, 0x00, 0x00, 0x64, 0x00,
  0x00, 0x00, 0x1d, 0x00, 0x00, 0x00, 0x1c, 0x00, 0x00, 0x00, 0x3a, 0xfb, 0xff,
  0xff, 0x14, 0x00, 0x00, 0x00, 0x00, 0x00, 0x00, 0x02, 0x1c, 0x00, 0x00, 0x00,
  0x20, 0x00, 0x00, 0x00, 0x01, 0x00, 0x00, 0x00, 0x2c, 0xfb, 0xff, 0xff, 0x01,
  0x00, 0x00, 0x00, 0x01, 0x00, 0x00, 0x00, 0x01, 0x00, 0x00, 0x00, 0x01, 0x00,
  0x00, 0x00, 0x64, 0x00, 0x00, 0x00, 0x03, 0x00, 0x00, 0x00, 0x5d, 0x00, 0x00,
  0x00, 0x1b, 0x00, 0x00, 0x00, 0x1c, 0x00, 0x00, 0x00, 0x7a, 0xfb, 0xff, 0xff,
  0x14, 0x00, 0x00, 0x00, 0x00, 0x00, 0x00, 0x01, 0x18, 0x00, 0x00, 0x00, 0x1c,
  0x00, 0x00, 0x00, 0x02, 0x00, 0x00, 0x00, 0x02, 0xfc, 0xff, 0xff, 0x01, 0x00,
  0x00, 0x00, 0x01, 0x00, 0x00, 0x00, 0x01, 0x00, 0x00, 0x00, 0x63, 0x00, 0x00,
  0x00, 0x03, 0x00, 0x00, 0x00, 0x62, 0x00, 0x00, 0x00, 0x1a, 0x00, 0x00, 0x00,
  0x4a, 0x00, 0x00, 0x00, 0xb6, 0xfb, 0xff, 0xff, 0x14, 0x00, 0x00, 0x00, 0x00,
  0x00, 0x00, 0x02, 0x1c, 0x00, 0x00, 0x00, 0x20, 0x00, 0x00, 0x00, 0x01, 0x00,
  0x00, 0x00, 0xa8, 0xfb, 0xff, 0xff, 0x01, 0x00, 0x00, 0x00, 0x01, 0x00, 0x00,
  0x00, 0x01, 0x00, 0x00, 0x00, 0x01, 0x00, 0x00, 0x00, 0x62, 0x00, 0x00, 0x00,
  0x03, 0x00, 0x00, 0x00, 0x61, 0x00, 0x00, 0x00, 0x19, 0x00, 0x00, 0x00, 0x26,
  0x00, 0x00, 0x00, 0xf6, 0xfb, 0xff, 0xff, 0x14, 0x00, 0x00, 0x00, 0x00, 0x00,
  0x00, 0x02, 0x1c, 0x00, 0x00, 0x00, 0x20, 0x00, 0x00, 0x00, 0x01, 0x00, 0x00,
  0x00, 0xe8, 0xfb, 0xff, 0xff, 0x01, 0x00, 0x00, 0x00, 0x01, 0x00, 0x00, 0x00,
  0x01, 0x00, 0x00, 0x00, 0x01, 0x00, 0x00, 0x00, 0x61, 0x00, 0x00, 0x00, 0x03,
  0x00, 0x00, 0x00, 0x60, 0x00, 0x00, 0x00, 0x18, 0x00, 0x00, 0x00, 0x26, 0x00,
  0x00, 0x00, 0x36, 0xfc, 0xff, 0xff, 0x14, 0x00, 0x00, 0x00, 0x00, 0x00, 0x00,
  0x01, 0x1c, 0x00, 0x00, 0x00, 0x20, 0x00, 0x00, 0x00, 0x02, 0x00, 0x00, 0x00,
  0x8c, 0xfd, 0xff, 0xff, 0x00, 0x00, 0x00, 0x01, 0x01, 0x00, 0x00, 0x00, 0x01,
  0x00, 0x00, 0x00, 0x01, 0x00, 0x00, 0x00, 0x60, 0x00, 0x00, 0x00, 0x03, 0x00,
  0x00, 0x00, 0x5f, 0x00, 0x00, 0x00, 0x17, 0x00, 0x00, 0x00, 0x05, 0x00, 0x00,
  0x00, 0x76, 0xfc, 0xff, 0xff, 0x14, 0x00, 0x00, 0x00, 0x00, 0x00, 0x00, 0x02,
  0x1c, 0x00, 0x00, 0x00, 0x20, 0x00, 0x00, 0x00, 0x01, 0x00, 0x00, 0x00, 0x68,
  0xfc, 0xff, 0xff, 0x01, 0x00, 0x00, 0x00, 0x01, 0x00, 0x00, 0x00, 0x01, 0x00,
  0x00, 0x00, 0x01, 0x00, 0x00, 0x00, 0x5f, 0x00, 0x00, 0x00, 0x03, 0x00, 0x00,
  0x00, 0x5e, 0x00, 0x00, 0x00, 0x16, 0x00, 0x00, 0x00, 0x1c, 0x00, 0x00, 0x00,
  0xb6, 0xfc, 0xff, 0xff, 0x14, 0x00, 0x00, 0x00, 0x00, 0x00, 0x00, 0x02, 0x1c,
  0x00, 0x00, 0x00, 0x20, 0x00, 0x00, 0x00, 0x01, 0x00, 0x00, 0x00, 0xa8, 0xfc,
  0xff, 0xff, 0x01, 0x00, 0x00, 0x00, 0x01, 0x00, 0x00, 0x00, 0x01, 0x00, 0x00,
  0x00, 0x01, 0x00, 0x00, 0x00, 0x5e, 0x00, 0x00, 0x00, 0x03, 0x00, 0x00, 0x00,
  0x5d, 0x00, 0x00, 0x00, 0x15, 0x00, 0x00, 0x00, 0x1c, 0x00, 0x00, 0x00, 0xf6,
  0xfc, 0xff, 0xff, 0x1c, 0x00, 0x00, 0x00, 0x00, 0x00, 0x00, 0x0b, 0x1c, 0x00,
  0x00, 0x00, 0x20, 0x00, 0x00, 0x00, 0x03, 0x00, 0x00, 0x00, 0x08, 0x00, 0x08,
  0x00, 0x00, 0x00, 0x07, 0x00, 0x08, 0x00, 0x00, 0x00, 0x00, 0x00, 0x00, 0x00,
  0x01, 0x00, 0x00, 0x00, 0x5d, 0x00, 0x00, 0x00, 0x02, 0x00, 0x00, 0x00, 0x5c,
  0x00, 0x00, 0x00, 0x59, 0x00, 0x00, 0x00, 0x32, 0xfd, 0xff, 0xff, 0x14, 0x00,
  0x00, 0x00, 0x00, 0x00, 0x00, 0x01, 0x18, 0x00, 0x00, 0x00, 0x1c, 0x00, 0x00,
  0x00, 0x02, 0x00, 0x00, 0x00, 0xba, 0xfd, 0xff, 0xff, 0x01, 0x00, 0x00, 0x00,
  0x01, 0x00, 0x00, 0x00, 0x01, 0x00, 0x00, 0x00, 0x5c, 0x00, 0x00, 0x00, 0x03,
  0x00, 0x00, 0x00, 0x5b, 0x00, 0x00, 0x00, 0x14, 0x00, 0x00, 0x00, 0x49, 0x00,
  0x00, 0x00, 0x6e, 0xfd, 0xff, 0xff, 0x14, 0x00, 0x00, 0x00, 0x00, 0x00, 0x00,
  0x02, 0x1c, 0x00, 0x00, 0x00, 0x20, 0x00, 0x00, 0x00, 0x01, 0x00, 0x00, 0x00,
  0x60, 0xfd, 0xff, 0xff, 0x01, 0x00, 0x00, 0x00, 0x01, 0x00, 0x00, 0x00, 0x01,
  0x00, 0x00, 0x00, 0x01, 0x00, 0x00, 0x00, 0x5b, 0x00, 0x00, 0x00, 0x03, 0x00,
  0x00, 0x00, 0x5a, 0x00, 0x00, 0x00, 0x13, 0x00, 0x00, 0x00, 0x12, 0x00, 0x00,
  0x00, 0xae, 0xfd, 0xff, 0xff, 0x14, 0x00, 0x00, 0x00, 0x00, 0x00, 0x00, 0x02,
  0x1c, 0x00, 0x00, 0x00, 0x20, 0x00, 0x00, 0x00, 0x01, 0x00, 0x00, 0x00, 0xa0,
  0xfd, 0xff, 0xff, 0x01, 0x00, 0x00, 0x00, 0x01, 0x00, 0x00, 0x00, 0x01, 0x00,
  0x00, 0x00, 0x01, 0x00, 0x00, 0x00, 0x5a, 0x00, 0x00, 0x00, 0x03, 0x00, 0x00,
  0x00, 0x53, 0x00, 0x00, 0x00, 0x11, 0x00, 0x00, 0x00, 0x12, 0x00, 0x00, 0x00,
  0xee, 0xfd, 0xff, 0xff, 0x14, 0x00, 0x00, 0x00, 0x00, 0x00, 0x00, 0x01, 0x18,
  0x00, 0x00, 0x00, 0x1c, 0x00, 0x00, 0x00, 0x02, 0x00, 0x00, 0x00, 0x76, 0xfe,
  0xff, 0xff, 0x01, 0x00, 0x00, 0x00, 0x01, 0x00, 0x00, 0x00, 0x01, 0x00, 0x00,
  0x00, 0x59, 0x00, 0x00, 0x00, 0x03, 0x00, 0x00, 0x00, 0x58, 0x00, 0x00, 0x00,
  0x10, 0x00, 0x00, 0x00, 0x49, 0x00, 0x00, 0x00, 0x2a, 0xfe, 0xff, 0xff, 0x14,
  0x00, 0x00, 0x00, 0x00, 0x00, 0x00, 0x02, 0x1c, 0x00, 0x00, 0x00, 0x20, 0x00,
  0x00, 0x00, 0x01, 0x00, 0x00, 0x00, 0x1c, 0xfe, 0xff, 0xff, 0x01, 0x00, 0x00,
  0x00, 0x01, 0x00, 0x00, 0x00, 0x01, 0x00, 0x00, 0x00, 0x01, 0x00, 0x00, 0x00,
  0x58, 0x00, 0x00, 0x00, 0x03, 0x00, 0x00, 0x00, 0x57, 0x00, 0x00, 0x00, 0x0f,
  0x00, 0x00, 0x00, 0x1c, 0x00, 0x00, 0x00, 0x6a, 0xfe, 0xff, 0xff, 0x14, 0x00,
  0x00, 0x00, 0x00, 0x00, 0x00, 0x02, 0x1c, 0x00, 0x00, 0x00, 0x20, 0x00, 0x00,
  0x00, 0x01, 0x00, 0x00, 0x00, 0x5c, 0xfe, 0xff, 0xff, 0x01, 0x00, 0x00, 0x00,
  0x01, 0x00, 0x00, 0x00, 0x01, 0x00, 0x00, 0x00, 0x01, 0x00, 0x00, 0x00, 0x57,
  0x00, 0x00, 0x00, 0x03, 0x00, 0x00, 0x00, 0x56, 0x00, 0x00, 0x00, 0x0e, 0x00,
  0x00, 0x00, 0x1c, 0x00, 0x00, 0x00, 0xaa, 0xfe, 0xff, 0xff, 0x20, 0x00, 0x00,
  0x00, 0x00, 0x00, 0x00, 0x01, 0x28, 0x00, 0x00, 0x00, 0x2c, 0x00, 0x00, 0x00,
  0x02, 0x00, 0x00, 0x00, 0x0c, 0x00, 0x10, 0x00, 0x00, 0x00, 0x0c, 0x00, 0x08,
  0x00, 0x07, 0x00, 0x0c, 0x00, 0x00, 0x00, 0x00, 0x00, 0x00, 0x01, 0x01, 0x00,
  0x00, 0x00, 0x01, 0x00, 0x00, 0x00, 0x01, 0x00, 0x00, 0x00, 0x56, 0x00, 0x00,
  0x00, 0x03, 0x00, 0x00, 0x00, 0x55, 0x00, 0x00, 0x00, 0x0d, 0x00, 0x00, 0x00,
  0x06, 0x00, 0x00, 0x00, 0xf6, 0xfe, 0xff, 0xff, 0x14, 0x00, 0x00, 0x00, 0x00,
  0x00, 0x00, 0x02, 0x1c, 0x00, 0x00, 0x00, 0x20, 0x00, 0x00, 0x00, 0x01, 0x00,
  0x00, 0x00, 0xe8, 0xfe, 0xff, 0xff, 0x01, 0x00, 0x00, 0x00, 0x01, 0x00, 0x00,
  0x00, 0x01, 0x00, 0x00, 0x00, 0x01, 0x00, 0x00, 0x00, 0x55, 0x00, 0x00, 0x00,
  0x03, 0x00, 0x00, 0x00, 0x54, 0x00, 0x00, 0x00, 0x0c, 0x00, 0x00, 0x00, 0x12,
  0x00, 0x00, 0x00, 0x36, 0xff, 0xff, 0xff, 0x14, 0x00, 0x00, 0x00, 0x00, 0x00,
  0x00, 0x02, 0x1c, 0x00, 0x00, 0x00, 0x20, 0x00, 0x00, 0x00, 0x01, 0x00, 0x00,
  0x00, 0x28, 0xff, 0xff, 0xff, 0x01, 0x00, 0x00, 0x00, 0x01, 0x00, 0x00, 0x00,
  0x01, 0x00, 0x00, 0x00, 0x01, 0x00, 0x00, 0x00, 0x54, 0x00, 0x00, 0x00, 0x03,
  0x00, 0x00, 0x00, 0x53, 0x00, 0x00, 0x00, 0x0b, 0x00, 0x00, 0x00, 0x12, 0x00,
  0x00, 0x00, 0x76, 0xff, 0xff, 0xff, 0x20, 0x00, 0x00, 0x00, 0x00, 0x00, 0x00,
  0x01, 0x24, 0x00, 0x00, 0x00, 0x28, 0x00, 0x00, 0x00, 0x02, 0x00, 0x00, 0x00,
  0x00, 0x00, 0x0a, 0x00, 0x0c, 0x00, 0x00, 0x00, 0x08, 0x00, 0x04, 0x00, 0x0a,
  0x00, 0x00, 0x00, 0x01, 0x00, 0x00, 0x00, 0x01, 0x00, 0x00, 0x00, 0x01, 0x00,
  0x00, 0x00, 0x53, 0x00, 0x00, 0x00, 0x03, 0x00, 0x00, 0x00, 0x52, 0x00, 0x00,
  0x00, 0x0a, 0x00, 0x00, 0x00, 0x48, 0x00, 0x00, 0x00, 0xbe, 0xff, 0xff, 0xff,
  0x14, 0x00, 0x00, 0x00, 0x00, 0x00, 0x00, 0x02, 0x1c, 0x00, 0x00, 0x00, 0x20,
  0x00, 0x00, 0x00, 0x01, 0x00, 0x00, 0x00, 0xb0, 0xff, 0xff, 0xff, 0x01, 0x00,
  0x00, 0x00, 0x01, 0x00, 0x00, 0x00, 0x01, 0x00, 0x00, 0x00, 0x01, 0x00, 0x00,
  0x00, 0x52, 0x00, 0x00, 0x00, 0x03, 0x00, 0x00, 0x00, 0x51, 0x00, 0x00, 0x00,
  0x09, 0x00, 0x00, 0x00, 0x46, 0x00, 0x00, 0x00, 0x00, 0x00, 0x0e, 0x00, 0x18,
  0x00, 0x14, 0x00, 0x10, 0x00, 0x0c, 0x00, 0x0b, 0x00, 0x04, 0x00, 0x0e, 0x00,
  0x00, 0x00, 0x20, 0x00, 0x00, 0x00, 0x00, 0x00, 0x00, 0x02, 0x28, 0x00, 0x00,
  0x00, 0x2c, 0x00, 0x00, 0x00, 0x01, 0x00, 0x00, 0x00, 0x0c, 0x00, 0x10, 0x00,
  0x00, 0x00, 0x0c, 0x00, 0x08, 0x00, 0x04, 0x00, 0x0c, 0x00, 0x00, 0x00, 0x01,
  0x00, 0x00, 0x00, 0x01, 0x00, 0x00, 0x00, 0x01, 0x00, 0x00, 0x00, 0x01, 0x00,
  0x00, 0x00, 0x51, 0x00, 0x00, 0x00, 0x03, 0x00, 0x00, 0x00, 0x50, 0x00, 0x00,
  0x00, 0x08, 0x00, 0x00, 0x00, 0x46, 0x00, 0x00, 0x00, 0x00, 0x00, 0x0e, 0x00,
  0x14, 0x00, 0x00, 0x00, 0x10, 0x00, 0x0c, 0x00, 0x0b, 0x00, 0x04, 0x00, 0x0e,
  0x00, 0x00, 0x00, 0x10, 0x00, 0x00, 0x00, 0x00, 0x00, 0x00, 0x16, 0x0c, 0x00,
  0x00, 0x00, 0x10, 0x00, 0x00, 0x00, 0xa4, 0x8e, 0xff, 0xff, 0x01, 0x00, 0x00,
  0x00, 0x50, 0x00, 0x00, 0x00, 0x02, 0x00, 0x00, 0x00, 0x00, 0x00, 0x00, 0x00,
  0x07, 0x00, 0x00, 0x00, 0x00, 0x00, 0x0a, 0x00, 0x10, 0x00, 0x0c, 0x00, 0x08,
  0x00, 0x04, 0x00, 0x0a, 0x00, 0x00, 0x00, 0x0c, 0x00, 0x00, 0x00, 0x10, 0x00,
  0x00, 0x00, 0x04, 0x00, 0x00, 0x00, 0x01, 0x00, 0x00, 0x00, 0x00, 0x00, 0x00,
  0x00, 0x01, 0x00, 0x00, 0x00, 0x90, 0x00, 0x00, 0x00, 0x01, 0x00, 0x00, 0x00,
  0x91, 0x00, 0x00, 0x00, 0x01, 0x00, 0x00, 0x00, 0x90, 0x00, 0x00, 0x00, 0x92,
  0x00, 0x00, 0x00, 0x60, 0x75, 0x00, 0x00, 0xbc, 0x74, 0x00, 0x00, 0x34, 0x74,
  0x00, 0x00, 0x98, 0x73, 0x00, 0x00, 0xe4, 0x72, 0x00, 0x00, 0x08, 0x72, 0x00,
  0x00, 0x0c, 0x71, 0x00, 0x00, 0xd0, 0x70, 0x00, 0x00, 0x3c, 0x70, 0x00, 0x00,
  0xbc, 0x6f, 0x00, 0x00, 0xcc, 0x6d, 0x00, 0x00, 0xd4, 0x6b, 0x00, 0x00, 0xd8,
  0x69, 0x00, 0x00, 0x48, 0x68, 0x00, 0x00, 0xb0, 0x66, 0x00, 0x00, 0x1c, 0x65,
  0x00, 0x00, 0x8c, 0x63, 0x00, 0x00, 0x94, 0x61, 0x00, 0x00, 0x5c, 0x60, 0x00,
  0x00, 0x5c, 0x5e, 0x00, 0x00, 0xcc, 0x5c, 0x00, 0x00, 0x34, 0x5b, 0x00, 0x00,
  0xa0, 0x59, 0x00, 0x00, 0x48, 0x58, 0x00, 0x00, 0xe8, 0x56, 0x00, 0x00, 0x8c,
  0x55, 0x00, 0x00, 0x34, 0x54, 0x00, 0x00, 0x9c, 0x52, 0x00, 0x00, 0x9c, 0x51,
  0x00, 0x00, 0x04, 0x50, 0x00, 0x00, 0xac, 0x4e, 0x00, 0x00, 0x4c, 0x4d, 0x00,
  0x00, 0xf0, 0x4b, 0x00, 0x00, 0xd8, 0x4a, 0x00, 0x00, 0xb8, 0x49, 0x00, 0x00,
  0x94, 0x48, 0x00, 0x00, 0x7c, 0x47, 0x00, 0x00, 0x1c, 0x46, 0x00, 0x00, 0x3c,
  0x45, 0x00, 0x00, 0xdc, 0x43, 0x00, 0x00, 0xc4, 0x42, 0x00, 0x00, 0xa4, 0x41,
  0x00, 0x00, 0x80, 0x40, 0x00, 0x00, 0x90, 0x3f, 0x00, 0x00, 0x98, 0x3e, 0x00,
  0x00, 0x9c, 0x3d, 0x00, 0x00, 0xac, 0x3c, 0x00, 0x00, 0x8c, 0x3b, 0x00, 0x00,
  0xd4, 0x3a, 0x00, 0x00, 0xb4, 0x39, 0x00, 0x00, 0xc4, 0x38, 0x00, 0x00, 0xcc,
  0x37, 0x00, 0x00, 0xd0, 0x36, 0x00, 0x00, 0x08, 0x36, 0x00, 0x00, 0x38, 0x35,
  0x00, 0x00, 0x64, 0x34, 0x00, 0x00, 0x9c, 0x33, 0x00, 0x00, 0xa4, 0x32, 0x00,
  0x00, 0x04, 0x32, 0x00, 0x00, 0x0c, 0x31, 0x00, 0x00, 0x44, 0x30, 0x00, 0x00,
  0x74, 0x2f, 0x00, 0x00, 0xa0, 0x2e, 0x00, 0x00, 0xd8, 0x2d, 0x00, 0x00, 0x08,
  0x2d, 0x00, 0x00, 0x34, 0x2c, 0x00, 0x00, 0x6c, 0x2b, 0x00, 0x00, 0x9c, 0x2a,
  0x00, 0x00, 0x14, 0x2a, 0x00, 0x00, 0x44, 0x29, 0x00, 0x00, 0xec, 0x28, 0x00,
  0x00, 0x70, 0x28, 0x00, 0x00, 0x1c, 0x27, 0x00, 0x00, 0x00, 0x26, 0x00, 0x00,
  0x04, 0x25, 0x00, 0x00, 0x30, 0x24, 0x00, 0x00, 0x6c, 0x23, 0x00, 0x00, 0xc0,
  0x22, 0x00, 0x00, 0x14, 0x22, 0x00, 0x00, 0xa8, 0x21, 0x00, 0x00, 0x34, 0x21,
  0x00, 0x00, 0xb8, 0x20, 0x00, 0x00, 0x3c, 0x20, 0x00, 0x00, 0xa8, 0x1f, 0x00,
  0x00, 0x2c, 0x1f, 0x00, 0x00, 0xb0, 0x1e, 0x00, 0x00, 0x14, 0x1e, 0x00, 0x00,
  0x98, 0x1d, 0x00, 0x00, 0x1c, 0x1d, 0x00, 0x00, 0x80, 0x1c, 0x00, 0x00, 0x04,
  0x1c, 0x00, 0x00, 0x88, 0x1b, 0x00, 0x00, 0xec, 0x1a, 0x00, 0x00, 0x78, 0x1a,
  0x00, 0x00, 0xfc, 0x19, 0x00, 0x00, 0x80, 0x19, 0x00, 0x00, 0xdc, 0x18, 0x00,
  0x00, 0x60, 0x18, 0x00, 0x00, 0xe4, 0x17, 0x00, 0x00, 0x48, 0x17, 0x00, 0x00,
  0xcc, 0x16, 0x00, 0x00, 0x50, 0x16, 0x00, 0x00, 0xb4, 0x15, 0x00, 0x00, 0x40,
  0x15, 0x00, 0x00, 0xc4, 0x14, 0x00, 0x00, 0x48, 0x14, 0x00, 0x00, 0xa4, 0x13,
  0x00, 0x00, 0x28, 0x13, 0x00, 0x00, 0xac, 0x12, 0x00, 0x00, 0x10, 0x12, 0x00,
  0x00, 0x94, 0x11, 0x00, 0x00, 0x18, 0x11, 0x00, 0x00, 0x7c, 0x10, 0x00, 0x00,
  0x08, 0x10, 0x00, 0x00, 0x8c, 0x0f, 0x00, 0x00, 0x10, 0x0f, 0x00, 0x00, 0x6c,
  0x0e, 0x00, 0x00, 0xf0, 0x0d, 0x00, 0x00, 0x74, 0x0d, 0x00, 0x00, 0xd8, 0x0c,
  0x00, 0x00, 0x5c, 0x0c, 0x00, 0x00, 0xe0, 0x0b, 0x00, 0x00, 0x44, 0x0b, 0x00,
  0x00, 0xd0, 0x0a, 0x00, 0x00, 0x54, 0x0a, 0x00, 0x00, 0xd8, 0x09, 0x00, 0x00,
  0x34, 0x09, 0x00, 0x00, 0xb8, 0x08, 0x00, 0x00, 0x3c, 0x08, 0x00, 0x00, 0xa0,
  0x07, 0x00, 0x00, 0x24, 0x07, 0x00, 0x00, 0xa8, 0x06, 0x00, 0x00, 0x0c, 0x06,
  0x00, 0x00, 0x98, 0x05, 0x00, 0x00, 0x1c, 0x05, 0x00, 0x00, 0xa0, 0x04, 0x00,
  0x00, 0xfc, 0x03, 0x00, 0x00, 0x80, 0x03, 0x00, 0x00, 0x04, 0x03, 0x00, 0x00,
  0x68, 0x02, 0x00, 0x00, 0xf4, 0x01, 0x00, 0x00, 0x78, 0x01, 0x00, 0x00, 0xfc,
  0x00, 0x00, 0x00, 0x78, 0x00, 0x00, 0x00, 0x44, 0x00, 0x00, 0x00, 0x04, 0x00,
  0x00, 0x00, 0xd0, 0xff, 0xff, 0xff, 0x08, 0x00, 0x00, 0x00, 0x14, 0x00, 0x00,
  0x00, 0x0a, 0x00, 0x00, 0x00, 0x42, 0x69, 0x61, 0x73, 0x41, 0x64, 0x64, 0x5f,
  0x31, 0x38, 0x00, 0x00, 0x04, 0x00, 0x00, 0x00, 0x01, 0x00, 0x00, 0x00, 0x38,
  0x04, 0x00, 0x00, 0x80, 0x07, 0x00, 0x00, 0x01, 0x00, 0x00, 0x00, 0x0c, 0x00,
  0x0c, 0x00, 0x08, 0x00, 0x00, 0x00, 0x00, 0x00, 0x04, 0x00, 0x0c, 0x00, 0x00,
  0x00, 0x08, 0x00, 0x00, 0x00, 0x14, 0x00, 0x00, 0x00, 0x0b, 0x00, 0x00, 0x00,
  0x50, 0x6c, 0x61, 0x63, 0x65, 0x68, 0x6f, 0x6c, 0x64, 0x65, 0x72, 0x00, 0x04,
  0x00, 0x00, 0x00, 0x01, 0x00, 0x00, 0x00, 0x38, 0x04, 0x00, 0x00, 0x80, 0x07,
  0x00, 0x00, 0x01, 0x00, 0x00, 0x00, 0x62, 0x8d, 0xff, 0xff, 0x14, 0x00, 0x00,
  0x00, 0x4c, 0x00, 0x00, 0x00, 0x90, 0x00, 0x00, 0x00, 0x00, 0x00, 0x00, 0x07,
  0x58, 0x00, 0x00, 0x00, 0x54, 0x8d, 0xff, 0xff, 0x10, 0x00, 0x00, 0x00, 0x1c,
  0x00, 0x00, 0x00, 0x20, 0x00, 0x00, 0x00, 0x24, 0x00, 0x00, 0x00, 0x01, 0x00,
  0x00, 0x00, 0x00, 0x00, 0x00, 0x00, 0x00, 0x00, 0x00, 0x00, 0x00, 0x00, 0x00,
  0x00, 0x01, 0x00, 0x00, 0x00, 0x6c, 0x18, 0x5d, 0x36, 0x01, 0x00, 0x00, 0x00,
  0x9f, 0x7d, 0xdb, 0x3d, 0x01, 0x00, 0x00, 0x00, 0xb2, 0x16, 0xdd, 0xbd, 0x10,
  0x00, 0x00, 0x00, 0x42, 0x69, 0x61, 0x73, 0x41, 0x64, 0x64, 0x5f, 0x31, 0x38,
  0x5f, 0x69, 0x6e, 0x74, 0x31, 0x36, 0x00, 0x00, 0x00, 0x00, 0x04, 0x00, 0x00,
  0x00, 0x01, 0x00, 0x00, 0x00, 0x38, 0x04, 0x00, 0x00, 0x80, 0x07, 0x00, 0x00,
  0x01, 0x00, 0x00, 0x00, 0xe2, 0x8d, 0xff, 0xff, 0x14, 0x00, 0x00, 0x00, 0x48,
  0x00, 0x00, 0x00, 0x8f, 0x00, 0x00, 0x00, 0x00, 0x00, 0x00, 0x07, 0x50, 0x00,
  0x00, 0x00, 0xd4, 0x8d, 0xff, 0xff, 0x10, 0x00, 0x00, 0x00, 0x18, 0x00, 0x00,
  0x00, 0x1c, 0x00, 0x00, 0x00, 0x20, 0x00, 0x00, 0x00, 0x01, 0x00, 0x00, 0x00,
  0x00, 0x00, 0x00, 0x00, 0x00, 0x00, 0x00, 0x00, 0x01, 0x00, 0x00, 0x00, 0x16,
  0x85, 0xed, 0x38, 0x01, 0x00, 0x00, 0x00, 0x3b, 0x83, 0x6d, 0x40, 0x01, 0x00,
  0x00, 0x00, 0x0e, 0x3f, 0x6a, 0xc0, 0x0d, 0x00, 0x00, 0x00, 0x64, 0x65, 0x70,
  0x74, 0x68, 0x77, 0x69, 0x73, 0x65, 0x5f, 0x33, 0x37, 0x32, 0x00, 0x00, 0x00,
  0x04, 0x00, 0x00, 0x00, 0x01, 0x00, 0x00, 0x00, 0x38, 0x04, 0x00, 0x00, 0x80,
  0x07, 0x00, 0x00, 0x05, 0x00, 0x00, 0x00, 0x5a, 0x8e, 0xff, 0xff, 0x14, 0x00,
  0x00, 0x00, 0x48, 0x00, 0x00, 0x00, 0x8e, 0x00, 0x00, 0x00, 0x00, 0x00, 0x00,
  0x07, 0x50, 0x00, 0x00, 0x00, 0x4c, 0x8e, 0xff, 0xff, 0x10, 0x00, 0x00, 0x00,
  0x18, 0x00, 0x00, 0x00, 0x1c, 0x00, 0x00, 0x00, 0x20, 0x00, 0x00, 0x00, 0x01,
  0x00, 0x00, 0x00, 0x00, 0x00, 0x00, 0x00, 0x00, 0x00, 0x00, 0x00, 0x01, 0x00,
  0x00, 0x00, 0xda, 0x99, 0x90, 0x39, 0x01, 0x00, 0x00, 0x00, 0x3c, 0xfb, 0xfd,
  0x40, 0x01, 0x00, 0x00, 0x00, 0xb9, 0x98, 0x10, 0xc1, 0x0d, 0x00, 0x00, 0x00,
  0x64, 0x65, 0x70, 0x74, 0x68, 0x77, 0x69, 0x73, 0x65, 0x5f, 0x33, 0x36, 0x31,
  0x00, 0x00, 0x00, 0x04, 0x00, 0x00, 0x00, 0x01, 0x00, 0x00, 0x00, 0x38, 0x04,
  0x00, 0x00, 0x86, 0x07, 0x00, 0x00, 0x05, 0x00, 0x00, 0x00, 0xd2, 0x8e, 0xff,
  0xff, 0x14, 0x00, 0x00, 0x00, 0x48, 0x00, 0x00, 0x00, 0x8d, 0x00, 0x00, 0x00,
  0x00, 0x00, 0x00, 0x07, 0x48, 0x00, 0x00, 0x00, 0xc4, 0x8e, 0xff, 0xff, 0x10,
  0x00, 0x00, 0x00, 0x18, 0x00, 0x00, 0x00, 0x1c, 0x00, 0x00, 0x00, 0x20, 0x00,
  0x00, 0x00, 0x01, 0x00, 0x00, 0x00, 0x00, 0x00, 0x00, 0x00, 0x00, 0x00, 0x00,
  0x00, 0x01, 0x00, 0x00, 0x00, 0x8b, 0x16, 0x6a, 0x3a, 0x01, 0x00, 0x00, 0x00,
  0xd6, 0xa8, 0xc8, 0x41, 0x01, 0x00, 0x00, 0x00, 0xb7, 0x14, 0xea, 0xc1, 0x05,
  0x00, 0x00, 0x00, 0x41, 0x64, 0x64, 0x5f, 0x35, 0x00, 0x00, 0x00, 0x04, 0x00,
  0x00, 0x00, 0x01, 0x00, 0x00, 0x00, 0x3e, 0x04, 0x00, 0x00, 0x86, 0x07, 0x00,
  0x00, 0x05, 0x00, 0x00, 0x00, 0x42, 0x8f, 0xff, 0xff, 0x14, 0x00, 0x00, 0x00,
  0x48, 0x00, 0x00, 0x00, 0x8c, 0x00, 0x00, 0x00, 0x00, 0x00, 0x00, 0x07, 0x70,
  0x00, 0x00, 0x00, 0x34, 0x8f, 0xff, 0xff, 0x10, 0x00, 0x00, 0x00, 0x18, 0x00,
  0x00, 0x00, 0x1c, 0x00, 0x00, 0x00, 0x20, 0x00, 0x00, 0x00, 0x01, 0x00, 0x00,
  0x00, 0x00, 0x00, 0x00, 0x00, 0x00, 0x00, 0x00, 0x00, 0x01, 0x00, 0x00, 0x00,
  0xf6, 0xb2, 0x2d, 0x3a, 0x01, 0x00, 0x00, 0x00, 0x9b, 0xb1, 0xad, 0x41, 0x01,
  0x00, 0x00, 0x00, 0x2b, 0x2d, 0x4f, 0xc1, 0x2d, 0x00, 0x00, 0x00, 0x42, 0x69,
  0x61, 0x73, 0x41, 0x64, 0x64, 0x5f, 0x31, 0x37, 0x3b, 0x64, 0x65, 0x70, 0x74,
  0x68, 0x77, 0x69, 0x73, 0x65, 0x5f, 0x33, 0x37, 0x3b, 0x43, 0x6f, 0x6e, 0x76,
  0x32, 0x44, 0x5f, 0x31, 0x37, 0x3b, 0x63, 0x6f, 0x6e, 0x76, 0x5f, 0x36, 0x5f,
  0x31, 0x5f, 0x62, 0x31, 0x00, 0x00, 0x00, 0x04, 0x00, 0x00, 0x00, 0x01, 0x00,
  0x00, 0x00, 0x3e, 0x04, 0x00, 0x00, 0x86, 0x07, 0x00, 0x00, 0x05, 0x00, 0x00,
  0x00, 0xda, 0x8f, 0xff, 0xff, 0x14, 0x00, 0x00, 0x00, 0x48, 0x00, 0x00, 0x00,
  0x8b, 0x00, 0x00, 0x00, 0x00, 0x00, 0x00, 0x07, 0x50, 0x00, 0x00, 0x00, 0xcc,
  0x8f, 0xff, 0xff, 0x10, 0x00, 0x00, 0x00, 0x18, 0x00, 0x00, 0x00, 0x1c, 0x00,
  0x00, 0x00, 0x20, 0x00, 0x00, 0x00, 0x01, 0x00, 0x00, 0x00, 0x00, 0x00, 0x00,
  0x00, 0x00, 0x00, 0x00, 0x00, 0x01, 0x00, 0x00, 0x00, 0xbb, 0x24, 0xe9, 0x39,
  0x01, 0x00, 0x00, 0x00, 0x4a, 0x47, 0x45, 0x41, 0x01, 0x00, 0x00, 0x00, 0xe9,
  0x22, 0x69, 0xc1, 0x0d, 0x00, 0x00, 0x00, 0x64, 0x65, 0x70, 0x74, 0x68, 0x77,
  0x69, 0x73, 0x65, 0x5f, 0x33, 0x35, 0x31, 0x00, 0x00, 0x00, 0x04, 0x00, 0x00,
  0x00, 0x01, 0x00, 0x00, 0x00, 0x3e, 0x04, 0x00, 0x00, 0x86, 0x07, 0x00, 0x00,
  0x05, 0x00, 0x00, 0x00, 0x52, 0x90, 0xff, 0xff, 0x14, 0x00, 0x00, 0x00, 0x48,
  0x00, 0x00, 0x00, 0x8a, 0x00, 0x00, 0x00, 0x00, 0x00, 0x00, 0x07, 0x50, 0x00,
  0x00, 0x00, 0x44, 0x90, 0xff, 0xff, 0x10, 0x00, 0x00, 0x00, 0x18, 0x00, 0x00,
  0x00, 0x1c, 0x00, 0x00, 0x00, 0x20, 0x00, 0x00, 0x00, 0x01, 0x00, 0x00, 0x00,
  0x00, 0x00, 0x00, 0x00, 0x00, 0x00, 0x00, 0x00, 0x01, 0x00, 0x00, 0x00, 0x99,
  0xe7, 0xd3, 0x39, 0x01, 0x00, 0x00, 0x00, 0xf1, 0xe5, 0x53, 0x41, 0x01, 0x00,
  0x00, 0x00, 0x07, 0x3f, 0x36, 0xc1, 0x0d, 0x00, 0x00, 0x00, 0x64, 0x65, 0x70,
  0x74, 0x68, 0x77, 0x69, 0x73, 0x65, 0x5f, 0x33, 0x34, 0x31, 0x00, 0x00, 0x00,
  0x04, 0x00, 0x00, 0x00, 0x01, 0x00, 0x00, 0x00, 0x3e, 0x04, 0x00, 0x00, 0x86,
  0x07, 0x00, 0x00, 0x05, 0x00, 0x00, 0x00, 0xca, 0x90, 0xff, 0xff, 0x14, 0x00,
  0x00, 0x00, 0x4c, 0x00, 0x00, 0x00, 0x89, 0x00, 0x00, 0x00, 0x00, 0x00, 0x00,
  0x07, 0x78, 0x00, 0x00, 0x00, 0xbc, 0x90, 0xff, 0xff, 0x10, 0x00, 0x00, 0x00,
  0x1c, 0x00, 0x00, 0x00, 0x20, 0x00, 0x00, 0x00, 0x24, 0x00, 0x00, 0x00, 0x01,
  0x00, 0x00, 0x00, 0x00, 0x00, 0x00, 0x00, 0x00, 0x00, 0x00, 0x00, 0x00, 0x00,
  0x00, 0x00, 0x01, 0x00, 0x00, 0x00, 0x8c, 0xf3, 0xe9, 0x39, 0x01, 0x00, 0x00,
  0x00, 0xb8, 0xf1, 0x69, 0x41, 0x01, 0x00, 0x00, 0x00, 0x00, 0x00, 0x00, 0x00,
  0x33, 0x00, 0x00, 0x00, 0x52, 0x65, 0x6c, 0x75, 0x5f, 0x35, 0x3b, 0x42, 0x69,
  0x61, 0x73, 0x41, 0x64, 0x64, 0x5f, 0x31, 0x36, 0x3b, 0x64, 0x65, 0x70, 0x74,
  0x68, 0x77, 0x69, 0x73, 0x65, 0x5f, 0x33, 0x37, 0x3b, 0x43, 0x6f, 0x6e, 0x76,
  0x32, 0x44, 0x5f, 0x31, 0x36, 0x3b, 0x63, 0x6f, 0x6e, 0x76, 0x5f, 0x36, 0x5f,
  0x30, 0x5f, 0x62, 0x00, 0x04, 0x00, 0x00, 0x00, 0x01, 0x00, 0x00, 0x00, 0x3e,
  0x04, 0x00, 0x00, 0x86, 0x07, 0x00, 0x00, 0x05, 0x00, 0x00, 0x00, 0x6a, 0x91,
  0xff, 0xff, 0x14, 0x00, 0x00, 0x00, 0x48, 0x00, 0x00, 0x00, 0x88, 0x00, 0x00,
  0x00, 0x00, 0x00, 0x00, 0x07, 0x50, 0x00, 0x00, 0x00, 0x5c, 0x91, 0xff, 0xff,
  0x10, 0x00, 0x00, 0x00, 0x18, 0x00, 0x00, 0x00, 0x1c, 0x00, 0x00, 0x00, 0x20,
  0x00, 0x00, 0x00, 0x01, 0x00, 0x00, 0x00, 0x00, 0x00, 0x00, 0x00, 0x00, 0x00,
  0x00, 0x00, 0x01, 0x00, 0x00, 0x00, 0xce, 0x3a, 0x40, 0x3a, 0x01, 0x00, 0x00,
  0x00, 0x98, 0x9f, 0x5c, 0x41, 0x01, 0x00, 0x00, 0x00, 0x4e, 0x39, 0xc0, 0xc1,
  0x0d, 0x00, 0x00, 0x00, 0x64, 0x65, 0x70, 0x74, 0x68, 0x77, 0x69, 0x73, 0x65,
  0x5f, 0x33, 0x33, 0x31, 0x00, 0x00, 0x00, 0x04, 0x00, 0x00, 0x00, 0x01, 0x00,
  0x00, 0x00, 0x3e, 0x04, 0x00, 0x00, 0x86, 0x07, 0x00, 0x00, 0x05, 0x00, 0x00,
  0x00, 0xe2, 0x91, 0xff, 0xff, 0x14, 0x00, 0x00, 0x00, 0x48, 0x00, 0x00, 0x00,
  0x87, 0x00, 0x00, 0x00, 0x00, 0x00, 0x00, 0x07, 0x50, 0x00, 0x00, 0x00, 0xd4,
  0x91, 0xff, 0xff, 0x10, 0x00, 0x00, 0x00, 0x18, 0x00, 0x00, 0x00, 0x1c, 0x00,
  0x00, 0x00, 0x20, 0x00, 0x00, 0x00, 0x01, 0x00, 0x00, 0x00, 0x00, 0x00, 0x00,
  0x00, 0x00, 0x00, 0x00, 0x00, 0x01, 0x00, 0x00, 0x00, 0xd0, 0x6c, 0x50, 0x3a,
  0x01, 0x00, 0x00, 0x00, 0xd1, 0x0b, 0x7d, 0x41, 0x01, 0x00, 0x00, 0x00, 0x2f,
  0x6b, 0xd0, 0xc1, 0x0d, 0x00, 0x00, 0x00, 0x64, 0x65, 0x70, 0x74, 0x68, 0x77,
  0x69, 0x73, 0x65, 0x5f, 0x33, 0x32, 0x31, 0x00, 0x00, 0x00, 0x04, 0x00, 0x00,
  0x00, 0x01, 0x00, 0x00, 0x00, 0x3e, 0x04, 0x00, 0x00, 0x86, 0x07, 0x00, 0x00,
  0x05, 0x00, 0x00, 0x00, 0x5a, 0x92, 0xff, 0xff, 0x14, 0x00, 0x00, 0x00, 0x48,
  0x00, 0x00, 0x00, 0x86, 0x00, 0x00, 0x00, 0x00, 0x00, 0x00, 0x07, 0x48, 0x00,
  0x00, 0x00, 0x4c, 0x92, 0xff, 0xff, 0x10, 0x00, 0x00, 0x00, 0x18, 0x00, 0x00,
  0x00, 0x1c, 0x00, 0x00, 0x00, 0x20, 0x00, 0x00, 0x00, 0x01, 0x00, 0x00, 0x00,
  0x00, 0x00, 0x00, 0x00, 0x00, 0x00, 0x00, 0x00, 0x01, 0x00, 0x00, 0x00, 0xde,
  0x13, 0x49, 0x3a, 0x01, 0x00, 0x00, 0x00, 0x21, 0x54, 0xc3, 0x41, 0x01, 0x00,
  0x00, 0x00, 0x4c, 0x12, 0xc9, 0xc1, 0x05, 0x00, 0x00, 0x00, 0x41, 0x64, 0x64,
  0x5f, 0x34, 0x00, 0x00, 0x00, 0x04, 0x00, 0x00, 0x00, 0x01, 0x00, 0x00, 0x00,
  0x3e, 0x04, 0x00, 0x00, 0x86, 0x07, 0x00, 0x00, 0x05, 0x00, 0x00, 0x00, 0xca,
  0x92, 0xff, 0xff, 0x14, 0x00, 0x00, 0x00, 0x48, 0x00, 0x00, 0x00, 0x85, 0x00,
  0x00, 0x00, 0x00, 0x00, 0x00, 0x07, 0x70, 0x00, 0x00, 0x00, 0xbc, 0x92, 0xff,
  0xff, 0x10, 0x00, 0x00, 0x00, 0x18, 0x00, 0x00, 0x00, 0x1c, 0x00, 0x00, 0x00,
  0x20, 0x00, 0x00, 0x00, 0x01, 0x00, 0x00, 0x00, 0x00, 0x00, 0x00, 0x00, 0x00,
  0x00, 0x00, 0x00, 0x01, 0x00, 0x00, 0x00, 0xcc, 0xe6, 0x25, 0x3a, 0x01, 0x00,
  0x00, 0x00, 0x80, 0xe5, 0xa5, 0x41, 0x01, 0x00, 0x00, 0x00, 0x93, 0x51, 0x9b,
  0xc1, 0x2d, 0x00, 0x00, 0x00, 0x42, 0x69, 0x61, 0x73, 0x41, 0x64, 0x64, 0x5f,
  0x31, 0x35, 0x3b, 0x64, 0x65, 0x70, 0x74, 0x68, 0x77, 0x69, 0x73, 0x65, 0x5f,
  0x33, 0x37, 0x3b, 0x43, 0x6f, 0x6e, 0x76, 0x32, 0x44, 0x5f, 0x31, 0x35, 0x3b,
  0x63, 0x6f, 0x6e, 0x76, 0x5f, 0x35, 0x5f, 0x31, 0x5f, 0x62, 0x31, 0x00, 0x00,
  0x00, 0x04, 0x00, 0x00, 0x00, 0x01, 0x00, 0x00, 0x00, 0x3e, 0x04, 0x00, 0x00,
  0x86, 0x07, 0x00, 0x00, 0x05, 0x00, 0x00, 0x00, 0x62, 0x93, 0xff, 0xff, 0x14,
  0x00, 0x00, 0x00, 0x48, 0x00, 0x00, 0x00, 0x84, 0x00, 0x00, 0x00, 0x00, 0x00,
  0x00, 0x07, 0x50, 0x00, 0x00, 0x00, 0x54, 0x93, 0xff, 0xff, 0x10, 0x00, 0x00,
  0x00, 0x18, 0x00, 0x00, 0x00, 0x1c, 0x00, 0x00, 0x00, 0x20, 0x00, 0x00, 0x00,
  0x01, 0x00, 0x00, 0x00, 0x00, 0x00, 0x00, 0x00, 0x00, 0x00, 0x00, 0x00, 0x01,
  0x00, 0x00, 0x00, 0x85, 0xd4, 0x92, 0x3a, 0x01, 0x00, 0x00, 0x00, 0x2e, 0x08,
  0x0b, 0x42, 0x01, 0x00, 0x00, 0x00, 0x5f, 0xd3, 0x12, 0xc2, 0x0d, 0x00, 0x00,
  0x00, 0x64, 0x65, 0x70, 0x74, 0x68, 0x77, 0x69, 0x73, 0x65, 0x5f, 0x33, 0x31,
  0x32, 0x00, 0x00, 0x00, 0x04, 0x00, 0x00, 0x00, 0x01, 0x00, 0x00, 0x00, 0x3e,
  0x04, 0x00, 0x00, 0x86, 0x07, 0x00, 0x00, 0x07, 0x00, 0x00, 0x00, 0xda, 0x93,
  0xff, 0xff, 0x14, 0x00, 0x00, 0x00, 0x48, 0x00, 0x00, 0x00, 0x83, 0x00, 0x00,
  0x00, 0x00, 0x00, 0x00, 0x07, 0x50, 0x00, 0x00, 0x00, 0xcc, 0x93, 0xff, 0xff,
  0x10, 0x00, 0x00, 0x00, 0x18, 0x00, 0x00, 0x00, 0x1c, 0x00, 0x00, 0x00, 0x20,
  0x00, 0x00, 0x00, 0x01, 0x00, 0x00, 0x00, 0x00, 0x00, 0x00, 0x00, 0x00, 0x00,
  0x00, 0x00, 0x01, 0x00, 0x00, 0x00, 0x69, 0x53, 0x29, 0x3b, 0x01, 0x00, 0x00,
  0x00, 0x74, 0xeb, 0x80, 0x42, 0x01, 0x00, 0x00, 0x00, 0x16, 0x52, 0xa9, 0xc2,
  0x0d, 0x00, 0x00, 0x00, 0x64, 0x65, 0x70, 0x74, 0x68, 0x77, 0x69, 0x73, 0x65,
  0x5f, 0x33, 0x30, 0x31, 0x00, 0x00, 0x00, 0x04, 0x00, 0x00, 0x00, 0x01, 0x00,
  0x00, 0x00, 0x3e, 0x04, 0x00, 0x00, 0x86, 0x07, 0x00, 0x00, 0x07, 0x00, 0x00,
  0x00, 0x52, 0x94, 0xff, 0xff, 0x14, 0x00, 0x00, 0x00, 0x48, 0x00, 0x00, 0x00,
  0x82, 0x00, 0x00, 0x00, 0x00, 0x00, 0x00, 0x07, 0x70, 0x00, 0x00, 0x00, 0x44,
  0x94, 0xff, 0xff, 0x10, 0x00, 0x00, 0x00, 0x18, 0x00, 0x00, 0x00, 0x1c, 0x00,
  0x00, 0x00, 0x20, 0x00, 0x00, 0x00, 0x01, 0x00, 0x00, 0x00, 0x00, 0x00, 0x00,
  0x00, 0x00, 0x00, 0x00, 0x00, 0x01, 0x00, 0x00, 0x00, 0x9c, 0xab, 0x27, 0x3a,
  0x01, 0x00, 0x00, 0x00, 0x57, 0x02, 0x8e, 0x41, 0x01, 0x00, 0x00, 0x00, 0x4d,
  0xaa, 0xa7, 0xc1, 0x2c, 0x00, 0x00, 0x00, 0x42, 0x69, 0x61, 0x73, 0x41, 0x64,
  0x64, 0x5f, 0x31, 0x34, 0x3b, 0x64, 0x65, 0x70, 0x74, 0x68, 0x77, 0x69, 0x73,
  0x65, 0x5f, 0x33, 0x37, 0x3b, 0x43, 0x6f, 0x6e, 0x76, 0x32, 0x44, 0x5f, 0x31,
  0x34, 0x3b, 0x63, 0x6f, 0x6e, 0x76, 0x5f, 0x35, 0x5f, 0x31, 0x5f, 0x62, 0x00,
  0x00, 0x00, 0x00, 0x04, 0x00, 0x00, 0x00, 0x01, 0x00, 0x00, 0x00, 0x3e, 0x04,
  0x00, 0x00, 0x86, 0x07, 0x00, 0x00, 0x05, 0x00, 0x00, 0x00, 0xea, 0x94, 0xff,
  0xff, 0x14, 0x00, 0x00, 0x00, 0x48, 0x00, 0x00, 0x00, 0x81, 0x00, 0x00, 0x00,
  0x00, 0x00, 0x00, 0x07, 0x50, 0x00, 0x00, 0x00, 0xdc, 0x94, 0xff, 0xff, 0x10,
  0x00, 0x00, 0x00, 0x18, 0x00, 0x00, 0x00, 0x1c, 0x00, 0x00, 0x00, 0x20, 0x00,
  0x00, 0x00, 0x01, 0x00, 0x00, 0x00, 0x00, 0x00, 0x00, 0x00, 0x00, 0x00, 0x00,
  0x00, 0x01, 0x00, 0x00, 0x00, 0xb7, 0x66, 0x33, 0x3a, 0x01, 0x00, 0x00, 0x00,
  0x50, 0x65, 0xb3, 0x41, 0x01, 0x00, 0x00, 0x00, 0x17, 0x9d, 0x5a, 0xc1, 0x0d,
  0x00, 0x00, 0x00, 0x64, 0x65, 0x70, 0x74, 0x68, 0x77, 0x69, 0x73, 0x65, 0x5f,
  0x32, 0x39, 0x31, 0x00, 0x00, 0x00, 0x04, 0x00, 0x00, 0x00, 0x01, 0x00, 0x00,
  0x00, 0x3e, 0x04, 0x00, 0x00, 0x86, 0x07, 0x00, 0x00, 0x05, 0x00, 0x00, 0x00,
  0x62, 0x95, 0xff, 0xff, 0x14, 0x00, 0x00, 0x00, 0x48, 0x00, 0x00, 0x00, 0x80,
  0x00, 0x00, 0x00, 0x00, 0x00, 0x00, 0x07, 0x50, 0x00, 0x00, 0x00, 0x54, 0x95,
  0xff, 0xff, 0x10, 0x00, 0x00, 0x00, 0x18, 0x00, 0x00, 0x00, 0x1c, 0x00, 0x00,
  0x00, 0x20, 0x00, 0x00, 0x00, 0x01, 0x00, 0x00, 0x00, 0x00, 0x00, 0x00, 0x00,
  0x00, 0x00, 0x00, 0x00, 0x01, 0x00, 0x00, 0x00, 0xd8, 0x2e, 0x5f, 0x3a, 0x01,
  0x00, 0x00, 0x00, 0x22, 0xe4, 0xda, 0x41, 0x01, 0x00, 0x00, 0x00, 0x1a, 0x2d,
  0xdf, 0xc1, 0x0d, 0x00, 0x00, 0x00, 0x64, 0x65, 0x70, 0x74, 0x68, 0x77, 0x69,
  0x73, 0x65, 0x5f, 0x32, 0x38, 0x31, 0x00, 0x00, 0x00, 0x04, 0x00, 0x00, 0x00,
  0x01, 0x00, 0x00, 0x00, 0x3e, 0x04, 0x00, 0x00, 0x86, 0x07, 0x00, 0x00, 0x05,
  0x00, 0x00, 0x00, 0xda, 0x95, 0xff, 0xff, 0x14, 0x00, 0x00, 0x00, 0x4c, 0x00,
  0x00, 0x00, 0x7f, 0x00, 0x00, 0x00, 0x00, 0x00, 0x00, 0x07, 0x78, 0x00, 0x00,
  0x00, 0xcc, 0x95, 0xff, 0xff, 0x10, 0x00, 0x00, 0x00, 0x1c, 0x00, 0x00, 0x00,
  0x20, 0x00, 0x00, 0x00, 0x24, 0x00, 0x00, 0x00, 0x01, 0x00, 0x00, 0x00, 0x00,
  0x00, 0x00, 0x00, 0x00, 0x00, 0x00, 0x00, 0x00, 0x00, 0x00, 0x00, 0x01, 0x00,
  0x00, 0x00, 0x34, 0x16, 0x7a, 0x3a, 0x01, 0x00, 0x00, 0x00, 0x40, 0x14, 0xfa,
  0x41, 0x01, 0x00, 0x00, 0x00, 0x00, 0x00, 0x00, 0x00, 0x33, 0x00, 0x00, 0x00,
  0x52, 0x65, 0x6c, 0x75, 0x5f, 0x34, 0x3b, 0x42, 0x69, 0x61, 0x73, 0x41, 0x64,
  0x64, 0x5f, 0x31, 0x33, 0x3b, 0x64, 0x65, 0x70, 0x74, 0x68, 0x77, 0x69, 0x73,
  0x65, 0x5f, 0x33, 0x37, 0x3b, 0x43, 0x6f, 0x6e, 0x76, 0x32, 0x44, 0x5f, 0x31,
  0x33, 0x3b, 0x63, 0x6f, 0x6e, 0x76, 0x5f, 0x35, 0x5f, 0x30, 0x5f, 0x62, 0x00,
  0x04, 0x00, 0x00, 0x00, 0x01, 0x00, 0x00, 0x00, 0x3e, 0x04, 0x00, 0x00, 0x86,
  0x07, 0x00, 0x00, 0x05, 0x00, 0x00, 0x00, 0x7a, 0x96, 0xff, 0xff, 0x14, 0x00,
  0x00, 0x00, 0x48, 0x00, 0x00, 0x00, 0x7e, 0x00, 0x00, 0x00, 0x00, 0x00, 0x00,
  0x07, 0x50, 0x00, 0x00, 0x00, 0x6c, 0x96, 0xff, 0xff, 0x10, 0x00, 0x00, 0x00,
  0x18, 0x00, 0x00, 0x00, 0x1c, 0x00, 0x00, 0x00, 0x20, 0x00, 0x00, 0x00, 0x01,
  0x00, 0x00, 0x00, 0x00, 0x00, 0x00, 0x00, 0x00, 0x00, 0x00, 0x00, 0x01, 0x00,
  0x00, 0x00, 0xe3, 0x3b, 0xa5, 0x3a, 0x01, 0x00, 0x00, 0x00, 0x99, 0x3a, 0x25,
  0x42, 0x01, 0x00, 0x00, 0x00, 0x74, 0x02, 0x1a, 0xc2, 0x0d, 0x00, 0x00, 0x00,
  0x64, 0x65, 0x70, 0x74, 0x68, 0x77, 0x69, 0x73, 0x65, 0x5f, 0x32, 0x37, 0x31,
  0x00, 0x00, 0x00, 0x04, 0x00, 0x00, 0x00, 0x01, 0x00, 0x00, 0x00, 0x3e, 0x04,
  0x00, 0x00, 0x86, 0x07, 0x00, 0x00, 0x07, 0x00, 0x00, 0x00, 0xf2, 0x96, 0xff,
  0xff, 0x14, 0x00, 0x00, 0x00, 0x48, 0x00, 0x00, 0x00, 0x7d, 0x00, 0x00, 0x00,
  0x00, 0x00, 0x00, 0x07, 0x50, 0x00, 0x00, 0x00, 0xe4, 0x96, 0xff, 0xff, 0x10,
  0x00, 0x00, 0x00, 0x18, 0x00, 0x00, 0x00, 0x1c, 0x00, 0x00, 0x00, 0x20, 0x00,
  0x00, 0x00, 0x01, 0x00, 0x00, 0x00, 0x00, 0x00, 0x00, 0x00, 0x00, 0x00, 0x00,
  0x00, 0x01, 0x00, 0x00, 0x00, 0x58, 0x3e, 0x2f, 0x3b, 0x01, 0x00, 0x00, 0x00,
  0xf7, 0xb2, 0xa5, 0x42, 0x01, 0x00, 0x00, 0x00, 0xfa, 0x3c, 0xaf, 0xc2, 0x0d,
  0x00, 0x00, 0x00, 0x64, 0x65, 0x70, 0x74, 0x68, 0x77, 0x69, 0x73, 0x65, 0x5f,
  0x32, 0x36, 0x31, 0x00, 0x00, 0x00, 0x04, 0x00, 0x00, 0x00, 0x01, 0x00, 0x00,
  0x00, 0x3e, 0x04, 0x00, 0x00, 0x86, 0x07, 0x00, 0x00, 0x07, 0x00, 0x00, 0x00,
  0x6a, 0x97, 0xff, 0xff, 0x14, 0x00, 0x00, 0x00, 0x48, 0x00, 0x00, 0x00, 0x7c,
  0x00, 0x00, 0x00, 0x00, 0x00, 0x00, 0x07, 0x48, 0x00, 0x00, 0x00, 0x5c, 0x97,
  0xff, 0xff, 0x10, 0x00, 0x00, 0x00, 0x18, 0x00, 0x00, 0x00, 0x1c, 0x00, 0x00,
  0x00, 0x20, 0x00, 0x00, 0x00, 0x01, 0x00, 0x00, 0x00, 0x00, 0x00, 0x00, 0x00,
  0x00, 0x00, 0x00, 0x00, 0x01, 0x00, 0x00, 0x00, 0x5c, 0x1d, 0xb3, 0x3b, 0x01,
  0x00, 0x00, 0x00, 0xf6, 0x1b, 0x33, 0x43, 0x01, 0x00, 0x00, 0x00, 0x2a, 0xfc,
  0x02, 0xc3, 0x05, 0x00, 0x00, 0x00, 0x41, 0x64, 0x64, 0x5f, 0x33, 0x00, 0x00,
  0x00, 0x04, 0x00, 0x00, 0x00, 0x01, 0x00, 0x00, 0x00, 0x3e, 0x04, 0x00, 0x00,
  0x86, 0x07, 0x00, 0x00, 0x07, 0x00, 0x00, 0x00, 0xda, 0x97, 0xff, 0xff, 0x14,
  0x00, 0x00, 0x00, 0x48, 0x00, 0x00, 0x00, 0x7b, 0x00, 0x00, 0x00, 0x00, 0x00,
  0x00, 0x07, 0x70, 0x00, 0x00, 0x00, 0xcc, 0x97, 0xff, 0xff, 0x10, 0x00, 0x00,
  0x00, 0x18, 0x00, 0x00, 0x00, 0x1c, 0x00, 0x00, 0x00, 0x20, 0x00, 0x00, 0x00,
  0x01, 0x00, 0x00, 0x00, 0x00, 0x00, 0x00, 0x00, 0x00, 0x00, 0x00, 0x00, 0x01,
  0x00, 0x00, 0x00, 0xc0, 0xd0, 0x96, 0x3b, 0x01, 0x00, 0x00, 0x00, 0xd8, 0x0c,
  0x12, 0x43, 0x01, 0x00, 0x00, 0x00, 0x92, 0xcf, 0x16, 0xc3, 0x2d, 0x00, 0x00,
  0x00, 0x42, 0x69, 0x61, 0x73, 0x41, 0x64, 0x64, 0x5f, 0x31, 0x32, 0x3b, 0x64,
  0x65, 0x70, 0x74, 0x68, 0x77, 0x69, 0x73, 0x65, 0x5f, 0x33, 0x31, 0x3b, 0x43,
  0x6f, 0x6e, 0x76, 0x32, 0x44, 0x5f, 0x31, 0x32, 0x3b, 0x63, 0x6f, 0x6e, 0x76,
  0x5f, 0x34, 0x5f, 0x31, 0x5f, 0x62, 0x31, 0x00, 0x00, 0x00, 0x04, 0x00, 0x00,
  0x00, 0x01, 0x00, 0x00, 0x00, 0x3e, 0x04, 0x00, 0x00, 0x86, 0x07, 0x00, 0x00,
  0x07, 0x00, 0x00, 0x00, 0x72, 0x98, 0xff, 0xff, 0x14, 0x00, 0x00, 0x00, 0x48,
  0x00, 0x00, 0x00, 0x7a, 0x00, 0x00, 0x00, 0x00, 0x00, 0x00, 0x07, 0x50, 0x00,
  0x00, 0x00, 0x64, 0x98, 0xff, 0xff, 0x10, 0x00, 0x00, 0x00, 0x18, 0x00, 0x00,
  0x00, 0x1c, 0x00, 0x00, 0x00, 0x20, 0x00, 0x00, 0x00, 0x01, 0x00, 0x00, 0x00,
  0x00, 0x00, 0x00, 0x00, 0x00, 0x00, 0x00, 0x00, 0x01, 0x00, 0x00, 0x00, 0xef,
  0x98, 0x76, 0x3b, 0x01, 0x00, 0x00, 0x00, 0x02, 0x97, 0xf6, 0x42, 0x01, 0x00,
  0x00, 0x00, 0xbc, 0x70, 0xc1, 0xc2, 0x0d, 0x00, 0x00, 0x00, 0x64, 0x65, 0x70,
  0x74, 0x68, 0x77, 0x69, 0x73, 0x65, 0x5f, 0x32, 0x35, 0x32, 0x00, 0x00, 0x00,
  0x04, 0x00, 0x00, 0x00, 0x01, 0x00, 0x00, 0x00, 0x3e, 0x04, 0x00, 0x00, 0x86,
  0x07, 0x00, 0x00, 0x09, 0x00, 0x00, 0x00, 0xea, 0x98, 0xff, 0xff, 0x14, 0x00,
  0x00, 0x00, 0x48, 0x00, 0x00, 0x00, 0x79, 0x00, 0x00, 0x00, 0x00, 0x00, 0x00,
  0x07, 0x50, 0x00, 0x00, 0x00, 0xdc, 0x98, 0xff, 0xff, 0x10, 0x00, 0x00, 0x00,
  0x18, 0x00, 0x00, 0x00, 0x1c, 0x00, 0x00, 0x00, 0x20, 0x00, 0x00, 0x00, 0x01,
  0x00, 0x00, 0x00, 0x00, 0x00, 0x00, 0x00, 0x00, 0x00, 0x00, 0x00, 0x01, 0x00,
  0x00, 0x00, 0x74, 0x1b, 0xcf, 0x3b, 0x01, 0x00, 0x00, 0x00, 0xb5, 0x66, 0x2d,
  0x43, 0x01, 0x00, 0x00, 0x00, 0xd6, 0x19, 0x4f, 0xc3, 0x0d, 0x00, 0x00, 0x00,
  0x64, 0x65, 0x70, 0x74, 0x68, 0x77, 0x69, 0x73, 0x65, 0x5f, 0x32, 0x34, 0x31,
  0x00, 0x00, 0x00, 0x04, 0x00, 0x00, 0x00, 0x01, 0x00, 0x00, 0x00, 0x3e, 0x04,
  0x00, 0x00, 0x86, 0x07, 0x00, 0x00, 0x09, 0x00, 0x00, 0x00, 0x62, 0x99, 0xff,
  0xff, 0x14, 0x00, 0x00, 0x00, 0x48, 0x00, 0x00, 0x00, 0x78, 0x00, 0x00, 0x00,
  0x00, 0x00, 0x00, 0x07, 0x70, 0x00, 0x00, 0x00, 0x54, 0x99, 0xff, 0xff, 0x10,
  0x00, 0x00, 0x00, 0x18, 0x00, 0x00, 0x00, 0x1c, 0x00, 0x00, 0x00, 0x20, 0x00,
  0x00, 0x00, 0x01, 0x00, 0x00, 0x00, 0x00, 0x00, 0x00, 0x00, 0x00, 0x00, 0x00,
  0x00, 0x01, 0x00, 0x00, 0x00, 0x32, 0xfc, 0x5a, 0x3b, 0x01, 0x00, 0x00, 0x00,
  0x7c, 0xfa, 0xda, 0x42, 0x01, 0x00, 0x00, 0x00, 0xc5, 0xe6, 0xaa, 0xc2, 0x2c,
  0x00, 0x00, 0x00, 0x42, 0x69, 0x61, 0x73, 0x41, 0x64, 0x64, 0x5f, 0x31, 0x31,
  0x3b, 0x64, 0x65, 0x70, 0x74, 0x68, 0x77, 0x69, 0x73, 0x65, 0x5f, 0x33, 0x31,
  0x3b, 0x43, 0x6f, 0x6e, 0x76, 0x32, 0x44, 0x5f, 0x31, 0x31, 0x3b, 0x63, 0x6f,
  0x6e, 0x76, 0x5f, 0x34, 0x5f, 0x31, 0x5f, 0x62, 0x00, 0x00, 0x00, 0x00, 0x04,
  0x00, 0x00, 0x00, 0x01, 0x00, 0x00, 0x00, 0x3e, 0x04, 0x00, 0x00, 0x86, 0x07,
  0x00, 0x00, 0x07, 0x00, 0x00, 0x00, 0xfa, 0x99, 0xff, 0xff, 0x14, 0x00, 0x00,
  0x00, 0x48, 0x00, 0x00, 0x00, 0x77, 0x00, 0x00, 0x00, 0x00, 0x00, 0x00, 0x07,
  0x50, 0x00, 0x00, 0x00, 0xec, 0x99, 0xff, 0xff, 0x10, 0x00, 0x00, 0x00, 0x18,
  0x00, 0x00, 0x00, 0x1c, 0x00, 0x00, 0x00, 0x20, 0x00, 0x00, 0x00, 0x01, 0x00,
  0x00, 0x00, 0x00, 0x00, 0x00, 0x00, 0x00, 0x00, 0x00, 0x00, 0x01, 0x00, 0x00,
  0x00, 0x75, 0x7c, 0x17, 0x3b, 0x01, 0x00, 0x00, 0x00, 0x66, 0x1b, 0x2d, 0x42,
  0x01, 0x00, 0x00, 0x00, 0x46, 0x7b, 0x97, 0xc2, 0x0d, 0x00, 0x00, 0x00, 0x64,
  0x65, 0x70, 0x74, 0x68, 0x77, 0x69, 0x73, 0x65, 0x5f, 0x32, 0x33, 0x31, 0x00,
  0x00, 0x00, 0x04, 0x00, 0x00, 0x00, 0x01, 0x00, 0x00, 0x00, 0x3e, 0x04, 0x00,
  0x00, 0x86, 0x07, 0x00, 0x00, 0x07, 0x00, 0x00, 0x00, 0x72, 0x9a, 0xff, 0xff,
  0x14, 0x00, 0x00, 0x00, 0x48, 0x00, 0x00, 0x00, 0x76, 0x00, 0x00, 0x00, 0x00,
  0x00, 0x00, 0x07, 0x50, 0x00, 0x00, 0x00, 0x64, 0x9a, 0xff, 0xff, 0x10, 0x00,
  0x00, 0x00, 0x18, 0x00, 0x00, 0x00, 0x1c, 0x00, 0x00, 0x00, 0x20, 0x00, 0x00,
  0x00, 0x01, 0x00, 0x00, 0x00, 0x00, 0x00, 0x00, 0x00, 0x00, 0x00, 0x00, 0x00,
  0x01, 0x00, 0x00, 0x00, 0x03, 0xf5, 0x3d, 0x3b, 0x01, 0x00, 0x00, 0x00, 0x87,
  0xf3, 0xbd, 0x42, 0x01, 0x00, 0x00, 0x00, 0x8f, 0xf6, 0x92, 0xc2, 0x0d, 0x00,
  0x00, 0x00, 0x64, 0x65, 0x70, 0x74, 0x68, 0x77, 0x69, 0x73, 0x65, 0x5f, 0x32,
  0x32, 0x31, 0x00, 0x00, 0x00, 0x04, 0x00, 0x00, 0x00, 0x01, 0x00, 0x00, 0x00,
  0x3e, 0x04, 0x00, 0x00, 0x86, 0x07, 0x00, 0x00, 0x07, 0x00, 0x00, 0x00, 0xea,
  0x9a, 0xff, 0xff, 0x14, 0x00, 0x00, 0x00, 0x4c, 0x00, 0x00, 0x00, 0x75, 0x00,
  0x00, 0x00, 0x00, 0x00, 0x00, 0x07, 0x78, 0x00, 0x00, 0x00, 0xdc, 0x9a, 0xff,
  0xff, 0x10, 0x00, 0x00, 0x00, 0x1c, 0x00, 0x00, 0x00, 0x20, 0x00, 0x00, 0x00,
  0x24, 0x00, 0x00, 0x00, 0x01, 0x00, 0x00, 0x00, 0x00, 0x00, 0x00, 0x00, 0x00,
