const unsigned char _tmp_sr7by6_tflite[] = {
  0x1c, 0x00, 0x00, 0x00, 0x54, 0x46, 0x4c, 0x33, 0x14, 0x00, 0x20, 0x00, 0x04,
  0x00, 0x08, 0x00, 0x0c, 0x00, 0x10, 0x00, 0x14, 0x00, 0x00, 0x00, 0x18, 0x00,
  0x1c, 0x00, 0x14, 0x00, 0x00, 0x00, 0x03, 0x00, 0x00, 0x00, 0x18, 0x02, 0x00,
  0x00, 0x0c, 0x02, 0x00, 0x00, 0xfc, 0x02, 0x00, 0x00, 0x0c, 0x00, 0x00, 0x00,
  0xa4, 0x02, 0x00, 0x00, 0x18, 0x02, 0x00, 0x00, 0x7d, 0x00, 0x00, 0x00, 0xd4,
  0x6f, 0x00, 0x00, 0xd0, 0x6f, 0x00, 0x00, 0xc4, 0x6e, 0x00, 0x00, 0x48, 0x6e,
  0x00, 0x00, 0xe8, 0x6d, 0x00, 0x00, 0x88, 0x6d, 0x00, 0x00, 0x18, 0x6d, 0x00,
  0x00, 0xa4, 0x6c, 0x00, 0x00, 0x3c, 0x6c, 0x00, 0x00, 0xd4, 0x6b, 0x00, 0x00,
  0x54, 0x6b, 0x00, 0x00, 0xf0, 0x69, 0x00, 0x00, 0x8c, 0x68, 0x00, 0x00, 0xa0,
  0x65, 0x00, 0x00, 0x64, 0x64, 0x00, 0x00, 0x28, 0x63, 0x00, 0x00, 0x2c, 0x61,
  0x00, 0x00, 0xc8, 0x5f, 0x00, 0x00, 0x64, 0x5e, 0x00, 0x00, 0x20, 0x5c, 0x00,
  0x00, 0x20, 0x5b, 0x00, 0x00, 0x20, 0x5a, 0x00, 0x00, 0xb4, 0x58, 0x00, 0x00,
  0xc4, 0x57, 0x00, 0x00, 0xd4, 0x56, 0x00, 0x00, 0xc8, 0x55, 0x00, 0x00, 0xc4,
  0x54, 0x00, 0x00, 0xc0, 0x53, 0x00, 0x00, 0x9c, 0x52, 0x00, 0x00, 0xd4, 0x51,
  0x00, 0x00, 0x0c, 0x51, 0x00, 0x00, 0x00, 0x50, 0x00, 0x00, 0x10, 0x4f, 0x00,
  0x00, 0xac, 0x4e, 0x00, 0x00, 0xbc, 0x4d, 0x00, 0x00, 0xb0, 0x4c, 0x00, 0x00,
  0xe8, 0x4b, 0x00, 0x00, 0x20, 0x4b, 0x00, 0x00, 0xb4, 0x49, 0x00, 0x00, 0x74,
  0x48, 0x00, 0x00, 0x00, 0x48, 0x00, 0x00, 0xc0, 0x46, 0x00, 0x00, 0xc4, 0x44,
  0x00, 0x00, 0xfc, 0x43, 0x00, 0x00, 0xa0, 0x43, 0x00, 0x00, 0xd8, 0x42, 0x00,
  0x00, 0xb4, 0x41, 0x00, 0x00, 0xb0, 0x40, 0x00, 0x00, 0xac, 0x3f, 0x00, 0x00,
  0xb4, 0x3c, 0x00, 0x00, 0xe8, 0x3a, 0x00, 0x00, 0x58, 0x3a, 0x00, 0x00, 0x8c,
  0x38, 0x00, 0x00, 0x18, 0x34, 0x00, 0x00, 0x14, 0x33, 0x00, 0x00, 0xac, 0x32,
  0x00, 0x00, 0xa8, 0x31, 0x00, 0x00, 0x64, 0x2f, 0x00, 0x00, 0x8c, 0x2d, 0x00,
  0x00, 0x10, 0x2d, 0x00, 0x00, 0x38, 0x2b, 0x00, 0x00, 0xf4, 0x2a, 0x00, 0x00,
  0x70, 0x2a, 0x00, 0x00, 0xdc, 0x29, 0x00, 0x00, 0x58, 0x29, 0x00, 0x00, 0xe0,
  0x28, 0x00, 0x00, 0x68, 0x28, 0x00, 0x00, 0xe0, 0x27, 0x00, 0x00, 0x44, 0x27,
  0x00, 0x00, 0xec, 0x26, 0x00, 0x00, 0xbc, 0x6e, 0x00, 0x00, 0xb8, 0x6e, 0x00,
  0x00, 0xb4, 0x6e, 0x00, 0x00, 0xb0, 0x6e, 0x00, 0x00, 0xac, 0x6e, 0x00, 0x00,
  0xa8, 0x6e, 0x00, 0x00, 0xa4, 0x6e, 0x00, 0x00, 0xa0, 0x6e, 0x00, 0x00, 0x9c,
  0x6e, 0x00, 0x00, 0x98, 0x6e, 0x00, 0x00, 0x94, 0x6e, 0x00, 0x00, 0x90, 0x6e,
  0x00, 0x00, 0x8c, 0x6e, 0x00, 0x00, 0x88, 0x6e, 0x00, 0x00, 0x84, 0x6e, 0x00,
  0x00, 0x80, 0x6e, 0x00, 0x00, 0x7c, 0x6e, 0x00, 0x00, 0x78, 0x6e, 0x00, 0x00,
  0x74, 0x6e, 0x00, 0x00, 0x70, 0x6e, 0x00, 0x00, 0x6c, 0x6e, 0x00, 0x00, 0x68,
  0x6e, 0x00, 0x00, 0x64, 0x6e, 0x00, 0x00, 0x60, 0x6e, 0x00, 0x00, 0x5c, 0x6e,
  0x00, 0x00, 0x58, 0x6e, 0x00, 0x00, 0x54, 0x6e, 0x00, 0x00, 0x50, 0x6e, 0x00,
  0x00, 0x4c, 0x6e, 0x00, 0x00, 0x48, 0x6e, 0x00, 0x00, 0x44, 0x6e, 0x00, 0x00,
  0x40, 0x6e, 0x00, 0x00, 0x3c, 0x6e, 0x00, 0x00, 0x38, 0x6e, 0x00, 0x00, 0x34,
  0x6e, 0x00, 0x00, 0x30, 0x6e, 0x00, 0x00, 0x2c, 0x6e, 0x00, 0x00, 0x28, 0x6e,
  0x00, 0x00, 0x24, 0x6e, 0x00, 0x00, 0x20, 0x6e, 0x00, 0x00, 0x1c, 0x6e, 0x00,
  0x00, 0x18, 0x6e, 0x00, 0x00, 0x14, 0x6e, 0x00, 0x00, 0x10, 0x6e, 0x00, 0x00,
  0x0c, 0x6e, 0x00, 0x00, 0x08, 0x6e, 0x00, 0x00, 0x04, 0x6e, 0x00, 0x00, 0x00,
  0x6e, 0x00, 0x00, 0xfc, 0x6d, 0x00, 0x00, 0xf8, 0x6d, 0x00, 0x00, 0xf4, 0x6d,
  0x00, 0x00, 0xf0, 0x6d, 0x00, 0x00, 0xec, 0x6d, 0x00, 0x00, 0xe8, 0x6d, 0x00,
  0x00, 0xdc, 0x00, 0x00, 0x00, 0x01, 0x00, 0x00, 0x00, 0x14, 0x01, 0x00, 0x00,
  0x04, 0x00, 0x00, 0x00, 0x9c, 0x25, 0x00, 0x00, 0xe0, 0x24, 0x00, 0x00, 0x68,
  0x23, 0x00, 0x00, 0x04, 0x1d, 0x00, 0x00, 0x01, 0x00, 0x00, 0x00, 0x10, 0x00,
  0x00, 0x00, 0x0c, 0x00, 0x14, 0x00, 0x10, 0x00, 0x0c, 0x00, 0x08, 0x00, 0x04,
  0x00, 0x0c, 0x00, 0x00, 0x00, 0x10, 0x00, 0x00, 0x00, 0x18, 0x00, 0x00, 0x00,
  0x28, 0x00, 0x00, 0x00, 0x2c, 0x00, 0x00, 0x00, 0x05, 0x00, 0x00, 0x00, 0x73,
  0x65, 0x72, 0x76, 0x65, 0x00, 0x00, 0x00, 0x0f, 0x00, 0x00, 0x00, 0x73, 0x65,
  0x72, 0x76, 0x69, 0x6e, 0x67, 0x5f, 0x64, 0x65, 0x66, 0x61, 0x75, 0x6c, 0x74,
  0x00, 0x01, 0x00, 0x00, 0x00, 0x14, 0x00, 0x00, 0x00, 0x01, 0x00, 0x00, 0x00,
  0x24, 0x00, 0x00, 0x00, 0x08, 0x00, 0x0c, 0x00, 0x08, 0x00, 0x04, 0x00, 0x08,
  0x00, 0x00, 0x00, 0x7a, 0x00, 0x00, 0x00, 0x04, 0x00, 0x00, 0x00, 0x06, 0x00,
  0x00, 0x00, 0x6f, 0x75, 0x74, 0x70, 0x75, 0x74, 0x00, 0x00, 0xc2, 0x93, 0xff,
  0xff, 0x04, 0x00, 0x00, 0x00, 0x03, 0x00, 0x00, 0x00, 0x69, 0x6d, 0x67, 0x00,
  0x01, 0x00, 0x00, 0x00, 0x0c, 0x00, 0x00, 0x00, 0x08, 0x00, 0x0c, 0x00, 0x04,
  0x00, 0x08, 0x00, 0x08, 0x00, 0x00, 0x00, 0x08, 0x00, 0x00, 0x00, 0x7c, 0x00,
  0x00, 0x00, 0x13, 0x00, 0x00, 0x00, 0x6d, 0x69, 0x6e, 0x5f, 0x72, 0x75, 0x6e,
  0x74, 0x69, 0x6d, 0x65, 0x5f, 0x76, 0x65, 0x72, 0x73, 0x69, 0x6f, 0x6e, 0x00,
  0x06, 0x94, 0xff, 0xff, 0x04, 0x00, 0x00, 0x00, 0x10, 0x00, 0x00, 0x00, 0x31,
  0x2e, 0x31, 0x33, 0x2e, 0x31, 0x00, 0x00, 0x00, 0x00, 0x00, 0x00, 0x00, 0x00,
  0x00, 0x00, 0x0f, 0x00, 0x00, 0x00, 0x4d, 0x4c, 0x49, 0x52, 0x20, 0x43, 0x6f,
  0x6e, 0x76, 0x65, 0x72, 0x74, 0x65, 0x64, 0x2e, 0x00, 0x00, 0x00, 0x0e, 0x00,
  0x18, 0x00, 0x04, 0x00, 0x08, 0x00, 0x0c, 0x00, 0x10, 0x00, 0x14, 0x00, 0x0e,
  0x00, 0x00, 0x00, 0x0c, 0x01, 0x00, 0x00, 0x00, 0x01, 0x00, 0x00, 0xf4, 0x00,
  0x00, 0x00, 0x14, 0x00, 0x00, 0x00, 0x04, 0x00, 0x00, 0x00, 0x04, 0x00, 0x00,
  0x00, 0x6d, 0x61, 0x69, 0x6e, 0x00, 0x00, 0x00, 0x00, 0x36, 0x00, 0x00, 0x00,
  0x24, 0x24, 0x00, 0x00, 0x60, 0x23, 0x00, 0x00, 0xb4, 0x22, 0x00, 0x00, 0xe8,
  0x21, 0x00, 0x00, 0x3c, 0x21, 0x00, 0x00, 0xa0, 0x20, 0x00, 0x00, 0xd8, 0x1f,
  0x00, 0x00, 0x3c, 0x1f, 0x00, 0x00, 0xa0, 0x1e, 0x00, 0x00, 0xec, 0x1d, 0x00,
  0x00, 0x50, 0x1d, 0x00, 0x00, 0xb4, 0x1c, 0x00, 0x00, 0x00, 0x1c, 0x00, 0x00,
  0x6c, 0x1b, 0x00, 0x00, 0xd0, 0x1a, 0x00, 0x00, 0x34, 0x1a, 0x00, 0x00, 0x74,
  0x19, 0x00, 0x00, 0xd8, 0x18, 0x00, 0x00, 0x3c, 0x18, 0x00, 0x00, 0x88, 0x17,
  0x00, 0x00, 0xec, 0x16, 0x00, 0x00, 0x50, 0x16, 0x00, 0x00, 0x9c, 0x15, 0x00,
  0x00, 0x18, 0x15, 0x00, 0x00, 0x7c, 0x14, 0x00, 0x00, 0xe0, 0x13, 0x00, 0x00,
  0x20, 0x13, 0x00, 0x00, 0x84, 0x12, 0x00, 0x00, 0xe8, 0x11, 0x00, 0x00, 0x34,
  0x11, 0x00, 0x00, 0xb0, 0x10, 0x00, 0x00, 0x14, 0x10, 0x00, 0x00, 0x78, 0x0f,
  0x00, 0x00, 0xb8, 0x0e, 0x00, 0x00, 0x1c, 0x0e, 0x00, 0x00, 0x80, 0x0d, 0x00,
  0x00, 0xc8, 0x0c, 0x00, 0x00, 0x2c, 0x0c, 0x00, 0x00, 0x90, 0x0b, 0x00, 0x00,
  0xd8, 0x0a, 0x00, 0x00, 0x54, 0x0a, 0x00, 0x00, 0xb8, 0x09, 0x00, 0x00, 0x1c,
  0x09, 0x00, 0x00, 0x5c, 0x08, 0x00, 0x00, 0xc0, 0x07, 0x00, 0x00, 0x24, 0x07,
  0x00, 0x00, 0x6c, 0x06, 0x00, 0x00, 0xd0, 0x05, 0x00, 0x00, 0x34, 0x05, 0x00,
  0x00, 0x7c, 0x04, 0x00, 0x00, 0xf8, 0x03, 0x00, 0x00, 0x4c, 0x03, 0x00, 0x00,
  0xac, 0x02, 0x00, 0x00, 0x04, 0x02, 0x00, 0x00, 0x01, 0x00, 0x00, 0x00, 0x7a,
  0x00, 0x00, 0x00, 0x01, 0x00, 0x00, 0x00, 0x00, 0x00, 0x00, 0x00, 0x7b, 0x00,
  0x00, 0x00, 0x58, 0x6b, 0x00, 0x00, 0x10, 0x6b, 0x00, 0x00, 0x68, 0x6a, 0x00,
  0x00, 0xf8, 0x69, 0x00, 0x00, 0x98, 0x69, 0x00, 0x00, 0x38, 0x69, 0x00, 0x00,
  0xc4, 0x68, 0x00, 0x00, 0x48, 0x68, 0x00, 0x00, 0xe0, 0x67, 0x00, 0x00, 0x7c,
  0x67, 0x00, 0x00, 0xf8, 0x66, 0x00, 0x00, 0x94, 0x65, 0x00, 0x00, 0x30, 0x64,
  0x00, 0x00, 0x44, 0x61, 0x00, 0x00, 0x08, 0x60, 0x00, 0x00, 0xcc, 0x5e, 0x00,
  0x00, 0xd0, 0x5c, 0x00, 0x00, 0x6c, 0x5b, 0x00, 0x00, 0x08, 0x5a, 0x00, 0x00,
  0xc4, 0x57, 0x00, 0x00, 0xc4, 0x56, 0x00, 0x00, 0xc4, 0x55, 0x00, 0x00, 0x54,
  0x54, 0x00, 0x00, 0x64, 0x53, 0x00, 0x00, 0x78, 0x52, 0x00, 0x00, 0x68, 0x51,
  0x00, 0x00, 0x64, 0x50, 0x00, 0x00, 0x64, 0x4f, 0x00, 0x00, 0x3c, 0x4e, 0x00,
  0x00, 0x74, 0x4d, 0x00, 0x00, 0xb0, 0x4c, 0x00, 0x00, 0xa0, 0x4b, 0x00, 0x00,
  0xbc, 0x4a, 0x00, 0x00, 0x4c, 0x4a, 0x00, 0x00, 0x60, 0x49, 0x00, 0x00, 0x50,
  0x48, 0x00, 0x00, 0x88, 0x47, 0x00, 0x00, 0xc4, 0x46, 0x00, 0x00, 0x54, 0x45,
  0x00, 0x00, 0x20, 0x44, 0x00, 0x00, 0xa0, 0x43, 0x00, 0x00, 0x64, 0x42, 0x00,
  0x00, 0x64, 0x40, 0x00, 0x00, 0xa8, 0x3f, 0x00, 0x00, 0x40, 0x3f, 0x00, 0x00,
  0x7c, 0x3e, 0x00, 0x00, 0x54, 0x3d, 0x00, 0x00, 0x50, 0x3c, 0x00, 0x00, 0x50,
  0x3b, 0x00, 0x00, 0x54, 0x38, 0x00, 0x00, 0x94, 0x36, 0x00, 0x00, 0xf8, 0x35,
  0x00, 0x00, 0x30, 0x34, 0x00, 0x00, 0xb8, 0x2f, 0x00, 0x00, 0xc0, 0x2e, 0x00,
  0x00, 0x4c, 0x2e, 0x00, 0x00, 0x4c, 0x2d, 0x00, 0x00, 0x04, 0x2b, 0x00, 0x00,
  0x38, 0x29, 0x00, 0x00, 0xb0, 0x28, 0x00, 0x00, 0xe8, 0x26, 0x00, 0x00, 0x98,
  0x26, 0x00, 0x00, 0x04, 0x26, 0x00, 0x00, 0x6c, 0x25, 0x00, 0x00, 0xe8, 0x24,
  0x00, 0x00, 0x70, 0x24, 0x00, 0x00, 0xf4, 0x23, 0x00, 0x00, 0x6c, 0x23, 0x00,
  0x00, 0xe0, 0x22, 0x00, 0x00, 0x78, 0x22, 0x00, 0x00, 0xbc, 0x21, 0x00, 0x00,
  0xf4, 0x20, 0x00, 0x00, 0x40, 0x20, 0x00, 0x00, 0x7c, 0x1f, 0x00, 0x00, 0xe0,
  0x1e, 0x00, 0x00, 0x24, 0x1e, 0x00, 0x00, 0x7c, 0x1d, 0x00, 0x00, 0xe0, 0x1c,
  0x00, 0x00, 0x28, 0x1c, 0x00, 0x00, 0x90, 0x1b, 0x00, 0x00, 0xf4, 0x1a, 0x00,
  0x00, 0x3c, 0x1a, 0x00, 0x00, 0xb0, 0x19, 0x00, 0x00, 0x10, 0x19, 0x00, 0x00,
  0x74, 0x18, 0x00, 0x00, 0xb4, 0x17, 0x00, 0x00, 0x18, 0x17, 0x00, 0x00, 0x7c,
  0x16, 0x00, 0x00, 0xc4, 0x15, 0x00, 0x00, 0x2c, 0x15, 0x00, 0x00, 0x90, 0x14,
  0x00, 0x00, 0xd8, 0x13, 0x00, 0x00, 0x48, 0x13, 0x00, 0x00, 0xbc, 0x12, 0x00,
  0x00, 0x20, 0x12, 0x00, 0x00, 0x60, 0x11, 0x00, 0x00, 0xc4, 0x10, 0x00, 0x00,
  0x28, 0x10, 0x00, 0x00, 0x70, 0x0f, 0x00, 0x00, 0xe0, 0x0e, 0x00, 0x00, 0x54,
  0x0e, 0x00, 0x00, 0xb8, 0x0d, 0x00, 0x00, 0xf8, 0x0c, 0x00, 0x00, 0x5c, 0x0c,
  0x00, 0x00, 0xc0, 0x0b, 0x00, 0x00, 0x04, 0x0b, 0x00, 0x00, 0x6c, 0x0a, 0x00,
  0x00, 0xd0, 0x09, 0x00, 0x00, 0x14, 0x09, 0x00, 0x00, 0x84, 0x08, 0x00, 0x00,
  0xf8, 0x07, 0x00, 0x00, 0x5c, 0x07, 0x00, 0x00, 0x9c, 0x06, 0x00, 0x00, 0x00,
  0x06, 0x00, 0x00, 0x64, 0x05, 0x00, 0x00, 0xa8, 0x04, 0x00, 0x00, 0x10, 0x04,
  0x00, 0x00, 0x74, 0x03, 0x00, 0x00, 0xb8, 0x02, 0x00, 0x00, 0x28, 0x02, 0x00,
  0x00, 0x9c, 0x01, 0x00, 0x00, 0xf0, 0x00, 0x00, 0x00, 0x50, 0x00, 0x00, 0x00,
  0xf2, 0xe0, 0xff, 0xff, 0x00, 0x00, 0x00, 0x01, 0x02, 0x00, 0x00, 0x00, 0x30,
  0x00, 0x00, 0x00, 0x24, 0x00, 0x00, 0x00, 0x10, 0x00, 0x00, 0x00, 0x00, 0x00,
  0x0a, 0x00, 0x10, 0x00, 0x0f, 0x00, 0x04, 0x00, 0x08, 0x00, 0x0a, 0x00, 0x00,
  0x00, 0x01, 0x00, 0x00, 0x00, 0x01, 0x00, 0x00, 0x00, 0x00, 0x00, 0x00, 0x01,
  0x01, 0x00, 0x00, 0x00, 0x7a, 0x00, 0x00, 0x00, 0x03, 0x00, 0x00, 0x00, 0x79,
  0x00, 0x00, 0x00, 0x3d, 0x00, 0x00, 0x00, 0x44, 0x00, 0x00, 0x00, 0xf4, 0x96,
  0xff, 0xff, 0x3c, 0x00, 0x00, 0x00, 0x7b, 0x00, 0x00, 0x00, 0x20, 0x00, 0x00,
  0x00, 0x44, 0x00, 0x00, 0x00, 0x04, 0x00, 0x00, 0x00, 0x04, 0x00, 0x00, 0x00,
  0xff, 0xff, 0xff, 0xff, 0x40, 0x00, 0x00, 0x00, 0x40, 0x00, 0x00, 0x00, 0x01,
  0x00, 0x00, 0x00, 0x0c, 0x00, 0x00, 0x00, 0x42, 0x69, 0x61, 0x73, 0x41, 0x64,
  0x64, 0x5f, 0x31, 0x35, 0x3a, 0x30, 0x00, 0x00, 0x00, 0x00, 0x04, 0x00, 0x00,
  0x00, 0x01, 0x00, 0x00, 0x00, 0x40, 0x00, 0x00, 0x00, 0x40, 0x00, 0x00, 0x00,
  0x01, 0x00, 0x00, 0x00, 0xdc, 0x96, 0xff, 0xff, 0x26, 0xe0, 0xff, 0xff, 0x00,
  0x00, 0x00, 0x02, 0x01, 0x00, 0x00, 0x00, 0x28, 0x00, 0x00, 0x00, 0x1c, 0x00,
  0x00, 0x00, 0x04, 0x00, 0x00, 0x00, 0x64, 0xff, 0xff, 0xff, 0x01, 0x00, 0x00,
  0x00, 0x01, 0x00, 0x00, 0x00, 0x01, 0x00, 0x00, 0x00, 0x00, 0x00, 0x00, 0x01,
  0x01, 0x00, 0x00, 0x00, 0x79, 0x00, 0x00, 0x00, 0x03, 0x00, 0x00, 0x00, 0x78,
  0x00, 0x00, 0x00, 0x3b, 0x00, 0x00, 0x00, 0x3a, 0x00, 0x00, 0x00, 0x90, 0x97,
  0xff, 0xff, 0x3c, 0x00, 0x00, 0x00, 0x7a, 0x00, 0x00, 0x00, 0x20, 0x00, 0x00,
  0x00, 0x44, 0x00, 0x00, 0x00, 0x04, 0x00, 0x00, 0x00, 0x04, 0x00, 0x00, 0x00,
  0xff, 0xff, 0xff, 0xff, 0x40, 0x00, 0x00, 0x00, 0x40, 0x00, 0x00, 0x00, 0x0e,
  0x00, 0x00, 0x00, 0x0d, 0x00, 0x00, 0x00, 0x64, 0x65, 0x70, 0x74, 0x68, 0x77,
  0x69, 0x73, 0x65, 0x5f, 0x33, 0x31, 0x32, 0x00, 0x00, 0x00, 0x04, 0x00, 0x00,
  0x00, 0x01, 0x00, 0x00, 0x00, 0x40, 0x00, 0x00, 0x00, 0x40, 0x00, 0x00, 0x00,
  0x0e, 0x00, 0x00, 0x00, 0x78, 0x97, 0xff, 0xff, 0xc2, 0xe0, 0xff, 0xff, 0x00,
  0x00, 0x00, 0x02, 0x01, 0x00, 0x00, 0x00, 0x34, 0x00, 0x00, 0x00, 0x28, 0x00,
  0x00, 0x00, 0x10, 0x00, 0x00, 0x00, 0x0c, 0x00, 0x14, 0x00, 0x13, 0x00, 0x08,
  0x00, 0x0c, 0x00, 0x04, 0x00, 0x0c, 0x00, 0x00, 0x00, 0x01, 0x00, 0x00, 0x00,
  0x01, 0x00, 0x00, 0x00, 0x01, 0x00, 0x00, 0x00, 0x00, 0x00, 0x00, 0x01, 0x01,
  0x00, 0x00, 0x00, 0x78, 0x00, 0x00, 0x00, 0x03, 0x00, 0x00, 0x00, 0x77, 0x00,
  0x00, 0x00, 0x39, 0x00, 0x00, 0x00, 0x3a, 0x00, 0x00, 0x00, 0x38, 0x98, 0xff,
  0xff, 0x3c, 0x00, 0x00, 0x00, 0x79, 0x00, 0x00, 0x00, 0x20, 0x00, 0x00, 0x00,
  0x44, 0x00, 0x00, 0x00, 0x04, 0x00, 0x00, 0x00, 0x04, 0x00, 0x00, 0x00, 0xff,
  0xff, 0xff, 0xff, 0x40, 0x00, 0x00, 0x00, 0x46, 0x00, 0x00, 0x00, 0x0e, 0x00,
  0x00, 0x00, 0x0d, 0x00, 0x00, 0x00, 0x64, 0x65, 0x70, 0x74, 0x68, 0x77, 0x69,
  0x73, 0x65, 0x5f, 0x33, 0x30, 0x31, 0x00, 0x00, 0x00, 0x04, 0x00, 0x00, 0x00,
  0x01, 0x00, 0x00, 0x00, 0x40, 0x00, 0x00, 0x00, 0x46, 0x00, 0x00, 0x00, 0x0e,
  0x00, 0x00, 0x00, 0x20, 0x98, 0xff, 0xff, 0x6a, 0xe1, 0xff, 0xff, 0x00, 0x00,
  0x00, 0x0b, 0x03, 0x00, 0x00, 0x00, 0x18, 0x00, 0x00, 0x00, 0x0c, 0x00, 0x00,
  0x00, 0x04, 0x00, 0x00, 0x00, 0x3c, 0x98, 0xff, 0xff, 0x01, 0x00, 0x00, 0x00,
  0x77, 0x00, 0x00, 0x00, 0x02, 0x00, 0x00, 0x00, 0x76, 0x00, 0x00, 0x00, 0x73,
  0x00, 0x00, 0x00, 0xc0, 0x98, 0xff, 0xff, 0x34, 0x00, 0x00, 0x00, 0x78, 0x00,
  0x00, 0x00, 0x20, 0x00, 0x00, 0x00, 0x3c, 0x00, 0x00, 0x00, 0x04, 0x00, 0x00,
  0x00, 0x04, 0x00, 0x00, 0x00, 0xff, 0xff, 0xff, 0xff, 0x46, 0x00, 0x00, 0x00,
  0x46, 0x00, 0x00, 0x00, 0x0e, 0x00, 0x00, 0x00, 0x05, 0x00, 0x00, 0x00, 0x41,
  0x64, 0x64, 0x5f, 0x34, 0x00, 0x00, 0x00, 0x04, 0x00, 0x00, 0x00, 0x01, 0x00,
  0x00, 0x00, 0x46, 0x00, 0x00, 0x00, 0x46, 0x00, 0x00, 0x00, 0x0e, 0x00, 0x00,
  0x00, 0xa0, 0x98, 0xff, 0xff, 0xea, 0xe1, 0xff, 0xff, 0x00, 0x00, 0x00, 0x01,
  0x02, 0x00, 0x00, 0x00, 0x20, 0x00, 0x00, 0x00, 0x14, 0x00, 0x00, 0x00, 0x04,
  0x00, 0x00, 0x00, 0x4a, 0xe3, 0xff, 0xff, 0x01, 0x00, 0x00, 0x00, 0x01, 0x00,
  0x00, 0x00, 0x01, 0x00, 0x00, 0x00, 0x76, 0x00, 0x00, 0x00, 0x03, 0x00, 0x00,
  0x00, 0x75, 0x00, 0x00, 0x00, 0x38, 0x00, 0x00, 0x00, 0x43, 0x00, 0x00, 0x00,
  0x4c, 0x99, 0xff, 0xff, 0x5c, 0x00, 0x00, 0x00, 0x77, 0x00, 0x00, 0x00, 0x20,
  0x00, 0x00, 0x00, 0x64, 0x00, 0x00, 0x00, 0x04, 0x00, 0x00, 0x00, 0x04, 0x00,
  0x00, 0x00, 0xff, 0xff, 0xff, 0xff, 0x46, 0x00, 0x00, 0x00, 0x46, 0x00, 0x00,
  0x00, 0x0e, 0x00, 0x00, 0x00, 0x2d, 0x00, 0x00, 0x00, 0x42, 0x69, 0x61, 0x73,
  0x41, 0x64, 0x64, 0x5f, 0x31, 0x34, 0x3b, 0x64, 0x65, 0x70, 0x74, 0x68, 0x77,
  0x69, 0x73, 0x65, 0x5f, 0x33, 0x31, 0x3b, 0x43, 0x6f, 0x6e, 0x76, 0x32, 0x44,
  0x5f, 0x31, 0x34, 0x3b, 0x63, 0x6f, 0x6e, 0x76, 0x5f, 0x35, 0x5f, 0x31, 0x5f,
  0x62, 0x31, 0x00, 0x00, 0x00, 0x04, 0x00, 0x00, 0x00, 0x01, 0x00, 0x00, 0x00,
  0x46, 0x00, 0x00, 0x00, 0x46, 0x00, 0x00, 0x00, 0x0e, 0x00, 0x00, 0x00, 0x54,
  0x99, 0xff, 0xff, 0x9e, 0xe2, 0xff, 0xff, 0x00, 0x00, 0x00, 0x02, 0x01, 0x00,
  0x00, 0x00, 0x24, 0x00, 0x00, 0x00, 0x18, 0x00, 0x00, 0x00, 0x04, 0x00, 0x00,
  0x00, 0x90, 0xe2, 0xff, 0xff, 0x01, 0x00, 0x00, 0x00, 0x01, 0x00, 0x00, 0x00,
  0x01, 0x00, 0x00, 0x00, 0x01, 0x00, 0x00, 0x00, 0x75, 0x00, 0x00, 0x00, 0x03,
  0x00, 0x00, 0x00, 0x74, 0x00, 0x00, 0x00, 0x37, 0x00, 0x00, 0x00, 0x36, 0x00,
  0x00, 0x00, 0x04, 0x9a, 0xff, 0xff, 0x3c, 0x00, 0x00, 0x00, 0x76, 0x00, 0x00,
  0x00, 0x20, 0x00, 0x00, 0x00, 0x44, 0x00, 0x00, 0x00, 0x04, 0x00, 0x00, 0x00,
  0x04, 0x00, 0x00, 0x00, 0xff, 0xff, 0xff, 0xff, 0x46, 0x00, 0x00, 0x00, 0x46,
  0x00, 0x00, 0x00, 0x09, 0x00, 0x00, 0x00, 0x0d, 0x00, 0x00, 0x00, 0x64, 0x65,
  0x70, 0x74, 0x68, 0x77, 0x69, 0x73, 0x65, 0x5f, 0x32, 0x39, 0x32, 0x00, 0x00,
  0x00, 0x04, 0x00, 0x00, 0x00, 0x01, 0x00, 0x00, 0x00, 0x46, 0x00, 0x00, 0x00,
  0x46, 0x00, 0x00, 0x00, 0x09, 0x00, 0x00, 0x00, 0xec, 0x99, 0xff, 0xff, 0x36,
  0xe3, 0xff, 0xff, 0x00, 0x00, 0x00, 0x02, 0x01, 0x00, 0x00, 0x00, 0x24, 0x00,
  0x00, 0x00, 0x18, 0x00, 0x00, 0x00, 0x04, 0x00, 0x00, 0x00, 0x28, 0xe3, 0xff,
  0xff, 0x01, 0x00, 0x00, 0x00, 0x01, 0x00, 0x00, 0x00, 0x01, 0x00, 0x00, 0x00,
  0x01, 0x00, 0x00, 0x00, 0x74, 0x00, 0x00, 0x00, 0x03, 0x00, 0x00, 0x00, 0x6d,
  0x00, 0x00, 0x00, 0x35, 0x00, 0x00, 0x00, 0x36, 0x00, 0x00, 0x00, 0x9c, 0x9a,
  0xff, 0xff, 0x3c, 0x00, 0x00, 0x00, 0x75, 0x00, 0x00, 0x00, 0x20, 0x00, 0x00,
  0x00, 0x44, 0x00, 0x00, 0x00, 0x04, 0x00, 0x00, 0x00, 0x04, 0x00, 0x00, 0x00,
  0xff, 0xff, 0xff, 0xff, 0x46, 0x00, 0x00, 0x00, 0x46, 0x00, 0x00, 0x00, 0x09,
  0x00, 0x00, 0x00, 0x0d, 0x00, 0x00, 0x00, 0x64, 0x65, 0x70, 0x74, 0x68, 0x77,
  0x69, 0x73, 0x65, 0x5f, 0x32, 0x38, 0x31, 0x00, 0x00, 0x00, 0x04, 0x00, 0x00,
  0x00, 0x01, 0x00, 0x00, 0x00, 0x46, 0x00, 0x00, 0x00, 0x46, 0x00, 0x00, 0x00,
  0x09, 0x00, 0x00, 0x00, 0x84, 0x9a, 0xff, 0xff, 0xce, 0xe3, 0xff, 0xff, 0x00,
  0x00, 0x00, 0x01, 0x02, 0x00, 0x00, 0x00, 0x20, 0x00, 0x00, 0x00, 0x14, 0x00,
  0x00, 0x00, 0x04, 0x00, 0x00, 0x00, 0x2e, 0xe5, 0xff, 0xff, 0x01, 0x00, 0x00,
  0x00, 0x01, 0x00, 0x00, 0x00, 0x01, 0x00, 0x00, 0x00, 0x73, 0x00, 0x00, 0x00,
  0x03, 0x00, 0x00, 0x00, 0x72, 0x00, 0x00, 0x00, 0x34, 0x00, 0x00, 0x00, 0x43,
  0x00, 0x00, 0x00, 0x30, 0x9b, 0xff, 0xff, 0x5c, 0x00, 0x00, 0x00, 0x74, 0x00,
  0x00, 0x00, 0x20, 0x00, 0x00, 0x00, 0x64, 0x00, 0x00, 0x00, 0x04, 0x00, 0x00,
  0x00, 0x04, 0x00, 0x00, 0x00, 0xff, 0xff, 0xff, 0xff, 0x46, 0x00, 0x00, 0x00,
  0x46, 0x00, 0x00, 0x00, 0x0e, 0x00, 0x00, 0x00, 0x2c, 0x00, 0x00, 0x00, 0x42,
  0x69, 0x61, 0x73, 0x41, 0x64, 0x64, 0x5f, 0x31, 0x33, 0x3b, 0x64, 0x65, 0x70,
  0x74, 0x68, 0x77, 0x69, 0x73, 0x65, 0x5f, 0x33, 0x31, 0x3b, 0x43, 0x6f, 0x6e,
  0x76, 0x32, 0x44, 0x5f, 0x31, 0x33, 0x3b, 0x63, 0x6f, 0x6e, 0x76, 0x5f, 0x35,
  0x5f, 0x31, 0x5f, 0x62, 0x00, 0x00, 0x00, 0x00, 0x04, 0x00, 0x00, 0x00, 0x01,
  0x00, 0x00, 0x00, 0x46, 0x00, 0x00, 0x00, 0x46, 0x00, 0x00, 0x00, 0x0e, 0x00,
  0x00, 0x00, 0x38, 0x9b, 0xff, 0xff, 0x82, 0xe4, 0xff, 0xff, 0x00, 0x00, 0x00,
  0x02, 0x01, 0x00, 0x00, 0x00, 0x24, 0x00, 0x00, 0x00, 0x18, 0x00, 0x00, 0x00,
  0x04, 0x00, 0x00, 0x00, 0x74, 0xe4, 0xff, 0xff, 0x01, 0x00, 0x00, 0x00, 0x01,
  0x00, 0x00, 0x00, 0x01, 0x00, 0x00, 0x00, 0x01, 0x00, 0x00, 0x00, 0x72, 0x00,
  0x00, 0x00, 0x03, 0x00, 0x00, 0x00, 0x71, 0x00, 0x00, 0x00, 0x33, 0x00, 0x00,
  0x00, 0x32, 0x00, 0x00, 0x00, 0xe8, 0x9b, 0xff, 0xff, 0x3c, 0x00, 0x00, 0x00,
  0x73, 0x00, 0x00, 0x00, 0x20, 0x00, 0x00, 0x00, 0x44, 0x00, 0x00, 0x00, 0x04,
  0x00, 0x00, 0x00, 0x04, 0x00, 0x00, 0x00, 0xff, 0xff, 0xff, 0xff, 0x46, 0x00,
  0x00, 0x00, 0x46, 0x00, 0x00, 0x00, 0x13, 0x00, 0x00, 0x00, 0x0d, 0x00, 0x00,
  0x00, 0x64, 0x65, 0x70, 0x74, 0x68, 0x77, 0x69, 0x73, 0x65, 0x5f, 0x32, 0x37,
  0x32, 0x00, 0x00, 0x00, 0x04, 0x00, 0x00, 0x00, 0x01, 0x00, 0x00, 0x00, 0x46,
  0x00, 0x00, 0x00, 0x46, 0x00, 0x00, 0x00, 0x13, 0x00, 0x00, 0x00, 0xd0, 0x9b,
  0xff, 0xff, 0x1a, 0xe5, 0xff, 0xff, 0x00, 0x00, 0x00, 0x02, 0x01, 0x00, 0x00,
  0x00, 0x24, 0x00, 0x00, 0x00, 0x18, 0x00, 0x00, 0x00, 0x04, 0x00, 0x00, 0x00,
  0x0c, 0xe5, 0xff, 0xff, 0x01, 0x00, 0x00, 0x00, 0x01, 0x00, 0x00, 0x00, 0x01,
  0x00, 0x00, 0x00, 0x01, 0x00, 0x00, 0x00, 0x71, 0x00, 0x00, 0x00, 0x03, 0x00,
  0x00, 0x00, 0x70, 0x00, 0x00, 0x00, 0x31, 0x00, 0x00, 0x00, 0x32, 0x00, 0x00,
  0x00, 0x80, 0x9c, 0xff, 0xff, 0x3c, 0x00, 0x00, 0x00, 0x72, 0x00, 0x00, 0x00,
  0x20, 0x00, 0x00, 0x00, 0x44, 0x00, 0x00, 0x00, 0x04, 0x00, 0x00, 0x00, 0x04,
  0x00, 0x00, 0x00, 0xff, 0xff, 0xff, 0xff, 0x46, 0x00, 0x00, 0x00, 0x46, 0x00,
  0x00, 0x00, 0x13, 0x00, 0x00, 0x00, 0x0d, 0x00, 0x00, 0x00, 0x64, 0x65, 0x70,
  0x74, 0x68, 0x77, 0x69, 0x73, 0x65, 0x5f, 0x32, 0x36, 0x31, 0x00, 0x00, 0x00,
  0x04, 0x00, 0x00, 0x00, 0x01, 0x00, 0x00, 0x00, 0x46, 0x00, 0x00, 0x00, 0x46,
  0x00, 0x00, 0x00, 0x13, 0x00, 0x00, 0x00, 0x68, 0x9c, 0xff, 0xff, 0xb2, 0xe5,
  0xff, 0xff, 0x00, 0x00, 0x00, 0x01, 0x02, 0x00, 0x00, 0x00, 0x24, 0x00, 0x00,
  0x00, 0x18, 0x00, 0x00, 0x00, 0x04, 0x00, 0x00, 0x00, 0x18, 0xe9, 0xff, 0xff,
  0x01, 0x00, 0x00, 0x00, 0x01, 0x00, 0x00, 0x00, 0x00, 0x00, 0x00, 0x01, 0x01,
  0x00, 0x00, 0x00, 0x70, 0x00, 0x00, 0x00, 0x03, 0x00, 0x00, 0x00, 0x6f, 0x00,
  0x00, 0x00, 0x30, 0x00, 0x00, 0x00, 0x01, 0x00, 0x00, 0x00, 0x18, 0x9d, 0xff,
  0xff, 0x60, 0x00, 0x00, 0x00, 0x71, 0x00, 0x00, 0x00, 0x20, 0x00, 0x00, 0x00,
  0x68, 0x00, 0x00, 0x00, 0x04, 0x00, 0x00, 0x00, 0x04, 0x00, 0x00, 0x00, 0xff,
  0xff, 0xff, 0xff, 0x46, 0x00, 0x00, 0x00, 0x46, 0x00, 0x00, 0x00, 0x13, 0x00,
  0x00, 0x00, 0x33, 0x00, 0x00, 0x00, 0x52, 0x65, 0x6c, 0x75, 0x5f, 0x34, 0x3b,
  0x42, 0x69, 0x61, 0x73, 0x41, 0x64, 0x64, 0x5f, 0x31, 0x32, 0x3b, 0x64, 0x65,
  0x70, 0x74, 0x68, 0x77, 0x69, 0x73, 0x65, 0x5f, 0x32, 0x37, 0x3b, 0x43, 0x6f,
  0x6e, 0x76, 0x32, 0x44, 0x5f, 0x31, 0x32, 0x3b, 0x63, 0x6f, 0x6e, 0x76, 0x5f,
  0x35, 0x5f, 0x30, 0x5f, 0x62, 0x00, 0x04, 0x00, 0x00, 0x00, 0x01, 0x00, 0x00,
  0x00, 0x46, 0x00, 0x00, 0x00, 0x46, 0x00, 0x00, 0x00, 0x13, 0x00, 0x00, 0x00,
  0x24, 0x9d, 0xff, 0xff, 0x6e, 0xe6, 0xff, 0xff, 0x00, 0x00, 0x00, 0x02, 0x01,
  0x00, 0x00, 0x00, 0x24, 0x00, 0x00, 0x00, 0x18, 0x00, 0x00, 0x00, 0x04, 0x00,
  0x00, 0x00, 0x60, 0xe6, 0xff, 0xff, 0x01, 0x00, 0x00, 0x00, 0x01, 0x00, 0x00,
  0x00, 0x01, 0x00, 0x00, 0x00, 0x01, 0x00, 0x00, 0x00, 0x6f, 0x00, 0x00, 0x00,
  0x03, 0x00, 0x00, 0x00, 0x6e, 0x00, 0x00, 0x00, 0x2f, 0x00, 0x00, 0x00, 0x36,
  0x00, 0x00, 0x00, 0xd4, 0x9d, 0xff, 0xff, 0x3c, 0x00, 0x00, 0x00, 0x70, 0x00,
  0x00, 0x00, 0x20, 0x00, 0x00, 0x00, 0x44, 0x00, 0x00, 0x00, 0x04, 0x00, 0x00,
  0x00, 0x04, 0x00, 0x00, 0x00, 0xff, 0xff, 0xff, 0xff, 0x46, 0x00, 0x00, 0x00,
  0x46, 0x00, 0x00, 0x00, 0x09, 0x00, 0x00, 0x00, 0x0d, 0x00, 0x00, 0x00, 0x64,
  0x65, 0x70, 0x74, 0x68, 0x77, 0x69, 0x73, 0x65, 0x5f, 0x32, 0x35, 0x31, 0x00,
  0x00, 0x00, 0x04, 0x00, 0x00, 0x00, 0x01, 0x00, 0x00, 0x00, 0x46, 0x00, 0x00,
  0x00, 0x46, 0x00, 0x00, 0x00, 0x09, 0x00, 0x00, 0x00, 0xbc, 0x9d, 0xff, 0xff,
  0x06, 0xe7, 0xff, 0xff, 0x00, 0x00, 0x00, 0x02, 0x01, 0x00, 0x00, 0x00, 0x24,
  0x00, 0x00, 0x00, 0x18, 0x00, 0x00, 0x00, 0x04, 0x00, 0x00, 0x00, 0xf8, 0xe6,
  0xff, 0xff, 0x01, 0x00, 0x00, 0x00, 0x01, 0x00, 0x00, 0x00, 0x01, 0x00, 0x00,
  0x00, 0x01, 0x00, 0x00, 0x00, 0x6e, 0x00, 0x00, 0x00, 0x03, 0x00, 0x00, 0x00,
  0x6d, 0x00, 0x00, 0x00, 0x2e, 0x00, 0x00, 0x00, 0x36, 0x00, 0x00, 0x00, 0x6c,
  0x9e, 0xff, 0xff, 0x3c, 0x00, 0x00, 0x00, 0x6f, 0x00, 0x00, 0x00, 0x20, 0x00,
  0x00, 0x00, 0x44, 0x00, 0x00, 0x00, 0x04, 0x00, 0x00, 0x00, 0x04, 0x00, 0x00,
  0x00, 0xff, 0xff, 0xff, 0xff, 0x46, 0x00, 0x00, 0x00, 0x46, 0x00, 0x00, 0x00,
  0x09, 0x00, 0x00, 0x00, 0x0d, 0x00, 0x00, 0x00, 0x64, 0x65, 0x70, 0x74, 0x68,
  0x77, 0x69, 0x73, 0x65, 0x5f, 0x32, 0x34, 0x31, 0x00, 0x00, 0x00, 0x04, 0x00,
  0x00, 0x00, 0x01, 0x00, 0x00, 0x00, 0x46, 0x00, 0x00, 0x00, 0x46, 0x00, 0x00,
  0x00, 0x09, 0x00, 0x00, 0x00, 0x54, 0x9e, 0xff, 0xff, 0x9e, 0xe7, 0xff, 0xff,
  0x00, 0x00, 0x00, 0x0b, 0x03, 0x00, 0x00, 0x00, 0x18, 0x00, 0x00, 0x00, 0x0c,
  0x00, 0x00, 0x00, 0x04, 0x00, 0x00, 0x00, 0x70, 0x9e, 0xff, 0xff, 0x01, 0x00,
  0x00, 0x00, 0x6d, 0x00, 0x00, 0x00, 0x02, 0x00, 0x00, 0x00, 0x6c, 0x00, 0x00,
  0x00, 0x69, 0x00, 0x00, 0x00, 0xf4, 0x9e, 0xff, 0xff, 0x34, 0x00, 0x00, 0x00,
  0x6e, 0x00, 0x00, 0x00, 0x20, 0x00, 0x00, 0x00, 0x3c, 0x00, 0x00, 0x00, 0x04,
  0x00, 0x00, 0x00, 0x04, 0x00, 0x00, 0x00, 0xff, 0xff, 0xff, 0xff, 0x46, 0x00,
  0x00, 0x00, 0x46, 0x00, 0x00, 0x00, 0x09, 0x00, 0x00, 0x00, 0x05, 0x00, 0x00,
  0x00, 0x41, 0x64, 0x64, 0x5f, 0x33, 0x00, 0x00, 0x00, 0x04, 0x00, 0x00, 0x00,
  0x01, 0x00, 0x00, 0x00, 0x46, 0x00, 0x00, 0x00, 0x46, 0x00, 0x00, 0x00, 0x09,
  0x00, 0x00, 0x00, 0xd4, 0x9e, 0xff, 0xff, 0x1e, 0xe8, 0xff, 0xff, 0x00, 0x00,
  0x00, 0x01, 0x02, 0x00, 0x00, 0x00, 0x20, 0x00, 0x00, 0x00, 0x14, 0x00, 0x00,
  0x00, 0x04, 0x00, 0x00, 0x00, 0x7e, 0xe9, 0xff, 0xff, 0x01, 0x00, 0x00, 0x00,
  0x01, 0x00, 0x00, 0x00, 0x01, 0x00, 0x00, 0x00, 0x6c, 0x00, 0x00, 0x00, 0x03,
  0x00, 0x00, 0x00, 0x6b, 0x00, 0x00, 0x00, 0x2d, 0x00, 0x00, 0x00, 0x42, 0x00,
  0x00, 0x00, 0x80, 0x9f, 0xff, 0xff, 0x5c, 0x00, 0x00, 0x00, 0x6d, 0x00, 0x00,
  0x00, 0x20, 0x00, 0x00, 0x00, 0x64, 0x00, 0x00, 0x00, 0x04, 0x00, 0x00, 0x00,
  0x04, 0x00, 0x00, 0x00, 0xff, 0xff, 0xff, 0xff, 0x46, 0x00, 0x00, 0x00, 0x46,
  0x00, 0x00, 0x00, 0x09, 0x00, 0x00, 0x00, 0x2d, 0x00, 0x00, 0x00, 0x42, 0x69,
  0x61, 0x73, 0x41, 0x64, 0x64, 0x5f, 0x31, 0x31, 0x3b, 0x64, 0x65, 0x70, 0x74,
  0x68, 0x77, 0x69, 0x73, 0x65, 0x5f, 0x32, 0x39, 0x3b, 0x43, 0x6f, 0x6e, 0x76,
  0x32, 0x44, 0x5f, 0x31, 0x31, 0x3b, 0x63, 0x6f, 0x6e, 0x76, 0x5f, 0x34, 0x5f,
  0x31, 0x5f, 0x62, 0x31, 0x00, 0x00, 0x00, 0x04, 0x00, 0x00, 0x00, 0x01, 0x00,
  0x00, 0x00, 0x46, 0x00, 0x00, 0x00, 0x46, 0x00, 0x00, 0x00, 0x09, 0x00, 0x00,
  0x00, 0x88, 0x9f, 0xff, 0xff, 0xd2, 0xe8, 0xff, 0xff, 0x00, 0x00, 0x00, 0x02,
  0x01, 0x00, 0x00, 0x00, 0x24, 0x00, 0x00, 0x00, 0x18, 0x00, 0x00, 0x00, 0x04,
  0x00, 0x00, 0x00, 0xc4, 0xe8, 0xff, 0xff, 0x01, 0x00, 0x00, 0x00, 0x01, 0x00,
  0x00, 0x00, 0x01, 0x00, 0x00, 0x00, 0x01, 0x00, 0x00, 0x00, 0x6b, 0x00, 0x00,
  0x00, 0x03, 0x00, 0x00, 0x00, 0x6a, 0x00, 0x00, 0x00, 0x2c, 0x00, 0x00, 0x00,
  0x2b, 0x00, 0x00, 0x00, 0x38, 0xa0, 0xff, 0xff, 0x3c, 0x00, 0x00, 0x00, 0x6c,
  0x00, 0x00, 0x00, 0x20, 0x00, 0x00, 0x00, 0x44, 0x00, 0x00, 0x00, 0x04, 0x00,
  0x00, 0x00, 0x04, 0x00, 0x00, 0x00, 0xff, 0xff, 0xff, 0xff, 0x46, 0x00, 0x00,
  0x00, 0x46, 0x00, 0x00, 0x00, 0x06, 0x00, 0x00, 0x00, 0x0d, 0x00, 0x00, 0x00,
  0x64, 0x65, 0x70, 0x74, 0x68, 0x77, 0x69, 0x73, 0x65, 0x5f, 0x32, 0x33, 0x32,
  0x00, 0x00, 0x00, 0x04, 0x00, 0x00, 0x00, 0x01, 0x00, 0x00, 0x00, 0x46, 0x00,
  0x00, 0x00, 0x46, 0x00, 0x00, 0x00, 0x06, 0x00, 0x00, 0x00, 0x20, 0xa0, 0xff,
  0xff, 0x6a, 0xe9, 0xff, 0xff, 0x00, 0x00, 0x00, 0x02, 0x01, 0x00, 0x00, 0x00,
  0x24, 0x00, 0x00, 0x00, 0x18, 0x00, 0x00, 0x00, 0x04, 0x00, 0x00, 0x00, 0x5c,
  0xe9, 0xff, 0xff, 0x01, 0x00, 0x00, 0x00, 0x01, 0x00, 0x00, 0x00, 0x01, 0x00,
  0x00, 0x00, 0x01, 0x00, 0x00, 0x00, 0x6a, 0x00, 0x00, 0x00, 0x03, 0x00, 0x00,
  0x00, 0x63, 0x00, 0x00, 0x00, 0x2a, 0x00, 0x00, 0x00, 0x2b, 0x00, 0x00, 0x00,
  0xd0, 0xa0, 0xff, 0xff, 0x3c, 0x00, 0x00, 0x00, 0x6b, 0x00, 0x00, 0x00, 0x20,
  0x00, 0x00, 0x00, 0x44, 0x00, 0x00, 0x00, 0x04, 0x00, 0x00, 0x00, 0x04, 0x00,
  0x00, 0x00, 0xff, 0xff, 0xff, 0xff, 0x46, 0x00, 0x00, 0x00, 0x46, 0x00, 0x00,
  0x00, 0x06, 0x00, 0x00, 0x00, 0x0d, 0x00, 0x00, 0x00, 0x64, 0x65, 0x70, 0x74,
  0x68, 0x77, 0x69, 0x73, 0x65, 0x5f, 0x32, 0x32, 0x31, 0x00, 0x00, 0x00, 0x04,
  0x00, 0x00, 0x00, 0x01, 0x00, 0x00, 0x00, 0x46, 0x00, 0x00, 0x00, 0x46, 0x00,
  0x00, 0x00, 0x06, 0x00, 0x00, 0x00, 0xb8, 0xa0, 0xff, 0xff, 0x02, 0xea, 0xff,
  0xff, 0x00, 0x00, 0x00, 0x01, 0x02, 0x00, 0x00, 0x00, 0x20, 0x00, 0x00, 0x00,
  0x14, 0x00, 0x00, 0x00, 0x04, 0x00, 0x00, 0x00, 0x62, 0xeb, 0xff, 0xff, 0x01,
  0x00, 0x00, 0x00, 0x01, 0x00, 0x00, 0x00, 0x01, 0x00, 0x00, 0x00, 0x69, 0x00,
  0x00, 0x00, 0x03, 0x00, 0x00, 0x00, 0x68, 0x00, 0x00, 0x00, 0x29, 0x00, 0x00,
  0x00, 0x42, 0x00, 0x00, 0x00, 0x64, 0xa1, 0xff, 0xff, 0x5c, 0x00, 0x00, 0x00,
  0x6a, 0x00, 0x00, 0x00, 0x20, 0x00, 0x00, 0x00, 0x64, 0x00, 0x00, 0x00, 0x04,
  0x00, 0x00, 0x00, 0x04, 0x00, 0x00, 0x00, 0xff, 0xff, 0xff, 0xff, 0x46, 0x00,
  0x00, 0x00, 0x46, 0x00, 0x00, 0x00, 0x09, 0x00, 0x00, 0x00, 0x2c, 0x00, 0x00,
  0x00, 0x42, 0x69, 0x61, 0x73, 0x41, 0x64, 0x64, 0x5f, 0x31, 0x30, 0x3b, 0x64,
  0x65, 0x70, 0x74, 0x68, 0x77, 0x69, 0x73, 0x65, 0x5f, 0x32, 0x39, 0x3b, 0x43,
  0x6f, 0x6e, 0x76, 0x32, 0x44, 0x5f, 0x31, 0x30, 0x3b, 0x63, 0x6f, 0x6e, 0x76,
  0x5f, 0x34, 0x5f, 0x31, 0x5f, 0x62, 0x00, 0x00, 0x00, 0x00, 0x04, 0x00, 0x00,
  0x00, 0x01, 0x00, 0x00, 0x00, 0x46, 0x00, 0x00, 0x00, 0x46, 0x00, 0x00, 0x00,
  0x09, 0x00, 0x00, 0x00, 0x6c, 0xa1, 0xff, 0xff, 0xb6, 0xea, 0xff, 0xff, 0x00,
  0x00, 0x00, 0x02, 0x01, 0x00, 0x00, 0x00, 0x24, 0x00, 0x00, 0x00, 0x18, 0x00,
  0x00, 0x00, 0x04, 0x00, 0x00, 0x00, 0xa8, 0xea, 0xff, 0xff, 0x01, 0x00, 0x00,
  0x00, 0x01, 0x00, 0x00, 0x00, 0x01, 0x00, 0x00, 0x00, 0x01, 0x00, 0x00, 0x00,
  0x68, 0x00, 0x00, 0x00, 0x03, 0x00, 0x00, 0x00, 0x67, 0x00, 0x00, 0x00, 0x28,
  0x00, 0x00, 0x00, 0x27, 0x00, 0x00, 0x00, 0x1c, 0xa2, 0xff, 0xff, 0x3c, 0x00,
  0x00, 0x00, 0x69, 0x00, 0x00, 0x00, 0x20, 0x00, 0x00, 0x00, 0x44, 0x00, 0x00,
  0x00, 0x04, 0x00, 0x00, 0x00, 0x04, 0x00, 0x00, 0x00, 0xff, 0xff, 0xff, 0xff,
  0x46, 0x00, 0x00, 0x00, 0x46, 0x00, 0x00, 0x00, 0x0c, 0x00, 0x00, 0x00, 0x0d,
  0x00, 0x00, 0x00, 0x64, 0x65, 0x70, 0x74, 0x68, 0x77, 0x69, 0x73, 0x65, 0x5f,
  0x32, 0x31, 0x32, 0x00, 0x00, 0x00, 0x04, 0x00, 0x00, 0x00, 0x01, 0x00, 0x00,
  0x00, 0x46, 0x00, 0x00, 0x00, 0x46, 0x00, 0x00, 0x00, 0x0c, 0x00, 0x00, 0x00,
  0x04, 0xa2, 0xff, 0xff, 0x4e, 0xeb, 0xff, 0xff, 0x00, 0x00, 0x00, 0x02, 0x01,
  0x00, 0x00, 0x00, 0x24, 0x00, 0x00, 0x00, 0x18, 0x00, 0x00, 0x00, 0x04, 0x00,
  0x00, 0x00, 0x40, 0xeb, 0xff, 0xff, 0x01, 0x00, 0x00, 0x00, 0x01, 0x00, 0x00,
  0x00, 0x01, 0x00, 0x00, 0x00, 0x01, 0x00, 0x00, 0x00, 0x67, 0x00, 0x00, 0x00,
  0x03, 0x00, 0x00, 0x00, 0x66, 0x00, 0x00, 0x00, 0x26, 0x00, 0x00, 0x00, 0x27,
  0x00, 0x00, 0x00, 0xb4, 0xa2, 0xff, 0xff, 0x3c, 0x00, 0x00, 0x00, 0x68, 0x00,
  0x00, 0x00, 0x20, 0x00, 0x00, 0x00, 0x44, 0x00, 0x00, 0x00, 0x04, 0x00, 0x00,
  0x00, 0x04, 0x00, 0x00, 0x00, 0xff, 0xff, 0xff, 0xff, 0x46, 0x00, 0x00, 0x00,
  0x46, 0x00, 0x00, 0x00, 0x0c, 0x00, 0x00, 0x00, 0x0d, 0x00, 0x00, 0x00, 0x64,
  0x65, 0x70, 0x74, 0x68, 0x77, 0x69, 0x73, 0x65, 0x5f, 0x32, 0x30, 0x31, 0x00,
  0x00, 0x00, 0x04, 0x00, 0x00, 0x00, 0x01, 0x00, 0x00, 0x00, 0x46, 0x00, 0x00,
  0x00, 0x46, 0x00, 0x00, 0x00, 0x0c, 0x00, 0x00, 0x00, 0x9c, 0xa2, 0xff, 0xff,
  0xe6, 0xeb, 0xff, 0xff, 0x00, 0x00, 0x00, 0x01, 0x02, 0x00, 0x00, 0x00, 0x24,
  0x00, 0x00, 0x00, 0x18, 0x00, 0x00, 0x00, 0x04, 0x00, 0x00, 0x00, 0x4c, 0xef,
  0xff, 0xff, 0x01, 0x00, 0x00, 0x00, 0x01, 0x00, 0x00, 0x00, 0x00, 0x00, 0x00,
  0x01, 0x01, 0x00, 0x00, 0x00, 0x66, 0x00, 0x00, 0x00, 0x03, 0x00, 0x00, 0x00,
  0x65, 0x00, 0x00, 0x00, 0x25, 0x00, 0x00, 0x00, 0x02, 0x00, 0x00, 0x00, 0x4c,
  0xa3, 0xff, 0xff, 0x60, 0x00, 0x00, 0x00, 0x67, 0x00, 0x00, 0x00, 0x20, 0x00,
  0x00, 0x00, 0x68, 0x00, 0x00, 0x00, 0x04, 0x00, 0x00, 0x00, 0x04, 0x00, 0x00,
  0x00, 0xff, 0xff, 0xff, 0xff, 0x46, 0x00, 0x00, 0x00, 0x46, 0x00, 0x00, 0x00,
  0x0c, 0x00, 0x00, 0x00, 0x31, 0x00, 0x00, 0x00, 0x52, 0x65, 0x6c, 0x75, 0x5f,
  0x33, 0x3b, 0x42, 0x69, 0x61, 0x73, 0x41, 0x64, 0x64, 0x5f, 0x39, 0x3b, 0x64,
  0x65, 0x70, 0x74, 0x68, 0x77, 0x69, 0x73, 0x65, 0x5f, 0x32, 0x31, 0x3b, 0x43,
  0x6f, 0x6e, 0x76, 0x32, 0x44, 0x5f, 0x39, 0x3b, 0x63, 0x6f, 0x6e, 0x76, 0x5f,
  0x34, 0x5f, 0x30, 0x5f, 0x62, 0x00, 0x00, 0x00, 0x04, 0x00, 0x00, 0x00, 0x01,
  0x00, 0x00, 0x00, 0x46, 0x00, 0x00, 0x00, 0x46, 0x00, 0x00, 0x00, 0x0c, 0x00,
  0x00, 0x00, 0x58, 0xa3, 0xff, 0xff, 0xa2, 0xec, 0xff, 0xff, 0x00, 0x00, 0x00,
  0x02, 0x01, 0x00, 0x00, 0x00, 0x24, 0x00, 0x00, 0x00, 0x18, 0x00, 0x00, 0x00,
  0x04, 0x00, 0x00, 0x00, 0x94, 0xec, 0xff, 0xff, 0x01, 0x00, 0x00, 0x00, 0x01,
  0x00, 0x00, 0x00, 0x01, 0x00, 0x00, 0x00, 0x01, 0x00, 0x00, 0x00, 0x65, 0x00,
  0x00, 0x00, 0x03, 0x00, 0x00, 0x00, 0x64, 0x00, 0x00, 0x00, 0x24, 0x00, 0x00,
  0x00, 0x2b, 0x00, 0x00, 0x00, 0x08, 0xa4, 0xff, 0xff, 0x3c, 0x00, 0x00, 0x00,
  0x66, 0x00, 0x00, 0x00, 0x20, 0x00, 0x00, 0x00, 0x44, 0x00, 0x00, 0x00, 0x04,
  0x00, 0x00, 0x00, 0x04, 0x00, 0x00, 0x00, 0xff, 0xff, 0xff, 0xff, 0x46, 0x00,
  0x00, 0x00, 0x46, 0x00, 0x00, 0x00, 0x06, 0x00, 0x00, 0x00, 0x0d, 0x00, 0x00,
  0x00, 0x64, 0x65, 0x70, 0x74, 0x68, 0x77, 0x69, 0x73, 0x65, 0x5f, 0x31, 0x39,
  0x31, 0x00, 0x00, 0x00, 0x04, 0x00, 0x00, 0x00, 0x01, 0x00, 0x00, 0x00, 0x46,
  0x00, 0x00, 0x00, 0x46, 0x00, 0x00, 0x00, 0x06, 0x00, 0x00, 0x00, 0xf0, 0xa3,
  0xff, 0xff, 0x3a, 0xed, 0xff, 0xff, 0x00, 0x00, 0x00, 0x02, 0x01, 0x00, 0x00,
  0x00, 0x24, 0x00, 0x00, 0x00, 0x18, 0x00, 0x00, 0x00, 0x04, 0x00, 0x00, 0x00,
  0x2c, 0xed, 0xff, 0xff, 0x01, 0x00, 0x00, 0x00, 0x01, 0x00, 0x00, 0x00, 0x01,
  0x00, 0x00, 0x00, 0x01, 0x00, 0x00, 0x00, 0x64, 0x00, 0x00, 0x00, 0x03, 0x00,
  0x00, 0x00, 0x63, 0x00, 0x00, 0x00, 0x23, 0x00, 0x00, 0x00, 0x2b, 0x00, 0x00,
  0x00, 0xa0, 0xa4, 0xff, 0xff, 0x3c, 0x00, 0x00, 0x00, 0x65, 0x00, 0x00, 0x00,
  0x20, 0x00, 0x00, 0x00, 0x44, 0x00, 0x00, 0x00, 0x04, 0x00, 0x00, 0x00, 0x04,
  0x00, 0x00, 0x00, 0xff, 0xff, 0xff, 0xff, 0x46, 0x00, 0x00, 0x00, 0x46, 0x00,
  0x00, 0x00, 0x06, 0x00, 0x00, 0x00, 0x0d, 0x00, 0x00, 0x00, 0x64, 0x65, 0x70,
  0x74, 0x68, 0x77, 0x69, 0x73, 0x65, 0x5f, 0x31, 0x38, 0x31, 0x00, 0x00, 0x00,
  0x04, 0x00, 0x00, 0x00, 0x01, 0x00, 0x00, 0x00, 0x46, 0x00, 0x00, 0x00, 0x46,
  0x00, 0x00, 0x00, 0x06, 0x00, 0x00, 0x00, 0x88, 0xa4, 0xff, 0xff, 0xd2, 0xed,
  0xff, 0xff, 0x00, 0x00, 0x00, 0x0b, 0x03, 0x00, 0x00, 0x00, 0x18, 0x00, 0x00,
  0x00, 0x0c, 0x00, 0x00, 0x00, 0x04, 0x00, 0x00, 0x00, 0xa4, 0xa4, 0xff, 0xff,
  0x01, 0x00, 0x00, 0x00, 0x63, 0x00, 0x00, 0x00, 0x02, 0x00, 0x00, 0x00, 0x5c,
  0x00, 0x00, 0x00, 0x62, 0x00, 0x00, 0x00, 0x28, 0xa5, 0xff, 0xff, 0x34, 0x00,
  0x00, 0x00, 0x64, 0x00, 0x00, 0x00, 0x20, 0x00, 0x00, 0x00, 0x3c, 0x00, 0x00,
  0x00, 0x04, 0x00, 0x00, 0x00, 0x04, 0x00, 0x00, 0x00, 0xff, 0xff, 0xff, 0xff,
  0x46, 0x00, 0x00, 0x00, 0x46, 0x00, 0x00, 0x00, 0x06, 0x00, 0x00, 0x00, 0x05,
  0x00, 0x00, 0x00, 0x41, 0x64, 0x64, 0x5f, 0x32, 0x00, 0x00, 0x00, 0x04, 0x00,
  0x00, 0x00, 0x01, 0x00, 0x00, 0x00, 0x46, 0x00, 0x00, 0x00, 0x46, 0x00, 0x00,
  0x00, 0x06, 0x00, 0x00, 0x00, 0x08, 0xa5, 0xff, 0xff, 0x52, 0xee, 0xff, 0xff,
  0x00, 0x00, 0x00, 0x01, 0x02, 0x00, 0x00, 0x00, 0x20, 0x00, 0x00, 0x00, 0x14,
  0x00, 0x00, 0x00, 0x04, 0x00, 0x00, 0x00, 0xb2, 0xef, 0xff, 0xff, 0x01, 0x00,
  0x00, 0x00, 0x01, 0x00, 0x00, 0x00, 0x01, 0x00, 0x00, 0x00, 0x62, 0x00, 0x00,
  0x00, 0x03, 0x00, 0x00, 0x00, 0x61, 0x00, 0x00, 0x00, 0x22, 0x00, 0x00, 0x00,
  0x41, 0x00, 0x00, 0x00, 0xb4, 0xa5, 0xff, 0xff, 0x58, 0x00, 0x00, 0x00, 0x63,
  0x00, 0x00, 0x00, 0x20, 0x00, 0x00, 0x00, 0x60, 0x00, 0x00, 0x00, 0x04, 0x00,
  0x00, 0x00, 0x04, 0x00, 0x00, 0x00, 0xff, 0xff, 0xff, 0xff, 0x46, 0x00, 0x00,
  0x00, 0x46, 0x00, 0x00, 0x00, 0x06, 0x00, 0x00, 0x00, 0x2b, 0x00, 0x00, 0x00,
  0x42, 0x69, 0x61, 0x73, 0x41, 0x64, 0x64, 0x5f, 0x38, 0x3b, 0x64, 0x65, 0x70,
  0x74, 0x68, 0x77, 0x69, 0x73, 0x65, 0x5f, 0x32, 0x33, 0x3b, 0x43, 0x6f, 0x6e,
  0x76, 0x32, 0x44, 0x5f, 0x38, 0x3b, 0x63, 0x6f, 0x6e, 0x76, 0x5f, 0x33, 0x5f,
  0x31, 0x5f, 0x62, 0x31, 0x00, 0x04, 0x00, 0x00, 0x00, 0x01, 0x00, 0x00, 0x00,
  0x46, 0x00, 0x00, 0x00, 0x46, 0x00, 0x00, 0x00, 0x06, 0x00, 0x00, 0x00, 0xb8,
  0xa5, 0xff, 0xff, 0x02, 0xef, 0xff, 0xff, 0x00, 0x00, 0x00, 0x02, 0x01, 0x00,
  0x00, 0x00, 0x24, 0x00, 0x00, 0x00, 0x18, 0x00, 0x00, 0x00, 0x04, 0x00, 0x00,
  0x00, 0xf4, 0xee, 0xff, 0xff, 0x01, 0x00, 0x00, 0x00, 0x01, 0x00, 0x00, 0x00,
  0x01, 0x00, 0x00, 0x00, 0x01, 0x00, 0x00, 0x00, 0x61, 0x00, 0x00, 0x00, 0x03,
  0x00, 0x00, 0x00, 0x60, 0x00, 0x00, 0x00, 0x21, 0x00, 0x00, 0x00, 0x20, 0x00,
  0x00, 0x00, 0x68, 0xa6, 0xff, 0xff, 0x3c, 0x00, 0x00, 0x00, 0x62, 0x00, 0x00,
  0x00, 0x20, 0x00, 0x00, 0x00, 0x44, 0x00, 0x00, 0x00, 0x04, 0x00, 0x00, 0x00,
  0x04, 0x00, 0x00, 0x00, 0xff, 0xff, 0xff, 0xff, 0x46, 0x00, 0x00, 0x00, 0x46,
  0x00, 0x00, 0x00, 0x08, 0x00, 0x00, 0x00, 0x0d, 0x00, 0x00, 0x00, 0x64, 0x65,
  0x70, 0x74, 0x68, 0x77, 0x69, 0x73, 0x65, 0x5f, 0x31, 0x37, 0x32, 0x00, 0x00,
  0x00, 0x04, 0x00, 0x00, 0x00, 0x01, 0x00, 0x00, 0x00, 0x46, 0x00, 0x00, 0x00,
  0x46, 0x00, 0x00, 0x00, 0x08, 0x00, 0x00, 0x00, 0x50, 0xa6, 0xff, 0xff, 0x9a,
  0xef, 0xff, 0xff, 0x00, 0x00, 0x00, 0x02, 0x01, 0x00, 0x00, 0x00, 0x24, 0x00,
  0x00, 0x00, 0x18, 0x00, 0x00, 0x00, 0x04, 0x00, 0x00, 0x00, 0x8c, 0xef, 0xff,
  0xff, 0x01, 0x00, 0x00, 0x00, 0x01, 0x00, 0x00, 0x00, 0x01, 0x00, 0x00, 0x00,
  0x01, 0x00, 0x00, 0x00, 0x60, 0x00, 0x00, 0x00, 0x03, 0x00, 0x00, 0x00, 0x5f,
  0x00, 0x00, 0x00, 0x1f, 0x00, 0x00, 0x00, 0x20, 0x00, 0x00, 0x00, 0x00, 0xa7,
  0xff, 0xff, 0x3c, 0x00, 0x00, 0x00, 0x61, 0x00, 0x00, 0x00, 0x20, 0x00, 0x00,
  0x00, 0x44, 0x00, 0x00, 0x00, 0x04, 0x00, 0x00, 0x00, 0x04, 0x00, 0x00, 0x00,
  0xff, 0xff, 0xff, 0xff, 0x46, 0x00, 0x00, 0x00, 0x46, 0x00, 0x00, 0x00, 0x08,
  0x00, 0x00, 0x00, 0x0d, 0x00, 0x00, 0x00, 0x64, 0x65, 0x70, 0x74, 0x68, 0x77,
  0x69, 0x73, 0x65, 0x5f, 0x31, 0x36, 0x31, 0x00, 0x00, 0x00, 0x04, 0x00, 0x00,
  0x00, 0x01, 0x00, 0x00, 0x00, 0x46, 0x00, 0x00, 0x00, 0x46, 0x00, 0x00, 0x00,
  0x08, 0x00, 0x00, 0x00, 0xe8, 0xa6, 0xff, 0xff, 0x32, 0xf0, 0xff, 0xff, 0x00,
  0x00, 0x00, 0x01, 0x02, 0x00, 0x00, 0x00, 0x24, 0x00, 0x00, 0x00, 0x18, 0x00,
  0x00, 0x00, 0x04, 0x00, 0x00, 0x00, 0x98, 0xf3, 0xff, 0xff, 0x01, 0x00, 0x00,
  0x00, 0x01, 0x00, 0x00, 0x00, 0x00, 0x00, 0x00, 0x01, 0x01, 0x00, 0x00, 0x00,
  0x5f, 0x00, 0x00, 0x00, 0x03, 0x00, 0x00, 0x00, 0x5e, 0x00, 0x00, 0x00, 0x1e,
  0x00, 0x00, 0x00, 0x03, 0x00, 0x00, 0x00, 0x98, 0xa7, 0xff, 0xff, 0x60, 0x00,
  0x00, 0x00, 0x60, 0x00, 0x00, 0x00, 0x20, 0x00, 0x00, 0x00, 0x68, 0x00, 0x00,
  0x00, 0x04, 0x00, 0x00, 0x00, 0x04, 0x00, 0x00, 0x00, 0xff, 0xff, 0xff, 0xff,
  0x46, 0x00, 0x00, 0x00, 0x46, 0x00, 0x00, 0x00, 0x08, 0x00, 0x00, 0x00, 0x31,
  0x00, 0x00, 0x00, 0x52, 0x65, 0x6c, 0x75, 0x5f, 0x32, 0x3b, 0x42, 0x69, 0x61,
  0x73, 0x41, 0x64, 0x64, 0x5f, 0x37, 0x3b, 0x64, 0x65, 0x70, 0x74, 0x68, 0x77,
  0x69, 0x73, 0x65, 0x5f, 0x31, 0x37, 0x3b, 0x43, 0x6f, 0x6e, 0x76, 0x32, 0x44,
  0x5f, 0x37, 0x3b, 0x63, 0x6f, 0x6e, 0x76, 0x5f, 0x33, 0x5f, 0x30, 0x5f, 0x62,
  0x00, 0x00, 0x00, 0x04, 0x00, 0x00, 0x00, 0x01, 0x00, 0x00, 0x00, 0x46, 0x00,
  0x00, 0x00, 0x46, 0x00, 0x00, 0x00, 0x08, 0x00, 0x00, 0x00, 0xa4, 0xa7, 0xff,
  0xff, 0xee, 0xf0, 0xff, 0xff, 0x00, 0x00, 0x00, 0x02, 0x01, 0x00, 0x00, 0x00,
  0x24, 0x00, 0x00, 0x00, 0x18, 0x00, 0x00, 0x00, 0x04, 0x00, 0x00, 0x00, 0xe0,
  0xf0, 0xff, 0xff, 0x01, 0x00, 0x00, 0x00, 0x01, 0x00, 0x00, 0x00, 0x01, 0x00,
  0x00, 0x00, 0x01, 0x00, 0x00, 0x00, 0x5e, 0x00, 0x00, 0x00, 0x03, 0x00, 0x00,
  0x00, 0x5d, 0x00, 0x00, 0x00, 0x1d, 0x00, 0x00, 0x00, 0x2b, 0x00, 0x00, 0x00,
  0x54, 0xa8, 0xff, 0xff, 0x3c, 0x00, 0x00, 0x00, 0x5f, 0x00, 0x00, 0x00, 0x20,
  0x00, 0x00, 0x00, 0x44, 0x00, 0x00, 0x00, 0x04, 0x00, 0x00, 0x00, 0x04, 0x00,
  0x00, 0x00, 0xff, 0xff, 0xff, 0xff, 0x46, 0x00, 0x00, 0x00, 0x46, 0x00, 0x00,
  0x00, 0x06, 0x00, 0x00, 0x00, 0x0d, 0x00, 0x00, 0x00, 0x64, 0x65, 0x70, 0x74,
  0x68, 0x77, 0x69, 0x73, 0x65, 0x5f, 0x31, 0x35, 0x31, 0x00, 0x00, 0x00, 0x04,
  0x00, 0x00, 0x00, 0x01, 0x00, 0x00, 0x00, 0x46, 0x00, 0x00, 0x00, 0x46, 0x00,
  0x00, 0x00, 0x06, 0x00, 0x00, 0x00, 0x3c, 0xa8, 0xff, 0xff, 0x86, 0xf1, 0xff,
  0xff, 0x00, 0x00, 0x00, 0x02, 0x01, 0x00, 0x00, 0x00, 0x24, 0x00, 0x00, 0x00,
  0x18, 0x00, 0x00, 0x00, 0x04, 0x00, 0x00, 0x00, 0x78, 0xf1, 0xff, 0xff, 0x01,
  0x00, 0x00, 0x00, 0x01, 0x00, 0x00, 0x00, 0x01, 0x00, 0x00, 0x00, 0x01, 0x00,
  0x00, 0x00, 0x5d, 0x00, 0x00, 0x00, 0x03, 0x00, 0x00, 0x00, 0x5c, 0x00, 0x00,
  0x00, 0x1c, 0x00, 0x00, 0x00, 0x2b, 0x00, 0x00, 0x00, 0xec, 0xa8, 0xff, 0xff,
  0x3c, 0x00, 0x00, 0x00, 0x5e, 0x00, 0x00, 0x00, 0x20, 0x00, 0x00, 0x00, 0x44,
  0x00, 0x00, 0x00, 0x04, 0x00, 0x00, 0x00, 0x04, 0x00, 0x00, 0x00, 0xff, 0xff,
  0xff, 0xff, 0x46, 0x00, 0x00, 0x00, 0x46, 0x00, 0x00, 0x00, 0x06, 0x00, 0x00,
  0x00, 0x0d, 0x00, 0x00, 0x00, 0x64, 0x65, 0x70, 0x74, 0x68, 0x77, 0x69, 0x73,
  0x65, 0x5f, 0x31, 0x34, 0x31, 0x00, 0x00, 0x00, 0x04, 0x00, 0x00, 0x00, 0x01,
  0x00, 0x00, 0x00, 0x46, 0x00, 0x00, 0x00, 0x46, 0x00, 0x00, 0x00, 0x06, 0x00,
  0x00, 0x00, 0xd4, 0xa8, 0xff, 0xff, 0x1e, 0xf2, 0xff, 0xff, 0x00, 0x00, 0x00,
  0x0b, 0x03, 0x00, 0x00, 0x00, 0x18, 0x00, 0x00, 0x00, 0x0c, 0x00, 0x00, 0x00,
  0x04, 0x00, 0x00, 0x00, 0xf0, 0xa8, 0xff, 0xff, 0x01, 0x00, 0x00, 0x00, 0x5c,
  0x00, 0x00, 0x00, 0x02, 0x00, 0x00, 0x00, 0x5b, 0x00, 0x00, 0x00, 0x58, 0x00,
  0x00, 0x00, 0x74, 0xa9, 0xff, 0xff, 0x34, 0x00, 0x00, 0x00, 0x5d, 0x00, 0x00,
  0x00, 0x20, 0x00, 0x00, 0x00, 0x3c, 0x00, 0x00, 0x00, 0x04, 0x00, 0x00, 0x00,
  0x04, 0x00, 0x00, 0x00, 0xff, 0xff, 0xff, 0xff, 0x46, 0x00, 0x00, 0x00, 0x46,
  0x00, 0x00, 0x00, 0x06, 0x00, 0x00, 0x00, 0x05, 0x00, 0x00, 0x00, 0x41, 0x64,
  0x64, 0x5f, 0x31, 0x00, 0x00, 0x00, 0x04, 0x00, 0x00, 0x00, 0x01, 0x00, 0x00,
  0x00, 0x46, 0x00, 0x00, 0x00, 0x46, 0x00, 0x00, 0x00, 0x06, 0x00, 0x00, 0x00,
  0x54, 0xa9, 0xff, 0xff, 0x9e, 0xf2, 0xff, 0xff, 0x00, 0x00, 0x00, 0x01, 0x02,
  0x00, 0x00, 0x00, 0x20, 0x00, 0x00, 0x00, 0x14, 0x00, 0x00, 0x00, 0x04, 0x00,
  0x00, 0x00, 0xfe, 0xf3, 0xff, 0xff, 0x01, 0x00, 0x00, 0x00, 0x01, 0x00, 0x00,
  0x00, 0x01, 0x00, 0x00, 0x00, 0x5b, 0x00, 0x00, 0x00, 0x03, 0x00, 0x00, 0x00,
  0x5a, 0x00, 0x00, 0x00, 0x1b, 0x00, 0x00, 0x00, 0x40, 0x00, 0x00, 0x00, 0x00,
  0xaa, 0xff, 0xff, 0x58, 0x00, 0x00, 0x00, 0x5c, 0x00, 0x00, 0x00, 0x20, 0x00,
  0x00, 0x00, 0x60, 0x00, 0x00, 0x00, 0x04, 0x00, 0x00, 0x00, 0x04, 0x00, 0x00,
  0x00, 0xff, 0xff, 0xff, 0xff, 0x46, 0x00, 0x00, 0x00, 0x46, 0x00, 0x00, 0x00,
  0x06, 0x00, 0x00, 0x00, 0x2b, 0x00, 0x00, 0x00, 0x42, 0x69, 0x61, 0x73, 0x41,
  0x64, 0x64, 0x5f, 0x36, 0x3b, 0x64, 0x65, 0x70, 0x74, 0x68, 0x77, 0x69, 0x73,
  0x65, 0x5f, 0x32, 0x33, 0x3b, 0x43, 0x6f, 0x6e, 0x76, 0x32, 0x44, 0x5f, 0x36,
  0x3b, 0x63, 0x6f, 0x6e, 0x76, 0x5f, 0x32, 0x5f, 0x31, 0x5f, 0x62, 0x31, 0x00,
  0x04, 0x00, 0x00, 0x00, 0x01, 0x00, 0x00, 0x00, 0x46, 0x00, 0x00, 0x00, 0x46,
  0x00, 0x00, 0x00, 0x06, 0x00, 0x00, 0x00, 0x04, 0xaa, 0xff, 0xff, 0x4e, 0xf3,
  0xff, 0xff, 0x00, 0x00, 0x00, 0x02, 0x01, 0x00, 0x00, 0x00, 0x24, 0x00, 0x00,
  0x00, 0x18, 0x00, 0x00, 0x00, 0x04, 0x00, 0x00, 0x00, 0x40, 0xf3, 0xff, 0xff,
  0x01, 0x00, 0x00, 0x00, 0x01, 0x00, 0x00, 0x00, 0x01, 0x00, 0x00, 0x00, 0x01,
  0x00, 0x00, 0x00, 0x5a, 0x00, 0x00, 0x00, 0x03, 0x00, 0x00, 0x00, 0x59, 0x00,
  0x00, 0x00, 0x1a, 0x00, 0x00, 0x00, 0x36, 0x00, 0x00, 0x00, 0xb4, 0xaa, 0xff,
  0xff, 0x3c, 0x00, 0x00, 0x00, 0x5b, 0x00, 0x00, 0x00, 0x20, 0x00, 0x00, 0x00,
  0x44, 0x00, 0x00, 0x00, 0x04, 0x00, 0x00, 0x00, 0x04, 0x00, 0x00, 0x00, 0xff,
  0xff, 0xff, 0xff, 0x46, 0x00, 0x00, 0x00, 0x46, 0x00, 0x00, 0x00, 0x09, 0x00,
  0x00, 0x00, 0x0d, 0x00, 0x00, 0x00, 0x64, 0x65, 0x70, 0x74, 0x68, 0x77, 0x69,
  0x73, 0x65, 0x5f, 0x31, 0x33, 0x31, 0x00, 0x00, 0x00, 0x04, 0x00, 0x00, 0x00,
  0x01, 0x00, 0x00, 0x00, 0x46, 0x00, 0x00, 0x00, 0x46, 0x00, 0x00, 0x00, 0x09,
  0x00, 0x00, 0x00, 0x9c, 0xaa, 0xff, 0xff, 0xe6, 0xf3, 0xff, 0xff, 0x00, 0x00,
  0x00, 0x02, 0x01, 0x00, 0x00, 0x00, 0x24, 0x00, 0x00, 0x00, 0x18, 0x00, 0x00,
  0x00, 0x04, 0x00, 0x00, 0x00, 0xd8, 0xf3, 0xff, 0xff, 0x01, 0x00, 0x00, 0x00,
  0x01, 0x00, 0x00, 0x00, 0x01, 0x00, 0x00, 0x00, 0x01, 0x00, 0x00, 0x00, 0x59,
  0x00, 0x00, 0x00, 0x03, 0x00, 0x00, 0x00, 0x52, 0x00, 0x00, 0x00, 0x19, 0x00,
  0x00, 0x00, 0x36, 0x00, 0x00, 0x00, 0x4c, 0xab, 0xff, 0xff, 0x3c, 0x00, 0x00,
  0x00, 0x5a, 0x00, 0x00, 0x00, 0x20, 0x00, 0x00, 0x00, 0x44, 0x00, 0x00, 0x00,
  0x04, 0x00, 0x00, 0x00, 0x04, 0x00, 0x00, 0x00, 0xff, 0xff, 0xff, 0xff, 0x46,
  0x00, 0x00, 0x00, 0x46, 0x00, 0x00, 0x00, 0x09, 0x00, 0x00, 0x00, 0x0d, 0x00,
  0x00, 0x00, 0x64, 0x65, 0x70, 0x74, 0x68, 0x77, 0x69, 0x73, 0x65, 0x5f, 0x31,
  0x32, 0x31, 0x00, 0x00, 0x00, 0x04, 0x00, 0x00, 0x00, 0x01, 0x00, 0x00, 0x00,
  0x46, 0x00, 0x00, 0x00, 0x46, 0x00, 0x00, 0x00, 0x09, 0x00, 0x00, 0x00, 0x34,
  0xab, 0xff, 0xff, 0x7e, 0xf4, 0xff, 0xff, 0x00, 0x00, 0x00, 0x01, 0x02, 0x00,
  0x00, 0x00, 0x20, 0x00, 0x00, 0x00, 0x14, 0x00, 0x00, 0x00, 0x04, 0x00, 0x00,
  0x00, 0xde, 0xf5, 0xff, 0xff, 0x01, 0x00, 0x00, 0x00, 0x01, 0x00, 0x00, 0x00,
  0x01, 0x00, 0x00, 0x00, 0x58, 0x00, 0x00, 0x00, 0x03, 0x00, 0x00, 0x00, 0x57,
  0x00, 0x00, 0x00, 0x18, 0x00, 0x00, 0x00, 0x40, 0x00, 0x00, 0x00, 0xe0, 0xab,
  0xff, 0xff, 0x58, 0x00, 0x00, 0x00, 0x59, 0x00, 0x00, 0x00, 0x20, 0x00, 0x00,
  0x00, 0x60, 0x00, 0x00, 0x00, 0x04, 0x00, 0x00, 0x00, 0x04, 0x00, 0x00, 0x00,
  0xff, 0xff, 0xff, 0xff, 0x46, 0x00, 0x00, 0x00, 0x46, 0x00, 0x00, 0x00, 0x06,
  0x00, 0x00, 0x00, 0x2a, 0x00, 0x00, 0x00, 0x42, 0x69, 0x61, 0x73, 0x41, 0x64,
  0x64, 0x5f, 0x35, 0x3b, 0x64, 0x65, 0x70, 0x74, 0x68, 0x77, 0x69, 0x73, 0x65,
  0x5f, 0x32, 0x33, 0x3b, 0x43, 0x6f, 0x6e, 0x76, 0x32, 0x44, 0x5f, 0x35, 0x3b,
  0x63, 0x6f, 0x6e, 0x76, 0x5f, 0x32, 0x5f, 0x31, 0x5f, 0x62, 0x00, 0x00, 0x04,
  0x00, 0x00, 0x00, 0x01, 0x00, 0x00, 0x00, 0x46, 0x00, 0x00, 0x00, 0x46, 0x00,
  0x00, 0x00, 0x06, 0x00, 0x00, 0x00, 0xe4, 0xab, 0xff, 0xff, 0x2e, 0xf5, 0xff,
  0xff, 0x00, 0x00, 0x00, 0x02, 0x01, 0x00, 0x00, 0x00, 0x24, 0x00, 0x00, 0x00,
  0x18, 0x00, 0x00, 0x00, 0x04, 0x00, 0x00, 0x00, 0x20, 0xf5, 0xff, 0xff, 0x01,
  0x00, 0x00, 0x00, 0x01, 0x00, 0x00, 0x00, 0x01, 0x00, 0x00, 0x00, 0x01, 0x00,
  0x00, 0x00, 0x57, 0x00, 0x00, 0x00, 0x03, 0x00, 0x00, 0x00, 0x56, 0x00, 0x00,
  0x00, 0x17, 0x00, 0x00, 0x00, 0x20, 0x00, 0x00, 0x00, 0x94, 0xac, 0xff, 0xff,
  0x3c, 0x00, 0x00, 0x00, 0x58, 0x00, 0x00, 0x00, 0x20, 0x00, 0x00, 0x00, 0x44,
  0x00, 0x00, 0x00, 0x04, 0x00, 0x00, 0x00, 0x04, 0x00, 0x00, 0x00, 0xff, 0xff,
  0xff, 0xff, 0x46, 0x00, 0x00, 0x00, 0x46, 0x00, 0x00, 0x00, 0x08, 0x00, 0x00,
  0x00, 0x0d, 0x00, 0x00, 0x00, 0x64, 0x65, 0x70, 0x74, 0x68, 0x77, 0x69, 0x73,
  0x65, 0x5f, 0x31, 0x31, 0x31, 0x00, 0x00, 0x00, 0x04, 0x00, 0x00, 0x00, 0x01,
  0x00, 0x00, 0x00, 0x46, 0x00, 0x00, 0x00, 0x46, 0x00, 0x00, 0x00, 0x08, 0x00,
  0x00, 0x00, 0x7c, 0xac, 0xff, 0xff, 0xc6, 0xf5, 0xff, 0xff, 0x00, 0x00, 0x00,
  0x02, 0x01, 0x00, 0x00, 0x00, 0x24, 0x00, 0x00, 0x00, 0x18, 0x00, 0x00, 0x00,
  0x04, 0x00, 0x00, 0x00, 0xb8, 0xf5, 0xff, 0xff, 0x01, 0x00, 0x00, 0x00, 0x01,
  0x00, 0x00, 0x00, 0x01, 0x00, 0x00, 0x00, 0x01, 0x00, 0x00, 0x00, 0x56, 0x00,
  0x00, 0x00, 0x03, 0x00, 0x00, 0x00, 0x55, 0x00, 0x00, 0x00, 0x16, 0x00, 0x00,
  0x00, 0x20, 0x00, 0x00, 0x00, 0x2c, 0xad, 0xff, 0xff, 0x3c, 0x00, 0x00, 0x00,
  0x57, 0x00, 0x00, 0x00, 0x20, 0x00, 0x00, 0x00, 0x44, 0x00, 0x00, 0x00, 0x04,
  0x00, 0x00, 0x00, 0x04, 0x00, 0x00, 0x00, 0xff, 0xff, 0xff, 0xff, 0x46, 0x00,
  0x00, 0x00, 0x46, 0x00, 0x00, 0x00, 0x08, 0x00, 0x00, 0x00, 0x0d, 0x00, 0x00,
  0x00, 0x64, 0x65, 0x70, 0x74, 0x68, 0x77, 0x69, 0x73, 0x65, 0x5f, 0x31, 0x30,
  0x31, 0x00, 0x00, 0x00, 0x04, 0x00, 0x00, 0x00, 0x01, 0x00, 0x00, 0x00, 0x46,
  0x00, 0x00, 0x00, 0x46, 0x00, 0x00, 0x00, 0x08, 0x00, 0x00, 0x00, 0x14, 0xad,
  0xff, 0xff, 0x5e, 0xf6, 0xff, 0xff, 0x00, 0x00, 0x00, 0x01, 0x02, 0x00, 0x00,
  0x00, 0x24, 0x00, 0x00, 0x00, 0x18, 0x00, 0x00, 0x00, 0x04, 0x00, 0x00, 0x00,
  0xc4, 0xf9, 0xff, 0xff, 0x01, 0x00, 0x00, 0x00, 0x01, 0x00, 0x00, 0x00, 0x00,
  0x00, 0x00, 0x01, 0x01, 0x00, 0x00, 0x00, 0x55, 0x00, 0x00, 0x00, 0x03, 0x00,
  0x00, 0x00, 0x54, 0x00, 0x00, 0x00, 0x15, 0x00, 0x00, 0x00, 0x04, 0x00, 0x00,
  0x00, 0xc4, 0xad, 0xff, 0xff, 0x60, 0x00, 0x00, 0x00, 0x56, 0x00, 0x00, 0x00,
  0x20, 0x00, 0x00, 0x00, 0x68, 0x00, 0x00, 0x00, 0x04, 0x00, 0x00, 0x00, 0x04,
  0x00, 0x00, 0x00, 0xff, 0xff, 0xff, 0xff, 0x46, 0x00, 0x00, 0x00, 0x46, 0x00,
  0x00, 0x00, 0x08, 0x00, 0x00, 0x00, 0x31, 0x00, 0x00, 0x00, 0x52, 0x65, 0x6c,
  0x75, 0x5f, 0x31, 0x3b, 0x42, 0x69, 0x61, 0x73, 0x41, 0x64, 0x64, 0x5f, 0x34,
  0x3b, 0x64, 0x65, 0x70, 0x74, 0x68, 0x77, 0x69, 0x73, 0x65, 0x5f, 0x31, 0x37,
  0x3b, 0x43, 0x6f, 0x6e, 0x76, 0x32, 0x44, 0x5f, 0x34, 0x3b, 0x63, 0x6f, 0x6e,
  0x76, 0x5f, 0x32, 0x5f, 0x30, 0x5f, 0x62, 0x00, 0x00, 0x00, 0x04, 0x00, 0x00,
  0x00, 0x01, 0x00, 0x00, 0x00, 0x46, 0x00, 0x00, 0x00, 0x46, 0x00, 0x00, 0x00,
  0x08, 0x00, 0x00, 0x00, 0xd0, 0xad, 0xff, 0xff, 0x1a, 0xf7, 0xff, 0xff, 0x00,
  0x00, 0x00, 0x02, 0x01, 0x00, 0x00, 0x00, 0x24, 0x00, 0x00, 0x00, 0x18, 0x00,
  0x00, 0x00, 0x04, 0x00, 0x00, 0x00, 0x0c, 0xf7, 0xff, 0xff, 0x01, 0x00, 0x00,
  0x00, 0x01, 0x00, 0x00, 0x00, 0x01, 0x00, 0x00, 0x00, 0x01, 0x00, 0x00, 0x00,
  0x54, 0x00, 0x00, 0x00, 0x03, 0x00, 0x00, 0x00, 0x53, 0x00, 0x00, 0x00, 0x14,
  0x00, 0x00, 0x00, 0x36, 0x00, 0x00, 0x00, 0x80, 0xae, 0xff, 0xff, 0x3c, 0x00,
  0x00, 0x00, 0x55, 0x00, 0x00, 0x00, 0x20, 0x00, 0x00, 0x00, 0x44, 0x00, 0x00,
  0x00, 0x04, 0x00, 0x00, 0x00, 0x04, 0x00, 0x00, 0x00, 0xff, 0xff, 0xff, 0xff,
  0x46, 0x00, 0x00, 0x00, 0x46, 0x00, 0x00, 0x00, 0x09, 0x00, 0x00, 0x00, 0x0c,
  0x00, 0x00, 0x00, 0x64, 0x65, 0x70, 0x74, 0x68, 0x77, 0x69, 0x73, 0x65, 0x5f,
  0x39, 0x31, 0x00, 0x00, 0x00, 0x00, 0x04, 0x00, 0x00, 0x00, 0x01, 0x00, 0x00,
  0x00, 0x46, 0x00, 0x00, 0x00, 0x46, 0x00, 0x00, 0x00, 0x09, 0x00, 0x00, 0x00,
  0x68, 0xae, 0xff, 0xff, 0xb2, 0xf7, 0xff, 0xff, 0x00, 0x00, 0x00, 0x02, 0x01,
  0x00, 0x00, 0x00, 0x24, 0x00, 0x00, 0x00, 0x18, 0x00, 0x00, 0x00, 0x04, 0x00,
  0x00, 0x00, 0xa4, 0xf7, 0xff, 0xff, 0x01, 0x00, 0x00, 0x00, 0x01, 0x00, 0x00,
  0x00, 0x01, 0x00, 0x00, 0x00, 0x01, 0x00, 0x00, 0x00, 0x53, 0x00, 0x00, 0x00,
  0x03, 0x00, 0x00, 0x00, 0x52, 0x00, 0x00, 0x00, 0x13, 0x00, 0x00, 0x00, 0x36,
  0x00, 0x00, 0x00, 0x18, 0xaf, 0xff, 0xff, 0x3c, 0x00, 0x00, 0x00, 0x54, 0x00,
  0x00, 0x00, 0x20, 0x00, 0x00, 0x00, 0x44, 0x00, 0x00, 0x00, 0x04, 0x00, 0x00,
  0x00, 0x04, 0x00, 0x00, 0x00, 0xff, 0xff, 0xff, 0xff, 0x46, 0x00, 0x00, 0x00,
  0x46, 0x00, 0x00, 0x00, 0x09, 0x00, 0x00, 0x00, 0x0c, 0x00, 0x00, 0x00, 0x64,
  0x65, 0x70, 0x74, 0x68, 0x77, 0x69, 0x73, 0x65, 0x5f, 0x38, 0x31, 0x00, 0x00,
  0x00, 0x00, 0x04, 0x00, 0x00, 0x00, 0x01, 0x00, 0x00, 0x00, 0x46, 0x00, 0x00,
  0x00, 0x46, 0x00, 0x00, 0x00, 0x09, 0x00, 0x00, 0x00, 0x00, 0xaf, 0xff, 0xff,
  0x4a, 0xf8, 0xff, 0xff, 0x00, 0x00, 0x00, 0x0b, 0x03, 0x00, 0x00, 0x00, 0x18,
  0x00, 0x00, 0x00, 0x0c, 0x00, 0x00, 0x00, 0x04, 0x00, 0x00, 0x00, 0x1c, 0xaf,
  0xff, 0xff, 0x01, 0x00, 0x00, 0x00, 0x52, 0x00, 0x00, 0x00, 0x02, 0x00, 0x00,
  0x00, 0x51, 0x00, 0x00, 0x00, 0x4e, 0x00, 0x00, 0x00, 0x00, 0x00, 0x0a, 0x00,
  0x08, 0x00, 0x00, 0x00, 0x00, 0x00, 0x04, 0x00, 0x0a, 0x00, 0x00, 0x00, 0x01,
  0x00, 0x00, 0x00, 0xb4, 0xaf, 0xff, 0xff, 0x30, 0x00, 0x00, 0x00, 0x53, 0x00,
  0x00, 0x00, 0x20, 0x00, 0x00, 0x00, 0x38, 0x00, 0x00, 0x00, 0x04, 0x00, 0x00,
  0x00, 0x04, 0x00, 0x00, 0x00, 0xff, 0xff, 0xff, 0xff, 0x46, 0x00, 0x00, 0x00,
  0x46, 0x00, 0x00, 0x00, 0x09, 0x00, 0x00, 0x00, 0x03, 0x00, 0x00, 0x00, 0x41,
  0x64, 0x64, 0x00, 0x04, 0x00, 0x00, 0x00, 0x01, 0x00, 0x00, 0x00, 0x46, 0x00,
  0x00, 0x00, 0x46, 0x00, 0x00, 0x00, 0x09, 0x00, 0x00, 0x00, 0x90, 0xaf, 0xff,
  0xff, 0xda, 0xf8, 0xff, 0xff, 0x00, 0x00, 0x00, 0x01, 0x02, 0x00, 0x00, 0x00,
  0x20, 0x00, 0x00, 0x00, 0x14, 0x00, 0x00, 0x00, 0x04, 0x00, 0x00, 0x00, 0x3a,
  0xfa, 0xff, 0xff, 0x01, 0x00, 0x00, 0x00, 0x01, 0x00, 0x00, 0x00, 0x01, 0x00,
  0x00, 0x00, 0x51, 0x00, 0x00, 0x00, 0x03, 0x00, 0x00, 0x00, 0x50, 0x00, 0x00,
  0x00, 0x12, 0x00, 0x00, 0x00, 0x3f, 0x00, 0x00, 0x00, 0x3c, 0xb0, 0xff, 0xff,
  0x58, 0x00, 0x00, 0x00, 0x52, 0x00, 0x00, 0x00, 0x20, 0x00, 0x00, 0x00, 0x60,
  0x00, 0x00, 0x00, 0x04, 0x00, 0x00, 0x00, 0x04, 0x00, 0x00, 0x00, 0xff, 0xff,
  0xff, 0xff, 0x46, 0x00, 0x00, 0x00, 0x46, 0x00, 0x00, 0x00, 0x09, 0x00, 0x00,
  0x00, 0x2b, 0x00, 0x00, 0x00, 0x42, 0x69, 0x61, 0x73, 0x41, 0x64, 0x64, 0x5f,
  0x33, 0x3b, 0x64, 0x65, 0x70, 0x74, 0x68, 0x77, 0x69, 0x73, 0x65, 0x5f, 0x32,
  0x39, 0x3b, 0x43, 0x6f, 0x6e, 0x76, 0x32, 0x44, 0x5f, 0x33, 0x3b, 0x63, 0x6f,
  0x6e, 0x76, 0x5f, 0x31, 0x5f, 0x31, 0x5f, 0x62, 0x31, 0x00, 0x04, 0x00, 0x00,
  0x00, 0x01, 0x00, 0x00, 0x00, 0x46, 0x00, 0x00, 0x00, 0x46, 0x00, 0x00, 0x00,
  0x09, 0x00, 0x00, 0x00, 0x40, 0xb0, 0xff, 0xff, 0x8a, 0xf9, 0xff, 0xff, 0x00,
  0x00, 0x00, 0x02, 0x01, 0x00, 0x00, 0x00, 0x24, 0x00, 0x00, 0x00, 0x18, 0x00,
  0x00, 0x00, 0x04, 0x00, 0x00, 0x00, 0x7c, 0xf9, 0xff, 0xff, 0x01, 0x00, 0x00,
  0x00, 0x01, 0x00, 0x00, 0x00, 0x01, 0x00, 0x00, 0x00, 0x01, 0x00, 0x00, 0x00,
  0x50, 0x00, 0x00, 0x00, 0x03, 0x00, 0x00, 0x00, 0x4f, 0x00, 0x00, 0x00, 0x11,
  0x00, 0x00, 0x00, 0x3a, 0x00, 0x00, 0x00, 0xf0, 0xb0, 0xff, 0xff, 0x3c, 0x00,
  0x00, 0x00, 0x51, 0x00, 0x00, 0x00, 0x20, 0x00, 0x00, 0x00, 0x44, 0x00, 0x00,
  0x00, 0x04, 0x00, 0x00, 0x00, 0x04, 0x00, 0x00, 0x00, 0xff, 0xff, 0xff, 0xff,
  0x46, 0x00, 0x00, 0x00, 0x46, 0x00, 0x00, 0x00, 0x0e, 0x00, 0x00, 0x00, 0x0c,
  0x00, 0x00, 0x00, 0x64, 0x65, 0x70, 0x74, 0x68, 0x77, 0x69, 0x73, 0x65, 0x5f,
  0x37, 0x31, 0x00, 0x00, 0x00, 0x00, 0x04, 0x00, 0x00, 0x00, 0x01, 0x00, 0x00,
  0x00, 0x46, 0x00, 0x00, 0x00, 0x46, 0x00, 0x00, 0x00, 0x0e, 0x00, 0x00, 0x00,
  0xd8, 0xb0, 0xff, 0xff, 0x22, 0xfa, 0xff, 0xff, 0x00, 0x00, 0x00, 0x02, 0x01,
  0x00, 0x00, 0x00, 0x24, 0x00, 0x00, 0x00, 0x18, 0x00, 0x00, 0x00, 0x04, 0x00,
  0x00, 0x00, 0x14, 0xfa, 0xff, 0xff, 0x01, 0x00, 0x00, 0x00, 0x01, 0x00, 0x00,
  0x00, 0x01, 0x00, 0x00, 0x00, 0x01, 0x00, 0x00, 0x00, 0x4f, 0x00, 0x00, 0x00,
  0x03, 0x00, 0x00, 0x00, 0x48, 0x00, 0x00, 0x00, 0x10, 0x00, 0x00, 0x00, 0x3a,
  0x00, 0x00, 0x00, 0x88, 0xb1, 0xff, 0xff, 0x3c, 0x00, 0x00, 0x00, 0x50, 0x00,
  0x00, 0x00, 0x20, 0x00, 0x00, 0x00, 0x44, 0x00, 0x00, 0x00, 0x04, 0x00, 0x00,
  0x00, 0x04, 0x00, 0x00, 0x00, 0xff, 0xff, 0xff, 0xff, 0x46, 0x00, 0x00, 0x00,
  0x46, 0x00, 0x00, 0x00, 0x0e, 0x00, 0x00, 0x00, 0x0c, 0x00, 0x00, 0x00, 0x64,
  0x65, 0x70, 0x74, 0x68, 0x77, 0x69, 0x73, 0x65, 0x5f, 0x36, 0x31, 0x00, 0x00,
  0x00, 0x00, 0x04, 0x00, 0x00, 0x00, 0x01, 0x00, 0x00, 0x00, 0x46, 0x00, 0x00,
  0x00, 0x46, 0x00, 0x00, 0x00, 0x0e, 0x00, 0x00, 0x00, 0x70, 0xb1, 0xff, 0xff,
  0xba, 0xfa, 0xff, 0xff, 0x00, 0x00, 0x00, 0x01, 0x02, 0x00, 0x00, 0x00, 0x20,
  0x00, 0x00, 0x00, 0x14, 0x00, 0x00, 0x00, 0x04, 0x00, 0x00, 0x00, 0x1a, 0xfc,
  0xff, 0xff, 0x01, 0x00, 0x00, 0x00, 0x01, 0x00, 0x00, 0x00, 0x01, 0x00, 0x00,
  0x00, 0x4e, 0x00, 0x00, 0x00, 0x03, 0x00, 0x00, 0x00, 0x4d, 0x00, 0x00, 0x00,
  0x0f, 0x00, 0x00, 0x00, 0x3f, 0x00, 0x00, 0x00, 0x1c, 0xb2, 0xff, 0xff, 0x58,
  0x00, 0x00, 0x00, 0x4f, 0x00, 0x00, 0x00, 0x20, 0x00, 0x00, 0x00, 0x60, 0x00,
  0x00, 0x00, 0x04, 0x00, 0x00, 0x00, 0x04, 0x00, 0x00, 0x00, 0xff, 0xff, 0xff,
  0xff, 0x46, 0x00, 0x00, 0x00, 0x46, 0x00, 0x00, 0x00, 0x09, 0x00, 0x00, 0x00,
  0x2a, 0x00, 0x00, 0x00, 0x42, 0x69, 0x61, 0x73, 0x41, 0x64, 0x64, 0x5f, 0x32,
  0x3b, 0x64, 0x65, 0x70, 0x74, 0x68, 0x77, 0x69, 0x73, 0x65, 0x5f, 0x32, 0x39,
  0x3b, 0x43, 0x6f, 0x6e, 0x76, 0x32, 0x44, 0x5f, 0x32, 0x3b, 0x63, 0x6f, 0x6e,
  0x76, 0x5f, 0x31, 0x5f, 0x31, 0x5f, 0x62, 0x00, 0x00, 0x04, 0x00, 0x00, 0x00,
  0x01, 0x00, 0x00, 0x00, 0x46, 0x00, 0x00, 0x00, 0x46, 0x00, 0x00, 0x00, 0x09,
  0x00, 0x00, 0x00, 0x20, 0xb2, 0xff, 0xff, 0x6a, 0xfb, 0xff, 0xff, 0x00, 0x00,
  0x00, 0x02, 0x01, 0x00, 0x00, 0x00, 0x24, 0x00, 0x00, 0x00, 0x18, 0x00, 0x00,
  0x00, 0x04, 0x00, 0x00, 0x00, 0x5c, 0xfb, 0xff, 0xff, 0x01, 0x00, 0x00, 0x00,
  0x01, 0x00, 0x00, 0x00, 0x01, 0x00, 0x00, 0x00, 0x01, 0x00, 0x00, 0x00, 0x4d,
  0x00, 0x00, 0x00, 0x03, 0x00, 0x00, 0x00, 0x4c, 0x00, 0x00, 0x00, 0x0e, 0x00,
  0x00, 0x00, 0x27, 0x00, 0x00, 0x00, 0xd0, 0xb2, 0xff, 0xff, 0x3c, 0x00, 0x00,
  0x00, 0x4e, 0x00, 0x00, 0x00, 0x20, 0x00, 0x00, 0x00, 0x44, 0x00, 0x00, 0x00,
  0x04, 0x00, 0x00, 0x00, 0x04, 0x00, 0x00, 0x00, 0xff, 0xff, 0xff, 0xff, 0x46,
  0x00, 0x00, 0x00, 0x46, 0x00, 0x00, 0x00, 0x0c, 0x00, 0x00, 0x00, 0x0c, 0x00,
  0x00, 0x00, 0x64, 0x65, 0x70, 0x74, 0x68, 0x77, 0x69, 0x73, 0x65, 0x5f, 0x35,
  0x31, 0x00, 0x00, 0x00, 0x00, 0x04, 0x00, 0x00, 0x00, 0x01, 0x00, 0x00, 0x00,
  0x46, 0x00, 0x00, 0x00, 0x46, 0x00, 0x00, 0x00, 0x0c, 0x00, 0x00, 0x00, 0xb8,
  0xb2, 0xff, 0xff, 0x02, 0xfc, 0xff, 0xff, 0x00, 0x00, 0x00, 0x02, 0x01, 0x00,
  0x00, 0x00, 0x24, 0x00, 0x00, 0x00, 0x18, 0x00, 0x00, 0x00, 0x04, 0x00, 0x00,
  0x00, 0xf4, 0xfb, 0xff, 0xff, 0x01, 0x00, 0x00, 0x00, 0x01, 0x00, 0x00, 0x00,
  0x01, 0x00, 0x00, 0x00, 0x01, 0x00, 0x00, 0x00, 0x4c, 0x00, 0x00, 0x00, 0x03,
  0x00, 0x00, 0x00, 0x4b, 0x00, 0x00, 0x00, 0x0d, 0x00, 0x00, 0x00, 0x27, 0x00,
  0x00, 0x00, 0x68, 0xb3, 0xff, 0xff, 0x3c, 0x00, 0x00, 0x00, 0x4d, 0x00, 0x00,
  0x00, 0x20, 0x00, 0x00, 0x00, 0x44, 0x00, 0x00, 0x00, 0x04, 0x00, 0x00, 0x00,
  0x04, 0x00, 0x00, 0x00, 0xff, 0xff, 0xff, 0xff, 0x46, 0x00, 0x00, 0x00, 0x46,
  0x00, 0x00, 0x00, 0x0c, 0x00, 0x00, 0x00, 0x0c, 0x00, 0x00, 0x00, 0x64, 0x65,
  0x70, 0x74, 0x68, 0x77, 0x69, 0x73, 0x65, 0x5f, 0x34, 0x31, 0x00, 0x00, 0x00,
  0x00, 0x04, 0x00, 0x00, 0x00, 0x01, 0x00, 0x00, 0x00, 0x46, 0x00, 0x00, 0x00,
  0x46, 0x00, 0x00, 0x00, 0x0c, 0x00, 0x00, 0x00, 0x50, 0xb3, 0xff, 0xff, 0x9a,
  0xfc, 0xff, 0xff, 0x00, 0x00, 0x00, 0x01, 0x02, 0x00, 0x00, 0x00, 0x30, 0x00,
  0x00, 0x00, 0x24, 0x00, 0x00, 0x00, 0x10, 0x00, 0x00, 0x00, 0x0c, 0x00, 0x10,
  0x00, 0x00, 0x00, 0x04, 0x00, 0x08, 0x00, 0x0f, 0x00, 0x0c, 0x00, 0x00, 0x00,
  0x01, 0x00, 0x00, 0x00, 0x01, 0x00, 0x00, 0x00, 0x00, 0x00, 0x00, 0x01, 0x01,
  0x00, 0x00, 0x00, 0x4b, 0x00, 0x00, 0x00, 0x03, 0x00, 0x00, 0x00, 0x4a, 0x00,
  0x00, 0x00, 0x0c, 0x00, 0x00, 0x00, 0x05, 0x00, 0x00, 0x00, 0x0c, 0xb4, 0xff,
  0xff, 0x5c, 0x00, 0x00, 0x00, 0x4c, 0x00, 0x00, 0x00, 0x20, 0x00, 0x00, 0x00,
  0x64, 0x00, 0x00, 0x00, 0x04, 0x00, 0x00, 0x00, 0x04, 0x00, 0x00, 0x00, 0xff,
  0xff, 0xff, 0xff, 0x46, 0x00, 0x00, 0x00, 0x46, 0x00, 0x00, 0x00, 0x0c, 0x00,
  0x00, 0x00, 0x2f, 0x00, 0x00, 0x00, 0x52, 0x65, 0x6c, 0x75, 0x3b, 0x42, 0x69,
  0x61, 0x73, 0x41, 0x64, 0x64, 0x5f, 0x31, 0x3b, 0x64, 0x65, 0x70, 0x74, 0x68,
  0x77, 0x69, 0x73, 0x65, 0x5f, 0x32, 0x31, 0x3b, 0x43, 0x6f, 0x6e, 0x76, 0x32,
  0x44, 0x5f, 0x31, 0x3b, 0x63, 0x6f, 0x6e, 0x76, 0x5f, 0x31, 0x5f, 0x30, 0x5f,
  0x62, 0x00, 0x04, 0x00, 0x00, 0x00, 0x01, 0x00, 0x00, 0x00, 0x46, 0x00, 0x00,
  0x00, 0x46, 0x00, 0x00, 0x00, 0x0c, 0x00, 0x00, 0x00, 0x14, 0xb4, 0xff, 0xff,
  0x5e, 0xfd, 0xff, 0xff, 0x00, 0x00, 0x00, 0x02, 0x01, 0x00, 0x00, 0x00, 0x24,
  0x00, 0x00, 0x00, 0x18, 0x00, 0x00, 0x00, 0x04, 0x00, 0x00, 0x00, 0x50, 0xfd,
  0xff, 0xff, 0x01, 0x00, 0x00, 0x00, 0x01, 0x00, 0x00, 0x00, 0x01, 0x00, 0x00,
  0x00, 0x01, 0x00, 0x00, 0x00, 0x4a, 0x00, 0x00, 0x00, 0x03, 0x00, 0x00, 0x00,
  0x49, 0x00, 0x00, 0x00, 0x0b, 0x00, 0x00, 0x00, 0x3a, 0x00, 0x00, 0x00, 0xc4,
  0xb4, 0xff, 0xff, 0x3c, 0x00, 0x00, 0x00, 0x4b, 0x00, 0x00, 0x00, 0x20, 0x00,
  0x00, 0x00, 0x44, 0x00, 0x00, 0x00, 0x04, 0x00, 0x00, 0x00, 0x04, 0x00, 0x00,
  0x00, 0xff, 0xff, 0xff, 0xff, 0x46, 0x00, 0x00, 0x00, 0x46, 0x00, 0x00, 0x00,
  0x0e, 0x00, 0x00, 0x00, 0x0c, 0x00, 0x00, 0x00, 0x64, 0x65, 0x70, 0x74, 0x68,
  0x77, 0x69, 0x73, 0x65, 0x5f, 0x33, 0x32, 0x00, 0x00, 0x00, 0x00, 0x04, 0x00,
  0x00, 0x00, 0x01, 0x00, 0x00, 0x00, 0x46, 0x00, 0x00, 0x00, 0x46, 0x00, 0x00,
  0x00, 0x0e, 0x00, 0x00, 0x00, 0xac, 0xb4, 0xff, 0xff, 0xf6, 0xfd, 0xff, 0xff,
  0x00, 0x00, 0x00, 0x02, 0x01, 0x00, 0x00, 0x00, 0x24, 0x00, 0x00, 0x00, 0x18,
  0x00, 0x00, 0x00, 0x04, 0x00, 0x00, 0x00, 0xe8, 0xfd, 0xff, 0xff, 0x01, 0x00,
  0x00, 0x00, 0x01, 0x00, 0x00, 0x00, 0x01, 0x00, 0x00, 0x00, 0x01, 0x00, 0x00,
  0x00, 0x49, 0x00, 0x00, 0x00, 0x03, 0x00, 0x00, 0x00, 0x48, 0x00, 0x00, 0x00,
  0x0a, 0x00, 0x00, 0x00, 0x3a, 0x00, 0x00, 0x00, 0x5c, 0xb5, 0xff, 0xff, 0x3c,
  0x00, 0x00, 0x00, 0x4a, 0x00, 0x00, 0x00, 0x20, 0x00, 0x00, 0x00, 0x44, 0x00,
  0x00, 0x00, 0x04, 0x00, 0x00, 0x00, 0x04, 0x00, 0x00, 0x00, 0xff, 0xff, 0xff,
  0xff, 0x46, 0x00, 0x00, 0x00, 0x46, 0x00, 0x00, 0x00, 0x0e, 0x00, 0x00, 0x00,
  0x0d, 0x00, 0x00, 0x00, 0x64, 0x65, 0x70, 0x74, 0x68, 0x77, 0x69, 0x73, 0x65,
  0x5f, 0x32, 0x31, 0x30, 0x00, 0x00, 0x00, 0x04, 0x00, 0x00, 0x00, 0x01, 0x00,
  0x00, 0x00, 0x46, 0x00, 0x00, 0x00, 0x46, 0x00, 0x00, 0x00, 0x0e, 0x00, 0x00,
  0x00, 0x58, 0xb6, 0xff, 0xff, 0x00, 0x00, 0x0e, 0x00, 0x1a, 0x00, 0x08, 0x00,
  0x0c, 0x00, 0x10, 0x00, 0x07, 0x00, 0x14, 0x00, 0x0e, 0x00, 0x00, 0x00, 0x00,
  0x00, 0x00, 0x01, 0x02, 0x00, 0x00, 0x00, 0x2c, 0x00, 0x00, 0x00, 0x20, 0x00,
  0x00, 0x00, 0x10, 0x00, 0x00, 0x00, 0x00, 0x00, 0x0a, 0x00, 0x0c, 0x00, 0x00,
  0x00, 0x04, 0x00, 0x08, 0x00, 0x0a, 0x00, 0x00, 0x00, 0x01, 0x00, 0x00, 0x00,
  0x01, 0x00, 0x00, 0x00, 0x01, 0x00, 0x00, 0x00, 0x48, 0x00, 0x00, 0x00, 0x03,
  0x00, 0x00, 0x00, 0x47, 0x00, 0x00, 0x00, 0x09, 0x00, 0x00, 0x00, 0x3e, 0x00,
  0x00, 0x00, 0xe0, 0xfd, 0xff, 0xff, 0x03, 0x00, 0x00, 0x00, 0x00, 0x00, 0x00,
  0x03, 0x01, 0x00, 0x00, 0x00, 0x1c, 0xb6, 0xff, 0xff, 0x54, 0x00, 0x00, 0x00,
  0x49, 0x00, 0x00, 0x00, 0x20, 0x00, 0x00, 0x00, 0x5c, 0x00, 0x00, 0x00, 0x04,
  0x00, 0x00, 0x00, 0x04, 0x00, 0x00, 0x00, 0xff, 0xff, 0xff, 0xff, 0x46, 0x00,
  0x00, 0x00, 0x46, 0x00, 0x00, 0x00, 0x0e, 0x00, 0x00, 0x00, 0x25, 0x00, 0x00,
  0x00, 0x42, 0x69, 0x61, 0x73, 0x41, 0x64, 0x64, 0x3b, 0x64, 0x65, 0x70, 0x74,
  0x68, 0x77, 0x69, 0x73, 0x65, 0x5f, 0x33, 0x31, 0x3b, 0x43, 0x6f, 0x6e, 0x76,
  0x32, 0x44, 0x3b, 0x63, 0x6f, 0x6e, 0x76, 0x5f, 0x30, 0x5f, 0x62, 0x31, 0x00,
  0x00, 0x00, 0x04, 0x00, 0x00, 0x00, 0x01, 0x00, 0x00, 0x00, 0x46, 0x00, 0x00,
  0x00, 0x46, 0x00, 0x00, 0x00, 0x0e, 0x00, 0x00, 0x00, 0x1c, 0xb6, 0xff, 0xff,
  0x66, 0xff, 0xff, 0xff, 0x00, 0x00, 0x00, 0x02, 0x01, 0x00, 0x00, 0x00, 0x24,
  0x00, 0x00, 0x00, 0x18, 0x00, 0x00, 0x00, 0x04, 0x00, 0x00, 0x00, 0x58, 0xff,
  0xff, 0xff, 0x01, 0x00, 0x00, 0x00, 0x01, 0x00, 0x00, 0x00, 0x01, 0x00, 0x00,
  0x00, 0x01, 0x00, 0x00, 0x00, 0x47, 0x00, 0x00, 0x00, 0x03, 0x00, 0x00, 0x00,
  0x46, 0x00, 0x00, 0x00, 0x08, 0x00, 0x00, 0x00, 0x3c, 0x00, 0x00, 0x00, 0xcc,
  0xb6, 0xff, 0xff, 0x3c, 0x00, 0x00, 0x00, 0x48, 0x00, 0x00, 0x00, 0x20, 0x00,
  0x00, 0x00, 0x44, 0x00, 0x00, 0x00, 0x04, 0x00, 0x00, 0x00, 0x04, 0x00, 0x00,
  0x00, 0xff, 0xff, 0xff, 0xff, 0x46, 0x00, 0x00, 0x00, 0x46, 0x00, 0x00, 0x00,
  0x01, 0x00, 0x00, 0x00, 0x0d, 0x00, 0x00, 0x00, 0x64, 0x65, 0x70, 0x74, 0x68,
  0x77, 0x69, 0x73, 0x65, 0x5f, 0x31, 0x31, 0x30, 0x00, 0x00, 0x00, 0x04, 0x00,
  0x00, 0x00, 0x01, 0x00, 0x00, 0x00, 0x46, 0x00, 0x00, 0x00, 0x46, 0x00, 0x00,
  0x00, 0x01, 0x00, 0x00, 0x00, 0xc8, 0xb7, 0xff, 0xff, 0x00, 0x00, 0x0e, 0x00,
  0x18, 0x00, 0x08, 0x00, 0x0c, 0x00, 0x10, 0x00, 0x07, 0x00, 0x14, 0x00, 0x0e,
  0x00, 0x00, 0x00, 0x00, 0x00, 0x00, 0x02, 0x01, 0x00, 0x00, 0x00, 0x30, 0x00,
  0x00, 0x00, 0x24, 0x00, 0x00, 0x00, 0x10, 0x00, 0x00, 0x00, 0x0c, 0x00, 0x10,
  0x00, 0x00, 0x00, 0x08, 0x00, 0x0c, 0x00, 0x04, 0x00, 0x0c, 0x00, 0x00, 0x00,
  0x01, 0x00, 0x00, 0x00, 0x01, 0x00, 0x00, 0x00, 0x01, 0x00, 0x00, 0x00, 0x01,
  0x00, 0x00, 0x00, 0x46, 0x00, 0x00, 0x00, 0x03, 0x00, 0x00, 0x00, 0x45, 0x00,
  0x00, 0x00, 0x07, 0x00, 0x00, 0x00, 0x3c, 0x00, 0x00, 0x00, 0x54, 0xff, 0xff,
  0xff, 0x04, 0x00, 0x00, 0x00, 0x00, 0x00, 0x00, 0x04, 0x01, 0x00, 0x00, 0x00,
  0x90, 0xb7, 0xff, 0xff, 0x38, 0x00, 0x00, 0x00, 0x47, 0x00, 0x00, 0x00, 0x20,
  0x00, 0x00, 0x00, 0x40, 0x00, 0x00, 0x00, 0x04, 0x00, 0x00, 0x00, 0x04, 0x00,
  0x00, 0x00, 0xff, 0xff, 0xff, 0xff, 0x46, 0x00, 0x00, 0x00, 0x46, 0x00, 0x00,
  0x00, 0x01, 0x00, 0x00, 0x00, 0x0a, 0x00, 0x00, 0x00, 0x64, 0x65, 0x70, 0x74,
  0x68, 0x77, 0x69, 0x73, 0x65, 0x31, 0x00, 0x00, 0x04, 0x00, 0x00, 0x00, 0x01,
  0x00, 0x00, 0x00, 0x46, 0x00, 0x00, 0x00, 0x46, 0x00, 0x00, 0x00, 0x01, 0x00,
  0x00, 0x00, 0x88, 0xb8, 0xff, 0xff, 0x00, 0x00, 0x0e, 0x00, 0x16, 0x00, 0x00,
  0x00, 0x08, 0x00, 0x0c, 0x00, 0x07, 0x00, 0x10, 0x00, 0x0e, 0x00, 0x00, 0x00,
  0x00, 0x00, 0x00, 0x4d, 0x24, 0x00, 0x00, 0x00, 0x18, 0x00, 0x00, 0x00, 0x0c,
  0x00, 0x00, 0x00, 0x00, 0x00, 0x06, 0x00, 0x08, 0x00, 0x07, 0x00, 0x06, 0x00,
  0x00, 0x00, 0x00, 0x00, 0x00, 0x01, 0x01, 0x00, 0x00, 0x00, 0x45, 0x00, 0x00,
  0x00, 0x02, 0x00, 0x00, 0x00, 0x00, 0x00, 0x00, 0x00, 0x06, 0x00, 0x00, 0x00,
  0x0c, 0x00, 0x10, 0x00, 0x0b, 0x00, 0x00, 0x00, 0x0c, 0x00, 0x04, 0x00, 0x0c,
  0x00, 0x00, 0x00, 0x64, 0x00, 0x00, 0x00, 0x00, 0x00, 0x00, 0x64, 0x01, 0x00,
  0x00, 0x00, 0x48, 0xb8, 0xff, 0xff, 0x38, 0x00, 0x00, 0x00, 0x46, 0x00, 0x00,
  0x00, 0x20, 0x00, 0x00, 0x00, 0x40, 0x00, 0x00, 0x00, 0x04, 0x00, 0x00, 0x00,
  0x04, 0x00, 0x00, 0x00, 0xff, 0xff, 0xff, 0xff, 0x46, 0x00, 0x00, 0x00, 0x46,
  0x00, 0x00, 0x00, 0x01, 0x00, 0x00, 0x00, 0x09, 0x00, 0x00, 0x00, 0x4d, 0x69,
  0x72, 0x72, 0x6f, 0x72, 0x50, 0x61, 0x64, 0x00, 0x00, 0x00, 0x04, 0x00, 0x00,
  0x00, 0x01, 0x00, 0x00, 0x00, 0x46, 0x00, 0x00, 0x00, 0x46, 0x00, 0x00, 0x00,
  0x01, 0x00, 0x00, 0x00, 0x2c, 0xb8, 0xff, 0xff, 0x3a, 0xb9, 0xff, 0xff, 0x04,
  0x00, 0x00, 0x00, 0x04, 0x00, 0x00, 0x00, 0x93, 0x4f, 0xd6, 0xb7, 0xea, 0xb8,
  0xff, 0xff, 0x34, 0x00, 0x00, 0x00, 0x45, 0x00, 0x00, 0x00, 0x08, 0x00, 0x00,
  0x00, 0x30, 0x00, 0x00, 0x00, 0x1d, 0x00, 0x00, 0x00, 0x42, 0x69, 0x61, 0x73,
  0x41, 0x64, 0x64, 0x5f, 0x31, 0x35, 0x3b, 0x43, 0x6f, 0x6e, 0x76, 0x32, 0x44,
  0x5f, 0x31, 0x35, 0x3b, 0x63, 0x6f, 0x6e, 0x76, 0x5f, 0x36, 0x5f, 0x62, 0x00,
  0x00, 0x00, 0x01, 0x00, 0x00, 0x00, 0x01, 0x00, 0x00, 0x00, 0x80, 0xb8, 0xff,
  0xff, 0x8e, 0xb9, 0xff, 0xff, 0x04, 0x00, 0x00, 0x00, 0x38, 0x00, 0x00, 0x00,
  0x7f, 0x70, 0xc7, 0x3a, 0x40, 0xee, 0xb7, 0xbc, 0xba, 0xf3, 0xfb, 0x3c, 0x1e,
  0x83, 0x84, 0x3c, 0x9e, 0x0c, 0x10, 0x3c, 0x4a, 0xc5, 0xe5, 0x3c, 0xc5, 0xe3,
  0xac, 0x3c, 0xf2, 0x53, 0xec, 0xbc, 0xfc, 0x66, 0xa9, 0xbc, 0x37, 0x82, 0x0e,
  0x3b, 0x86, 0xd8, 0x94, 0xb9, 0xb9, 0xae, 0x70, 0x3b, 0x01, 0xb3, 0xc8, 0x3b,
  0xb5, 0xc1, 0xf9, 0xbb, 0x72, 0xb9, 0xff, 0xff, 0x44, 0x00, 0x00, 0x00, 0x44,
  0x00, 0x00, 0x00, 0x08, 0x00, 0x00, 0x00, 0x40, 0x00, 0x00, 0x00, 0x2c, 0x00,
  0x00, 0x00, 0x42, 0x69, 0x61, 0x73, 0x41, 0x64, 0x64, 0x5f, 0x31, 0x34, 0x3b,
  0x64, 0x65, 0x70, 0x74, 0x68, 0x77, 0x69, 0x73, 0x65, 0x5f, 0x33, 0x31, 0x3b,
  0x43, 0x6f, 0x6e, 0x76, 0x32, 0x44, 0x5f, 0x31, 0x34, 0x3b, 0x63, 0x6f, 0x6e,
  0x76, 0x5f, 0x35, 0x5f, 0x31, 0x5f, 0x62, 0x00, 0x00, 0x00, 0x00, 0x01, 0x00,
  0x00, 0x00, 0x0e, 0x00, 0x00, 0x00, 0x18, 0xb9, 0xff, 0xff, 0x26, 0xba, 0xff,
  0xff, 0x04, 0x00, 0x00, 0x00, 0x24, 0x00, 0x00, 0x00, 0x35, 0x1c, 0x00, 0xbc,
  0x37, 0xb8, 0xbc, 0xba, 0x1f, 0x6e, 0x45, 0xbe, 0xe5, 0xe6, 0x78, 0x3e, 0xe0,
  0x11, 0x9f, 0xbe, 0x31, 0x76, 0xfd, 0x3e, 0x90, 0xf7, 0xa7, 0xbd, 0xe5, 0x45,
  0xfa, 0x3d, 0x19, 0xe2, 0x01, 0x3e, 0xf6, 0xb9, 0xff, 0xff, 0x44, 0x00, 0x00,
  0x00, 0x43, 0x00, 0x00, 0x00, 0x08, 0x00, 0x00, 0x00, 0x40, 0x00, 0x00, 0x00,
  0x2c, 0x00, 0x00, 0x00, 0x42, 0x69, 0x61, 0x73, 0x41, 0x64, 0x64, 0x5f, 0x31,
  0x31, 0x3b, 0x64, 0x65, 0x70, 0x74, 0x68, 0x77, 0x69, 0x73, 0x65, 0x5f, 0x32,
  0x39, 0x3b, 0x43, 0x6f, 0x6e, 0x76, 0x32, 0x44, 0x5f, 0x31, 0x31, 0x3b, 0x63,
  0x6f, 0x6e, 0x76, 0x5f, 0x34, 0x5f, 0x31, 0x5f, 0x62, 0x00, 0x00, 0x00, 0x00,
  0x01, 0x00, 0x00, 0x00, 0x09, 0x00, 0x00, 0x00, 0x9c, 0xb9, 0xff, 0xff, 0xaa,
  0xba, 0xff, 0xff, 0x04, 0x00, 0x00, 0x00, 0x18, 0x00, 0x00, 0x00, 0xc2, 0x11,
  0x04, 0x3f, 0xbc, 0xbd, 0x57, 0xbe, 0x95, 0xb1, 0xee, 0x3d, 0x55, 0xa6, 0x41,
  0x3e, 0x37, 0xab, 0xb6, 0xbe, 0x97, 0x62, 0x6e, 0xbf, 0x6e, 0xba, 0xff, 0xff,
  0x40, 0x00, 0x00, 0x00, 0x42, 0x00, 0x00, 0x00, 0x08, 0x00, 0x00, 0x00, 0x3c,
  0x00, 0x00, 0x00, 0x2a, 0x00, 0x00, 0x00, 0x42, 0x69, 0x61, 0x73, 0x41, 0x64,
  0x64, 0x5f, 0x38, 0x3b, 0x64, 0x65, 0x70, 0x74, 0x68, 0x77, 0x69, 0x73, 0x65,
  0x5f, 0x32, 0x33, 0x3b, 0x43, 0x6f, 0x6e, 0x76, 0x32, 0x44, 0x5f, 0x38, 0x3b,
  0x63, 0x6f, 0x6e, 0x76, 0x5f, 0x33, 0x5f, 0x31, 0x5f, 0x62, 0x00, 0x00, 0x01,
  0x00, 0x00, 0x00, 0x06, 0x00, 0x00, 0x00, 0x10, 0xba, 0xff, 0xff, 0x1e, 0xbb,
  0xff, 0xff, 0x04, 0x00, 0x00, 0x00, 0x18, 0x00, 0x00, 0x00, 0x1a, 0xd4, 0x67,
  0xbc, 0x5c, 0xe8, 0xab, 0xbd, 0x30, 0x46, 0x9b, 0x3f, 0xbd, 0x16, 0xdd, 0xbd,
  0xdd, 0xf5, 0x2b, 0xbd, 0x5f, 0x1d, 0x66, 0x3e, 0xe2, 0xba, 0xff, 0xff, 0x40,
  0x00, 0x00, 0x00, 0x41, 0x00, 0x00, 0x00, 0x08, 0x00, 0x00, 0x00, 0x3c, 0x00,
  0x00, 0x00, 0x2a, 0x00, 0x00, 0x00, 0x42, 0x69, 0x61, 0x73, 0x41, 0x64, 0x64,
  0x5f, 0x36, 0x3b, 0x64, 0x65, 0x70, 0x74, 0x68, 0x77, 0x69, 0x73, 0x65, 0x5f,
  0x32, 0x33, 0x3b, 0x43, 0x6f, 0x6e, 0x76, 0x32, 0x44, 0x5f, 0x36, 0x3b, 0x63,
  0x6f, 0x6e, 0x76, 0x5f, 0x32, 0x5f, 0x31, 0x5f, 0x62, 0x00, 0x00, 0x01, 0x00,
  0x00, 0x00, 0x06, 0x00, 0x00, 0x00, 0x84, 0xba, 0xff, 0xff, 0x92, 0xbb, 0xff,
  0xff, 0x04, 0x00, 0x00, 0x00, 0x24, 0x00, 0x00, 0x00, 0xc1, 0x71, 0x1c, 0x3f,
  0x1f, 0xdb, 0xd1, 0xbd, 0x51, 0x20, 0x34, 0xbd, 0x09, 0x66, 0xbe, 0x3e, 0x42,
  0x9c, 0x50, 0xbf, 0xb5, 0xf6, 0xad, 0xbe, 0x4e, 0x39, 0x01, 0xbe, 0xf5, 0x99,
  0xdd, 0xbd, 0x8e, 0x22, 0x57, 0xbe, 0x62, 0xbb, 0xff, 0xff, 0x40, 0x00, 0x00,
  0x00, 0x40, 0x00, 0x00, 0x00, 0x08, 0x00, 0x00, 0x00, 0x3c, 0x00, 0x00, 0x00,
  0x2a, 0x00, 0x00, 0x00, 0x42, 0x69, 0x61, 0x73, 0x41, 0x64, 0x64, 0x5f, 0x33,
  0x3b, 0x64, 0x65, 0x70, 0x74, 0x68, 0x77, 0x69, 0x73, 0x65, 0x5f, 0x32, 0x39,
  0x3b, 0x43, 0x6f, 0x6e, 0x76, 0x32, 0x44, 0x5f, 0x33, 0x3b, 0x63, 0x6f, 0x6e,
  0x76, 0x5f, 0x31, 0x5f, 0x31, 0x5f, 0x62, 0x00, 0x00, 0x01, 0x00, 0x00, 0x00,
  0x09, 0x00, 0x00, 0x00, 0x04, 0xbb, 0xff, 0xff, 0x12, 0xbc, 0xff, 0xff, 0x04,
  0x00, 0x00, 0x00, 0x38, 0x00, 0x00, 0x00, 0xaf, 0x31, 0x63, 0xbf, 0x39, 0x45,
  0x4b, 0xbf, 0xd2, 0x52, 0x2c, 0x40, 0x4b, 0x22, 0xb5, 0xbf, 0x36, 0xf5, 0xaa,
  0xbf, 0x4d, 0xf0, 0x28, 0xc0, 0x25, 0x38, 0x23, 0xc0, 0xba, 0x2a, 0xac, 0x3e,
  0x23, 0x6c, 0xc4, 0xbf, 0xa8, 0x61, 0x99, 0x3e, 0xda, 0x26, 0x84, 0x3f, 0xf7,
  0x01, 0xb5, 0x3d, 0xc6, 0x11, 0x4c, 0xbd, 0x2f, 0x1b, 0xeb, 0x3e, 0xf6, 0xbb,
  0xff, 0xff, 0x3c, 0x00, 0x00, 0x00, 0x3f, 0x00, 0x00, 0x00, 0x08, 0x00, 0x00,
  0x00, 0x38, 0x00, 0x00, 0x00, 0x24, 0x00, 0x00, 0x00, 0x42, 0x69, 0x61, 0x73,
  0x41, 0x64, 0x64, 0x3b, 0x64, 0x65, 0x70, 0x74, 0x68, 0x77, 0x69, 0x73, 0x65,
  0x5f, 0x33, 0x31, 0x3b, 0x43, 0x6f, 0x6e, 0x76, 0x32, 0x44, 0x3b, 0x63, 0x6f,
  0x6e, 0x76, 0x5f, 0x30, 0x5f, 0x62, 0x00, 0x00, 0x00, 0x00, 0x01, 0x00, 0x00,
  0x00, 0x0e, 0x00, 0x00, 0x00, 0x94, 0xbb, 0xff, 0xff, 0xa2, 0xbc, 0xff, 0xff,
  0x04, 0x00, 0x00, 0x00, 0x38, 0x00, 0x00, 0x00, 0x4c, 0x9a, 0xaa, 0x3d, 0xa9,
  0xba, 0x2d, 0xbd, 0xb3, 0x05, 0x0b, 0x3d, 0x2b, 0x53, 0x09, 0xbe, 0x51, 0x84,
  0xac, 0xbd, 0xdc, 0x47, 0x17, 0x3d, 0xcf, 0xf4, 0x91, 0x3d, 0x80, 0xd7, 0x3b,
  0xbd, 0x6f, 0xd1, 0x06, 0x3e, 0x56, 0xb3, 0x6e, 0x3d, 0xc6, 0x06, 0xcc, 0x3d,
  0x15, 0x15, 0x96, 0xbd, 0x28, 0xa0, 0xeb, 0xbc, 0x79, 0x47, 0x9d, 0x3e, 0x86,
  0xbc, 0xff, 0xff, 0x20, 0x00, 0x00, 0x00, 0x3e, 0x00, 0x00, 0x00, 0x08, 0x00,
  0x00, 0x00, 0x28, 0x00, 0x00, 0x00, 0x0a, 0x00, 0x00, 0x00, 0x43, 0x6f, 0x6e,
  0x76, 0x32, 0x44, 0x5f, 0x31, 0x35, 0x31, 0x00, 0x00, 0x04, 0x00, 0x00, 0x00,
  0x01, 0x00, 0x00, 0x00, 0x01, 0x00, 0x00, 0x00, 0x01, 0x00, 0x00, 0x00, 0x0e,
  0x00, 0x00, 0x00, 0x14, 0xbc, 0xff, 0xff, 0x22, 0xbd, 0xff, 0xff, 0x04, 0x00,
  0x00, 0x00, 0x04, 0x00, 0x00, 0x00, 0x00, 0x00, 0x00, 0x00, 0xd2, 0xbc, 0xff,
  0xff, 0x20, 0x00, 0x00, 0x00, 0x3d, 0x00, 0x00, 0x00, 0x08, 0x00, 0x00, 0x00,
  0x1c, 0x00, 0x00, 0x00, 0x09, 0x00, 0x00, 0x00, 0x43, 0x6f, 0x6e, 0x76, 0x32,
  0x44, 0x5f, 0x31, 0x35, 0x00, 0x00, 0x00, 0x01, 0x00, 0x00, 0x00, 0x01, 0x00,
  0x00, 0x00, 0x54, 0xbc, 0xff, 0xff, 0x62, 0xbd, 0xff, 0xff, 0x04, 0x00, 0x00,
  0x00, 0x88, 0x01, 0x00, 0x00, 0xfd, 0xc4, 0x04, 0xbd, 0x93, 0x46, 0xfe, 0x3c,
  0xa3, 0x12, 0x62, 0x3e, 0xd4, 0xc1, 0x0e, 0x3e, 0xff, 0x11, 0x1d, 0xbd, 0xc4,
  0x79, 0x02, 0xbd, 0x2e, 0x46, 0x72, 0xbe, 0x84, 0xc4, 0x11, 0x3d, 0x8f, 0x00,
  0x5d, 0xbc, 0x68, 0x21, 0x55, 0xbd, 0x3b, 0x2e, 0x1a, 0xbd, 0x45, 0xaf, 0x69,
  0x3d, 0x02, 0xb8, 0xfb, 0x3d, 0xc4, 0x0d, 0xf4, 0x3c, 0xde, 0x6d, 0x33, 0x3d,
  0x96, 0xa8, 0x43, 0xbd, 0x9e, 0x3e, 0x68, 0xbd, 0x8d, 0x74, 0x81, 0xbe, 0xd3,
  0x93, 0xbf, 0x3d, 0xb1, 0xb5, 0x96, 0xbd, 0x95, 0x55, 0x22, 0xba, 0xd3, 0xa2,
  0x29, 0xbe, 0xb3, 0x69, 0x1e, 0xbd, 0xee, 0xef, 0xfb, 0x3d, 0x1d, 0x31, 0x26,
  0xbd, 0x83, 0xd2, 0x07, 0x3e, 0xfb, 0x07, 0xde, 0xbd, 0xc2, 0xf3, 0xf4, 0xbc,
  0xa4, 0xc8, 0x34, 0x3e, 0xdc, 0x7d, 0x5e, 0x3d, 0xc1, 0x59, 0xd0, 0xbb, 0x2a,
  0xfc, 0x55, 0x3e, 0x23, 0x12, 0x07, 0xbe, 0x3a, 0x37, 0xaf, 0x3d, 0x5d, 0x0b,
  0xca, 0x3d, 0xef, 0xe4, 0x09, 0x3e, 0x49, 0x97, 0xdb, 0xbc, 0x3c, 0xe0, 0x0a,
  0xbe, 0x8a, 0x22, 0x93, 0x3d, 0xdf, 0x14, 0x3e, 0x3e, 0xfc, 0x05, 0xcd, 0x3d,
  0x31, 0xc1, 0xca, 0x3c, 0xec, 0x32, 0xad, 0xbe, 0x49, 0x2f, 0xb1, 0xbe, 0xe8,
  0xc5, 0xd9, 0xbd, 0xc7, 0x9d, 0xa6, 0xbd, 0x60, 0x1c, 0x17, 0x3e, 0x22, 0x36,
  0x8d, 0xbe, 0x47, 0xe1, 0x63, 0xbd, 0xdd, 0xd5, 0x5e, 0xbd, 0xa1, 0xb8, 0x82,
  0xbe, 0x25, 0x56, 0x8d, 0x3d, 0xca, 0x4f, 0xce, 0xb9, 0xa5, 0x0c, 0x91, 0xbe,
  0x27, 0xf1, 0x9a, 0xbe, 0xcc, 0xe5, 0x4d, 0x3e, 0xd6, 0x2e, 0x74, 0xbd, 0x60,
  0x6a, 0xeb, 0x3c, 0x15, 0x37, 0xfe, 0xbd, 0xec, 0xd4, 0x0c, 0x3e, 0x62, 0xe5,
  0xef, 0xbd, 0x17, 0x76, 0xc5, 0x3c, 0x0e, 0x8e, 0xf1, 0x3d, 0xfd, 0x32, 0xe4,
  0x3d, 0xa6, 0xa1, 0xd6, 0xbc, 0x5d, 0x5a, 0xc0, 0xbd, 0x66, 0x78, 0x48, 0xbe,
  0xfc, 0x5f, 0x4f, 0x3c, 0x6f, 0x48, 0x01, 0x3e, 0xa2, 0xa9, 0xf9, 0x3d, 0xfa,
  0xfc, 0x54, 0xbd, 0x3c, 0xec, 0xe1, 0x3d, 0xd2, 0xb1, 0xdc, 0x3d, 0xd7, 0xd2,
  0x01, 0xbe, 0xd0, 0x33, 0xbd, 0x3d, 0xaa, 0x75, 0x1b, 0xbe, 0xea, 0x00, 0x1f,
  0xbe, 0x3d, 0x6a, 0x6a, 0xbe, 0xda, 0x83, 0x94, 0x3d, 0x54, 0x9e, 0x99, 0x3e,
  0xd5, 0x17, 0x39, 0xbe, 0x18, 0x4f, 0x38, 0x3c, 0x20, 0xd4, 0xae, 0x3d, 0x12,
  0x16, 0xee, 0xbb, 0x24, 0xb3, 0xb8, 0x3c, 0xe6, 0xfb, 0x96, 0xbd, 0x69, 0x5b,
  0xc9, 0xbd, 0x1d, 0x7e, 0xeb, 0x3c, 0xf0, 0x9f, 0x30, 0xbd, 0xac, 0xaf, 0x04,
  0x3d, 0xad, 0x3a, 0x6f, 0x3e, 0xeb, 0xe4, 0xf6, 0x3d, 0xc7, 0x12, 0xfd, 0xbb,
  0xd8, 0xfe, 0x4d, 0xbe, 0x0c, 0xb6, 0x74, 0xbd, 0xf2, 0x49, 0xfc, 0xbc, 0x49,
  0x77, 0x3d, 0x3c, 0x6f, 0xa7, 0x2f, 0x3d, 0x96, 0xbe, 0xff, 0xff, 0x24, 0x00,
  0x00, 0x00, 0x3c, 0x00, 0x00, 0x00, 0x08, 0x00, 0x00, 0x00, 0x2c, 0x00, 0x00,
  0x00, 0x0d, 0x00, 0x00, 0x00, 0x64, 0x65, 0x70, 0x74, 0x68, 0x77, 0x69, 0x73,
  0x65, 0x5f, 0x33, 0x31, 0x31, 0x00, 0x00, 0x00, 0x04, 0x00, 0x00, 0x00, 0x01,
  0x00, 0x00, 0x00, 0x01, 0x00, 0x00, 0x00, 0x07, 0x00, 0x00, 0x00, 0x0e, 0x00,
  0x00, 0x00, 0x28, 0xbe, 0xff, 0xff, 0x36, 0xbf, 0xff, 0xff, 0x04, 0x00, 0x00,
  0x00, 0x38, 0x00, 0x00, 0x00, 0x00, 0x00, 0x00, 0x00, 0x00, 0x00, 0x00, 0x00,
  0x00, 0x00, 0x00, 0x00, 0x00, 0x00, 0x00, 0x00, 0x00, 0x00, 0x00, 0x00, 0x00,
  0x00, 0x00, 0x00, 0x00, 0x00, 0x00, 0x00, 0x00, 0x00, 0x00, 0x00, 0x00, 0x00,
  0x00, 0x00, 0x00, 0x00, 0x00, 0x00, 0x00, 0x00, 0x00, 0x00, 0x00, 0x00, 0x00,
  0x00, 0x00, 0x00, 0x00, 0x00, 0x00, 0x00, 0x00, 0x00, 0x1a, 0xbf, 0xff, 0xff,
  0x24, 0x00, 0x00, 0x00, 0x3b, 0x00, 0x00, 0x00, 0x08, 0x00, 0x00, 0x00, 0x20,
  0x00, 0x00, 0x00, 0x0c, 0x00, 0x00, 0x00, 0x64, 0x65, 0x70, 0x74, 0x68, 0x77,
  0x69, 0x73, 0x65, 0x5f, 0x33, 0x31, 0x00, 0x00, 0x00, 0x00, 0x01, 0x00, 0x00,
  0x00, 0x0e, 0x00, 0x00, 0x00, 0xa0, 0xbe, 0xff, 0xff, 0xae, 0xbf, 0xff, 0xff,
  0x04, 0x00, 0x00, 0x00, 0x88, 0x01, 0x00, 0x00, 0x03, 0x75, 0x84, 0xbe, 0x2d,
  0xba, 0x3c, 0xbe, 0x21, 0x3c, 0x23, 0x3d, 0x2c, 0x55, 0xf4, 0x3c, 0x1f, 0x8b,
  0x8e, 0xbd, 0xf8, 0xeb, 0x8b, 0xbd, 0xf7, 0x79, 0xfc, 0x3c, 0xcc, 0x01, 0x86,
  0x3d, 0x0f, 0x06, 0x52, 0x3e, 0x7b, 0x0d, 0x3c, 0x3c, 0x4b, 0x3e, 0x2f, 0xbe,
  0x4c, 0x90, 0x2d, 0x3e, 0xf6, 0x61, 0x52, 0xbd, 0xec, 0x9d, 0xf2, 0xbb, 0x60,
  0x62, 0xb6, 0x3d, 0xf7, 0xbe, 0x30, 0x3d, 0x8d, 0x53, 0x8e, 0x3d, 0xf9, 0x5f,
  0x36, 0x3d, 0x42, 0x71, 0x0b, 0xbc, 0xcf, 0xba, 0x51, 0x3d, 0x24, 0xe2, 0x41,
  0x3d, 0x5f, 0xfe, 0x81, 0xbd, 0x63, 0x77, 0x0a, 0xbe, 0x67, 0x39, 0x40, 0xbc,
  0x43, 0xf1, 0x0a, 0x3e, 0x5e, 0x99, 0xdb, 0xbd, 0x0e, 0xd9, 0x82, 0x3e, 0xb0,
  0xce, 0x8f, 0x3d, 0xe4, 0x27, 0x67, 0xbd, 0x47, 0x2d, 0x86, 0xbc, 0xaa, 0xf9,
  0x47, 0xbe, 0xde, 0x02, 0x8a, 0x3e, 0x1e, 0x78, 0x13, 0xbe, 0x7c, 0x96, 0x59,
  0x3e, 0x83, 0x7f, 0x1b, 0xbe, 0x54, 0x52, 0x8d, 0x3e, 0x6b, 0x4f, 0xec, 0x3c,
  0x0c, 0x30, 0x87, 0xbe, 0xc9, 0x5a, 0xb5, 0xbd, 0xa8, 0x2f, 0x0d, 0xbe, 0x50,
  0x43, 0x8b, 0xbe, 0x99, 0xaf, 0xbb, 0xbd, 0x94, 0xe5, 0xa7, 0x3c, 0xa6, 0x04,
  0xda, 0xbd, 0x68, 0xa9, 0xd3, 0xbd, 0x1f, 0x21, 0x05, 0x3e, 0x3f, 0x69, 0x2c,
  0xbe, 0xf1, 0xd3, 0x03, 0xbe, 0x05, 0x1e, 0xbe, 0xbe, 0x9a, 0x63, 0x26, 0xbd,
  0x30, 0x68, 0x95, 0xbd, 0x4c, 0xe5, 0xfa, 0xbd, 0x4d, 0x8a, 0xc8, 0x3d, 0x3a,
  0xd9, 0x36, 0xbd, 0xc8, 0x53, 0xc3, 0x3d, 0x25, 0x57, 0xa3, 0x3d, 0x00, 0x64,
  0xa6, 0xbd, 0x4e, 0xa2, 0x80, 0x3e, 0x14, 0x2c, 0x8f, 0x3e, 0x51, 0x3d, 0x51,
  0xbe, 0x66, 0xe8, 0x0b, 0xbe, 0xf7, 0xbd, 0x3d, 0xbe, 0x3b, 0x57, 0xb7, 0xbd,
  0x81, 0xbd, 0xb3, 0xbe, 0xad, 0x5e, 0x29, 0x3d, 0xde, 0x02, 0x27, 0xbd, 0x6a,
  0x4f, 0xba, 0xbd, 0x73, 0x52, 0x3f, 0x3e, 0xdb, 0xfa, 0x2a, 0xbd, 0xb3, 0x3f,
  0x25, 0xbd, 0x55, 0x86, 0x21, 0xbc, 0x7f, 0xb8, 0x9b, 0xbd, 0x03, 0xa7, 0x8e,
  0xbd, 0xba, 0x48, 0x22, 0x3d, 0xab, 0xad, 0x01, 0x3e, 0x2e, 0x43, 0x3c, 0x3e,
  0xd2, 0x93, 0x7b, 0x3d, 0xa9, 0x1e, 0x86, 0x3d, 0x67, 0x1e, 0x8e, 0x3d, 0xd5,
  0x51, 0xa2, 0x3d, 0xf6, 0x3f, 0x31, 0x3d, 0x0a, 0xd2, 0xba, 0x3d, 0x61, 0xd2,
  0x7f, 0xbd, 0x33, 0x48, 0x4e, 0x3d, 0x72, 0x88, 0x8e, 0x3e, 0xa9, 0xd7, 0x77,
  0x3d, 0x29, 0xc7, 0x0b, 0x3d, 0xef, 0x1f, 0xd3, 0xbc, 0xcc, 0xa7, 0x1d, 0xbe,
  0x22, 0xc4, 0x83, 0xbd, 0x91, 0xe2, 0xa3, 0xbc, 0x87, 0x8d, 0xa5, 0x3b, 0x5e,
  0x42, 0x01, 0xbe, 0xf6, 0xf4, 0xc0, 0xbc, 0xe6, 0x0a, 0x81, 0x3d, 0x7d, 0x62,
  0x20, 0xbe, 0xee, 0x98, 0xb4, 0xbd, 0x18, 0xab, 0x4d, 0xbd, 0xe2, 0xc0, 0xff,
  0xff, 0x24, 0x00, 0x00, 0x00, 0x3a, 0x00, 0x00, 0x00, 0x08, 0x00, 0x00, 0x00,
  0x2c, 0x00, 0x00, 0x00, 0x0c, 0x00, 0x00, 0x00, 0x64, 0x65, 0x70, 0x74, 0x68,
  0x77, 0x69, 0x73, 0x65, 0x5f, 0x33, 0x30, 0x00, 0x00, 0x00, 0x00, 0x04, 0x00,
  0x00, 0x00, 0x01, 0x00, 0x00, 0x00, 0x07, 0x00, 0x00, 0x00, 0x01, 0x00, 0x00,
  0x00, 0x0e, 0x00, 0x00, 0x00, 0x74, 0xc0, 0xff, 0xff, 0x82, 0xc1, 0xff, 0xff,
  0x04, 0x00, 0x00, 0x00, 0xf8, 0x01, 0x00, 0x00, 0x84, 0xac, 0x3b, 0xbf, 0x0b,
  0x38, 0x92, 0x3e, 0xa8, 0x2b, 0x97, 0x3c, 0x3b, 0xe7, 0x52, 0xbe, 0xcf, 0xd7,
  0x18, 0x3e, 0x3e, 0x7b, 0xe8, 0xbe, 0xb3, 0xb4, 0x8f, 0x3e, 0x8c, 0x35, 0x24,
  0x3e, 0x03, 0xfc, 0x94, 0xbd, 0x06, 0x3c, 0x05, 0xbf, 0xac, 0xa8, 0x1f, 0xbe,
  0x52, 0x37, 0x7c, 0xbe, 0xf4, 0x9a, 0x07, 0xbd, 0x00, 0x1e, 0x08, 0xbe, 0xee,
  0xa4, 0x58, 0x3e, 0x42, 0x42, 0x03, 0x3e, 0x74, 0xd4, 0xff, 0xbe, 0x27, 0xa1,
  0xb5, 0xbd, 0x78, 0x34, 0x9b, 0xbf, 0xf3, 0xd4, 0x7c, 0x3d, 0x91, 0x80, 0xdf,
  0xba, 0x41, 0x09, 0xec, 0x3c, 0xaa, 0xcc, 0xd9, 0x3f, 0x9a, 0xdf, 0x13, 0x3e,
  0x05, 0xe0, 0x8c, 0x3d, 0xea, 0xcc, 0xc8, 0xbe, 0x9f, 0x4b, 0x2b, 0xbf, 0x4a,
  0x55, 0xf0, 0x3e, 0xf0, 0x9d, 0x56, 0xbe, 0x94, 0xd4, 0xac, 0xbb, 0xfc, 0x92,
  0x70, 0xbd, 0x6d, 0x67, 0x54, 0xbe, 0xfb, 0x05, 0x10, 0x3e, 0x1a, 0x3d, 0x41,
  0x3e, 0xee, 0xeb, 0x8c, 0x3f, 0xab, 0xf1, 0x38, 0x3d, 0x19, 0x08, 0x1b, 0x3c,
  0x83, 0xdc, 0x57, 0xbe, 0xfc, 0xc6, 0x6c, 0x3e, 0x47, 0x17, 0x96, 0xbf, 0x1c,
  0xf7, 0x4e, 0x3e, 0xfa, 0xf9, 0x9a, 0xbe, 0x78, 0x72, 0xad, 0x3d, 0xcb, 0x1c,
  0xdf, 0x3e, 0xf2, 0x26, 0x70, 0x3e, 0xbc, 0x83, 0x72, 0xbe, 0x45, 0xa1, 0x3a,
  0x3f, 0x23, 0x74, 0x45, 0xbe, 0xae, 0x9a, 0xb8, 0xbd, 0xfb, 0xe5, 0xa1, 0x3e,
  0x7d, 0xed, 0xe9, 0x3e, 0xb1, 0x26, 0xd0, 0x3d, 0xdf, 0x4e, 0x76, 0x3e, 0x3c,
  0xdc, 0x00, 0xbf, 0x36, 0xfd, 0xaa, 0x3e, 0xaf, 0xad, 0x75, 0x3f, 0x1a, 0x69,
  0xf2, 0xbd, 0xcf, 0x56, 0xc8, 0xbb, 0x31, 0x29, 0xfe, 0x3d, 0xd4, 0x4d, 0x1d,
  0xbe, 0x21, 0x66, 0x0f, 0x3d, 0x0f, 0xd1, 0x11, 0xbd, 0x0f, 0x42, 0x5f, 0xbe,
  0x70, 0x7b, 0x3a, 0xbf, 0x2a, 0x3d, 0x9f, 0x3f, 0xa3, 0x72, 0x4f, 0xbf, 0x9d,
  0x2d, 0xc9, 0x3d, 0x30, 0x82, 0xe9, 0x3f, 0x5f, 0x15, 0xa1, 0xbd, 0xd8, 0x4a,
  0x91, 0x3d, 0xc2, 0x46, 0xa9, 0x3e, 0x03, 0xb3, 0xa9, 0xbf, 0x26, 0x8c, 0x0e,
  0x3c, 0x01, 0x81, 0x4e, 0x3e, 0x8d, 0xf8, 0x6b, 0x3e, 0x9a, 0xa9, 0x3e, 0x3e,
  0x0f, 0x31, 0xb0, 0x3c, 0xc7, 0x1b, 0x28, 0xbe, 0x09, 0xdd, 0x99, 0xbe, 0x8a,
  0x2f, 0x79, 0x3e, 0x42, 0xdb, 0x45, 0xbd, 0xfa, 0x49, 0x20, 0xbe, 0x96, 0xf4,
  0x01, 0xbf, 0x40, 0xf2, 0x1f, 0xbe, 0x9e, 0x9c, 0x74, 0xbe, 0x3f, 0x7e, 0x88,
  0xbf, 0x62, 0xcc, 0x92, 0x3e, 0x70, 0xdc, 0xa7, 0x3e, 0x9a, 0xc2, 0xc7, 0xbe,
  0x33, 0xb4, 0x14, 0xbf, 0x8a, 0x73, 0x71, 0x3d, 0x20, 0x18, 0xe8, 0xbe, 0xde,
  0xf1, 0x8f, 0xbe, 0x9d, 0x8a, 0x52, 0x3d, 0x3d, 0x34, 0x20, 0xbf, 0x10, 0xd5,
  0xaf, 0xbe, 0x7f, 0x58, 0xcb, 0x3e, 0xa0, 0x3c, 0x6e, 0xbe, 0xf1, 0xc6, 0x3a,
  0x3e, 0xc6, 0x59, 0xb3, 0x3e, 0xf3, 0xd0, 0x11, 0xbf, 0xfb, 0xea, 0x2d, 0x3e,
  0xfa, 0x75, 0x11, 0x3e, 0x81, 0x94, 0xaa, 0xbe, 0x27, 0x73, 0x80, 0x3e, 0x26,
  0x87, 0xc3, 0x3d, 0x69, 0x5e, 0x1f, 0xbf, 0xd9, 0xf7, 0x82, 0x3c, 0xfa, 0x82,
  0x74, 0x3e, 0x1e, 0x7d, 0xba, 0xbe, 0x00, 0x0d, 0x04, 0xc0, 0x33, 0xa1, 0x83,
  0x3e, 0x87, 0xb5, 0x2d, 0x3f, 0xb3, 0x5b, 0x76, 0xbe, 0xf1, 0x75, 0x09, 0xbf,
  0x9f, 0xbb, 0x29, 0x3d, 0xbc, 0x6e, 0x81, 0x3e, 0x87, 0x26, 0x9f, 0xbd, 0xb1,
  0xa2, 0x9f, 0xbd, 0x71, 0x35, 0x18, 0x3f, 0xad, 0x14, 0x2f, 0x3e, 0x09, 0x78,
  0xbc, 0xbe, 0x45, 0xff, 0x60, 0x3e, 0xc1, 0x44, 0x91, 0x3e, 0x7e, 0x5c, 0xe1,
  0xbd, 0x07, 0x93, 0x45, 0xbe, 0x26, 0xc3, 0xff, 0xff, 0x20, 0x00, 0x00, 0x00,
  0x39, 0x00, 0x00, 0x00, 0x08, 0x00, 0x00, 0x00, 0x28, 0x00, 0x00, 0x00, 0x09,
  0x00, 0x00, 0x00, 0x43, 0x6f, 0x6e, 0x76, 0x32, 0x44, 0x5f, 0x31, 0x34, 0x00,
  0x00, 0x00, 0x04, 0x00, 0x00, 0x00, 0x0e, 0x00, 0x00, 0x00, 0x01, 0x00, 0x00,
  0x00, 0x01, 0x00, 0x00, 0x00, 0x09, 0x00, 0x00, 0x00, 0xb4, 0xc2, 0xff, 0xff,
  0xc2, 0xc3, 0xff, 0xff, 0x04, 0x00, 0x00, 0x00, 0xb4, 0x00, 0x00, 0x00, 0xcb,
  0x2c, 0x23, 0xbe, 0x4d, 0x47, 0x9a, 0x3d, 0xa5, 0xe5, 0x80, 0x3e, 0x4a, 0x53,
  0x4a, 0xbd, 0x6e, 0xa0, 0x1c, 0xbe, 0xa7, 0x26, 0x4c, 0x3e, 0xea, 0x8b, 0xd4,
  0x3d, 0x65, 0xb5, 0x12, 0x3e, 0x17, 0xa3, 0xa2, 0xbe, 0x28, 0x0c, 0x98, 0x3e,
  0x2e, 0x13, 0x42, 0xbe, 0x87, 0x87, 0xa8, 0xbe, 0x7b, 0xec, 0x31, 0x3e, 0x7c,
  0xc1, 0xd8, 0x3e, 0x58, 0x29, 0x01, 0x3f, 0xcb, 0x5a, 0x54, 0xbe, 0xd4, 0xe1,
  0x47, 0xbe, 0xd1, 0x2a, 0x38, 0xbd, 0x3a, 0x66, 0xe2, 0xbe, 0xd4, 0x68, 0x51,
  0x3e, 0xd8, 0x0d, 0x57, 0x3e, 0x66, 0x5f, 0xba, 0x3e, 0x3b, 0x15, 0x89, 0xbe,
  0x65, 0xc8, 0x62, 0x3e, 0xfc, 0x13, 0xf8, 0x3e, 0x13, 0x14, 0x15, 0x3e, 0x33,
  0x7e, 0xb5, 0x3d, 0x58, 0xfb, 0x4c, 0x3e, 0x56, 0x98, 0x3a, 0xbe, 0x8d, 0xac,
  0x05, 0x3e, 0xc8, 0xfb, 0x86, 0x3e, 0x8f, 0x05, 0x31, 0x3e, 0x79, 0x02, 0x69,
  0xbe, 0x18, 0x29, 0x29, 0xbe, 0xcc, 0x99, 0x3c, 0xbe, 0x2f, 0xa9, 0x30, 0x3e,
  0xe3, 0x73, 0x9a, 0xbd, 0x68, 0x2c, 0x17, 0x3e, 0x0c, 0xb5, 0x3f, 0xbe, 0xd3,
  0x6e, 0x02, 0x3e, 0x53, 0x10, 0x87, 0xbd, 0xa9, 0xbe, 0x20, 0x3e, 0x1b, 0xf2,
  0xeb, 0x3c, 0xe5, 0xf7, 0xbe, 0x3d, 0xb1, 0x5c, 0x55, 0x3e, 0x22, 0xc4, 0xff,
  0xff, 0x24, 0x00, 0x00, 0x00, 0x38, 0x00, 0x00, 0x00, 0x08, 0x00, 0x00, 0x00,
  0x2c, 0x00, 0x00, 0x00, 0x0d, 0x00, 0x00, 0x00, 0x64, 0x65, 0x70, 0x74, 0x68,
  0x77, 0x69, 0x73, 0x65, 0x5f, 0x32, 0x39, 0x31, 0x00, 0x00, 0x00, 0x04, 0x00,
  0x00, 0x00, 0x01, 0x00, 0x00, 0x00, 0x01, 0x00, 0x00, 0x00, 0x05, 0x00, 0x00,
  0x00, 0x09, 0x00, 0x00, 0x00, 0xb4, 0xc3, 0xff, 0xff, 0xc2, 0xc4, 0xff, 0xff,
  0x04, 0x00, 0x00, 0x00, 0x24, 0x00, 0x00, 0x00, 0x00, 0x00, 0x00, 0x00, 0x00,
  0x00, 0x00, 0x00, 0x00, 0x00, 0x00, 0x00, 0x00, 0x00, 0x00, 0x00, 0x00, 0x00,
  0x00, 0x00, 0x00, 0x00, 0x00, 0x00, 0x00, 0x00, 0x00, 0x00, 0x00, 0x00, 0x00,
  0x00, 0x00, 0x00, 0x00, 0x00, 0x92, 0xc4, 0xff, 0xff, 0x24, 0x00, 0x00, 0x00,
  0x37, 0x00, 0x00, 0x00, 0x08, 0x00, 0x00, 0x00, 0x20, 0x00, 0x00, 0x00, 0x0c,
  0x00, 0x00, 0x00, 0x64, 0x65, 0x70, 0x74, 0x68, 0x77, 0x69, 0x73, 0x65, 0x5f,
  0x32, 0x39, 0x00, 0x00, 0x00, 0x00, 0x01, 0x00, 0x00, 0x00, 0x09, 0x00, 0x00,
  0x00, 0x18, 0xc4, 0xff, 0xff, 0x26, 0xc5, 0xff, 0xff, 0x04, 0x00, 0x00, 0x00,
  0xb4, 0x00, 0x00, 0x00, 0x0b, 0x2a, 0x63, 0x3d, 0x99, 0x4d, 0xa8, 0x3d, 0x81,
  0x95, 0xd9, 0xbd, 0x66, 0xf0, 0xdf, 0xbd, 0x3b, 0xb0, 0xce, 0xbd, 0x85, 0x2d,
  0xcb, 0xbd, 0xb1, 0x54, 0xd8, 0x3c, 0x51, 0xb2, 0xc5, 0x3d, 0x6e, 0xe5, 0x67,
  0x3d, 0x27, 0x47, 0x42, 0xbe, 0x05, 0x08, 0xb9, 0xbd, 0xea, 0x45, 0xb1, 0xbe,
  0xe7, 0xbc, 0x15, 0x3e, 0xbf, 0x2e, 0x0e, 0x3e, 0x1b, 0xf0, 0x70, 0x3e, 0xa8,
  0x0b, 0x70, 0xbe, 0x0e, 0xe8, 0x87, 0xbe, 0x51, 0x54, 0x9a, 0x3e, 0x73, 0xde,
  0xab, 0x3e, 0x7e, 0x9e, 0xd2, 0x3e, 0x92, 0xeb, 0xa4, 0xbe, 0xb8, 0x4a, 0x38,
  0xbe, 0xba, 0xc0, 0x66, 0xbe, 0xce, 0x4c, 0x99, 0xbe, 0x87, 0x3c, 0x8c, 0x3e,
  0x28, 0x9c, 0x9e, 0x3e, 0x3c, 0x4b, 0x68, 0x3e, 0x1c, 0x8e, 0x2a, 0xbe, 0x04,
  0x23, 0x98, 0x3e, 0xd6, 0xa6, 0x15, 0xbe, 0xcd, 0xdd, 0xa3, 0x3e, 0xfc, 0xbe,
  0x9b, 0xbe, 0x57, 0xc3, 0x83, 0x3e, 0x72, 0x62, 0x85, 0xbe, 0x59, 0xbc, 0x9e,
  0x3e, 0x92, 0x4e, 0xb4, 0xbc, 0x20, 0x90, 0x05, 0x3e, 0x7d, 0x96, 0x24, 0xba,
  0xab, 0x5c, 0x65, 0xbd, 0x2a, 0x07, 0x73, 0xbd, 0xff, 0x5b, 0xa1, 0xbd, 0x29,
  0xfe, 0x0a, 0xbe, 0x6b, 0x28, 0x60, 0x3e, 0x09, 0x92, 0x33, 0x3d, 0x19, 0x1f,
  0x36, 0x3d, 0x86, 0xc5, 0xff, 0xff, 0x24, 0x00, 0x00, 0x00, 0x36, 0x00, 0x00,
  0x00, 0x08, 0x00, 0x00, 0x00, 0x2c, 0x00, 0x00, 0x00, 0x0c, 0x00, 0x00, 0x00,
  0x64, 0x65, 0x70, 0x74, 0x68, 0x77, 0x69, 0x73, 0x65, 0x5f, 0x32, 0x38, 0x00,
  0x00, 0x00, 0x00, 0x04, 0x00, 0x00, 0x00, 0x01, 0x00, 0x00, 0x00, 0x05, 0x00,
  0x00, 0x00, 0x01, 0x00, 0x00, 0x00, 0x09, 0x00, 0x00, 0x00, 0x18, 0xc5, 0xff,
  0xff, 0x26, 0xc6, 0xff, 0xff, 0x04, 0x00, 0x00, 0x00, 0x28, 0x04, 0x00, 0x00,
  0x27, 0x89, 0x01, 0xbd, 0xc2, 0x06, 0xb7, 0x3e, 0x7c, 0x5f, 0xa1, 0xbd, 0x2b,
  0x72, 0x9a, 0x3e, 0x2f, 0x92, 0xbe, 0xbe, 0x49, 0xcf, 0x8f, 0x3e, 0xde, 0x28,
  0x85, 0x3e, 0xd8, 0xd9, 0x06, 0x3f, 0xe0, 0xfa, 0x13, 0x3d, 0x3b, 0xc1, 0x4a,
  0x3d, 0x28, 0x9e, 0xc2, 0xbe, 0xea, 0x07, 0xe3, 0xbc, 0x4d, 0xcd, 0x19, 0xbd,
  0x14, 0x2b, 0xab, 0x3e, 0x52, 0x2f, 0x11, 0x3b, 0x81, 0xf6, 0x49, 0xbe, 0x4e,
  0xb3, 0xa4, 0x3d, 0x8b, 0x68, 0x98, 0x3e, 0x7e, 0x53, 0x3d, 0x3f, 0x7a, 0x6f,
  0x32, 0x3e, 0x42, 0xd5, 0xa7, 0xbf, 0x1c, 0xdd, 0x6a, 0xbe, 0xf0, 0x8c, 0x3e,
  0xbe, 0x59, 0x44, 0x0f, 0xbf, 0x54, 0x95, 0x0d, 0x3e, 0xcc, 0x64, 0x24, 0xbf,
  0x71, 0x8f, 0xb0, 0x3e, 0x2e, 0x32, 0xf4, 0x3c, 0xe3, 0x44, 0x7b, 0x3c, 0x05,
  0xfd, 0x64, 0x3e, 0x48, 0xe7, 0x1e, 0x3f, 0x6f, 0xbb, 0x45, 0x3d, 0xde, 0x86,
  0x42, 0xbf, 0x15, 0x9d, 0x5c, 0x3d, 0xdd, 0x7c, 0xda, 0x3e, 0x70, 0xe2, 0xb5,
  0x3f, 0x1f, 0xf2, 0x33, 0x3d, 0xea, 0x6e, 0xa6, 0x3c, 0xee, 0xf2, 0xec, 0xba,
  0x4a, 0x2e, 0x33, 0xbe, 0x21, 0x63, 0xd4, 0xbe, 0x8d, 0xe1, 0x1c, 0x3f, 0xcf,
  0x45, 0x55, 0x3f, 0x66, 0xe7, 0xff, 0x3c, 0xc6, 0xcc, 0xf9, 0xbe, 0x2e, 0x67,
  0x9b, 0x3e, 0x72, 0x46, 0x46, 0xbd, 0xd8, 0x73, 0x85, 0xbf, 0x92, 0xbb, 0x14,
  0x3e, 0x0c, 0xa3, 0x6a, 0x3d, 0x37, 0x79, 0x02, 0x40, 0x40, 0xd7, 0x8f, 0x3e,
  0x1e, 0x5a, 0x5d, 0xbf, 0x9b, 0x66, 0xce, 0xbe, 0x26, 0x34, 0x58, 0x3d, 0xa6,
  0x58, 0x45, 0x3e, 0x3c, 0xf0, 0xf9, 0xbe, 0x14, 0xd4, 0xec, 0xbd, 0x5b, 0x53,
  0xbd, 0xbd, 0xda, 0x96, 0xc6, 0xbc, 0xf5, 0xff, 0x05, 0xbe, 0x6a, 0xf3, 0x44,
  0x3f, 0x4b, 0xf1, 0x2c, 0x3e, 0x7a, 0x0e, 0x57, 0x3f, 0x72, 0x1b, 0xd1, 0xbd,
  0x2d, 0xcd, 0xd4, 0x3c, 0x54, 0x73, 0x21, 0xbd, 0xed, 0xf2, 0xb1, 0xbd, 0xad,
  0x6b, 0xe3, 0x3d, 0xcf, 0xfe, 0xb3, 0x3e, 0xe0, 0x04, 0xcf, 0x3f, 0xc4, 0xe1,
  0x46, 0xbf, 0xdf, 0x47, 0x2f, 0x3e, 0x90, 0x7f, 0x94, 0x3d, 0xc9, 0xe6, 0x87,
  0xbd, 0x90, 0x83, 0x10, 0x3f, 0x7d, 0x97, 0xca, 0x3e, 0x25, 0x5d, 0xe2, 0x3f,
  0x06, 0x2b, 0x5f, 0x3f, 0xe9, 0xc8, 0x3c, 0xbe, 0xd4, 0x3f, 0xb4, 0x3f, 0x5e,
  0x82, 0x2f, 0xbf, 0xc4, 0x64, 0x52, 0x3f, 0xb4, 0x5a, 0xe4, 0xbe, 0x2c, 0x12,
  0x58, 0xbe, 0x5b, 0x97, 0x0d, 0x3d, 0xd9, 0x41, 0xd7, 0xbe, 0x0d, 0xef, 0xa4,
  0xbb, 0x41, 0x7e, 0x2a, 0xbe, 0xfe, 0xbb, 0xb1, 0x3f, 0xdb, 0x0a, 0xde, 0xbb,
  0x2f, 0xc0, 0x91, 0xbd, 0xce, 0xd5, 0x58, 0xbe, 0xa6, 0x9b, 0xb6, 0xbe, 0xbb,
  0xca, 0x58, 0xbe, 0x2b, 0x71, 0x83, 0xbd, 0xb6, 0x6f, 0x81, 0x3f, 0x88, 0x8b,
  0xc7, 0x3e, 0x20, 0x5c, 0xb7, 0xbe, 0x8e, 0xc9, 0x88, 0xbf, 0xeb, 0x6d, 0x89,
  0xbf, 0x5e, 0x6c, 0xab, 0x3f, 0xe9, 0xfe, 0xc6, 0xbe, 0xaf, 0x58, 0xf6, 0x3c,
  0xd4, 0x91, 0xf8, 0xbe, 0xe5, 0x80, 0x96, 0xbe, 0x20, 0xa2, 0x48, 0xbd, 0xd1,
  0x84, 0x61, 0x3f, 0xfd, 0xd0, 0x86, 0x3e, 0x1f, 0x05, 0x4e, 0x3d, 0xe9, 0xe5,
  0x55, 0xbe, 0x79, 0x46, 0x94, 0x3e, 0xc1, 0x25, 0x86, 0xbe, 0xaf, 0x55, 0x46,
  0x3f, 0xa2, 0x91, 0xb2, 0xbd, 0x6b, 0x0c, 0xe6, 0xbb, 0x30, 0x0c, 0xae, 0x3c,
  0x80, 0xfc, 0x40, 0x3d, 0xb0, 0x37, 0x52, 0xbe, 0xe7, 0xb7, 0x58, 0x3e, 0x5b,
  0x58, 0xc9, 0x3c, 0x9e, 0x77, 0x1a, 0x3e, 0xaf, 0x3b, 0xbd, 0xbc, 0xee, 0xc6,
  0x00, 0xbf, 0x21, 0xd9, 0xab, 0x3d, 0xb9, 0x9b, 0x25, 0x3d, 0xfb, 0x19, 0xe1,
  0xbe, 0x41, 0xca, 0x93, 0x3d, 0xb8, 0xa2, 0x9c, 0x3c, 0x72, 0xb0, 0x9f, 0xbd,
  0x77, 0xb7, 0xdb, 0x3b, 0xac, 0x08, 0x91, 0x3c, 0x7b, 0xdb, 0xc2, 0xbd, 0x1a,
  0x81, 0x4e, 0x3d, 0x3d, 0x73, 0x8f, 0x3f, 0x74, 0xd4, 0xd1, 0x3e, 0xb8, 0x0e,
  0x8f, 0x3e, 0x54, 0x15, 0x39, 0x3f, 0xea, 0xcf, 0x50, 0xbf, 0x66, 0xc5, 0x54,
  0xbf, 0x30, 0xf8, 0x97, 0x3e, 0x83, 0x72, 0xc8, 0xbd, 0xe8, 0xf5, 0x10, 0x3e,
  0x56, 0x6c, 0x99, 0xbd, 0xd5, 0x18, 0xee, 0xbc, 0x76, 0xe9, 0x3b, 0xbf, 0xeb,
  0x13, 0x6e, 0xbe, 0x23, 0x50, 0x04, 0x3f, 0x55, 0x1e, 0x17, 0xbf, 0x7a, 0xc7,
  0x15, 0xbd, 0xcf, 0xf7, 0x6e, 0x3e, 0x6d, 0x28, 0xd3, 0xbe, 0xce, 0x49, 0x28,
  0x3e, 0x69, 0x40, 0x20, 0x3f, 0x50, 0x89, 0x2f, 0xbd, 0xcd, 0x50, 0x3d, 0xbf,
  0x1f, 0x6f, 0x85, 0x3e, 0xf7, 0x4d, 0x9e, 0xbe, 0x30, 0xa2, 0x7a, 0xbe, 0x44,
  0xcf, 0x15, 0xbf, 0x45, 0xbb, 0x85, 0x3e, 0x95, 0x7e, 0x57, 0x3e, 0xfc, 0x5e,
  0x4d, 0x3e, 0x1f, 0x3f, 0x4c, 0x3f, 0xb7, 0xbd, 0x46, 0xbe, 0x7d, 0xc2, 0x36,
  0xbe, 0xb8, 0x3c, 0xdd, 0x3d, 0x92, 0x09, 0x11, 0xbf, 0x3c, 0xd4, 0x05, 0x3f,
  0x28, 0xdd, 0x0c, 0xbe, 0xe4, 0x9e, 0x58, 0xbe, 0xc4, 0x05, 0xb5, 0xbe, 0x33,
  0x9f, 0xbc, 0x3e, 0xa7, 0xdc, 0x01, 0xbf, 0x06, 0x83, 0x48, 0x3d, 0x39, 0x88,
  0x71, 0xbf, 0x1e, 0x18, 0xde, 0xbe, 0x17, 0x67, 0x98, 0x3d, 0x24, 0x86, 0x92,
  0x3e, 0x2a, 0xf0, 0x31, 0xbd, 0x46, 0xb6, 0x8a, 0xbd, 0x49, 0xa6, 0x38, 0xbd,
  0x5a, 0x0a, 0xa7, 0x3d, 0x65, 0x5a, 0x8d, 0x3e, 0xa9, 0x90, 0x15, 0x40, 0x8a,
  0x6a, 0xa8, 0xbe, 0x59, 0x04, 0x10, 0xbe, 0xc0, 0x2d, 0x8d, 0x3b, 0x23, 0x30,
  0x1f, 0x3c, 0xec, 0x65, 0x98, 0x3e, 0x71, 0xc7, 0x02, 0xbe, 0xb8, 0xe0, 0xbd,
  0xbe, 0xf1, 0x03, 0x5c, 0x3e, 0x4f, 0xfd, 0x61, 0xbd, 0x9b, 0xf8, 0x5f, 0x3f,
  0x5f, 0x6b, 0x21, 0x3d, 0x90, 0x6a, 0x72, 0x3e, 0xb1, 0x79, 0x87, 0x3e, 0x83,
  0xb6, 0xaa, 0xbf, 0xff, 0xbf, 0x32, 0xbe, 0xf1, 0x76, 0x60, 0x3e, 0xc0, 0x94,
  0x3c, 0x3e, 0x37, 0x14, 0x45, 0x3e, 0xc7, 0x32, 0xba, 0x3e, 0x15, 0x1f, 0x60,
  0x3e, 0x51, 0x4c, 0x6c, 0x3e, 0x4f, 0x7b, 0xa4, 0x3c, 0x6b, 0x0c, 0x37, 0x3e,
  0x4a, 0x1e, 0xc0, 0xbd, 0x58, 0x23, 0x1b, 0xbe, 0x51, 0x4c, 0xc6, 0xbe, 0x48,
  0x3d, 0x4d, 0x3e, 0x1c, 0xae, 0x48, 0x3e, 0x69, 0x4e, 0xbf, 0x3e, 0x8b, 0xff,
  0xb7, 0xbd, 0x1d, 0xba, 0x9a, 0x3d, 0x8b, 0x87, 0xbd, 0x3e, 0x78, 0xac, 0x02,
  0xbe, 0xfd, 0x82, 0x38, 0x3d, 0x8d, 0xec, 0x87, 0xbd, 0x27, 0x1a, 0x85, 0xbd,
  0x20, 0xef, 0x65, 0xbe, 0x05, 0x94, 0xf2, 0x3f, 0x78, 0x9f, 0xcc, 0x3d, 0x95,
  0xce, 0x95, 0xbf, 0xb5, 0x49, 0x57, 0xbd, 0x7a, 0x6d, 0xd7, 0xbd, 0x11, 0xc9,
  0x5f, 0x3e, 0x52, 0xc2, 0x84, 0xbc, 0xa6, 0x8b, 0xe2, 0xbd, 0x46, 0x4e, 0x3c,
  0xbf, 0xb5, 0x0b, 0xab, 0xbf, 0x45, 0x5f, 0x22, 0x3f, 0x52, 0x72, 0x40, 0x3f,
  0x7b, 0xd0, 0xda, 0x3e, 0xbb, 0x2f, 0x07, 0xbe, 0x21, 0xab, 0x17, 0x3d, 0xb0,
  0x77, 0xc9, 0xbd, 0x56, 0xf9, 0x2a, 0xbd, 0xd9, 0xde, 0x90, 0x3e, 0x55, 0x31,
  0x2d, 0xbf, 0x70, 0x0e, 0x7d, 0xbf, 0xc5, 0xad, 0x89, 0x3f, 0x1a, 0x9d, 0x1b,
  0xbe, 0x85, 0xfd, 0xb0, 0xbe, 0x61, 0xfe, 0xa2, 0x3f, 0x31, 0x8c, 0xab, 0x3e,
  0x4c, 0x19, 0x23, 0xbf, 0xff, 0xcc, 0x64, 0xbe, 0x69, 0x86, 0xf1, 0xbe, 0xa4,
  0xb3, 0x11, 0xbf, 0xdc, 0xae, 0xa9, 0xbe, 0x9b, 0xbe, 0x3b, 0x3f, 0x93, 0x2b,
  0x9f, 0xbe, 0x5a, 0x8a, 0xbb, 0x3e, 0x03, 0x10, 0x5c, 0x3e, 0xcf, 0xd7, 0x21,
  0x3e, 0xe5, 0x0f, 0x0e, 0x3f, 0x36, 0x92, 0x61, 0x3e, 0x68, 0x0a, 0xa1, 0x3e,
  0x9f, 0x62, 0x5c, 0xbe, 0x75, 0x1d, 0x71, 0xbf, 0xb2, 0xb9, 0x6d, 0x3e, 0x60,
  0xb1, 0x9c, 0x3c, 0x1b, 0x67, 0xce, 0xbe, 0x8a, 0x41, 0x8e, 0xbe, 0xfa, 0xc9,
  0xff, 0xff, 0x20, 0x00, 0x00, 0x00, 0x35, 0x00, 0x00, 0x00, 0x08, 0x00, 0x00,
  0x00, 0x28, 0x00, 0x00, 0x00, 0x09, 0x00, 0x00, 0x00, 0x43, 0x6f, 0x6e, 0x76,
  0x32, 0x44, 0x5f, 0x31, 0x33, 0x00, 0x00, 0x00, 0x04, 0x00, 0x00, 0x00, 0x0e,
  0x00, 0x00, 0x00, 0x01, 0x00, 0x00, 0x00, 0x01, 0x00, 0x00, 0x00, 0x13, 0x00,
  0x00, 0x00, 0x88, 0xc9, 0xff, 0xff, 0x96, 0xca, 0xff, 0xff, 0x04, 0x00, 0x00,
  0x00, 0x7c, 0x01, 0x00, 0x00, 0xd8, 0xd8, 0xf7, 0x39, 0x98, 0xa2, 0xe5, 0xbe,
  0xe7, 0x71, 0xc8, 0xbd, 0xf2, 0x61, 0x01, 0x3e, 0xcf, 0xe0, 0x1b, 0x3d, 0xa2,
  0x42, 0x4a, 0xbd, 0x46, 0xf7, 0x93, 0x3e, 0x74, 0x93, 0x03, 0xbd, 0xf3, 0x82,
  0x83, 0x3e, 0xb0, 0xac, 0x29, 0xbe, 0x27, 0xd4, 0x15, 0xbd, 0xa5, 0xfe, 0x1a,
  0xbc, 0x91, 0xda, 0x05, 0x3e, 0xcd, 0x0c, 0x94, 0xbe, 0xd9, 0xc4, 0x95, 0xbd,
  0xf7, 0x6d, 0x37, 0x3b, 0x05, 0xb7, 0x78, 0x3d, 0x85, 0x25, 0xf7, 0xbe, 0xa3,
  0xd8, 0xbd, 0xbd, 0x39, 0xde, 0x72, 0x3d, 0xb9, 0x31, 0x79, 0x3e, 0x24, 0xd7,
  0x3f, 0x3e, 0x44, 0xaa, 0x9b, 0x3e, 0x17, 0x7b, 0xc6, 0xbd, 0x76, 0xe0, 0xab,
  0xbe, 0x89, 0x9e, 0x34, 0x3e, 0xfb, 0x80, 0x28, 0x3e, 0xce, 0x80, 0x5c, 0x3d,
  0x59, 0x15, 0xb9, 0x3e, 0x1a, 0x01, 0x04, 0x3e, 0xd6, 0xd6, 0x8e, 0x3d, 0x4d,
  0xa1, 0x8c, 0xbe, 0x02, 0xd0, 0x0b, 0xbf, 0xf2, 0x92, 0x2b, 0xbe, 0x1a, 0x9b,
  0xaf, 0xbd, 0x10, 0x3f, 0xe8, 0x3d, 0xaa, 0x59, 0xdd, 0xbe, 0x6c, 0x83, 0x9f,
  0xbd, 0x26, 0x08, 0x40, 0x3f, 0x30, 0x98, 0x78, 0x3f, 0xd6, 0xcc, 0x27, 0x3f,
  0xb3, 0x62, 0x3f, 0x3f, 0x4a, 0x2d, 0xfe, 0x3d, 0xff, 0xcd, 0x63, 0xbf, 0x5b,
  0x12, 0x1e, 0x3f, 0x5c, 0xde, 0x28, 0x3f, 0xba, 0x85, 0x1b, 0x3f, 0xdc, 0x8a,
  0x49, 0xbe, 0x99, 0xf9, 0xb8, 0x3e, 0x3e, 0x65, 0xe2, 0xbe, 0xf7, 0x98, 0xa5,
  0x3e, 0xb5, 0xed, 0x32, 0xbf, 0x5a, 0x9f, 0x48, 0x3e, 0xfc, 0xe4, 0x67, 0x3e,
  0xc7, 0x7a, 0x1c, 0xbf, 0x40, 0xbe, 0x3c, 0xbe, 0x1d, 0x01, 0x1b, 0xbf, 0x12,
  0x00, 0x84, 0xbd, 0xf9, 0x2c, 0x59, 0x3e, 0x37, 0x30, 0x96, 0x3d, 0x60, 0xde,
  0xd2, 0x3e, 0x34, 0x8f, 0x94, 0xbd, 0x9e, 0x3a, 0x86, 0xbe, 0x69, 0xa8, 0xe0,
  0x3c, 0xd5, 0xf3, 0x3f, 0xbc, 0x86, 0x7e, 0x2c, 0xbf, 0x4f, 0x22, 0xeb, 0x3d,
  0xe4, 0x13, 0xa2, 0x3d, 0x49, 0xde, 0x8c, 0xbc, 0x89, 0xa2, 0xaa, 0xbe, 0x75,
  0x30, 0x03, 0xbf, 0x93, 0x3a, 0x52, 0xbe, 0x0e, 0x2d, 0xe1, 0xbd, 0xc2, 0xee,
  0xac, 0xbd, 0x9c, 0x0f, 0x14, 0xbe, 0x1f, 0xb5, 0x5c, 0x3d, 0x87, 0xdf, 0x4f,
  0xbd, 0xb4, 0x21, 0xdb, 0xbe, 0x18, 0x01, 0x81, 0xbe, 0xd3, 0xf7, 0x15, 0x3e,
  0xbf, 0x56, 0xe9, 0x3d, 0xd0, 0xad, 0xcc, 0xba, 0x5e, 0xa9, 0xbc, 0x3c, 0x0b,
  0xda, 0x13, 0xbe, 0x3e, 0x9b, 0xa6, 0x3e, 0x3d, 0x1c, 0x5f, 0xbc, 0x2e, 0xc7,
  0x89, 0xbd, 0x77, 0x12, 0xd5, 0xbd, 0x93, 0x1f, 0x61, 0x3e, 0x9e, 0x34, 0xcc,
  0xbd, 0xff, 0x5d, 0xf0, 0x3d, 0xc1, 0xcf, 0x11, 0xbf, 0x81, 0x48, 0x12, 0xbe,
  0x16, 0xd2, 0x29, 0xbe, 0x8a, 0xdf, 0xe0, 0x3d, 0xbe, 0xcb, 0xff, 0xff, 0x24,
  0x00, 0x00, 0x00, 0x34, 0x00, 0x00, 0x00, 0x08, 0x00, 0x00, 0x00, 0x2c, 0x00,
  0x00, 0x00, 0x0d, 0x00, 0x00, 0x00, 0x64, 0x65, 0x70, 0x74, 0x68, 0x77, 0x69,
  0x73, 0x65, 0x5f, 0x32, 0x37, 0x31, 0x00, 0x00, 0x00, 0x04, 0x00, 0x00, 0x00,
  0x01, 0x00, 0x00, 0x00, 0x01, 0x00, 0x00, 0x00, 0x05, 0x00, 0x00, 0x00, 0x13,
  0x00, 0x00, 0x00, 0x50, 0xcb, 0xff, 0xff, 0x5e, 0xcc, 0xff, 0xff, 0x04, 0x00,
  0x00, 0x00, 0x4c, 0x00, 0x00, 0x00, 0x00, 0x00, 0x00, 0x00, 0x00, 0x00, 0x00,
  0x00, 0x00, 0x00, 0x00, 0x00, 0x00, 0x00, 0x00, 0x00, 0x00, 0x00, 0x00, 0x00,
  0x00, 0x00, 0x00, 0x00, 0x00, 0x00, 0x00, 0x00, 0x00, 0x00, 0x00, 0x00, 0x00,
  0x00, 0x00, 0x00, 0x00, 0x00, 0x00, 0x00, 0x00, 0x00, 0x00, 0x00, 0x00, 0x00,
  0x00, 0x00, 0x00, 0x00, 0x00, 0x00, 0x00, 0x00, 0x00, 0x00, 0x00, 0x00, 0x00,
  0x00, 0x00, 0x00, 0x00, 0x00, 0x00, 0x00, 0x00, 0x00, 0x00, 0x00, 0x00, 0x00,
  0x00, 0x00, 0x00, 0x00, 0x56, 0xcc, 0xff, 0xff, 0x24, 0x00, 0x00, 0x00, 0x33,
  0x00, 0x00, 0x00, 0x08, 0x00, 0x00, 0x00, 0x20, 0x00, 0x00, 0x00, 0x0c, 0x00,
  0x00, 0x00, 0x64, 0x65, 0x70, 0x74, 0x68, 0x77, 0x69, 0x73, 0x65, 0x5f, 0x32,
  0x37, 0x00, 0x00, 0x00, 0x00, 0x01, 0x00, 0x00, 0x00, 0x13, 0x00, 0x00, 0x00,
  0xdc, 0xcb, 0xff, 0xff, 0xea, 0xcc, 0xff, 0xff, 0x04, 0x00, 0x00, 0x00, 0x7c,
  0x01, 0x00, 0x00, 0x54, 0x31, 0xad, 0x3e, 0xcc, 0x64, 0x7a, 0x3f, 0xbc, 0xfe,
  0x3e, 0xbe, 0x0a, 0xf0, 0x41, 0xbf, 0x7d, 0x86, 0x62, 0xbd, 0xc2, 0x41, 0x6b,
  0xbe, 0x43, 0x91, 0xa0, 0xbe, 0x9e, 0x60, 0x2a, 0x3e, 0xd3, 0x91, 0x13, 0xbf,
  0x5d, 0xa2, 0xc9, 0x3e, 0xbc, 0xa5, 0x93, 0x3e, 0xd3, 0x01, 0xec, 0xbc, 0x96,
  0xfe, 0xbf, 0xbd, 0x15, 0x53, 0xd8, 0xbe, 0xa2, 0x81, 0xaf, 0x3c, 0x4c, 0xca,
  0x6e, 0xbe, 0xea, 0x5f, 0xc3, 0xbe, 0xc4, 0x9a, 0x07, 0xbf, 0xe5, 0x3a, 0xf2,
  0xbe, 0x44, 0x3e, 0x92, 0xbe, 0xfb, 0x29, 0xc9, 0xbe, 0x15, 0x4f, 0xde, 0x3e,
  0xaf, 0x9d, 0x84, 0x3d, 0xc2, 0x19, 0xa7, 0x3d, 0xa5, 0x20, 0xc8, 0x3e, 0x0d,
  0x94, 0xe3, 0x3d, 0x7d, 0x40, 0x38, 0xbe, 0x8f, 0x5f, 0xcb, 0x3e, 0x46, 0xa6,
  0x85, 0x3f, 0xdf, 0xa1, 0x32, 0xbe, 0x12, 0x49, 0xed, 0x3d, 0xba, 0x60, 0x0e,
  0xbe, 0x1b, 0xef, 0xcc, 0x3e, 0xc4, 0x12, 0x64, 0xbd, 0x4d, 0xad, 0x21, 0x3e,
  0xc1, 0x62, 0x16, 0x3e, 0x1e, 0x85, 0x5a, 0x3e, 0x44, 0x35, 0xde, 0x3e, 0x3b,
  0x8b, 0xbc, 0x3e, 0xbf, 0x4b, 0x47, 0x3d, 0x7c, 0xd0, 0xe4, 0xbe, 0x1f, 0x7e,
  0x88, 0xbd, 0x8e, 0xef, 0x04, 0x3f, 0x71, 0xb8, 0xf6, 0xbe, 0xe5, 0xc1, 0x09,
  0xbf, 0x04, 0x98, 0x91, 0x3e, 0x10, 0x03, 0x8e, 0xbe, 0xf5, 0xe9, 0xa3, 0xbe,
  0xf6, 0x90, 0x65, 0x3c, 0x7e, 0x8d, 0x3d, 0x3e, 0xd9, 0x89, 0x24, 0xbf, 0x39,
  0x70, 0x1e, 0xbf, 0x12, 0xc3, 0x94, 0xbe, 0xd9, 0xa1, 0xe7, 0xbe, 0xee, 0xe4,
  0x31, 0xbe, 0xa8, 0xf8, 0x27, 0xbd, 0x44, 0x01, 0x52, 0x3e, 0x7f, 0x4a, 0x89,
  0xbe, 0xc3, 0x09, 0x80, 0xbe, 0xcb, 0xa1, 0xc9, 0x3e, 0x40, 0x1d, 0xa2, 0x3e,
  0x58, 0x78, 0x8c, 0x3d, 0x7b, 0x54, 0xe2, 0x3e, 0x3a, 0x1c, 0x19, 0x3e, 0xae,
  0x6b, 0x58, 0xbe, 0x6e, 0x9a, 0x27, 0x3e, 0x9f, 0x97, 0xbe, 0x3b, 0xc0, 0x91,
  0x83, 0xbe, 0x2c, 0x07, 0xa3, 0xbe, 0xdd, 0x35, 0x7f, 0xbc, 0xa0, 0x93, 0xbe,
  0x3e, 0x31, 0x28, 0xc3, 0xbd, 0xfa, 0xff, 0x43, 0x3e, 0x31, 0xfa, 0xd8, 0x3d,
  0x2c, 0x11, 0xa3, 0x3e, 0x29, 0x40, 0x39, 0xbe, 0xa9, 0xdb, 0x6a, 0x3e, 0x54,
  0x7a, 0x74, 0x3d, 0x79, 0x56, 0x20, 0xbe, 0x4d, 0x7d, 0xb7, 0xbe, 0xde, 0x71,
  0x1a, 0x3e, 0x0d, 0x8e, 0xbb, 0xbe, 0xa1, 0xce, 0x8e, 0xbe, 0x04, 0xf6, 0x22,
  0x3e, 0x03, 0xd6, 0x6c, 0xbd, 0x6c, 0x5f, 0xa0, 0xbd, 0x67, 0xb8, 0x15, 0x3e,
  0x0b, 0x50, 0x52, 0x3e, 0x43, 0x7e, 0xc3, 0xbd, 0x03, 0x43, 0x99, 0xbe, 0x57,
  0xdb, 0x1d, 0xbd, 0xdb, 0x16, 0xa6, 0xbe, 0x46, 0x7d, 0x36, 0xbe, 0x81, 0x3c,
  0xda, 0xbe, 0x4d, 0x3d, 0xa9, 0x3d, 0x12, 0xce, 0xff, 0xff, 0x24, 0x00, 0x00,
  0x00, 0x32, 0x00, 0x00, 0x00, 0x08, 0x00, 0x00, 0x00, 0x2c, 0x00, 0x00, 0x00,
  0x0c, 0x00, 0x00, 0x00, 0x64, 0x65, 0x70, 0x74, 0x68, 0x77, 0x69, 0x73, 0x65,
  0x5f, 0x32, 0x36, 0x00, 0x00, 0x00, 0x00, 0x04, 0x00, 0x00, 0x00, 0x01, 0x00,
  0x00, 0x00, 0x05, 0x00, 0x00, 0x00, 0x01, 0x00, 0x00, 0x00, 0x13, 0x00, 0x00,
  0x00, 0xa4, 0xcd, 0xff, 0xff, 0xb2, 0xce, 0xff, 0xff, 0x04, 0x00, 0x00, 0x00,
  0xac, 0x02, 0x00, 0x00, 0xfd, 0x42, 0xd7, 0x3e, 0x94, 0xf9, 0x3e, 0xbe, 0xc6,
  0xaf, 0x18, 0xbf, 0xdf, 0x24, 0x51, 0x3d, 0x74, 0xfb, 0x6b, 0x3f, 0x45, 0x02,
  0xc3, 0x3e, 0x71, 0xba, 0x39, 0x3e, 0x12, 0x94, 0xa9, 0xbe, 0x9d, 0xab, 0xc3,
  0xbd, 0x7f, 0x95, 0x8d, 0x3e, 0x6e, 0x43, 0x32, 0xbf, 0x32, 0xf7, 0xed, 0x3e,
  0xea, 0xc7, 0xb4, 0x3d, 0x52, 0x37, 0x8c, 0xbf, 0xb3, 0xe9, 0xfe, 0x3d, 0xbf,
  0xa6, 0xe8, 0x3e, 0x1f, 0x68, 0xbc, 0x3f, 0xd3, 0x11, 0x9d, 0x3e, 0xf6, 0xa9,
  0x18, 0xbc, 0xa3, 0x53, 0x84, 0xbe, 0xbf, 0xba, 0x1a, 0x3d, 0xba, 0xb0, 0x8e,
  0x3d, 0x63, 0x9a, 0xf7, 0x3e, 0x37, 0xed, 0x30, 0x3e, 0x1c, 0x4b, 0x41, 0xbf,
  0x6c, 0xb7, 0x94, 0x3e, 0x55, 0x19, 0x2b, 0x3f, 0x3f, 0xd8, 0x89, 0xbd, 0xcc,
  0x12, 0x13, 0xbe, 0xfd, 0xfc, 0x32, 0x3e, 0x46, 0x0a, 0x9f, 0xbe, 0x18, 0xb1,
  0x7e, 0x3e, 0x85, 0x95, 0x80, 0xbe, 0x76, 0x30, 0x53, 0xbf, 0x6d, 0xe8, 0x28,
  0xbf, 0xb5, 0x5a, 0x6a, 0xbe, 0x78, 0x6f, 0xe7, 0xbd, 0x8a, 0x3d, 0xd6, 0xbe,
  0xd6, 0x76, 0xd5, 0x3d, 0x68, 0xee, 0x5c, 0xbf, 0x47, 0x9f, 0x8d, 0xbe, 0xd5,
  0xed, 0xf3, 0x3c, 0x53, 0x25, 0xc0, 0xbd, 0xc9, 0x32, 0x22, 0x3f, 0x7a, 0xe1,
  0xaa, 0x3e, 0x7d, 0xac, 0x38, 0x3f, 0xef, 0x26, 0x9c, 0xbe, 0xfe, 0x7c, 0x07,
  0xbf, 0x9d, 0x85, 0x1f, 0x3e, 0x2c, 0xf6, 0x2d, 0xbf, 0x5f, 0x6c, 0xc0, 0x3e,
  0x3b, 0x38, 0xd5, 0xbe, 0xa2, 0x49, 0x8b, 0x3e, 0xdb, 0x57, 0xf5, 0x3d, 0x6a,
  0xb9, 0x28, 0x3e, 0x1d, 0xea, 0x53, 0xbf, 0x84, 0x66, 0xa6, 0xbe, 0x50, 0xa1,
  0xbf, 0x3e, 0xa5, 0x54, 0xab, 0x3d, 0x15, 0xa2, 0x7a, 0xbe, 0x9a, 0x7a, 0xde,
  0x3e, 0x4e, 0xdc, 0x81, 0x3d, 0x64, 0x0d, 0x78, 0x3e, 0xd7, 0x48, 0xcb, 0x3e,
  0x08, 0xac, 0x8e, 0xbc, 0x47, 0x42, 0xac, 0xbe, 0x1d, 0xa2, 0x38, 0xbc, 0x5d,
  0x75, 0xea, 0xbe, 0xe3, 0xde, 0x74, 0x3f, 0x1a, 0x1f, 0x67, 0xbe, 0x06, 0x93,
  0x89, 0xbd, 0xd6, 0x3c, 0xde, 0xbd, 0x7c, 0xe5, 0xc4, 0xbe, 0x18, 0x24, 0x1d,
  0xbe, 0xa9, 0x63, 0xe4, 0x3e, 0xde, 0xae, 0xab, 0xbc, 0xf7, 0xc6, 0xe3, 0xbd,
  0x77, 0x28, 0xe6, 0xbe, 0x58, 0x2a, 0xb8, 0x3e, 0x48, 0x97, 0x90, 0x3a, 0xe7,
  0x1f, 0x2a, 0x3f, 0x73, 0xc8, 0x88, 0xbd, 0x41, 0x24, 0x7b, 0x3d, 0x5c, 0x51,
  0x56, 0x3c, 0x5d, 0xa0, 0x8a, 0x3f, 0x18, 0xbb, 0x92, 0xbd, 0x7e, 0x31, 0x95,
  0x3c, 0x97, 0x0c, 0xa9, 0x3d, 0x35, 0xb7, 0xd0, 0x3e, 0x41, 0xcd, 0x07, 0x3d,
  0x8f, 0xbf, 0xe5, 0x3b, 0xdf, 0xed, 0xbb, 0x3e, 0x26, 0x5d, 0x8f, 0xbe, 0x81,
  0x3e, 0xe6, 0x3d, 0x52, 0x12, 0x24, 0xbf, 0xd1, 0x22, 0x3c, 0xbf, 0x8d, 0x52,
  0x5f, 0xbe, 0xe8, 0x19, 0x8e, 0xbd, 0x57, 0x4e, 0x63, 0xbc, 0x58, 0x3a, 0x8b,
  0x3d, 0xb6, 0xcb, 0x7f, 0x3e, 0x0f, 0xda, 0xb7, 0xbd, 0xa5, 0xfe, 0x0e, 0x3d,
  0xd5, 0x01, 0x59, 0xbf, 0x2c, 0x90, 0x26, 0x3e, 0x7c, 0x97, 0xef, 0xbe, 0x19,
